#version: 0.2
e n
e r
c h
Ġ d
i n
i e
Ġ s
Ġ w
u n
Ġ a
i ch
Ġ e
Ġ m
s t
Ġ un
a s
Ġ g
Ġd ie
a n
e i
Ġe in
Ġ b
t e
Ġ v
Ġ i
Ġ h
Ġun d
Ġ n
Ġ z
Ġ k
Ã ¼
e s
Ġd as
o n
i r
Ġ f
l e
Ã ¤
a r
t en
s ch
Ġz u
Ġ in
Ġw ir
g en
e l
Ġs ie
h r
Ġa u
o r
Ġd er
Ġ ich
t i
d er
e m
a u
Ã ¶
Ġi st
e in
Ġe s
a l
i t
Ġa l
Ġ p
d en
l ich
g e
Ġ er
a ch
b en
Ġa n
t er
b er
d e
Ġh a
ich t
Ġv er
u r
i er
Ġ t
Ġdie s
Ġg e
Ġ l
o l
Ġ r
un g
Ġ j
Ġb e
Ġd en
Ġs ch
u m
Ã¼ r
Ġn icht
m m
n en
r o
Ġau f
s en
Ġv on
Ġdas s
Ġein e
Ġal s
ei t
i s
Ġm it
Ġ o
t z
c k
Ġw ie
an n
e h
l en
Ã Ł
r a
Ġun s
Ġs o
in d
i l
Ġw ar
i g
Ġd a
en t
r e
Ġs ich
Ġs t
Ġ le
Ġw en
Ġm an
Ã¼ ber
Ġau s
u s
sch en
a t
Ġw as
Ġ um
a hr
Ġs ind
Ġa ber
Ġf Ã¼r
an d
Ã¶ n
b e
ti on
Ġha ben
Ġwen n
f t
a m
ie l
a g
Ġ Ã¼ber
e hr
Ġha t
Ġw er
Ġg es
Ġi hr
Ã¤ n
Ġm ein
Ġk Ã¶n
Ġdies e
f f
Ġ "
Ġv or
Ġi m
s e
o ch
Ġw ei
e u
Ġs p
Ġr e
Ġ â
st en
Ġd em
eh en
o m
i k
Ġj e
Ġa r
Ġp ro
t w
Ġd es
k t
er n
Ġs ein
Ġm en
Ġb ei
Ġals o
Ġ -
ch en
Ġn ach
Ġein en
b t
ol l
Ġuns er
mm en
Ġi h
Ġo der
Ġ ent
r ei
ĠkÃ¶n nen
el t
i sch
w ei
s p
Ġh ier
Ġj ahr
Ġwer den
a h
un gen
u t
m en
Ġge h
Ġan der
i en
Ġg r
z u
st e
n e
ier en
ti g
i gen
Ġk ann
Ġau ch
el l
k en
Ġm ach
r au
Ġein er
Ġh er
a tion
Ġâ Ģ
Ġ 1
Ġd ar
sch a
Ġein em
g t
ier t
Ġn ur
an z
Ġk o
Ã¼ ck
Ġd ann
Ġe tw
au s
Ġs ehr
Ġv iel
or t
Ġwir d
l i
Ġun ter
Ġal l
te l
u ch
0 0
Ġmen schen
es s
Ã¶ r
o s
Ġg i
Ġg en
Ġm ich
Ġ c
Ġk on
f en
Ġk ein
Ġ- -
ur ch
u te
Ġgi bt
Ġih nen
Ġle ben
Ã¤ ch
Ġw ur
Ã¤ h
is sen
Ġges ch
Ġa b
ĠâĢ ĵ
l au
tz t
h al
Ġn och
un d
Ġal le
Ġ te
a b
Ġetw as
Ġs ehen
in g
i schen
Ġdies er
Ġd urch
o g
der n
Ã¤ t
scha ft
Ġa m
an g
Ġm Ã¶
Ġm ehr
Ġv ie
Ġm ir
Ġg ro
Ġha be
Ġw elt
v er
b ei
a gen
m al
Ġzu r
l t
Ġw issen
mm er
Ġw o
h eit
o t
Ġm us
r i
Ġs ag
Ã¼ n
Ã¼ h
k e
Ġgro ÃŁ
lich en
k eit
k o
Ã¤ r
i ge
Ġw e
Ġzu m
w e
Ġein f
ff en
. "
Ġg anz
Ġwir k
al l
Ġb es
lich e
Ġz wei
Ġihr e
Ġ 2
s a
Ġ en
Ã¼ s
Ġmein e
m it
t r
Ġw Ã¼r
ei l
el len
Ġwei l
Ġh in
as s
Ġz eit
r u
Ġwur de
ti v
h en
Ġwirk lich
er e
te t
tz en
m e
Ã¤ hr
Ġmach en
Ġdies es
Ġin ter
Ġn eu
Ġm e
as sen
Ġeinf ach
Ġs el
el n
r in
h er
p p
isch e
i ck
f or
Ġl ie
ch t
Ġi mmer
Ġge w
Ġver b
Ġ ch
ung s
Ġunser e
w er
h e
u l
h t
b st
Ġp a
Ġf ra
Ġt un
Ġn un
p er
o b
Ã¼ hr
a d
en d
ach t
Ġk le
Ġd in
Ġâ Ļ
l ie
g es
Ġb is
b ar
p f
Ġje tzt
ch te
r ie
Ġs e
n te
mm t
Ġn e
Ġg em
Ġge f
r an
Ġbe g
Ġb il
Ġvie le
Ġm Ã¼s
Ġhat te
n er
g lich
z e
Ġver s
Ġkein e
in den
Ġkle in
k tion
le ich
eh men
ch e
Ġden n
Ġd u
Ġsel bst
Ġe igen
ei ten
st er
ti er
Ġle ute
Ġb er
Ġo b
sch ie
Ġt at
ich tig
l a
Ġs oll
Ġg er
on en
ĠmÃ¼s sen
d i
st ell
Ġein es
Ġge b
Ã¤ u
Ġg el
Ġwar en
d em
Ġs agen
Ġdies em
ÃŁ en
Ã¤ l
om p
b le
Ġwie der
Ġd an
Ġdies en
ol og
Ġwei ter
ĠâĻ «
Ġsag te
g er
Ġdin ge
Ġs on
gen d
Ġall es
Ġm il
m a
Ġander e
un den
Ġjahr en
Ġg lau
Ġh eu
d u
ch n
Ġb in
Ġer f
l er
z en
Ġn ie
Ġz ei
z i
ko mmen
ol len
f l
Ġb l
Ġar t
s er
w ar
Ġander en
Ġk l
q u
ĠwÃ¼r de
Ġn at
Ġda mit
ge b
le icht
Ġk in
Ġs te
au f
Ġzu sa
Ġm al
Ġw el
Ġs tel
Ġe x
n is
Ġp er
Ġher aus
ich te
Ġzusa mmen
i st
de t
Ġpro ble
an gen
Ġver st
Ġviel leicht
Ġent w
ti sch
Ġg l
o h
Ã¤n der
o p
n t
it Ã¤t
Ġf l
f e
au en
Ġw ahr
ge f
Ġtat s
r Ã¤
d es
Ġbe st
Ġg ut
Ġ or
Ġgeh t
ter n
y st
un der
Ġg leich
Ġjahr e
Ġzur Ã¼ck
Ġda v
ig er
am en
Ġj a
Ġf or
Ġmil li
yst em
e kt
ach e
Ġer z
Ġentw ick
n ten
Ġf rau
Ġmus s
b eit
a le
sp iel
Ġheu te
g el
i on
il l
Ġsch on
o ff
Ġt eil
u ten
hal ten
Ã¤ re
Ġp ass
Ġle tz
Ã¶ ÃŁ
Ġar bei
r it
Ã¤ch lich
Ġte chn
p t
Ġp l
Ġge gen
o k
Ġgen au
u g
Ġd rei
Ġ Ã¶
Ġkin der
ĠmÃ¶ chte
Ġi de
Ġd ort
a st
Ġein ige
Ġs ei
Ġi r
Ġein z
Ġm o
st ellen
Ġd e
in n
ck en
z ent
Ġsch w
rin gen
Ġb rau
te s
Ġmach t
Ġz w
Ġ 3
ti gen
Ġwar um
Ġdav on
Ġl and
ti k
Ġtats Ã¤chlich
ation en
a ge
v or
el le
Ġver w
a ten
Ġj em
Ġb en
Ġt ag
ĠmÃ¶ glich
Ġb r
Ġbe de
Ġw ichtig
t t
Ġh and
re chen
Ġmen sch
u chen
Ġbes ch
Ġh ei
Ġden ken
al en
s am
Ġz ie
Ġf r
hal b
Ġhat ten
ah l
Ġwe g
a k
Ġgr und
Ġgr Ã¶ÃŁ
Ġm ei
Ġpa ar
00 0
Ġo h
ĠkÃ¶n nte
Ġgesch ichte
Ġk am
ach te
ess er
ol le
es en
. .
Ġbil d
i z
au t
m er
Ġst u
in e
Ã¤n dern
m lich
an den
Ġre g
wei se
ti ge
Ġar beit
ich ten
Ġnat Ã¼r
Ġih n
p ro
for m
ach en
a p
d ien
Ġgeh en
Ġw ollen
Ġver l
Ġf re
at t
k l
en nen
au m
Ġdar Ã¼ber
a de
Ġf un
Ġmein er
olog ie
Ġl ei
Ã¤ d
Ġm a
Ġsch n
an t
ar t
Ġw oll
k te
g ar
us s
g r
Ġper s
or en
Ġihr en
Ġbei spiel
Ġwur den
re ich
ne t
Ġje der
un de
ir n
Ġsich er
Ġwei ÃŁ
Ġwer de
Ġau t
ig keit
Ġvie len
ver s
Ġson dern
i v
ier te
f Ã¼r
Ġsein e
Ġsp r
Ġs ti
h a
e st
Ġfun ktion
h in
? "
sch ein
t lich
z eu
Ġk omp
Ġw Ã¤hr
Ġproble m
Ġp h
Ġl assen
Ġf Ã¼hr
Ġt ra
Ġg ab
f r
u tzen
Ġl ang
schie den
Ġw Ã¤re
Ġda zu
Ġd och
Ġir gend
Ġst a
Ġer st
Ġs ol
Ġunser er
al t
ĠwÃ¤hr end
Ġw ill
Ġerz Ã¤h
Ġneu e
Ġwas ser
Ġinter ess
Ġw or
Ġso gar
an der
Ã¤n d
ĠnatÃ¼r lich
Ġsch l
Ġbe we
Ġko mmen
Ġ 5
Ġh Ã¤t
Ġv om
Ġzw ischen
h n
Ġgem ein
Ġm on
f er
Ġer sten
Ġm ar
Ġfra ge
Ġf inden
Ġnicht s
Ġvers uch
Ġleben s
Ġden ke
ach ten
Ġein mal
k tiv
Ġ1 9
z ie
Ã¼h l
Ġger ade
g ie
i m
n ehmen
l os
Ġn Ã¤ch
Ġden en
Ġihr er
Ġoh ne
Ġglau be
Ġn or
t ra
Ġ2 0
al ten
ge hen
Ġge ben
ge w
Ġk ur
Ġin s
Ġsch u
Ġb esser
Ġp ol
Ġko mmt
ge ben
Ġgem acht
Ġletz ten
Ġda fÃ¼r
Ġan f
f ten
Ġwissen schaft
w ir
Ġfrau en
ĠwÃ¼r den
Ġl Ã¶
o d
Ġsch a
ÃŁ er
Ġgeh irn
a tiv
sch ei
c e
Ġk re
k eiten
b r
Ã¶ l
Ġverst ehen
g an
Ġ qu
b l
Ġzei gen
t s
y s
Ġ 4
Ġsie ht
Ġh au
Ġbe tr
er ik
t schaft
s s
Ã¶r en
Ġb i
l ung
Ġver schieden
u ter
Ġr ei
Ġkon nte
Ġmei sten
ier ung
Ġf ol
Ġda ten
Ġpass iert
t h
Ġun i
ch er
ch ten
sch l
Ġm in
Ġv ier
Ġetw a
lich t
Ġstel len
g ung
Ġs a
Ġpro zent
t eil
Ġer ste
Ġsp iel
w ie
Ġpro du
Ġge d
Ġdar an
Ġmilli onen
h em
ahr en
ran k
Ġganz e
Ġdan k
i mm
Ã¶r per
un kt
Ã¼n f
Ġjem and
u lt
Ġn ehmen
Ġun g
Ġf in
Ġfra gen
Ġsoll te
Ã¶r t
m us
z in
Ġd r
b s
Ġarbei ten
g ra
Ġda bei
Ġsoll ten
Ġschn ell
en den
Ġe le
Ġ1 0
ĠgroÃŁ e
y p
st r
ĠkÃ¶n nten
d r
Ġ us
an ge
Ġst ar
er st
u tz
ck t
Ġmein en
ges ch
w oh
mm e
ÃŁ t
Ġide e
o gen
k er
er gie
Ġf all
Ġbe f
Ġin form
Ġver Ã¤nder
Ã¤n g
Ġo k
Ġsp rechen
fr ik
stell t
lich er
an e
Ġmein em
Ġg ute
Ġgl Ã¼ck
Ġbe k
Ġwoll te
ag t
Ġgel d
Ġh och
au fen
ig n
Ġs ystem
Ġst ra
Ġdar auf
Ġr aum
Ġzie mlich
le gen
ch s
n o
pp e
tier en
Ġbe h
Ġuni vers
Ġd ir
Ġver g
Ġge st
schie d
Ġsp ie
Ã¤r en
in nen
Ġc omp
a te
Ġ ti
Ġs eit
a y
Ġn ah
m Ã¶
oll ar
Ġd i
Ġbe kommen
Ġsag t
Ã¼ l
Ġk Ã¶rper
h l
Ġber eit
Ġg ing
k un
Ġh Ã¶
Ġau ÃŁer
Ġl in
Ġh el
Ġbede ute
n ung
i d
Ġen de
g te
eh t
on der
i de
tw ort
mal s
Ġwel che
Ġc o
schein lich
Ġver f
Ġeigen tlich
s ehen
Ġglau ben
â Ģ
er nen
Ġs ah
kt ur
Ġb o
am il
ut ter
i te
ad t
Ġwen iger
Ġent schei
z ei
j ekt
Ġk ind
Ã¤ ter
Ġe m
f te
Ġbe w
Ġklein en
Ġ y
Ġm ann
Ġdan ke
lau b
Ġm Ã¤n
st and
Ġm om
rei ben
Ġsp e
Ġver k
en z
Ġam erik
Ġb uch
Ġre cht
Ġs it
Ġge t
Ġor gan
u tion
Ġje den
Ġso zi
Ġd ollar
n ah
ff ent
" .
kun ft
Ġpol i
a ter
s icht
Ġn amen
sp r
Ġbedeute t
isch er
Ġl ernen
tisch e
ar bei
Ġf amil
Ġt ei
Ġen ergie
Ġcomp uter
Ġsch Ã¶n
s o
Ġunser en
Ġf al
Ġan g
Ġtechn ologie
Ġw under
ĠgroÃŁ en
Ġje des
i c
Ġklein e
Ġe ben
or gen
Ġsch le
s st
ann t
as ch
Ġwahr scheinlich
Ġs ache
Ġih m
f all
Ġd achte
Ġf rei
Ġl u
Ġb ringen
Ġkomp le
Ġer ken
us st
Ġganz en
Ġihr em
Ġf Ã¼nf
p l
Ġbrau chen
Ġpers on
g a
p r
Ġges ehen
Ġver sch
ru ck
Ġbes onder
Ġbei m
pp en
p h
o ten
d ung
Ġf est
Ġa frik
un ter
Ġf il
Ġwei se
Ġv oll
Ġo ffen
t ei
Ġp ar
Ġ ur
Ġhin ter
Ġwen ig
Ġges und
ach sen
ff e
ra ft
Ġunter schied
Ġwir tschaft
Ġr ie
Ġh o
Ġvers uchen
Ġander s
Ġsei te
Ġn utzen
ti schen
al is
al d
Ġsp Ã¤ter
ĠâĢ ŀ
Ġg ar
hem a
Ġk ar
i mmt
Ġgr u
Ã¤ tz
d ig
te te
" ,
ĠhÃ¤t te
b il
es sen
Ġle hr
Ġ 6
Ġfr Ã¼h
j e
mit tel
k ten
Ġh il
scha ften
Ġh off
er t
Ġf ast
ein e
Ġmom ent
Ġ2 00
l ig
Ġer n
Ġt re
Ġ ort
Ġkein en
Ġzu kunft
Ġw och
le ben
Ġung laub
l and
v ol
i a
li ck
er en
Ġt au
Ġges ell
Ġm ag
Ġt ro
ier ten
Ġmen ge
Ġin dem
Ġo ft
Ġges agt
Ġbe d
Ġch in
in gen
stell ung
Ġfor m
Ġg ern
o mmen
ult ur
woh l
f ft
Ġs u
den ken
Ġst adt
k on
Ġan ge
Ġgr Ã¼n
Ġau gen
Ġsch wer
ern t
Ġs ter
Ġje de
Ã¤ lt
z eit
Ġkur z
s el
d ie
al itÃ¤t
.. .
en ten
g ang
is s
ar d
Ġent de
as se
Ġbe t
lie ÃŁ
Ġscha ffen
Ġall er
Ġhei ÃŁt
Ġs y
Ġkon nten
ei st
Ġnat ur
Ġes sen
ol g
Ġr ichtig
Ġmus ik
Ġfunktion iert
Ġer w
f Ã¼hr
Ġg ra
Ġeigen en
Ġb ere
Ġk rie
Ġb au
Ġpl ane
or d
Ġa t
Ġe l
Ġkl ar
ru ktur
Ġ Ã¼
Ġver m
reich en
Ġh al
Ġf ot
Ġf Ã¼h
Ġr ich
Ġwo hl
f el
sch n
Ġ u
Ġgesund heit
m p
rei s
Ġf Ã¤h
Ġh aus
tier t
Ġschw ier
b o
z t
Ġm utter
ze ich
Ġer de
ÃŁ e
om e
Ġer kl
e ich
Ġmilli ar
Ġ 8
w elt
Ġk or
Ġproble me
Ġorgan is
i sten
Ġal len
sa tz
og ra
Ġen g
Ġinter net
Ġ licht
o ur
Ġbe vor
gef Ã¤hr
Ġhel fen
Ġt ie
Ã¤h n
Ġw eit
Ġsein er
lich keit
âĢ ľ
Ġsch auen
Ġer h
at ur
nis se
k s
Ġe ur
Ġl ange
Ġme di
ĠerzÃ¤h len
Ġspie len
i al
Ġlie be
ah len
h au
Ġko mm
Ġin ner
st off
Ġp la
vol ution
Ġv ide
Ġr ob
Ġun gefÃ¤hr
Ġ 7
Ġher um
Ġman ch
f Ã¤l
Ġb it
ĠnÃ¤ch sten
Ġgen ug
t a
Ġneu en
Ġd ich
Ġk ennen
Ġex per
l o
Ġdar um
it t
Ġzei gt
Ġw us
Ġf ort
Ġunser em
Ã¼n st
s ystem
Ġerf olg
ot t
Ġr u
ck e
Ġbl ei
Ġr o
Ġus a
Ġmanch mal
Ġk rank
Ġk ultur
lich es
h eiten
Ġele kt
ahr ung
Ġma ter
Ġb em
Ġb auen
s y
Ġs Ã¼
Ġf lie
ĠÃ¼ber all
Ġbeg ann
um en
Ġ1 00
Ġ 9
Ġb Ã¼r
Ġp ri
i o
Ġst att
Ġ1 5
Ġunter nehmen
uch t
un st
Ġte d
Ġ5 0
i tion
z ess
Ġp rÃ¤
Ġ3 0
' s
n a
r en
Ġgl ob
Ġf eh
Ġver halten
f inden
l te
Ġn ein
Ġgesell schaft
Ġdes ign
sp ie
Ġnie m
Ġpa ti
r acht
Ġk unst
Ġne w
h under
Ġlie gt
Ġbis schen
rau m
Ã¼ck en
Ġe uch
Ġver Ã¤ndern
Ġre den
zeu g
Ġfor sch
Ġplane ten
r icht
Ġan st
Ġide en
Ġt ran
Ġb el
Ġeinz el
Ġdes halb
Ġsein en
Ġle uten
Ġamerik an
Ġste hen
Ġwer t
sch e
Ġt o
Ã¤ch e
Ġschu le
gra mm
Ġd rit
ie ht
Ġges am
as st
for der
Ġst and
Ġ Ã¤hn
Ã¤d chen
Ġinform ationen
Ġbeh and
h ol
mÃ¶ glich
u st
Ġt he
Ġnor mal
ĠgroÃŁ ar
Ġn ennen
Ġp u
Ġsag ten
Ã¤n de
Ġko pf
Ġsch ein
Ġmo d
i onen
k el
Ġver ein
Ġgeh Ã¶rt
Ġs inn
Ġar ten
u tzt
Ã¼ tz
Ġl os
g lichen
Ġpro jekt
Ġab s
rin gt
Ġbew usst
Ġgen er
t ten
Ġp unkt
Ġo ber
Ġl i
rit t
Ġbesonder s
g em
Ġmilliar den
Ġl a
Ġse chs
Ġh Ã¶ren
Ġf ar
Ġan twort
Ġmus ste
ĠÃ¶ ffent
ĠmÃ¤n ner
v en
Ġer inn
Ġander es
Ġc a
d lich
Ġst r
Ġbereit s
Ġm Ã¤dchen
Ġok ay
al len
Ġkon tr
Ġne tz
o w
Ġf a
Ġjahr hunder
zie h
Ġo ben
tw or
Ġgeb Ã¤u
z ahl
Ġsch ul
Ġgesch ichten
Ġinteress an
Ġrob o
Ġer reichen
b ringen
e tz
Ġh alten
Ġerken nen
Ġvor her
se tzen
Ġfil m
Ġunivers um
d ruck
ĠhÃ¤t ten
ĠlÃ¶ s
Ġa ktiv
Ġniem and
Ġm at
Ã¼hr t
ro m
Ġdar in
Ġst Ã¤d
Ġaus ge
m in
Ġver an
Ġentwick elt
f in
Ġnamen s
ein ander
tig t
Ġafrik a
i p
z us
Ġar m
Ã¤n ger
Ġste ht
Ġverschieden e
Ġmin uten
an ken
Ġfre und
Ġben utzen
Ġaut o
r is
Ġb as
v oll
Ã¶ s
Ġan zu
Ġver t
Ġbe ob
Ġr el
Ġbest imm
en nt
Ġunter s
Ġm u
Ġ [
Ġi s
ĠâĻ ª
w as
Ġsch Ã¼
gr und
Ġfamil ie
Ġgern e
ig keiten
Ġph ys
Ġsein em
g s
Ġtei len
Ġs k
Ġmit tel
ko mmt
isch es
l ei
Ġa k
Ġt yp
z ieren
Ġbe ein
Ġmach te
ann te
Ġent f
Ġfol gen
in ner
Ġj en
ind ung
Ġgef Ã¼hl
Ġf u
Ġin st
ig es
t ter
Ġh e
Ġh under
Ġn a
Ġin dien
Ġr es
it z
Ġv ater
f ra
v i
o ck
st ra
ar e
Ġgesch Ã¤
Ġirgend wie
i um
ra t
Ġfl ug
j a
s on
Ġo p
Ġher z
Ġgru ppe
au er
Ġwe gen
ak ter
Ã¶l ker
Ġst unden
Ġang st
Ġinner halb
n eh
Ġbe sten
Ġf ir
Ġvide o
en det
un ge
Ġje dem
ah n
w o
Ġal t
Ġko sten
Ġer geb
anz en
Ġk ap
on e
ing s
Ġbrau cht
ge stellt
bar e
r ichten
Ġkomple x
Ġm ik
hal t
Ġbil der
Ġrie s
st Ã¤nd
Ġst Ã¼ck
Ġentwick eln
Ġbem er
bl ik
i tiv
Ġpati enten
Ġmedi zin
um e
Ġda her
Ġeinz ige
lieÃŁ lich
g ten
in en
and el
Ġvor stellen
Ġn Ã¤
om en
Ġlu ft
rie ben
Ġein s
Ġp f
Ġbere ich
Ġspr ache
Ġent st
eh e
Ġbewe gen
Ġhau pt
Ġd ein
sy ch
g al
p unkt
ĠnÃ¤ mlich
Ġk Ã¼nst
Ġer halten
Ġob wohl
Ġer war
Ġan w
eu er
Ġein igen
ĠmÃ¶glich keit
Ġd is
Ġtre ffen
a ffen
t te
ier e
Ġgleich e
a un
Ġz iel
Ġsch war
Ġ Ã¤ndern
gen ommen
hau pt
Ġar ch
Ġbei den
Ġf e
wer k
Ġd rau
Ġverschieden en
Ġre ich
Ġunter st
Ġbeg innen
Ġwel ch
is mus
Ġn Ã¤h
Ġ %
Ġw ort
Ã¤ sst
Ġk Ã¤
Ġk li
an nen
Ġwoll ten
b es
Ġda mals
zent r
l in
Ġm asch
Ġf ern
Ġf Ã¤l
an k
Ġwel tw
Ġunglaub lich
Ġel tern
a ktion
Ġun be
es se
b el
Ã¤ ten
Ġp o
i der
Ġg ott
Ġk Ã¼
Ã¶ hn
eh n
Ġum welt
tr ie
Ġd o
Ġtau sen
an ten
Ġrobo ter
Ġe her
Ġbe zieh
Ġin v
Ġreg ierung
s k
Ġn ation
Ġhau se
ten s
ti s
Ġre p
Ġy or
Ġtro tz
Ġs achen
Ġer k
Ġbit te
st o
te m
Ġp os
Ġre st
Ġne ur
Ġs age
Ġw il
Ġverw enden
ĠverÃ¤nder t
u er
Ġv ir
Ġan sch
ra k
Ġpers Ã¶n
Ġkre bs
b te
Ġme er
h Ã¤ng
Ġ Ã¤r
er weise
al s
Ġanf ang
Ġkomm un
zu stellen
Ġin tel
z iel
Ġver r
tra g
Ġp sych
ĠÃ¼ber haupt
Ġf and
Ġmensch lichen
Ġchin a
an s
Ġkin dern
Ġmik ro
Ġbe z
ik en
Ġl Ã¤nder
Ġauf ga
ĠgebÃ¤u de
Ġf ahr
los sen
st a
Ġk a
en zen
s ei
le k
tig keit
ĠfÃ¼hr en
l igen
Ġm orgen
Ġr icht
Ġsch reiben
Ġversch w
Ġz war
den ten
Ġmater ial
Ġne ben
Ġerz eu
Ġerst aun
Ġst ruktur
am p
rei fen
Ġget an
s i
Ġt ut
Ġj u
Ġwer k
Ġb ab
on nen
Ã¤ us
v Ã¶lker
Ġ tier
Ġw in
Ġsol che
Ġe hr
Ġgleich en
m an
Ġje d
ran ken
as e
Ġwoch en
Ġdir ekt
Ġer inner
Ġalle m
Ġversuch t
Ġz ahl
te ten
Ã¼ gen
Ġdem ok
Ġheraus forder
Ġk n
Ġgen e
no v
Ġinv est
Ġs icht
ab or
ei m
Ġin nov
Ġsch au
Ġentwick lung
en n
Ġs en
Ġl age
Ġpro gramm
Ġ1 8
iel t
Ġer le
Ġer re
in gt
ei g
Ġer scha
Ġjed och
or ie
Ġz er
Ġz eich
Ġlehr er
h aus
Ġv Ã¶l
Ġr Ã¼ck
Ġver h
Ġs au
ge gen
Ġt rÃ¤
Ġpro f
Ġtechn olog
Ġh ar
Ġnach dem
Ġfin anz
m o
Ġ ...
Ġsch ick
Ã¤n gt
Ġmein es
ĠnÃ¤ch ste
nah me
Ġk amen
Ġgemein sam
Ġ4 0
Ġabs ol
d ik
Ġch em
Ġfal sch
Ġpu blik
e tzt
Ġn o
Ġf ing
Ġr is
kt or
Ġweiter e
Ġmus sten
Ġletz te
Ġbede ut
ĠfÃ¼h len
s ein
ur s
Ġwus ste
ach st
Ġander er
Ġp art
tz lich
ĠÃ¼ber r
Ġpro zess
Ġerf ahrung
fl Ã¤che
or den
Ġver d
Ġbetr achten
Ġun ten
Ġv is
Ġbe ste
bar en
Ġmat hema
Ġt ri
Ġti ere
Ã¤h len
Ġ on
Ġauf zu
Ġgen aus
Ġdin gen
Ġeur op
h len
ar beit
Ġj unge
Ġsch lieÃŁlich
Ġtie f
ĠgeschÃ¤ ft
d as
z iert
Ġb ein
f iz
en ne
Ġtag es
Ġd eu
or e
s Ã¤tz
ze pt
Ġgenaus o
Ġw es
Ġr ad
Ġfre unde
Ġvert rau
Ġaus s
Ġmensch liche
Ġpublik um
Ġal ter
ei gen
Ġerinn ern
Ġh ol
th o
di tion
Ġse x
Ġex ist
l ungs
Ġd un
Ġp fl
Ġ1 2
Ġgr unde
Ġk om
Ġt hema
Ġsicher heit
Ġsa mm
in det
Ġsie ben
Ġder en
Ġt Ã¶
achst um
d ungen
ann ten
ag er
sp h
Ġw Ã¤ren
Ġged anken
Ġentschei den
Ġ '
Ġl esen
rie den
Ġpl Ã¶
iv e
Ġsit u
Ġs uch
rie b
Ġdan ach
Ġlei den
Ġbo den
Ġz un
Ġk raft
Ġl Ã¤sst
Ġman che
Ġeigen e
Ġs uchen
Ġaus zu
ĠvÃ¶l lig
Ġm er
Ġb ringt
Ġher vor
Ġwor den
Ġw ider
Ġer lau
Ġse k
Ġj ungen
nah men
Ġpla tz
j Ã¤hr
p a
s m
Ġw ich
ĠmÃ¶glich keiten
wir k
r Ã¼
lie ÃŁen
Ġyor k
k ehr
t o
Ġf as
Ġzu erst
ck er
Ġelekt r
al a
al er
p an
ie t
Ġf er
ur en
zi p
Ġ ter
de te
oh n
b au
ĠÃ¶ l
Ġb lau
Ġz ent
Ġz ahlen
Ġhil fe
Ġblei ben
v e
Ġ Ã¤l
el be
Ġum geb
Ġstel lt
ĠlÃ¶ sen
ativ e
sicht lich
Ġster ben
c en
h an
i mmen
Ġg ol
re ten
ach tet
ien en
Ġzwei te
b auen
ste t
Ġfunktion ieren
ĠÃ¼ br
Ġs ollen
Ġverf Ã¼
Ġe is
Ġg o
Ġsch we
Ġo ze
Ġges etz
Ġinteress ant
Ġarch ite
Ġj ob
Ġsta aten
fÃ¼hr en
e t
ch ter
Ġm or
Ġl ern
Ġfra gte
Ġgemein schaft
se tz
sp ro
Ġbesch Ã¤
Ġem pf
i ff
Ġ2 5
Ġmod ell
in nt
Ġkli ma
Ġk ranken
Ġsch li
Ġverb unden
Ġin di
ur e
Ġbest eht
h Ã¶ren
w Ã¤r
ro h
Ġdes sen
Ġwoch e
ĠplÃ¶ tzlich
Ġk ri
ar en
Ġch ar
Ġz ehn
Ġflie gen
Ġwelch es
Ġl aufen
zu g
zie hen
b ung
le f
Ġmon ate
fall s
Ġz erst
Ġk olle
Ã¼ cher
Ġzu vor
Ġt age
schn itt
f ahr
Ġg eist
Ġde fin
Ġschwier ig
Ġinform ation
Ġveran twort
d urch
i le
el te
ĠmÃ¤n n
u d
Ġg uten
y n
in de
ogra f
c o
s w
Ġs h
Ġzu g
b lick
Ġn utz
al ien
Ġverg leich
Ġp rin
sp e
Ġpoli tik
ig t
sch t
Ġmar kt
p e
Ġha st
Ġges icht
Ġme dik
Ġex tr
Ġlang sam
Ġfamil ien
Ġl Ã¤ndern
Ġauf ge
ĠÃ¼ber zeu
Ã¤ch st
la ge
Ġfall s
Ġw ahl
mer k
arbei tet
spie le
Ġ Ã¤nder
as chen
Ġz ellen
m ar
Ġa cht
Ġben Ã¶
Ġneu es
Ġber u
Ġtechn ik
Ġa ben
Ġan twor
Ġaus sehen
wer t
ĠfÃ¼hr t
it ze
Ġte am
Ġerkl Ã¤r
ĠsÃ¼ d
Ġst Ã¤r
Ġaut os
zei gt
Ġer sch
Ġdar aus
Ġgef unden
Ġrel ig
u e
Ġh Ã¶r
Ġunser es
ĠgrÃ¶ÃŁ ten
ĠlÃ¶s ung
Ġan s
Ġextr em
Ġk aufen
Ġb ro
ri ff
gef Ã¼hl
am ent
wei sen
ĠgrÃ¶ÃŁ er
k raft
Ġe gal
Ġstel le
ĠgrÃ¶ÃŁ te
Ġspr ach
ĠfÃ¤h igkeit
Ġdrau ÃŁen
f ort
ei ster
it zen
al ter
Ġstar k
Ã¤u f
Ġgegen Ã¼ber
ĠbeschÃ¤ f
r um
t ag
Ġl abor
sp ir
ie ten
Ġb ru
on d
Ġin du
hr en
Ġschein t
Ġerscha ffen
Ġm ite
Ġbeein fl
x t
Ã¶ ffent
Ġbe vÃ¶lker
zeu ge
je kte
Ġkrie g
l assen
l ine
Ã¤ ÃŁ
au ft
ig ten
Ġwissenschaft ler
Ġmite in
b ten
Ġr ein
Ġihr es
Ġpa p
Ġheraus zu
Ġverw and
ĠbÃ¼r ger
gem ein
Ġ Ã¤
Ġb ist
Ġs in
an ce
Ġf ant
Ġsp a
re ck
at ten
Ġbewe gung
Ġtran sp
g n
Ġgew alt
Ġper fe
Ġintel ligen
g liche
Ã¼ck e
ĠglÃ¼ck lich
Ġentde ck
Ġbei de
pro chen
Ġalle in
Ã¤u ft
war e
w ass
Ġt Ã¤
Ġl au
Ġnah m
rei ten
we g
pf er
j en
Ġnach t
Ġsti mme
Ġmu ster
Ġgel ernt
Ġw achsen
ich er
Ġn immt
sam keit
h o
Ġk al
Ġan al
ĠmÃ¶ chten
Ġhin ein
Ġme dien
Ġgew esen
Ġverg angen
Ġanst att
Ġkontr oll
n ation
Ġs ehe
it y
Ġver Ã¶ffent
tra gen
Ġf anden
ag ieren
ges etzt
Ġi den
Ġn er
Ġstu d
z ellen
Ġpass ieren
ĠÃ¶ ff
Ġerkl Ã¤ren
Ġb lick
Ã¼ck t
Ġsch ritt
ĠÃ¼ber leben
Ġ6 0
Ġver le
lau f
Ġwahr heit
Ġrei he
on t
Ġer d
och en
Ġ8 0
el ten
Ġverb indung
i b
ik o
Ġkon zentr
Ġgef Ã¤hr
Ġbl ut
Ġle icht
Ġnach denken
Ġstu denten
Ġmitein ander
m ent
Ã¤ ss
ĠÃ¼ber w
Ġmach e
Ġgeb aut
Ġtats ache
Ġtra dition
Ġsu per
s um
Ġb ar
es e
Ġhin aus
Ġjem als
Ġjahrhunder t
k re
st u
Ġe volution
Ġf el
ik ation
Ġgew orden
Ġklein er
gew Ã¶hn
Ġschle cht
m t
Ġr aus
Ġsch la
u elle
Ġin spir
ges sen
Ã¤l fte
f Ã¤h
f ahren
Ġtechnolog ien
a den
Ġher r
Ġbeg innt
Ġanf angen
Ġkre ativ
l ungen
u ell
z w
Ġk il
Ġer for
Ġre volution
Ġmo lek
Ġricht ung
Ġan zahl
Ġindi vi
k le
an ischen
gen de
Ġklein es
Ġverl oren
Ġkrank heit
Ġindivi du
z ogen
Ġrei se
Ã¶r ter
Ġtei le
Ġphys ik
Ã¼ tzen
Ġfin det
Ġsozi ale
Ġg ere
ĠkÃ¼nst ler
Ġauf re
wei s
Ġsta at
Ġnor d
r Ã¤n
Ġd ing
Ġkon t
Ġsti mmt
zei tig
g angen
Ġlin ks
Ġern st
l es
Ġa d
den t
Ġge zeigt
Ġson nen
ĠÃ¤l ter
i ti
Ġsch rieb
Ġsy m
Ġd ig
ro p
Ġso fort
Ġma ÃŁ
Ġfu ÃŁ
r or
Ġf ahren
ri ft
Ġpri v
ĠstÃ¤d te
Ġaufga be
Ġp reis
Ġauf merk
Ġstel lte
Ġinst it
Ġpl an
Ġbild ung
ĠgroÃŁar tig
Ġs or
Ġm iss
Ġre gel
Ġfort sch
Ġumgeb ung
Ġal ten
Ġl Ã¤nger
Ġbe kommt
Ã¤n den
men s
Ġson st
Ġnie mals
Ã¤nd ig
Ġdig it
at or
Ġstra ÃŁen
Ġr olle
am e
Ġme tho
Ġlie ben
Ġk at
Ġverb r
Ġt Ã¼r
Ġge be
Ġges p
Ġgen annt
we gen
Ġfot o
Ġfeh ler
l ten
w issen
un kte
Ġe ff
Ġvor stellung
Ġeinf l
ĠverÃ¤nder ung
Ġentf ernt
Ġweltw eit
Ġsitu ation
k ar
k rie
it Ã¤ten
Ġt oll
Ã¤n gen
ĠgrÃ¶ÃŁ e
Ġdis k
Ġbedeut ung
Ġverw endet
Ġrich tige
Ġf isch
Ġinter nation
Ġkam er
Ġfas zin
f ol
s h
Ġs er
an er
ro ffen
Ã¤n ge
sp rechen
d igen
Ã¶ h
Ġsch rei
Ġre alitÃ¤t
ĠmÃ¶ gen
Ġforsch ung
Ġprin zip
Ġh Ã¤lfte
ver b
Ġme t
Ġben utzt
. âĢľ
Ġge geben
Ġnach zu
wass er
m ung
o tion
Ġl ok
Ġr au
Ġfor men
Ġjem anden
Ġbek annt
ei den
Ġversuch e
Ġd or
Ġan ges
Ġ19 9
Ġon line
d aten
v iel
Ġmein ung
Ġzie hen
ha ft
Ġhoff e
l agen
ch an
Ġte st
Ġschle chte
Ġk an
Ġse tzen
Ġstu die
Ġerfolg reich
Ġherausforder ung
gef Ã¼hrt
Ġreg ier
Ġfer tig
Ġb akter
Ġst rom
ze p
Ġerre icht
Ġwes ent
sph Ã¤re
l ang
p fen
t au
ge st
Ġhin zu
imm el
Ġbek am
i men
Ġsch mer
wir tschaft
Ġpfl anzen
Ġmit te
Ġre gen
Ġgo og
Ġmor al
k a
Ġw achstum
Ġentschei dungen
Ġem otion
Ġw and
sten s
Ġtrotz dem
er s
as en
Ġg ingen
Ã¼ ch
Ġt r
Ġzei ge
Ġentwick lungs
Ġph il
Ġkomple tt
ĠÃ¤hn lich
tz ut
Ġd au
tzut age
ar i
re g
Ġgleich zeitig
Ġerw achsen
s or
Ġwe st
Ġheu tzutage
arbei ten
Ġd na
st ruktur
Ġmathema tik
ĠÃ¼br igen
um ent
Ġschnell er
Ġamerik a
Ġoffen sichtlich
Ġur spr
z er
Ġt ot
Ġgen ommen
Ġstra ÃŁe
Ġjahr z
Ġabsol ut
Ġg a
le gt
al le
ol ogen
ieren d
ri st
bil dung
al es
Ġst re
des sen
Ġson ne
Ġlei st
Ġerken nt
i ster
Ġ Â
ge h
Ġinteress iert
Ġverein igten
g ru
Ġa pp
Ġf Ã¼hl
Ġgeb oren
im ent
fel d
Ġd ra
te chn
Ġp rak
Ġt od
Ġmach ten
Ġgute s
rat ie
Ġpap ier
jen igen
f re
Ġd ruck
de ten
Ġvor aus
Ġeng l
w ind
Ġp oten
Ġgesch ieht
Ġeinfach e
Ġbr achte
Ġiden ti
Ġw ann
Ġz eu
um mer
Ġmit gefÃ¼hl
ft ware
Ġ1 1
Ġherauszu finden
Ġs c
Ã¤ ume
Ġnach richten
ktiv e
o se
Ġb Ã¼cher
Ã¤ tzen
Ġt rau
Ġj ung
Ġme ter
Ġergeb nis
lef on
Ġeinfl uss
b eh
m u
um m
Ġlie gen
Ġnah e
Ġober flÃ¤che
z te
Ġs orgen
Ġn ennt
Ġdi ag
v ie
ab hÃ¤ng
Ġen or
ĠfÃ¤h igkeiten
Ġwich tige
ie g
Ġb ald
Ġer schein
mp fen
Ġgener ation
Ġfir ma
Ġre aktion
Ġsozi alen
Ġeurop a
Ġso b
Ġgesch rieben
Ġsti l
Ġexper imen
Ġgesam te
Ġver tei
Ġt a
ind ungen
Ġnormal erweise
Ġ 000
ich tet
Ġver gessen
be w
Ġmo der
Ġwichtig er
Ġrecht s
Ġbezieh ung
g lie
in s
tr Ã¤
Ġtra gen
Ġ9 0
Ġjahrz eh
ess our
Ġmasch ine
Ġd achten
Ġs ign
Ġver urs
am erik
Ġkein er
Ġex p
ĠauÃŁer dem
Ġeinzel ne
ti st
is se
Ġbeob achten
! "
gend es
wirk ungen
Ġfant ast
u ellen
Ġe t
Ġb ot
sch w
Ã¼s sel
Ġbeg annen
ĠÃ¶ k
Ġkomp li
Ġw ind
Ġda durch
Ã¼s s
Ġschu len
Ġhoff nung
u b
Ġp e
ess ern
Ã¤h lt
Ġvertrau en
le x
Ġan sehen
Ġges prochen
Ġvor bei
Ġbest immt
Ġreg eln
Ġa kt
Ġein zu
Ġverl assen
Ã¤tz e
Ġinteressan te
Ġgoog le
Ġs eiten
der t
Ã¶ sen
Ġge legen
ĠgroÃŁ er
Ġse e
Ġhei m
Ġmon at
end ung
ist an
Ġwus sten
Ġpro te
Ġnach hal
Ġgeb ur
Ġaufmerk samkeit
b in
is st
ra gt
Ġor d
Ġbewe gt
Ġkar te
ĠfrÃ¼h er
g o
Ġe ffe
Ġein st
Ġk rei
us sen
Ġkann st
ko p
Ġne un
Ġbewusst sein
ĠÃ¼brigen s
Ġsob ald
f ern
Ġs im
Ġh ig
Ġz iv
Ġzum inde
Ġprodu kt
Ġgru ppen
Ġbemer ken
on s
Ġl auf
Ġo per
tig er
uch s
tik el
Ġeinzel nen
k am
Ġm y
sch ung
Ġab zu
Ġpass ierte
Ġfin de
a z
Ġd eine
f ik
g i
Ġda hin
Ġre du
ob il
Ġstu dien
Ġsah en
Ġspe ziel
Ġsit zen
Ġb ess
Ġ1 6
Ġverst Ã¤nd
schl ag
Ġoze an
or ien
ne te
rau ch
Ġbede uten
ĠbevÃ¶lker ung
Ġer mÃ¶glich
Ġden kt
Ġben utz
Ġdemok ratie
h and
at h
Ġbestimm ten
Ġr essour
Ġst Ã¤ndig
alt ung
Ġzuminde st
st ru
Ġh Ã¼
Ġzu gang
hn ung
Ġs an
Ġh y
Ġzu fÃ¤l
fl ik
geb racht
Ġversuch te
d s
Ġd ro
Ġar me
ĠgroÃŁ es
Ġinnov ation
Ġdor f
sch ul
Ġge arbeitet
Ġgr enzen
Ġor te
Ġarm ut
w and
Ġw Ã¶rter
mm ern
Ġ1 4
uch ten
Ġh Ã¤uf
it ter
Ġkon zept
Ġmon aten
Ġerw Ã¤h
Ġpos itiv
Ġh immel
sch u
5 0
or fen
it h
Ġzwei ten
Ġunivers itÃ¤t
Ġu hr
Ġb aum
Ġgeh eim
Ġirgend w
Ġspe zi
Ġkontr olle
Ġtausen de
Ġmedik amen
Ġbess ere
r y
ie s
Ġein sch
ĠmÃ¶ glichen
ma le
Ġexper iment
Ġan ti
Ġt aten
Ġvor trag
Ġblei bt
Ġr a
Ġso hn
Ġsp re
Ġverf ol
ig ner
Ġgesch ehen
Ġwe bs
Ġverb essern
Ġsta mm
zie s
Ġa f
Ġe chte
at te
Ġbil den
Ġmensch heit
pro du
bil d
Ġrich tigen
Ġter ror
Ġt on
Ġauf grund
Ġmit t
se tzt
her ap
Ġger Ã¤t
l ern
s eh
Ġm ot
Ġf euer
Ġp r
Ġl ag
Ġland es
d ass
Ġin d
Ġt h
Ġso ftware
Ġnach bar
Ġspa ÃŁ
m achen
Ġd ien
Ġs elt
Ġv ol
Ġr und
neh mer
e tzen
Ġal tern
Ġja pan
Ġverl ieren
ĠhÃ¶ her
b lich
Ġk Ã¼r
am a
Ġre de
Ġlei der
Ġ20 1
tei le
Ġkrank heiten
Ġansch auen
wind igkeit
Ġk ern
Ã¶ ff
Ġan t
wer fen
Ġor ten
Ġbi olog
Ġf Ã¼
it Ã¤r
Ġall gemein
Ġab ge
Ġgew innen
Ġsch reck
iel le
Ġpers onen
Ġg ala
Ġbei spiele
Ġdie jenigen
ra ten
Ġde ta
Ġtra in
Ġan gef
Ġha b
Ġent we
ĠprÃ¤ sen
Ġb us
Ġh iv
Ġk aum
or ben
Ġt agen
eit ung
Ġarbei tete
ĠschÃ¼ ler
Ġfir men
ĠnÃ¤h er
ti ver
Ġan d
ra d
Ġc ar
Ġte lefon
Ġverb esser
Ġfre u
schl uss
Ġerzeu gen
s weise
Ġun er
ne tz
Ġprodu zieren
Ġziv il
z un
Ã¤ chen
Ġsch ei
re cht
Ġspr achen
Ġvoll er
w in
Ġb at
sch ir
Ġj ohn
Ġso dass
Ġnach richt
os s
qu enz
Ġbeh au
Ġentschei dung
Ġeben so
Ġgala x
Ã¶ st
Ġge k
Ġgeb iet
Ġspe zies
Ġ7 0
Ġwin z
Ġerlau bt
Ġvergangen heit
on ie
ab el
Ġauss ieht
m asch
ĠerzÃ¤h lt
Ġwirklich keit
ul l
Ġnachzu denken
Ġi l
it al
Ġkon flik
Ġch ris
Ġfl Ã¼
rÃ¤ fte
Ġirgend wo
ativ en
Ġeben e
Ġtran s
Ġantwor ten
Ġbakter ien
Ġw Ã¼n
Ġwe chs
ul ation
Ġgeb racht
Ġarbei tet
Ġwor te
Ġso wohl
Ġst o
Ġern Ã¤hr
Ġsek unden
p s
Ġw Ã¼
st ern
Ġun mÃ¶glich
ei sen
Ġau ÃŁen
Ġre tten
Ġ1 7
Ġerf ahren
pr ess
Ġgesam ten
ĠÂ »
ĠfÃ¼hr te
ris e
Ġentwe der
b i
c a
i x
w Ã¼r
ich ter
ti m
eit s
Ġtra f
Ġbestimm te
Ġbab y
ik er
Ġsol chen
zeich net
b all
h Ã¤lt
Â «
Ġm Ã¤ch
Ġun abhÃ¤ng
Ã¶ pf
re ch
Ã¼h ne
Ġverb inden
Ġbef inden
ĠgroÃŁar tige
b a
Ġ Ã¤u
st es
Ġf Ã¶r
Ġwar ten
Ġvor stell
Ġdurch schnitt
Ã¼h le
zi mmer
Ġentde cken
Ġergeb nisse
Ġsamm eln
c t
m Ã¤ÃŁ
p ar
Ġh Ã¤nde
Ġal te
Ġko p
fer enz
licher weise
Ġthe orie
Ġkommun ikation
Ġkom bin
f a
Ġsch ie
Ġdass elbe
ab il
gr Ã¼n
Ġchin es
Ġries ige
Ġmeer es
Ġf ein
Ġr unter
ĠâĢ Ķ
os sen
Ġkl in
Ġamerikan er
Ġunters uchen
Ġprof ess
Ġressour cen
Ġn enne
Ġf rieden
ge t
Ġge kommen
Ġl og
om a
Ġko hlen
Ġkon sum
ing ungen
Ġzei gte
Ġspiel t
ĠhÃ¶ ch
Ġglob alen
Ġh aut
ra b
il s
li ge
Ġreg ion
Ġdrit te
Ġden k
Ġhand eln
ogra ph
Ġregier ungen
f alt
Ġs and
Ġb ri
Ġver ste
um s
gr Ã¶ÃŁ
Ġpart ner
Ġh um
wer ke
Ġeinz ig
Ġpar k
Ġhunder t
Ġdeu t
Ã¼ tzt
Ġf und
Ġer wei
Ġgr Ã¼
Ġch ance
Ġgef Ã¤ng
Ġgef ragt
ĠprÃ¤ si
Ġinstit ution
Ġmitt ler
al tet
Ã¼r f
Ġbis her
tier te
ĠgrÃ¼n den
ome ter
f s
g l
o x
p la
ei te
Ġp il
per atur
Ġhil ft
Ġleiden schaft
Ġk u
Ġges pr
tw end
Ġob jekt
Ġzusammen h
op h
Ġkam pf
Ġlin ie
n ungen
in a
Ġk er
Ġle bt
iz ien
iz ieren
Ġschmer z
st Ã¤
Ã¤ te
Ġverst anden
sei te
Ġer eig
Ġver z
Ġl aut
Ġst ol
ass ung
Ġverb rei
Ġlei sten
ha f
ss ystem
Ġkolle gen
Ġzeu g
h i
l an
v olle
Ġm Ã¼
gen ie
Ġber g
Ġwel cher
Ġheraus finden
tisch er
lo se
Ġbel ie
Ġamerikan ischen
Ġf angen
Ġin nen
Ġaus w
Ã¤n omen
Ġ1 3
Ġarbeit s
Ġersten s
m pf
r t
r ig
st ag
an te
kt oren
Ġwo hn
erst off
Ġw ein
Ġein ge
Ġaus wirkungen
Ġent schieden
Ġjahr es
Ġqu ad
Ġorganis ation
Ġord nung
Ġselt sam
Ġd Ã¼r
Ġh Ã¤lt
Ġver n
Ġl Ã¤uft
Ġunter schei
Ġber Ã¼h
Ġbl o
mittel n
Ġschli mm
Ġchar akter
ĠhÃ¶r te
g han
ar ten
ĠkÃ¶n ig
Ġsta tist
ĠauÃŁer halb
trie ben
Ġurspr Ã¼n
m el
m od
s sen
as che
Ġein ander
ol i
Ġwie so
ĠerzÃ¤h lte
ĠhÃ¶ he
Ġlu st
Ã¤us er
Ġehr lich
ĠermÃ¶glich t
w andel
ei tet
Ġb ienen
Ġn ummer
ber t
Ġge stellt
Ġr om
Ġbe zug
sa mm
Ġarbei te
Ġmar k
ĠschÃ¼ tzen
Ġno twend
Ġsin ne
Ġengl isch
Ġd rin
Ġm essen
Ġz we
Ġbe ge
Ġ2 1
Ġverst and
Ġbest ehen
Ġ19 8
Ġbetr achtet
arbei ter
stÃ¤nd ig
s eits
st ehen
Ġher unter
Ġab sch
lau fen
Ġwieder hol
Ġmilli on
ĠÃ¶ffent lichen
Ġbru st
an twor
ieren de
Ġnie der
Ġfr em
Ġstra te
Ã¼l len
Ġfot os
st Ã¤nde
Ġl Ã¤ch
Ġgesch affen
Ġwo hin
Ġfrei heit
gi bt
a mm
k ur
Ġer leben
Ġerf ahr
Ġfl uss
ak tiv
Ġdro gen
Ġver dien
ro chen
ra te
Ġher stellen
Ġletz tes
Ġeinz igen
Ġbef indet
Ġentde ckt
Ġmetho de
ĠverstÃ¤nd nis
zun ehmen
Ġh eil
Ġn ahrung
Ġt rei
Ġo f
Ġaus l
Ġbeg inn
schie de
ĠgrÃ¼n de
Ġfot ograf
Ġhunder te
Ġunterst Ã¼tzen
Ġbezieh ungen
Ġkranken haus
Ġaf ghan
r ier
Ġein kommen
Ġin genie
au sen
is ation
Ġar zt
Ġwo h
Ġger Ã¤u
Ġhand elt
Ġgehirn s
Ġsystem e
schn it
Ġgebur t
Ġw esen
ier ter
Ġge le
ri fft
Ġph Ã¤nomen
yn am
Ġlie bl
Ġmo tiv
Ġsozi al
alis mus
ĠÃ¤r zte
Ġarchite ktur
h il
Ġk ol
Ġgesch ah
ab r
Ġzwei tens
Ġde sto
Ġirgend ein
Ġwunder sch
Ġunterst Ã¼tz
Ġfing er
n ein
be d
Ġeigen t
Ġfol gendes
stoff e
Ġunters uch
mens ion
t on
Ġh irn
Ġt raum
Ġar men
Ġco ol
Ġjen e
Ġzun Ã¤chst
Ġg uter
it er
Ġsel ben
ast rop
Ġschl Ã¼ssel
Ġli ste
Ġfar be
t he
Ġw Ã¤hlen
Ġl as
Ġst ei
Ġum f
Ġmehr ere
Ġmasch inen
sÃ¤tz lich
Ġsuch e
g reifen
s ie
Ġh or
Ġh art
Ġdes wegen
rÃ¤ sen
Ġgrund legen
ĠbÃ¼r o
Ġnetz werk
Ġflug zeug
Ġnation al
Ġpos ition
b uch
e k
s ichtig
Ġd auer
Ġe p
st Ã¼ck
an ische
le g
Ġin se
Ġan geb
ĠÃ¶ kon
Ġbetr ie
Ġschwar z
wÃ¤r ts
ĠfÃ¼hl te
g ere
Ġun ver
an de
Ġb Ã¼hne
ge ht
Ġl achen
Ġse tz
e d
l am
Ġst unde
Ġwen ige
Ġar tikel
ktion en
Ġkl asse
Ġbewe g
mÃ¶ glichen
ĠauÃŁer gewÃ¶hn
Ġris iko
f rieden
Ġe i
Ġv ari
Ġn ame
Ġp unkte
Ġzeit punkt
Ġget roffen
ta kt
Ġklima wandel
Ġner v
h y
Ġs Ã¤u
Ġw a
Ġver hin
ur g
iel len
Ġre chte
Ġinter esse
ul ieren
Ġspie le
Ġerwar ten
schir m
l eist
o ber
Ġd ok
Ġt ru
Ġher zen
Ġbeg r
Ġwunder bar
Ġeben falls
sel ben
Ġbehand lung
ei sch
sch te
Ġwei b
Ġmus e
Ġwichtig ste
Ġtra g
Ġverm ut
Ġstatt dessen
Ġerinn ere
p assen
in der
Ġw ol
Ġmil itÃ¤r
war t
Ġverk aufen
Ġbehau p
s amen
z ut
an ke
Ġk reis
Ġk enne
sa ge
la den
ma ÃŁ
ma ÃŁen
Ġheu tigen
war um
rit te
Ġbed Ã¼rf
Ġjahrhunder ts
ĠlÃ¶s ungen
Ġerfahr ungen
a fft
z Ã¼
Ġl ond
ck s
Ġso wie
Ġgew al
ul ti
r iere
Ġ tisch
Ġm obil
st adt
ei d
Ġk m
Ġf en
ar tig
Ã¶ nen
eh me
Ġaus sch
ah lt
Ġdar f
Ġganz es
Ġnie dr
ĠfÃ¤l lt
Ġschick en
Ġindu st
ĠÃ¶ff nen
Ġkamer a
ĠgefÃ¤ng nis
Ġh ung
Ġin str
el s
Ġsch aut
Ġsel ten
rit ann
Ġspr icht
Ġsti mmen
ĠverÃ¤nder ungen
ga ben
i for
Ġm Ã¤r
Ġg il
gef unden
Ġbi o
Ġnah men
Ã¼l l
Ġstand ard
Ġmedikamen te
w a
ie gen
Ġn ahr
Ġgesch le
bar keit
Ġjemand em
tei len
i mmer
Ġb all
Ġk e
Ġt rin
ind ust
Ġdes igner
iz ei
Ġbehand eln
ie te
Ã¶ se
iel ten
Ġsei en
Ġ5 00
Ġmar s
id s
Ġunglaub liche
Ġaben d
b li
sch utz
Ġr ot
Ġwe ge
Ġme chan
Ġland wirtschaft
Ġwor ten
Ġunterschied liche
d ings
Ġi gn
Ġh Ã¶rt
Ġz eiten
or n
Ġl o
Ġso mmer
Ġeinfach en
geb aut
Ġschl ag
Ġfal len
fra struktur
Ġhig h
indust rie
b ol
k eln
Ġw andel
an a
or gan
Ġge we
be wer
Ġte m
lie gen
Ġerf unden
Ġged acht
gesch ichte
Ġglob ale
Ġop tim
Ġerstaun lich
ifor n
w ick
Ġm assen
Ġp au
Ġbe teil
ra gen
Ġwer te
ell er
pl an
Ġverantwort ung
Ġ x
Ġa g
Ġa s
st ik
al ist
Ã¶r ung
Ġeigen schaften
ha ben
ritann ien
Ġign or
b rechen
b ahn
Ġw un
Ġau ge
Ġen dlich
Ġbeg eister
gr ess
Ġfar ben
Ġkonzentr ieren
ĠÃ¤u ÃŁer
Ġlond on
g ien
ar f
Ġr Ã¼cken
Ġar g
Ã¼h len
Ġbes uch
Ġgra d
zus agen
Ġdo pp
Ġverr Ã¼ckt
ĠÃ¼berr aschen
Ġangef angen
k rank
Ġa hnung
Ġb eit
Ġk la
ff er
Ġsp ort
Ġsp itze
Ġre chten
ah men
Ġgeh e
Ġko mme
Ġverb ringen
dr Ã¼cken
ĠschÃ¶n heit
spie len
Ġinteressan ter
Ġverh Ã¤lt
Ġexist iert
ĠmÃ¤nn ern
r on
Ã¤ st
Ġaus druck
pr Ã¼
Ġentst ehen
ĠnÃ¤h e
" -
h le
Ġ tieren
Ġe cht
Ġj Ã¼n
Ġab hÃ¤ng
pf l
Ġbest and
Ã¼l lt
Ġat mo
Ġlern te
Ġrelig ion
Ġw affen
Ġzu stand
Ġp al
Ġre icht
Ġgeh ir
Ġneu er
Ġfre unden
Ġschu tz
alis ierung
ĠstÃ¤d ten
Ġkont in
o ol
s agen
Ġbe antwor
Ġvor h
Ġger ing
ist or
Ġbi ologie
Ġfa ce
b ieren
b ritannien
g or
m on
Ġn Ã¼tz
Ġp op
icht s
ent lich
Ġwe sten
Ġeigen es
ĠfrÃ¼h en
Ġgesundheit s
our n
ĠkÃ¤ mpfen
ĠhÃ¤uf ig
v el
w enn
st re
sch er
Ġpro jekte
ĠgrÃ¶ÃŁ ere
Ġschl uss
ĠnÃ¤ch stes
Ġti tel
ĠschÃ¶n e
Ġentf ern
Ġtri fft
Ġspre che
Ġfreu de
Ġnahr ungs
f isch
t tet
Ġb al
Ġn Ã¶
Ġge gangen
rau cht
ick t
Ã¼hr en
Ġwichtig sten
Ġju gend
Ġsau erstoff
Ġmer k
Ġpriv at
Ġfen ster
Ġin te
Ġt olle
Ġsch rift
Ġauf w
Ġher an
ot he
Ġwe tt
Ġdenn och
Ġ19 7
halt ung
ĠfÃ¤l len
ĠverfÃ¼ g
ĠverfÃ¼ gung
Ġkontroll ieren
Ġbemerken s
Ġzu sch
rei se
tig ung
lie ben
Ġweiter hin
frik a
Ġmaterial ien
g ier
en de
Ġg ang
te xt
Ġin frastruktur
ge d
Ġan satz
Ġsch wei
is ser
Ġo pfer
och ter
Ġ3 00
Ġsicher lich
Ġerst es
Ġprodu kte
Ġaller dings
Ġis lam
fra ge
Ġkn ochen
il d
ig ung
Ġsp ekt
Ġgesch afft
ke t
Ġbeg onnen
Ġpol izei
bo ok
lo sen
Ġerzeu gt
Ġgelegen heit
o te
t u
Ġs m
Ġw ald
Ġm ut
Ġb u
Ġb Ã¤ume
Ġh all
Ġz it
Ġauf genommen
Ġsein es
men te
Ġher zustellen
Ġste u
Ġries igen
Ġbeeinfl usst
krie g
Ġirgendw ann
Ġmot or
hil fe
g leich
Ġn ot
Ġf ran
au ern
ck te
Ġso mit
we chs
Ġ2 4
Ã¼s se
me ter
min ister
Ġschwar ze
Ġrep rÃ¤sen
Ġfortsch ritt
Ġstol z
h Ã¶r
v ier
Ġi t
Ġz elle
Ġt anz
mm un
Ġle gen
Ġre ch
Ġgen utzt
isten z
Ġerh Ã¶
c y
Ġw al
Ġm el
Ġk auf
Ġer stellen
and a
Ġunter schiede
Ġlie ÃŁ
Ġverb indungen
Ġbrau chte
ĠgrÃ¶ÃŁ eren
ĠfÃ¼h lt
Ġfe tt
a bt
f ar
o per
Ġg u
ti ere
Ġt al
Ġt ochter
Ġso gen
Ġpro je
ĠgroÃŁ britannien
Ġbil l
Ġdun kel
Ġstud ieren
Ġkreativ itÃ¤t
Ġindust rie
u p
Ġd el
il ien
Ġaus einander
Ġre agieren
ne ten
og el
Ã¤hr t
Ġgl as
Ġletzten dlich
woh ner
setz ung
Ġindu str
k Ã¼nf
un tern
ar ch
it ten
Ġent lang
Ġviel falt
Ã¤ch t
spiel er
pro ble
Ġlei d
Ġpoli tischen
Ġerlau ben
Ġkil ometer
Ġentwicklungs l
Ġ ten
er ken
Ġk en
or gung
Ġer mÃ¶glichen
Ġum zu
Ġpro t
Ġde press
gesch lossen
ĠfÃ¼h le
hau se
t Ã¤t
Ġe d
Ġh om
Ġsch m
ent wick
Ġeinfach er
Ġgef angen
tisch es
Ġdort hin
zeich nen
Ġwerk zeuge
ĠgeschÃ¤ft s
b ank
Ġa ch
Ġein satz
ra tion
Ġda gegen
Ġgesch windigkeit
ver stÃ¤nd
for men
Ġbl og
Ġdav or
Ġhaupt s
Ġdemok ra
Ġbeeinfl ussen
Ġkompli z
d a
h ei
t tern
em ent
Ġha bt
Ġwe b
Ġme x
Ġverw ir
ven tion
tem ber
Ġinvest ieren
Ġzeich en
Ġdeu tlich
z lich
Ġi ran
he ben
Ġgef Ã¼hle
Ġkl ingt
Ġmon d
Ġprodu ziert
Ġverle tz
Ġga ben
Ġgil t
f il
m ann
Ġw Ã¤r
st au
st ab
Ġk ennt
le un
Ġp assen
Ġl angen
Ġo sten
tel es
Ġkl ass
Ġkl assen
br uch
Ġmin de
Ġpoli tische
Ġzusammenh ang
Ġb ud
Ġh ielt
Ġf ak
am i
os au
ĠgroÃŁ teil
Ġvers ion
Ġaut or
alis ieren
Ġkurz em
Ġto des
Ġfern sehen
Ġhol z
Ġerfor schen
fol ge
Ġphil os
Ġtem peratur
g eln
Ġn ehme
Ġk unden
Ġer Ã¶ff
Ġl och
be we
Ġkon stru
Ġstel lten
rit ten
Ġ19 6
mÃ¶ gen
Ġkar riere
Ġat om
ĠÃ¼berr as
Ġeff izien
Ġafghan istan
Ġvermut lich
l ing
en s
Ġf ok
Ġsch im
Ġne g
Ġsol ch
Ġhal b
Ġverr Ã¼ck
jÃ¤hr igen
t reten
te st
ur m
Ġen d
pp t
fÃ¤l le
Ġbehand elt
Ġneur onen
Ġexist ieren
Ġelektr on
Ġschla f
Ġfund ament
gor ith
Ġs al
Ã¼ ben
ar k
Ġalle ine
Ġam eisen
Ġbeg riff
Ġsol daten
Ġentst eht
g ern
ei en
Ġf urch
Ġdies elbe
ra el
Ġuns icht
Ġsp Ã¼r
Ġko stet
ot yp
Ġinter vie
schl Ã¤
Ġti m
Ġgesell schaften
Ġkor allen
Ġpla stik
spe ktive
ĠÃ¤nder t
Ġbro t
Ġbot schaft
Ġface book
Ġm ass
as i
Ġz Ã¤h
Ġbr as
Ġkar ten
umen te
Ġvir us
Ġblo ÃŁ
Ġwun sch
g ri
en ze
Ġa rab
it u
Ġr uss
Ġst eigen
Ġre d
Ġent schied
os ystem
Ġwieder um
Ġweiter es
Ġrei sen
Ġprodu ktion
Ġverk auft
Ġhoff entlich
ĠzufÃ¤l lig
Ġinse kten
t ation
ber eich
Ġt hem
Ġte mp
stell te
spr icht
Ġbet rifft
Ġerh Ã¤lt
Ġtyp en
Ġaufga ben
zw ischen
n issen
Ġe he
Ġe th
Ġzu t
Ġzu hause
Ġau str
Ġaus bildung
Ã¤n glich
Ġim p
Ġsa tz
Ġbed ingungen
ĠÃ¼ b
Ġmater ie
Ġfern seh
Ġkommun izieren
Ġwerk zeug
Ġdisk uss
iforn ien
g ro
u z
Ġa h
Ġf ach
Ġch e
pf el
di mension
los s
Ġmeisten s
gra mme
Ġverk auf
Ġster ne
Ġkomplex itÃ¤t
a be
Ġs zen
Ġb and
Ġi rak
sch auen
Ġer l
Ġt um
Ġwer fen
Ġkon takt
Ġste in
Ġbesch reiben
Ġzie le
Ġgemein de
Ġsa ÃŁ
Ġdrit tel
Ġstr ess
Ġak zep
ĠtÃ¶ ten
Ġzent rum
Ġberu f
Ġverurs acht
Ġwundersch Ã¶n
o ge
z y
Ġg Ã¤
Ġk ir
Ġab ges
Ġ2 000
Ġqu alitÃ¤t
Ġsu b
Ġres ult
ĠbenÃ¶ tigen
Ġbege g
ĠunterstÃ¼tz ung
Ġatmo sphÃ¤re
n s
u fen
Ġ .
ch tigkeit
Ġh und
le ge
Ġj o
ra h
iel l
Ġvor ber
tw as
Ġwe der
Ġgew onnen
Ġdav id
Ġgest alten
Ġbuch stÃ¤
ga be
dig ung
Ġzent r
ĠÃ¼berzeu gt
Ġdiag no
w ill
st ein
Ġb rie
Ġan ru
Ġgen om
Ġentwick elten
Ġdr ehen
Ġlin ken
Ġy o
Ġunbe d
Ġbab ys
Ġsek unde
jÃ¤hr ige
kre bs
Ġd Ã¼n
Ġa sp
ag ne
Ġent werfen
li ten
Ġc on
wir ken
Ġscha fft
schl agen
Ġdr eh
Ġverk ehr
Ġuniversum s
Ġerinner t
Ġperfe kt
Ġintelligen z
ĠverÃ¶ffent licht
ĠÃ¶k osystem
v ollen
z ur
Ġd ynam
Ġwir st
Ġr oten
is ieren
Ġum gehen
rei bt
zu bringen
ation s
tier ten
Ġste cken
Ġzusammen arbeit
teil ung
en te
Ã¼ le
Ġan gel
Ġj ourn
ke le
Ġkl ang
Ġvoll kommen
Ġhinter grund
Ġna ja
Ġtausen d
herap ie
masch ine
f ach
f ter
un t
Ġmit glie
Ġneu gier
Ġheraus gefunden
Ġbit ten
Ġunbed ingt
p en
Ġv ogel
ar m
Ġan gew
Ġsch Ã¤d
ungs system
fe st
ĠmÃ¶glich erweise
Ġlebens mittel
Ġaugen blick
Ġorganis ationen
Ġbas is
Ġis rael
Ġrelig i
Ġlau tet
gru ppe
j ahr
Ġk oll
Ġp ort
Ġbe tt
Ġsch lau
Ġso w
il det
Ġst off
am es
ĠÃ¼ber tragen
Ġunter nehmer
Ġc ity
Ġch ir
Ġhal te
fiz iert
Ġeffe ktiv
Ġlauf e
ĠbuchstÃ¤ blich
b y
k an
m utter
Ġ ,
Ġb om
Ġp rÃ¼
Ġge tr
Ġr at
Ġsch iff
hal te
Ġdurch gefÃ¼hrt
for d
Ġhand y
ĠnatÃ¼r liche
Ġspiel er
Ġwahrscheinlich keit
Ġho hen
Ġforsch er
Ġrel ativ
ĠkÃ¼ mmern
Ġherausforder ungen
Ġjob s
mar kt
Ġfel d
techn ologie
Ġidenti tÃ¤t
pla tz
f rist
i den
Ġ lich
Ġt w
Ġsch lieÃŁen
Ġmit ten
il le
am b
Ġbes itzen
Ġsel ber
Ġlie ber
wer te
Ġwissenschaft liche
Ġfal sche
tei lt
Ġunterschied lichen
zeich en
ĠbeschÃ¤f tigt
Ġverbrei tet
ĠberÃ¼h m
Ġverdien en
k or
m eister
n ern
v a
Ġd om
Ġf o
Ġf abr
Ġnoch mal
Ġte sten
Ġgew Ã¶hn
Ġfra gten
Ġob jekte
stell er
Ġsit zt
richt ung
Ġgesetz e
ĠerklÃ¤r t
Ġminde stens
Ġschim pan
l u
Ġa ffen
ich en
Ġander em
Ġte xt
Ġmus li
Ġinter aktion
Ġlie f
Ġgef Ã¼hrt
Ġproble men
Ġung l
Ġdr eht
Ġus w
Ġstar b
Ġbere ch
zus ehen
Ġbez ahlen
ĠtÃ¤ glich
Ġmet ap
Ġverfol gen
d it
t tel
Ġ &
Ġm Ã¼ll
Ġzu frieden
ann e
ra g
Ġso zusagen
Ġkon text
ru p
ad a
dig t
Ġamerikan ische
Ġla den
Ġgol f
Ġschli mmer
ĠbenÃ¶ tigt
m acht
Ġd ick
Ġb eine
Ġb ank
Ġhin weg
Ġwahr neh
Ġerz ie
Ġaut oma
Ġget Ã¶
Ġmod elle
ĠÃ¶ffent liche
Ġerwar tet
Ġvergleich en
Ġkat astrop
Ġmoder nen
schu le
Ġm asse
an gt
Ġein druck
Ġf rank
Ġzu kÃ¼nf
Ġer ster
Ġl iter
Ġgel angen
Ġweiter en
Ġbest immen
Ġsau ber
Ġdien st
Ġkohlen stoff
ĠdÃ¼r fen
Ġrom an
k n
st imm
Ġn iger
Ġin tens
or gt
Ġwei ss
Ġkon ferenz
Ã¤t sel
Ġste ckt
Ġbesch leun
Ġru h
Ġ15 0
Ġrad io
ĠÃ¼berzeu gen
Ġanal ys
Ġsym bol
Ġinte gr
Ã¤cht nis
Ġhaupts Ã¤chlich
osau rier
s se
de u
re ffen
pt op
Ġbild schirm
ha fte
Ġgest ern
Ġmilliar de
Ġpri m
Ġwett bewer
d el
g yp
o le
in ne
Ġe hem
Ġein setzen
Ġf ei
sch rift
Ġbe wer
tig te
Ġte x
Ġgew icht
ungs kraft
Ġglau bt
ĠfÃ¼hr ung
Ġem p
ĠpersÃ¶n lich
Ġgol d
Ġliebl ings
Ġthem en
b as
z itÃ¤t
Ġw Ã¤chst
Ġh Ã¤ngt
on g
ar a
ar tige
Ġge or
Ġr and
Ġst abil
Ġex tra
tik er
Ġbesser en
Ġsa tel
Ġkind heit
Ġdein en
Ġkal ifornien
Ġleist ung
ĠprÃ¤si dent
Ġmuse um
a frika
Ġ ol
Ġs il
Ġm os
Ġh istor
Ġn ull
Ġk no
Ġinter agieren
Ġgew issen
Ġfra gt
Ã¤l lt
Ġgegen teil
Ġde b
Ġschw immen
Ġsol ar
Ġdrit ten
Ġka ffe
Ġinstitution en
b and
k Ã¤
z eiten
Ġm ulti
it zt
Ġda ÃŁ
Ġgef ahr
pro gramm
Ġvis ion
Ġverwand eln
ĠgefÃ¤hr lich
trÃ¤ ge
, "
v on
te sten
Ġo x
am in
Ġgen ie
Ġkl ei
ĠzurÃ¼ck zu
Ġmei len
Ġho he
alis iert
Ġsy n
Ġreich en
Ġeurop Ã¤
Ġprak tisch
ĠÃ¼berras cht
f un
l Ã¶s
Ġa ss
Ġa str
Ġk i
Ġk r
Ġf ische
le kt
sch au
Ġc olle
Ġch a
acht ung
Ġbil dern
Ġste uer
Ġfl eisch
Ġteil chen
Ġbed roh
Ġvir t
Ġstruktur en
Ġerinner ung
Ġwesent lichen
Ġvorh anden
ĠgetÃ¶ tet
a c
e x
p re
z Ã¤h
in ge
te x
om ie
Ġgew isser
Ġger Ã¤te
Ġgegen sei
kl us
Ġbek Ã¤
Ġwil d
Ġzun ehmen
Ġverz wei
bewe gung
Ġe cke
Ġm ent
le v
Ġj ungs
il li
tig es
Ġgro ss
me t
ad em
Ġwel chen
gel aden
Ġgenau er
Ġstu di
Ġinteress ieren
Ġhau fen
Ġfol ge
Ġverhalten s
Ġheim at
Ġgalax ien
Ġh yp
Ã¶ ÃŁen
Ġal gorith
Ġt ue
Ġir gende
Ġnor den
gew icht
Ġvoll stÃ¤ndig
Ġbau ern
Ġelekt ro
Ġschein en
ĠkÃ¼r zlich
Ġbegr enz
Ġintervie w
f ische
n un
n immt
Ġs eh
at oren
ĠkÃ¶n nt
Ġc ent
Ġlie fer
Ġverb racht
Ġse p
Ġ4 00
Ġwunder bare
Ġrest au
Ġwil len
Ġverhin dern
Ġgeschle cht
Ġirgende twas
i dem
l Ã¤ss
Ġm aus
Ġf le
is iert
ra mm
ing u
olog ische
Ġfr anz
Ġscha ff
Ġeng land
ition en
Ġaktiv itÃ¤t
wo od
Ġbru der
Ġner ven
ĠmÃ¼ tter
Ġbegeister t
Ġsteu ern
p o
s al
s inn
Ġm c
Ġh Ã¤user
ter t
Ġl asst
Ġr Ã¤tsel
Ġges chen
Ġwei ÃŁen
Ġwo her
qu enzen
Ġor ig
ĠerzÃ¤h le
Ġversuch ten
Ġnor male
Ġpati ent
Ġmorgen s
Ġverschw inden
Ġhol en
ĠÃ¤ gyp
Ġvol k
Ġein gesetzt
Ġv Ã¶
Ġn an
es ch
Ġf iel
ĠÃ¼ber le
Ġre ag
Ġgeh abt
Ġgew isse
Ġdin osaurier
stell ten
Ġfil me
Ġbas iert
Ġverantwort lich
wissen schaft
Ġdra ma
b io
d y
f rau
Ġs ucht
Ġv en
Ġz ell
Ġz immer
Ġgew inn
Ġwor Ã¼ber
Ġseit dem
Ġvide os
Ġexper ten
Ġnormal en
Ġpo st
Ġphilos oph
ĠgÃ¤ be
f rei
i zi
l Ã¼
Ġr Ã¤
Ġsch Ã¶nen
ĠmÃ¶ gliche
Ã¤nder t
Ġkur ze
richt ungen
Ġdau ert
Ġsep tember
f ir
Ġw Ã¤h
Ġa c
Ġb ieten
Ã¤ den
al isten
Ġwen igen
Ġpro p
lie b
ma il
Ġbo ot
Ġunterschied lich
Ġkor rup
Ġtie fe
Ġforsch ungs
ĠÃ¶ffent lichkeit
Ġbemer kt
Ġunterschei den
Ġungl Ã¼ck
d ige
ber n
Ġr ahmen
Ġsch ien
ra m
Ġvor teil
Ġte uer
ĠmÃ¼s ste
Ġsti ft
Ġele ment
Ã¤ng st
Ġbel oh
ĠstÃ¤r ker
kar te
Ġtot al
Ġfurch t
w ahr
as h
Ġb an
Ġh Ã¤nden
ter ie
Ġauf hÃ¶ren
gt on
Ġc ol
Ġdurch schnit
fl Ã¤chen
Ġentw orfen
Ġarbei teten
Ġ3 5
Ġeur e
fra gen
kehr en
Ġerkennt nis
Ġstil l
Ġgespr Ã¤ch
in ter
Ġe v
Ġm em
Ġn annte
Ġk na
le t
Ġl es
Ġsti mm
ktiv en
Ġspie gel
Ġschau te
Ġbein ah
Ġlust ig
Ġgewe be
Ġbeantwor ten
Ġtw itter
o pp
p ft
z elle
un i
Ġein iger
Ġb rei
Ġf rie
Ġver lie
Ġt or
Ġse tzt
Ġfl Ã¼ss
Ġqu anten
Ġho ffen
Ġentst anden
Ġwich tigen
Ġschwe ster
Ġtr end
b an
b lichkeit
p ekt
Ġm und
st Ã¤nden
Ġun end
on y
Ġbe weis
Ġle bte
am t
ag ement
Ġent h
Ġerf inden
Ġland schaft
hin gton
Ġschl Ã¤
Ġged anke
Ġung leich
utz ung
Ġsit z
Ġfeh len
fÃ¤h igkeit
Ġgeheim nis
Ġschimpan sen
Ġd ur
Ġw om
Ġn utzt
Ġan genommen
Ġr oll
Ġaus geb
Ġgeh alten
we gs
Ġverb rau
ul iert
Ġbl ock
Ġrie sen
Ġrich ard
trie b
sw esen
Ġrestau ran
f Ã¼gen
s ver
Ġd ran
Ġm ess
ar tigen
der ung
Ġent spricht
sp l
Ġlie ÃŁen
ges ell
Ġbr enn
Ġschl agen
Ġmin ute
Ġvier tel
Ġbek amen
Ġschle chter
Ġplane t
hol en
Ġla ptop
Ġmedik ament
Ġmolek Ã¼le
Ġanges ehen
amerik a
untern ehmen
c is
Ġf ig
ge geben
Ġl ernt
Ġbe halten
Ġwo bei
Ġlie d
Ġper spektive
Ġschn itt
zeu gen
Ġindividu en
bew esen
f u
p art
ie ÃŁ
ie tet
Ġe ch
as a
Ã¼ ste
Ġwas hington
Ġum ge
ĠÃ¼ber prÃ¼
ff ekt
Ġverb reiten
ges etz
Ġgegen satz
Ġschle chten
Ġto ile
Ġerk annte
Ġerle bt
fiz ieren
Ġfak ten
Ġcolle ge
er a
Ġw ellen
Ġn ationen
Ġz og
Ġk rÃ¤fte
Ġzu cker
ol oge
Ġim pf
Ġc y
Ġkon se
Ġmus st
her r
Ġwahr e
Ġverl angen
ĠkÃ¶rper s
Ġrad ik
Ġpolitik er
Ġerwachsen en
Ġexperimen te
Ġredu zieren
mÃ¤ÃŁ ig
p ol
Ġun gewÃ¶hn
Ġg as
Ġin tu
Ġt ab
us ion
Ġher gestellt
Ġdu tzen
Ġgel esen
olog ischen
Ġkl u
Ġkap ital
Ġunbe k
Ã¤us e
fahr t
Ġzug Ã¤nglich
ĠverÃ¶ffent lich
Ġmiss ion
Ġinternation ale
ĠfÃ¶r dern
Ġdom in
f Ã¶r
y se
Ġn u
Ġl an
Ġsch ne
Ġsch lie
Ġauf gew
Ġst at
Ġst ad
Ġre f
Ġdem on
Ġko hle
Ġviel er
ko sten
di a
Ġmei ste
Ġsta mmt
Ġstar ke
ord nung
Ġelekt ri
Ġerschein en
Ġquad rat
mod ell
Ġbras ilien
Ġe chten
as ste
Ġz Ã¤hlen
Ġp fer
Ġan b
Ġver schl
Ġsch ock
Ġauf bauen
eu t
Ġgr enze
ko pf
Ġzeit alter
di ent
ser v
Ġbrau che
Ġbrau chten
fÃ¼hr ung
zus etzen
zentr um
Ġschla fen
Ġdisk u
Ġbeweg ungen
Ġgehir ne
Ġsatel liten
g as
h Ã¶rt
i ten
o c
ti al
Ġan im
Ġauf st
Ġst au
Ġle g
Ġsp annen
Ġgr as
Ġko gn
issen schaft
Ġbil li
ger Ã¤t
Ġentwick elte
Ġbr achten
Ġins el
bes ch
Ġdo ktor
ĠtrÃ¤ ume
Ġentdeck ung
ĠabhÃ¤ng ig
3 0
i an
k r
k reis
Ġein deu
Ġf ischer
Ġauf s
Ġauf tau
us e
Ġent sch
Ġko oper
ri ften
Ġch rist
Ġbesch lossen
Ġmei st
iv en
Ġinner en
Ġmedizin ische
Ġrep ar
Ġbez ahlt
ĠtrÃ¤ gt
Ġzwe ck
ĠnÃ¶ tig
Ġbeinah e
d ru
Ã ©
Ġein heit
Ġj Ã¤hr
ĠÃ¼ber legen
Ġnach ts
Ġgeh Ã¶ren
Ã¼h lt
ko mme
Ġhin sicht
wer den
fl uss
ak te
Ġgemein den
Ġele f
Ġgest orben
Ġbesonder e
Ġsy mme
Ġgra fik
Ġfu hr
Ġres pekt
Ġerle b
Ġbein hal
gru ppen
Ġprofess or
Ġmittler en
Ġprot otyp
. ,
Ġa tem
ier tes
Ġent sprechen
isch t
ul ar
Ġgef ahren
stell ungen
Ġlang wei
Ġstar ten
Ġlin ien
Ġmikro ben
Ġaufre gend
Ġverbr achte
Ġfantast isch
Ġaustr alien
n ungs
r es
t Ã¤
Ġw ik
Ġun ge
Ġh i
Ġk rise
Ã¼ te
re cher
Ġle bewesen
Ġvor an
Ġent gegen
Ġwe tter
ist isch
Ġbesch rÃ¤n
ph one
Ġgesundheit swesen
Ġschwar zen
Ġmetho den
Ġkonflik t
Ġfran cis
Ġa ids
st ung
Ġb a
Ġb on
ti l
Ġaus maÃŁ
ĠÃ¼ber ein
ut t
ri d
Ġinter pre
bar es
Ġmil ch
pro jekt
Ġorganis men
Ġgener ationen
ĠbeschÃ¤f tigen
Ġmoder ne
Ġastr on
e ben
f allen
h el
n ach
p ern
s c
Ġf eu
Ġp asst
Ġan sicht
Ġver grÃ¶ÃŁ
Ġge Ã¤ndert
Ġbe hin
re chte
fl ug
Ġkur zen
Ġ4 5
schl and
Ġbuch sta
Ġpar ad
Ġkrie gen
Ġhal be
Ġdeta ils
Ġelektri zitÃ¤t
l s
n Ã¼
Ġb lieb
Ġf Ã¤ngt
or g
Ġver pf
mm a
Ġab stra
Ġinter essen
Ġex istenz
Ġele mente
Ġhil f
Ġnetz werke
Ġis ol
Ġdun kle
Ġinternation alen
hy th
ĠverhÃ¤lt nis
Ġzusch auer
Ġasp ekt
? âĢľ
b it
b Ã¼r
l ad
p rÃ¤
Ġw ander
st ar
ur f
ier er
Ġt u
Ġl en
Ġle bten
Ġfl ag
ĠnatÃ¼r lichen
Ġkre uz
Ġdr Ã¼ben
Ġco de
mÃ¶glich keiten
Ġbeob achtet
Ġkap it
Ġkomplex e
Ġerstaun liche
Ġwebs ite
kur r
Ġgrundlegen de
Ġzit at
Ġdiskuss ion
2 0
s kop
w agen
Ġb ra
Ġz au
Ġder zeit
Ġbe weise
Ġvor fahren
Ġwei le
Ġdar stellen
Ġgesch ickt
Ġwelt raum
Ġbes itz
Ġwissenschaft lichen
spr uch
Ġthe ater
Ġerwar t
Ġanw enden
Ġvir en
Ġchem ik
Ġzerst Ã¶ren
Ġdefin ieren
Ġwahrneh mung
j em
v ir
Ġs am
Ġs ingen
Ġz Ã¼
Ġp en
Ġer g
Ġer mu
Ġbe weisen
Ġsch ool
ra le
Ġsp aren
Ġgr Ã¶s
Ġverb indet
Ġselbst verstÃ¤nd
Ġbesch loss
gehen d
Ġfol gt
Ġgar ten
Ġwohl stand
atur en
Ġchem ie
ĠmaÃŁ stab
Ġtest s
Ã¶pf e
Ġstei gt
ĠnÃ¼tz lich
Ġkorrup tion
Ġw agen
Ġf ru
ge ber
Ġle tzt
Ġum feld
Ġab schluss
Ġqu al
spr ache
Ġtre ten
Ġvertrau t
Ġzerst Ã¶rt
Ġdefin ition
Ġtradition ellen
Ġemotion en
Ġdau ern
Ġenor me
Ġeinst ein
Ġkaffe e
f angen
i tieren
k len
k at
p asst
v ard
Ġd ach
Ġe w
on es
Ġzu zu
Ġt oten
Ġr os
Ġmit arbeiter
eh m
ĠÃ¼ber sch
Ġsp Ã¤t
Ġgr Ã¶ÃŁen
Ġbeispiel sweise
nah m
Ġur s
Ġro te
Ġfolgen de
lin ge
ĠerklÃ¤r ung
Ġwesent lich
Ġerschein t
ĠverfÃ¼g bar
Ġentwicklungsl Ã¤ndern
l d
Ġ 0
Ġw itz
Ġw uchs
an en
Ġh em
Ã¼ gt
Ġer m
Ġer stellt
Ġer setzen
Ġan nehmen
Ġt onnen
Ġo ff
Ġum geben
Ġent schul
Ġdar unter
Ġko sm
Ġpa ten
Ġbl ind
ĠweiÃŁ e
Ġhel den
Ġjeden falls
ĠfÃ¤h ig
Ġverr ing
ĠÃ¼br ig
Ġarchite kten
Ġjahrzeh nt
ĠerwÃ¤h nt
Ġnachbar n
Ġdeut schland
Ġs um
st he
Ġv e
Ġan teil
Ġbe denken
Ġsch atten
Ġauf gebaut
Ġsp ir
Ġkon kurr
Ġbes uchen
Ġpa k
Ġbest Ã¤
Ġkam p
Ġscha den
Ġqu elle
Ġspiel te
Ġged icht
Ġschwier igkeiten
forder t
Ġinst all
Ġaufzu bauen
wirk ung
Ġallgemein en
Ġker l
Ġsetz te
Ġmex iko
h Ã¶
v in
Ġd re
Ġm ic
st at
Ġzu sÃ¤tz
Ġver ab
Ġt om
Ġr oh
tz eit
Ġgr i
ri ge
ri ffe
Ġhei ÃŁen
Ġsol ange
Ġbet roffen
Ġbere chn
Ġbem Ã¼h
ĠfÃ¤l le
Ġintel lekt
Ġverd opp
Ġenor m
ĠunabhÃ¤ng ig
oli tik
ĠgerÃ¤u sch
Ġwol ken
Ġtim es
c om
s ser
u be
Ġm as
st elle
an cen
Ġb aut
Ġver mitteln
Ġl ive
Ġsch Ã¤tzen
Ġviel es
Ġdurch s
Ġgem Ã¼
ĠmÃ¼s sten
Ġzie ht
Ġgrund sÃ¤tzlich
Ġirgend jem
ĠhÃ¶ re
Ġschul d
Ġfreund in
Ġzeich nen
fahr er
Ã¼ch ern
Ġsee le
Ġschreck lich
ograph ie
ĠÃ¶kon om
Ġit alien
. Â«
Ġer gibt
Ġan rei
Ġdies el
Ġst art
Ġkon fr
Ġmehr heit
Ġwissen s
Ġhin dern
ist ische
Ġsol cher
Ġqu asi
Ġbi bli
str en
Ġverm eiden
Ġtie fer
Ġbereich en
tis mus
ĠpersÃ¶n liche
sta at
Ġpfl anz
Ġinspir iert
fÃ¤h ig
mens ionen
Ġeff ekt
o ben
Ġd ns
Ġw isst
Ġin halt
Ġer laub
Ġaus gew
se e
Ġgr ie
Ġkann te
qu alitÃ¤t
ist ischen
Ġhand el
vers orgung
Ġkultur en
lin ie
Ġhar vard
Ġgeist es
verb rauch
Ġzivil isation
u fel
w ort
Ġg ot
Ġin n
em ber
Ġr i
ig te
re u
ag o
Ġvor zu
Ġvor ne
oll y
Ġwur z
ko mm
ul pt
Ġse quenz
Ġgef allen
Ġstu fe
Ġfrei en
Ġwirtschaft lichen
Ġrie f
Ġop en
Ġsitu ationen
Ġentdeck te
Ġgebe ten
Ġverbesser t
ĠlÃ¤ch eln
f ig
k ung
m ord
p reis
w en
st on
st immen
ei se
ir e
Ġl ager
Ġj an
is ationen
Ġst ock
Ġle ichter
Ġaus gel
rei f
Ġte en
Ġverst eht
Ġarbei ter
Ġverl ust
gew al
Ġho tel
Ġlehr en
Ġkomm ent
Ġunters ucht
Ġleist ungs
Ġdahin ter
ĠmÃ¤ch tig
Ġfein d
l ager
Ġw Ã¤l
Ã¼ che
le y
Ġzu hÃ¶ren
ter e
Ġbe le
Ã¤n e
Ġdar win
for schung
Ġgel Ã¶st
Ġpl att
Ġsei d
Ġlang er
Ġlang frist
Ġbef rei
Ġbau ten
Ġvorher sagen
Ġbereich e
Ġwelch em
bes onder
ĠpersÃ¶n lichen
Ġtransp ar
Ġfaszin ierend
Ġerwachsen e
Ġausw ahl
Ġnotwend ig
Ġep idem
Ġniedr ig
ĠvÃ¶ gel
k ri
k ultur
m ehr
o o
un ken
Ġz eh
Ġk ate
ar ia
Ġp un
ehr en
Ġre al
Ġent stand
ĠgroÃŁ mutter
Ġen den
Ġen tz
Ġhin ten
Ġverb lÃ¼
end ungen
Ġzw ang
Ġmensch licher
Ġstu hl
Ġwill st
iss ionen
Ġschwier iger
Ġris iken
Ġblau en
Ġvertei lt
Ġsign al
Ġbuchsta ben
w enden
Ġa chten
Ġk Ã¶
hr e
Ġauf nahme
Ġmit tag
Ġle dig
rei sen
Ġgeh ol
Ġher ein
Ġverst ehe
ktiv itÃ¤t
Ġins besonder
Ġbesser es
ip e
Ġunterst Ã¼tzt
ĠkÃ¼ mmer
Ġerk rank
Ġdigit alen
Ġoper ation
b urg
o zi
Ġs l
Ġw ahn
Ġm ale
ei le
Ġp ingu
den kt
Ġauf nehmen
ck ten
Ġso viel
Ġwer bung
kt on
ma ter
Ġmo dern
Ġhei ÃŁ
Ġgrund le
Ġstu dent
Ġwor auf
Ġwor ld
fer nen
Ġfest stellen
Ġkrie gs
Ġat men
ĠsÃ¼ ÃŁ
ĠÃ¤hn liche
Ġstr eit
Ġschrei b
Ġwechs el
grÃ¼n det
Ġirgendjem and
Ġledig lich
h u
z ig
er ung
ie in
ie sen
Ġe ier
Ġz ahn
Ġp an
Ġp at
Ġt op
Ġl ungen
Ġst anden
Ġaus sage
be vÃ¶lker
Ġre chen
Ġent fernen
Ġgeh Ã¶r
Ġleben ser
Ġne tt
Ġob je
Ġfl u
Ġbr ut
Ġbesch rieben
Ġanf Ã¼hr
Ġanders on
bil den
Ġtausen den
Ã¤us ern
Ġerinner ungen
Ġtransp or
kar ten
Ġwest lichen
Ġstrate gie
Ġinstr ument
Ġfranz Ã¶s
Ġeindeu tig
Ġdiesel ben
Ġinsbesonder e
h eim
u blik
y l
Ġb ur
Ġh ind
Ġh unde
Ġin iti
ein halb
Ġr ollen
wei le
Ġhier her
Ã¶r ungen
Ġkon gress
Ã¤t ter
Ġbes itzt
me chan
Ġber Ã¼hrt
tik a
Ġbild ungs
iz iert
zie ht
Ġkur s
system e
ĠsÃ¼ den
Ġanw endung
Ġfahr rad
Ġwider stand
ĠstÃ¤r ke
Ġmolek Ã¼l
Ġlok alen
Ġet c
Ġhum an
Ġbelie b
ausen de
Ġkontin ent
Ġbrie f
Ġech tzeit
Ġbeinhal tet
bevÃ¶lker ung
k tes
p ha
v is
v iert
Ġa tt
ei len
ei lt
hr op
al og
Ġge gend
Ġmein te
rei bung
wei te
Ġher ren
ver halten
bar er
Ġgef Ã¤llt
Ġson der
id a
Ġwirtschaft liche
Ġerh ielt
Ġschein bar
Ġsk la
Ġju li
Ġverh and
Ġgemeinsam e
Ġdiag ramm
Ġra ke
ĠflÃ¼ cht
othe k
proble m
Ġyo ut
a kt
p el
s ich
Ġb ietet
Ġh ell
Ġk ochen
ber g
Ġha ar
tz e
Ġvor zustellen
Ġent hÃ¤lt
Ġwo fÃ¼r
Ġbes agt
Ġch ic
Ġber ichten
Ġste he
Ġph ot
los igkeit
Ġbetr achte
Ġverk nÃ¼
Ġfrei will
Ġversch m
lieÃŁ end
bo den
Ġak adem
Ġpf und
Ġgesp ielt
Ġkompli ziert
Ġpositiv e
Ġstamm zellen
Ġgalax ie
Ġdurchschnitt liche
Ġkombin ation
ĠgrÃ¼ nen
Ġtum or
h ese
k ungen
in es
Ġs ur
Ġa spe
Ġein k
ir d
Ġzu fall
Ġman gel
ĠÃ¼ber nehmen
Ġlie fern
Ġmal aria
kl Ã¤r
Ġmoment an
Ġ9 9
Ġjung er
Ġkrei eren
Ġaltern ative
ĠbedÃ¼rf nisse
kele tt
lÃ¶s ung
Ġchemik alien
ĠselbstverstÃ¤nd lich
mater ial
Ġyout ube
t ro
Ġ teles
Ġm r
Ġein gesch
Ġb und
le h
ar tet
Ġau stau
Ġan p
Ġan schein
Ġan stren
Ġt ur
Ġt our
Ġge grÃ¼ndet
Ġr ennen
Ġr hyth
Ġso was
Ġje wei
ke tte
Ġwirk liche
Ġbes essen
Ġbil lig
Ġweiter er
Ġzusammen f
ha ften
Ġkomp onen
ĠfÃ¼hr ungs
Ġsy nt
Ġbau ch
Ġdrau f
Ġwin ter
Ġoze ane
icher heit
Ġpoten tial
ĠÃ¤uÃŁer st
Ġfabr ik
Ġgeor ge
d o
g ut
i tel
t an
w esen
Ġd roh
Ġs enden
Ġein iges
Ġk ra
Ġan h
Ġver gewal
is e
re tt
Ġwei hn
Ġsp ringen
isch em
li cken
Ġte ufel
ang er
Ġlie b
he y
lie d
Ġbl umen
des ign
Ġmensch liches
Ġ200 8
Ġ7 5
ĠÃ¼berr asch
ive au
Ġchar les
ĠÃ¼berw inden
Ġgele bt
Ġhall o
Ġgegensei tig
Ġkogn itiv
Ġfrancis co
a pp
z esse
en der
Ġn asa
Ġman chen
tion en
ern e
Ġmen gen
Ġunter richten
Ġzwei fel
rin ge
Ġhei sst
Ġgrund lage
Ġdr Ã¼cken
ĠverÃ¤nder te
Ġwirtschaft sw
Ġfeh l
Ġsicherheit s
spro zess
Ġdigit ale
Ġwechs eln
ĠgrÃ¼ ne
Ġpau l
ĠerhÃ¶ hen
Ġakzep tieren
Ġpak istan
a el
g elt
Ġa ir
ich ern
Ġg re
Ġb Ã¤
Ġk abel
ah nen
Ġc l
Ġab sicht
Ġeinfach es
Ġgew iss
ger t
Ġglau bte
Ġerf indung
Ġverst Ã¤r
Ġbr Ã¼cke
ĠweiÃŁ t
spr ach
ic a
Ġafrik anischen
ĠgroÃŁar tigen
ĠkÃ¼ ste
Ġneur ow
Ġblau e
Ġverwand elt
Ġgere chtigkeit
Ġsym pt
Ġfaszin iert
Ġlok ale
Ġstatist iken
Ġhung er
Ġtrin ken
b eln
in ken
Ġw Ã¼s
as ie
or es
Ġp ra
Ġl ass
Ġr um
Ġst ahl
Ġman ip
Ġaus b
Ġkon zep
Ġab l
Ġ2 3
ru h
ges amt
ler nen
Ġzei gten
Ġteil weise
Ġfunktion ierte
Ġged Ã¤chtnis
Ġmom ente
Ġoffen bar
Ġunglaub lichen
Ġtro cken
Ġanst elle
Ġwert voll
Ġgesam t
Ġfar b
Ġaktiv itÃ¤ten
Ġmedizin ischen
Ġkri min
ĠsÃ¼d afrika
Ġerd be
Ġjahrzeh nten
Ġhy per
Ġerwei tern
Ġken ia
- ,
c in
d ollar
in st
Ġg ig
Ġein stellung
Ġn ase
Ġf roh
Ġan hand
Ġan erken
Ġver sp
Ġauf bau
ĠÃ¼ber qu
Ġges ichter
Ġvor der
sp ar
Ġgew Ã¤hlt
ul s
ad el
Ġgem Ã¤l
Ġbl att
rÃ¤ ume
Ġinnov ationen
arbeit ung
Ġterror ismus
ĠÃ¼berraschen d
Ġspekt rum
Ġliter atur
b ungen
b Ã¼cher
k ul
Ġs tern
Ġh alt
Ġk art
al te
ach er
Ġt Ã¤u
Ġl eiten
Ġr ation
Ġbe zeichnen
Ġsch Ã¤tz
Ġda men
Ġaus ges
Ġvor teile
Ġre alen
Ġre lev
tig ten
Ġgesch w
Ġgesch lossen
Ġzeit ung
Ġgeb iete
Ã¤u fer
zi pl
Ġmei ster
pro zess
Ġbek annten
Ġbed arf
Ġbau te
Ġveran st
Ġsk ulpt
Ġjen er
Ġtransp ort
beh Ã¶r
Ġsign ale
ĠwÃ¼ ste
Ġereig nis
ĠursprÃ¼n glich
Ġruss land
Ġautoma tisch
Ġbilli onen
Ġzau ber
Ġkonfr on
b iert
g ing
t al
v o
z ten
Ġa lex
Ġn Ã¤hr
Ã¤ ft
Ġl anden
Ġl Ã¤nd
Ġj ames
Ġsch ritte
Ġst ir
Ġle ktion
Ġgen Ã¼
Ã¼h e
Ġwirk ung
ger ung
Ġste ve
Ġbr Ã¼
bil der
Ġ6 00
kon tr
sÃ¤tz e
Ġmer ken
fre und
Ġspeziel len
Ġinn ere
p unkte
z z
Ġw ach
Ġg Ã¶
Ġf Ã¤hrt
ten d
Ġzu sÃ¤tzlich
Ġt ren
eh ung
re cken
be t
ik t
men sch
men ge
Ġunter haltung
Ġzwei mal
Ġgeb raucht
dien st
dr Ã¼ckt
Ġdi pl
Ġfal schen
Ġster nen
sto ffen
Ġans ieht
Ġfortsch ritte
tau sen
mu ster
Ġ201 0
Ġil l
ĠsÃ¤u ge
Ġbehaup ten
wechs el
cy c
Ġkir che
Ġorig in
fÃ¶r m
Ġelef anten
Ġerleb nis
Ġchic ago
e ten
n Ã¼tz
Ġa th
Ġh u
Ġk och
Ġk Ã¼hl
hr t
ach ter
Ġbe komme
Ġst Ã¼r
Ġle be
Ġum s
am s
Ġdar gestellt
Ġleben dig
Ġdurch fÃ¼hren
Ġgew Ã¶h
Ġgel ie
Ġwel ten
Ġgegen wart
Ġwor an
Ġ19 4
Ġanf ing
Ġkor re
Ġru fen
Ġinteressan tes
Ġkosten los
Ġsh ow
Ġperfe kte
Ġwebs eite
Ġbiolog ische
Ġdauer te
Ġsow eit
gesell schaft
Ġnu kle
Ġaufgew achsen
Ġgot tes
d lichen
h ung
r el
r ichtet
s oren
ie d
Ġs Ã¤
ich e
Ġm och
Ġm io
Ġi mmun
es ie
Ġl Ã¼gen
and id
Ã¶n t
li schen
Ġunter sch
Ġhin unter
ster ben
ĠfÃ¼hr er
Ġmar ket
Ġfol ie
ĠglÃ¼ck licherweise
gang s
Ġ[ "
Ġkap itel
Ġsor g
Ġtrans form
Ġvorstell ungen
Ġgeburt stag
Ġuntersuch ung
pfl anzen
Ġangel es
Ġniger ia
Ġteen ager
b om
k tiver
p os
Ġs eht
Ġg al
Ġv Ã¶lker
Ġh ing
le b
Ġsch en
Ġo kt
Ġo hren
Ġum her
am our
ne y
Ġch ancen
bst off
gel assen
pro bieren
Ġverl ang
ĠfÃ¼hr ten
Ġgemein samen
ĠlÃ¶ cher
Ġfin gen
dr Ã¼ck
Ġverg lichen
Ġafrik as
Ġern euer
Ġbeob achte
Ġpf lege
Ġsicht bar
Ġtri ck
Ġwes halb
Ġprinzip ien
az on
Ġprofess ion
Ġresult at
Ġmetap her
e ch
k rÃ¤fte
Ġs ing
Ġf lex
ur ce
Ġge g
Ġauf f
is ierung
Ġwie viel
Ġbei bringen
ste chn
Ġmich ael
Ġc om
ver t
tiv e
me tho
Ġverb rechen
Ġber Ã¼ck
qu elle
Ġeinz eln
Ġgemein schaften
Ġqu er
Ġhe y
Ġbez Ã¼
Ġverschw unden
Ġschick sal
produ ktion
Ġsto ppen
Ġchines ische
leist ungen
Ġsogen annte
Ġmic ro
Ġzeh nt
f ung
k omp
p hen
s es
t Ã¤u
u hr
z um
un e
Ġa p
Ġg Ã¼nst
Ġi p
Ġn ar
Ġan nahme
ur z
Ġt reiben
Ġr Ã¤ume
Ġbe dien
Ġle h
Ġsp ann
Ġunter en
tr itt
tier ung
zi al
Ġgl Ã¼h
Ġtra fen
Ġstar ben
no mmen
zei gen
Ġorganis ieren
spie gel
Ġbemer kte
Ġphysik al
Ġkan ada
Ġmoral ische
ĠprÃ¤sen tation
Ġmittler weile
ox id
Ġtru g
Ġmerk wÃ¼r
Ġbund es
ĠgenÃ¼ gend
a zin
k ing
k la
u tern
v ater
Ġd umm
Ġs ar
Ġs amen
Ġe li
Ġm isch
Ġun fall
Ġun mittel
Ġb Ã¶se
Ġh Ã¶l
Ġh ielten
Ġl ab
Ġst an
and t
Ġre tt
Ġar z
Ġdar stellung
Ġall tag
Ġab h
Ġbes orgt
ick en
Ġch ip
Ã¼hr ung
Ġgeb rochen
Ġgl amour
oh nt
reich e
Ġwenig stens
Ġbeein dru
Ġkomplex en
Ġentscheiden d
sm od
ĠmÃ¤nn chen
Ġsor ge
Ġjahrzeh nte
Ġgehol fen
c omp
f liegen
y mp
sch m
sch riften
Ã¶ ser
it ation
Ġan n
Ġt anzen
Ġo st
Ġaus ger
Ġaus ser
eu ert
Ġdar stellt
Ġam azon
Ġen er
Ġzusammen arbeiten
Ġreg ionen
Ġph ase
Ġwor um
Ġins gesamt
Ġbek annte
ord in
ĠÃ¶ffent lich
ograf ie
Ġnutz ung
Ġlangsam er
Ġantwor tete
ĠhÃ¶r ten
Ġkonzentr iert
Ġnachhal tigkeit
Ġvorstell ungskraft
leist ung
Ġgenie ÃŁen
Ġwik ipe
er te
Ġa ktion
st Ã¼cke
Ġb la
Ġn oten
Ġn annten
Ġk alt
Ġwir ken
ge gangen
Ġer he
Ġr Ã¶
Ġbe achten
Ġbe zahl
Ġaus stellung
Ġsp enden
Ã¶r tlich
Ġkon serv
Ġ2 2
ran che
Ġvers agen
zen z
geb iet
Ġschl ei
gesch windigkeit
Ġoffen en
Ġpar is
Ġhil fs
Ġ200 7
Ġbet reiben
Ġmusik er
Ġfeh lt
Ġstr and
lei b
Ġprogramm ieren
Ġschwe den
Ġtrau rig
win kel
Ġtrei b
Ġbetrie ben
Ġnerv enz
ĠmÃ¤r kte
Ġas ien
ĠbezÃ¼ glich
d ieren
h ere
k rise
y m
Ġm art
on ien
Ġauf gere
is on
Ġaus gesetzt
Ġwei s
Ġnach ged
Ġent halten
hal ts
mit glie
Ã¤l tigen
Ġzusammen zu
Ġtats Ã¤ch
pl ant
Ġern eut
Ġmag ie
system s
hol z
Ġfolgen den
Ġerk annt
ĠtrÃ¤ umen
ĠverÃ¶ffent lichen
Ġinspir ieren
zw ungen
Ġregier ungs
Ġeinsch rÃ¤n
Ġanti bio
Ġverste ckt
Ġhor iz
Ġklassen zimmer
Ġkamp agne
Ġgri ppe
a ber
e p
h lung
k ap
Ġw h
Ġi phone
Ġf utter
Ġan ony
is men
ĠfÃ¼r s
Ġgeh ei
Ġab fall
Ġ2 7
Ã¼s sen
mit tag
Ġhin auf
Ġhei len
Ġsti m
Ġqu ellen
Ġbo ston
Ġang em
schn eiden
Ġtie fen
Ġdrit tens
Ġbas ierend
lin ien
rÃ¼ stung
kehr t
Ġschrei bt
ath ie
Ġdeta il
Ġerwei ter
Ġereig nisse
Ġfrem den
ĠgerÃ¤u sche
Ġumf assen
Ġbeteil igt
Ġdopp elt
Ġfok us
gri ffen
Ġbegeg nen
Ġfrank reich
Ġwettbewer b
Ġdeb atte
Ġcy ber
Ġwikipe dia
Ġnachged acht
k Ã¼r
u ar
Ġ $
Ġd Ã¶r
Ġun wahr
Ġn ir
Ġwir kt
Ġp in
Ġver dient
Ġl ine
Ġbe wirken
Ġauf nahmen
Ġvon einander
Ġ1 000
Ġunter richt
Ġc an
Ġwo von
eil ung
Ã¤l ter
auf nahme
Ġletz ter
wie sen
Ġdir e
Ġerh ol
Ġru he
Ġalter s
Ġsuch te
Ġgol den
Ġinformation s
Ġvergangen en
Ġhinzu fÃ¼gen
Ġstre ben
Ġuner war
Ġgek auft
ĠernÃ¤hr ung
ĠjÃ¼n g
Ġfok uss
ĠspÃ¼r en
Ġrestauran t
Ġschne e
olly wood
Ġmarket ing
a a
w ald
y r
Ġa bt
Ġe u
Ġh ir
Ġin zwischen
Ġder selben
ti en
Ġver ur
Ġpro gramme
Ġviel mehr
Ġleben den
wer ken
Ġex pl
Ġirgend eine
Ġmin i
Ġspiel zeug
Ġunivers ity
Ġkind es
Ġhinter lassen
Ġglob al
Ġhe ben
Ġdein er
ĠbevÃ¶lker ungs
uell er
Ġsonnen licht
Ġredu ziert
Ġspeziel l
Ġschei tern
Ġingenie ur
ober flÃ¤che
Ġarg ument
Ġentfern ung
Ġabges ehen
Ġreag iert
Ġstat us
Ġwahn sinn
Ġgrundle gend
iein halb
ĠanfÃ¼hr er
b ro
b ringt
f i
f ischen
k u
en ter
Ġd ienen
Ġun vor
Ġg ps
Ã¼ tter
Ġin fe
Ġan gen
Ġl ad
Ġbe enden
Ġsch Ã¤
Ġsch icht
Ġst Ã¤
Ġges amm
Ġsp er
ien ce
Ġunter wegs
Ġgro sse
Ã¼n den
we ich
wer ten
ma ils
Ġglau bten
Ġteil nehmer
Ġschw ere
Ġhal f
Ġbeein druck
Ġdein em
Ġweltw eiten
Ġansch aut
ho f
bew usst
Ġarme e
ĠerhÃ¶ ht
Ġarab ischen
Ġletzt lich
Ġd Ã¼
Ġm isst
ei det
Ġb ahn
on ent
le ute
Ġp y
Ġer geben
Ġan gesch
ier ungs
ol er
Ġj er
Ġsch am
Ġsch me
be kommen
Ġre k
om as
ab l
Ġmehr eren
Ã¼n der
Ġzeit raum
Ġme ere
Ġvers orgen
ster o
Ġgel ang
Ã¤l te
Ġfl Ã¤che
ok ay
Ġhand ys
Ġschl acht
Ġcomp utern
Ġverf ahren
Ġ200 5
Ġschwier ige
Ġniem anden
ĠkÃ¤ mpf
Ġrep ublik
ĠpersÃ¶n lichkeit
ĠÃ¤r m
Ġmikro skop
Ġgesicht s
Ġkontroll iert
Ġplan en
Ġkamer as
Ġrau b
Ġpoten zial
Ġfantast ische
Ġprote ine
samm lung
Ġdepress ion
Ġgetr ennt
Ġcha os
ĠbekÃ¤ mpfen
Ġzunehmen d
Ġgeschen k
ĠverblÃ¼ ffen
Ġaspe kte
Ġanschein end
Ġaufgere gt
c ol
s uch
x i
Ġd ichte
un ruh
st ation
ei gt
Ġh Ã¤ngen
hr er
Ġbe unruh
Ġall tÃ¤
Ġerf ol
Ġfl or
Ġfl Ã¤chen
Ġeinz us
Ġwichtig es
sam e
Ġverl iert
Ġph o
Ġgar an
fÃ¼hr t
Ġkrie ges
Ġdich ter
Ġschau ten
Ġkranken h
Ġzerst Ã¶rung
ĠÃ¤lter en
Ġdra ht
Ġet hn
Ġirgendw el
Ġpr esse
Ġwiederhol en
Ġinstr umente
pfl anz
Ġklei dung
Ġwom it
Ġkate g
Ġneurow issenschaft
e g
h andel
l esen
Ġw em
Ġein geb
Ġein geladen
Ġh Ã¼h
Ġh ieÃŁ
ar ma
sch i
or y
Ġsch ach
ehr t
Ġvor hin
Ġent sp
ver mÃ¶gen
Ġwo w
Ġerf assen
Ġkre dit
Ġbedeute te
Ġbesonder en
Ġverm ute
mp ft
Ġru f
Ġli ber
Ġmittel s
ĠstÃ¼ck e
Ġneben bei
Ġsicht weise
Ġanderer seits
Ġdun klen
Ġelektr ische
Ġ25 0
Ġernst haft
Ġfei ern
Ġkonse quenzen
Ġlangwei lig
Ġlebenser wart
Ġerdbe ben
ĠgemÃ¤l de
c ar
k Ã¶rper
k Ã¼ste
z a
Ġ ult
Ġd h
Ġa kte
Ġun geh
Ġb g
Ġb ord
Ġi mm
Ġz y
Ã¤ sser
gen er
el ang
ti c
Ġer b
Ġan passen
Ġt aschen
Ġbe u
Ġsch alt
Ġvor sichtig
Ġsp an
Ġgesch ma
ri ffen
ob el
Ġbeg reifen
ster blichkeit
war d
Ġde cke
Ġschl ussen
Ġdi abe
Ġdi mensionen
ĠhÃ¶ here
Ġwunder baren
Ġwirtschaft s
Ġange ht
Ġerw Ã¤r
Ġkrie ge
Ġfa ktor
Ġaben te
ĠÃ¤ ra
Ġinspir ation
Ġgere ttet
Ġwachstum s
Ġverurs achen
Ġwinz ig
ĠflÃ¼ gel
ĠhÃ¶ch st
Ġdok umen
Ġbemerkens wert
Ġerwart ungen
Ġschlussen dlich
c i
p ri
r ang
Ġd icht
Ġw id
Ġa stero
an dern
Ġb ang
Ã¼ ge
Ġf au
Ġp ollen
Ġver de
Ġt herap
Ġl ate
Ġj uni
Ġbe zeichnet
Ġle gt
Ġle uchten
Ġmach st
Ġme th
Ġdrei dimension
Ġmo de
Ġkur ve
Ġbo x
Ġro bert
Ġanst ieg
ĠÃ¤hn liches
ĠgebÃ¤u den
Ġricht ungen
Ġgene tische
Ġinvest iert
spro ble
Ġentdeck ungen
stu hl
Ġphysik er
Ġverbr eitung
vie le
Ġreaktion en
Ġingenie ure
Ġeigent liche
Ġumzu gehen
ĠverrÃ¼ck te
schlÃ¤ ge
Ġchir urg
Ġalgorith men
Ġkna pp
Ġlate in
g Ã¤nger
n chen
x is
z ahlen
Ġg han
Ġein gefÃ¼hrt
Ġwen den
at s
Ġre zept
Ġc m
tr u
ob i
Ġger Ã¼
Ġgel assen
ger Ã¤te
Ġwahr nehmen
Ġaut on
Ġph ant
Ġy e
ĠschÃ¶n es
ic s
Ġ200 9
Ġchin esen
Ġsu bst
Ġpri or
lei ter
ĠgeschÃ¤ fte
Ġpsych ologie
Ġteam s
wissen schaften
Ġspeziel le
ĠwÃ¼n schte
Ġgrundlegen den
zÃ¼ ge
Ġvorber eitet
ĠÃ¤gyp ten
ĠÃ¼berrasch ung
Ġhoriz ont
d at
w el
Ġ ug
ie f
Ġs kelett
Ġm ig
st anden
ei s
Ġk Ã¼n
Ġal pha
ge kommen
Ġver lauf
Ġge zogen
Ġl ar
Ġr as
Ġmit nehmen
Ġher stellung
Ġte le
ot s
Ġeigen schaft
Ġbl Ã¤tter
Ġgegen den
Ġverw en
Ġmar ken
Ġrei hen
Ġstar ken
Ġang riff
Ġwunder voll
Ġbevor zu
Ġkultur elle
Ġthe orien
Ġober en
Ġfa ktoren
Ġis land
Ġhunder tt
Ġhar te
Ġdefin iert
Ġmiss b
Ġstre et
Ġhig gs
ba ck
ĠlÃ¤ch er
Ġei sen
Ġdok ument
Ġmobil te
Ġbesuch te
Ġmusli m
Ġol ymp
f ot
m esser
v ort
Ġw ahlen
Ġb rechen
ir k
Ġf alten
ge zogen
ach ung
Ġan k
Ġan halten
Ġt in
Ġaus geben
ĠÃ¼ber t
Ġim pro
Ġsp Ã¤ten
Ġre cyc
Ġbei des
rei ft
Ġc amp
Ġgro ssen
Ġwelt krieg
Ġbes ei
ru f
Ġpa zi
Ġber ge
Ġerf Ã¼llen
Ġlei ter
Ġspr ung
Ġschu he
Ġbi om
Ġpoli tisch
Ġafrik aner
Ġbet on
zeich nungen
Ġgener al
Ġschul ter
fin det
Ġpart ei
Ġzent rale
Ġberu h
Ġmet all
Ġterror isten
Ġth omas
ĠernÃ¤hr en
Ġschlimm ste
ĠauÃŁergewÃ¶hn lich
zÃ¼ g
Ġdunkel heit
Ġberech nen
Ġflag ge
ĠgemÃ¼ se
Ġarz n
Ġweis heit
f and
r ieren
Ġd on
Ġd ist
in t
in er
Ġv i
Ġv ag
Ġn iveau
Ã¼ ter
den z
Ġbe herr
Ġden selben
il len
Ġvor gehen
Ġwei sen
Ġent tÃ¤u
Ġko mmer
Ġc le
Ġkein es
ver l
ma tik
geb Ã¤u
Ġtechn ischen
Ġbr and
kl asse
Ġschl ug
Ġbef eh
Ã¼l le
so ft
mittel t
Ġtau chen
Ġange legen
Ġthe ore
Ġinteressan ten
sta mm
amp e
Ġstud iert
Ġad am
Ġschmer zen
Ġexp los
Ġind ischen
Ġnachbar schaft
Ġbat terie
Ġhum or
Ġbrust krebs
Ġweib chen
ĠjÃ¼n ger
Ġsm s
Ġkauf te
Ġintens iv
Ġbedroh ung
Ġspir it
comp uter
Ġantibio tika
Ġlebenserwart ung
5 00
d ach
d liche
i me
n Ã¼gen
p olitik
Ġn eigen
sch icht
au ten
ein s
Ġan zusehen
Ġha iti
Ġauf treten
Ġda zwischen
Ġgr iff
Ġko ordin
Ġc or
Ġc enter
Ã¤r m
Ġlie bte
ges pr
Ġse ch
Ġob ama
Ġger icht
ichte te
ĠzurÃ¼ck kehren
gr enz
Ġdank bar
Ġlin ke
Ġho her
fÃ¼hr er
Ġsinn voll
vi leg
Ġris k
Ġvis uelle
ĠÃ¤nder ungen
Ġbro w
Ġanal yse
Ġkreativ en
Ġdenk weise
Ġbetrie b
Ġinteressanter weise
Ġsogen annten
Ġproje kten
ĠzÃ¤h ne
Ġanru f
stimm ung
Ġruh ig
fun ktion
Ġhyp ot
izi ent
Ġbibli othek
ĠlÃ¤nd lichen
Ã¶nt gen
f ang
s un
w ellen
an lage
Ġv ierte
Ġz Ã¤hlt
ar r
em e
em in
Ġha cker
Ġver schie
ur op
Ġge zwungen
Ġsch ok
Ġsch ild
ra tet
Ġwar te
Ġvor wÃ¤rts
Ġre cher
Ġbei gebracht
ste te
rau en
Ġwelt bevÃ¶lkerung
ot a
Ġbes ucht
Ġgem essen
Ġber Ã¼hren
Ã¤u fe
Ġweiter entwick
Ġbr un
Ġaut om
Ġproblem s
Ġwasser stoff
gra ben
Ġverg nÃ¼gen
Ġnah en
Ġ6 5
Ġhoff nungs
hol t
gem acht
Ġnation ale
Ġka tze
Ġchem ische
Ġempf inden
mar k
ĠerklÃ¤r te
ĠstÃ¤r k
Ġerfor scht
Ġurspr ung
Ġexp onent
ĠwÃ¼ tend
Ġeinzig artig
Ġfett leib
Ġghan a
d ro
f tig
h ar
p u
w Ã¶rter
in ess
st Ã¼r
Ġh itze
sch ten
Ġver dr
ier ungen
Ġr itu
Ġst ap
Ġle er
Ġle ber
Ġaus machen
Ġum stÃ¤nden
Ġges unden
eu ern
om at
ien s
Ã¶r tern
mal en
Ġen kel
Ġhin blick
di zin
Ġgegen wÃ¤r
Ġbesch reibt
Ġfunktion en
Ġwissenschaft lern
gesch Ã¤ft
Ġerh Ã¶h
cke t
Ġro ck
Ġdis zipl
Ġyor ker
Ġkn ie
Ġgene tischen
ĠÃ¤lter e
Ġnachhal tig
Ġmy th
Ġverfol gt
ĠwÃ¼n sche
Ġku h
Ġgespr Ã¤che
Ġseltsam e
ĠberÃ¼h mt
Ġkla vier
Ġprivat sphÃ¤re
Ġneg ativ
ttel n
Ġmos k
Ġjan uar
Ġkonfron tiert
Ġflex i
b rech
d ringen
i ce
t in
er k
Ġs w
st isch
ei ter
ei hen
Ġh Ã¤ss
Ġz ig
der m
Ġha ie
ag te
Ġsp innen
men schen
ieren den
Ġc ir
Ġkon go
Ġbes a
Ġinter aktiv
Ġgew ann
Ġger uch
Ġex akt
oh len
ĠÃ¶ fter
Ġzw eit
Ġverw endung
Ġhei raten
kl ar
Ġverschieden er
Ġsa al
gesch lagen
Ġsystem en
Ġpoli o
Ġwunder volle
Ġgesundheit ssystem
Ġpri vileg
ĠprÃ¤ z
zus p
Ġjen en
Ġinst in
Ġauss ah
Ġfant asie
Ġanal og
Ġ199 0
Ġidenti fizieren
Ġprote in
Ġbiolog ischen
Ġtrain ing
masch inen
ĠwÃ¼n schen
Ġnerv Ã¶s
Ġmitglie der
Ġanalys ieren
fir ma
Ġoff iz
Ġsympt ome
" ]
b ur
i as
k ra
v ide
Ġa st
Ġm ama
Ġein richtungen
Ġk andid
sch we
Ġau tismus
Ġan gehen
Ġha i
Ġr Ã¶ntgen
Ġbe wir
Ġum so
Ġum wand
ĠkÃ¶n ne
os si
Ġdurch zu
Ġwo zu
Ġneu igkeiten
for dern
Ġber icht
Ġgeb rau
Ġerf inder
Ġmal en
gef allen
ha i
ĠglÃ¼ck licher
Ġsystem s
Ġgest artet
âĢ Ŀ
alis ierte
ĠfrÃ¼h e
Ġgra v
Ġkor e
Ġstr Ã¶
Ġphys ische
Ġnation alen
Ġinvest itionen
Ġschau e
Ġ12 0
Ġanges ichts
ose x
ĠhÃ¶ch sten
Ġku gel
Ġvern Ã¼nf
mel zen
Ġweib liche
gleich en
fil m
ĠwÃ¤r me
Ġbud d
Ġ196 0
ĠwunderschÃ¶n e
Ġchir ur
Ġstau b
Ġwirtschaftsw achstum
Ġbeeindruck end
d on
i ft
l ass
m Ã¤n
m ern
u ÃŁ
y a
Ġs tet
Ġa v
Ġb ier
Ġh assen
sch iff
Ġdies mal
Ġge te
Ġl ast
Ġl ese
Ġst ieg
Ġle vel
Ġpro ben
Ġgr aus
ĠâĢ ľ
Ġme tern
Ġgel b
geb iete
Ġzusammen ge
ĠzurÃ¼ck gehen
ion s
Ġ3 2
Ġfr ont
Ġbi p
Ġged r
Ġbek ann
Ġpar alle
Ġbed ro
Ġober flÃ¤chen
ow n
Ġsen soren
Ġlern ten
Ġregel mÃ¤ÃŁig
Ġstil le
Ġakt uelle
Ġwinz igen
Ġdiagno st
Ġbeloh nung
ĠwÃ¤l der
Ġepidem ie
Ġmicro soft
Ġnir gend
b ein
e le
h op
w or
Ġm ad
st rÃ¤
Ġg let
Ġk lick
Ġal ko
Ġge eig
Ã¼r en
Ġst ich
Ġaus nahme
and elt
ĠÃ¼ber setzen
Ġges etzt
Ġvor n
scha ffen
Ġviel fÃ¤l
Ġmus kel
Ġmus keln
Ġ2 6
Ġ2 8
Ġse le
zent ration
Ġschw ach
Ġbi bel
Ġsa ÃŁen
Ġunivers itÃ¤ten
ischer weise
Ġkar ik
Ġmusik al
Ġat omen
Ġeng lischen
Ġdesign s
Ġres er
Ġkap utt
jÃ¤hr iger
ĠstÃ¤r ken
Ġtradition elle
ĠtÃ¼r k
Ġschlechte s
Ġmathematik er
Ġsc ience
Ġmy ster
ĠerwÃ¤h nen
ĠhÃ¶her en
Ġverste cken
Ġignor ieren
Ġrech ner
Ġsal z
Ġkapit alismus
Ġplatt form
Ġhind urch
Ġstir bt
Ġungeh euer
Ġabente uer
b ie
e ff
k w
m ein
m illi
s ol
Ġm au
Ġm Ã¼n
st att
Ġg Ã¤n
an lagen
Ġein gehen
Ġv an
Ġh on
Ġk g
Ã¤ gt
Ġt her
Ġbe fÃ¼r
Ġda me
Ġman h
Ġvor schlag
Ġar k
Ġpro zesse
uch tet
Ġc art
Ã¤h en
Ġab gesch
Ġeinfach heit
che ster
des igner
Ġgleich gewicht
Ġschw anger
Ġbr ill
Ġma mm
Ġgemein nÃ¼tz
tra gs
Ġkre ative
ĠhÃ¶ hlen
Ġpoli zi
Ġlehr e
ĠgrÃ¼n dete
Ġflie gt
ucht ung
Ġbel ast
Ġbas e
Ġjen em
Ġjen seits
Ġries iges
sto ÃŁen
Ġfahr zeug
sta aten
ĠtrÃ¤ nen
Ġelektr ischen
Ġzerst Ã¶r
Ġstaat s
Ġpe ter
Ġkonflik te
Ġchines ischen
Ġirgendein em
ĠÃ¶kon omen
Ġtrag Ã¶
Ġszen e
Ġdreh te
Ġneugier ig
Ġstudi o
Ġentsch lossen
Ġrepar ieren
Ġfru str
Ġteles kop
Ġkomponen ten
Ġangem essen
Ġexpl od
ĠÃ¤rm sten
Ġdiabe tes
Ġschok ol
a ff
g in
g Ã¤nge
Ġ Ã¤t
Ġw ut
Ġm ak
st Ã¤d
st eigen
Ġh oh
Ġk y
Ġk Ã¶r
le tz
Ġin klus
or a
Ġge ome
ck ung
Ġvor gang
li ste
Ã¤ch er
Ġbil det
di o
ger ufen
Ġsystem a
kun st
Ġget eilt
alis ierten
Ġschwer er
Ġwohl be
âĢľ .
Ġmedi um
Ġflie ge
Ġschwe stern
Ġmoral ischen
Ġnahe zu
Ġbenutz e
ĠfÃ¼ ÃŁe
Ġbus h
ĠprÃ¤si denten
ĠbedÃ¼rf nis
Ġjo e
Ġkatastrop he
Ġdurchschnit tlich
Ġdutzen d
Ġref lek
Ġprototyp en
Ġurs ache
Ġtranspar enz
Ġweihn acht
Ġstan ford
Ġtreib haus
Ġalko hol
b rochen
h am
i tiert
k al
k ind
s l
t yp
en k
Ġs us
an al
Ġb ob
Ġh ob
Ġf ossi
le tzt
Ġin vol
Ġver mÃ¶gen
Ġl Ã¤ng
Ġr en
is ierte
Ġo hr
Ġnach frage
zu stand
Ġleben de
ru fen
Ġme et
Ġklein ere
la tz
Ġgeb ieten
Ġja ck
Ġ3 6
Ġbr ach
Ġ19 5
ĠauÃŁer orden
Ġspe icher
Ġorgan e
Ġorganis iert
Ġorganis mus
stra tion
ĠkÃ¼ che
Ġehr e
Ġvis u
Ġzug leich
ĠÃ¤nder te
ĠÃ¶ff net
reg ierung
geh Ã¶r
Ġapp le
Ġpoten t
Ġmedikamen ten
Ġechte s
Ġstrate gien
Ġeffizien z
Ġche f
Ġfig ur
Ġspannen d
Ġpflanz e
a ck
g Ã¼l
h st
k inder
l ant
w ehr
st eine
Ġv alle
Ġh ard
Ã¼ d
Ġf ro
Ġin fiziert
ach s
ben d
Ġge Ã¶ff
Ġbe fr
re icht
ver w
Ġneu tr
Ġsta mmen
dr Ã¼cke
mÃ¶ gliche
ph ys
Ġfil men
Ġfa ir
Ġschau spieler
Ġschick te
lef one
Ġaben ds
Ġschlimm sten
ĠhÃ¶he punkt
Ġ198 0
Ġmotiv ation
minister ium
Ġunsicht bar
Ġzentr al
Ġphilosoph ie
Ġkommer ziel
k Ã¶n
n eu
p rin
t n
y to
Ġ :
er z
Ġd um
Ġe go
st il
Ġein be
te ch
te ste
Ġp reise
Ġver lieÃŁ
Ġver arbeiten
Ġj h
Ġj on
Ġaus gehen
ik e
rei te
Ġgi pfel
ing er
Ġhin gehen
Ġsel be
Ġwieder her
olog isch
Ġkl ingen
auf gaben
Ġzw Ã¶l
Ġtra t
Ġbi ologen
gra d
Ġmann es
Ġsozi aler
Ġeben en
Ġausge st
Ġfe ed
Ġfahr er
Ġka tzen
Ġehr en
Ġverle tzt
Ġemotion ale
Ġbenutz ten
Ġlog ik
Ġkonsum enten
Ġwiederhol t
Ġsetz ten
Ġpop ulation
Ġdiagno se
Ġkno pf
Ġbegrenz t
Ġjewei ls
ĠgewÃ¶h nt
Ġgesamm elt
f o
Ġv ul
Ã¼ gel
Ġzu recht
el tern
Ġp um
Ġt alen
Ġr ichten
ck el
ig ht
Ġaus drÃ¼cken
Ġum stÃ¤nde
ĠÃ¼ber fl
Ġges unde
Ġdes ig
Ġnach denkt
igen d
ute t
Ġhin sichtlich
Ġgef ol
Ġheu tige
Ġbl Ã¶
qu ellen
Ġwahr en
Ġteil nehmen
Ġbr eit
Ġmensch lich
ak u
Ġfre ie
Ġ19 50
ĠglÃ¼ck s
Ġdi ent
Ġbesonder es
Ġunternehmen s
ĠÃ¤hn lichen
Ġabsol ute
Ġdau men
Ġenor men
Ġpositiv en
Ġverbesser ung
par k
ĠhÃ¶ch ste
Ġbeit ragen
Ġkompliz ierter
Ġbud get
ĠerÃ¶ff net
Ġmitglie d
Ġtoile tten
Ġdisku tieren
Ġcart o
b ir
c on
d ungs
i i
k Ã¶
en g
Ġw Ã¤nde
st el
Ġg reifen
Ġk ab
ar den
ge legt
Ġver sprechen
Ġver samm
Ġt asche
Ġbe fest
Ġauf einander
Ġaus gaben
Ġvor gestellt
zu kommen
anz ig
Ġkon z
Ġkon st
Ġkein em
Ġte e
pp er
end es
Ġse ktor
Ġvers icher
Ġger aten
di oxid
chn ung
geb ung
rÃ¤ ften
Ġtechn iken
Ġhand lungen
Ġverl or
kl in
Ġwill kommen
Ġmar ke
Ġfest gestellt
ĠfrÃ¼h eren
Ġ200 4
bo ot
Ġinternet s
Ġerfolg s
Ġflie ÃŁen
Ġflie ÃŁt
Ġanw endungen
sk raft
ĠmaÃŁ nahmen
Ġpriv aten
Ġser ie
Ġlok al
Ġvertei len
Ġklin ik
hi op
ausen d
Ġschlag zei
krank heiten
arch ie
Ġresult ate
Ġtex as
Ġdurchschnit ts
Ġungleich heit
ĠjÃ¤hr lich
Ġpingu ine
d is
f elt
f eln
f ache
l ament
p ut
Ġd ru
Ġm Ã¤use
an i
an ia
Ġb Ã¼chern
Ġf Ã¼llen
Ġau g
Ġver zer
Ġr atten
Ġj ur
am er
Ġwer ten
Ġwer det
Ġwelt all
ver sen
Ã¼h en
Ġgew orfen
Ġfra g
chn itten
zen ten
Ġfor der
Ġtechn ische
Ġeinz iges
Ġschw eine
Ġbrau ch
Ġarbeit sp
Ġaut ob
Ġlebens raum
str Ã¶
ogen ese
Ġoffen e
Ġoffen sicht
ogra mm
Ġerh ielten
ĠkÃ¼nst liche
Ġverh ei
Ġentscheiden de
Ġnutz er
Ġaltern ativen
Ġschreck liche
Ġbri tischen
Ġtrei bstoff
Ġentwicklungsl Ã¤nder
hei mer
Ġbom ben
Ġfle derm
Ġverlie bt
Ġanb ieten
Ġverpf lich
Ġwurz eln
Ġbefrei en
leh nen
Ġmoch te
Ġsorg fÃ¤l
Ġirgendwel che
Ġstet s
Ġgete stet
a ti
a tiver
b aum
l ag
l eiten
u ster
er f
un en
Ġe len
st Ã¤t
as ien
Ġzu letzt
Ã¶ ten
Ġal tes
Ġp and
Ġan weis
Ġha are
Ġver teilung
Ġt ritt
Ġl asse
Ġbe ur
Ġwar tet
Ġle b
Ġle gte
Ġaus land
Ġsp itzen
Ġpro bieren
sp er
Ġgr au
Ġvie tn
ĠgroÃŁ zÃ¼g
Ġneu lich
Ġvers orgung
Ġdan ken
Ġfl og
Ġpl us
Ġschw anz
Ġbede ckt
Ġfr ucht
Ġaut hen
?" ,
Ġanf Ã¤ngt
Ġged ichte
Ġbef assen
Ġbeh Ã¶r
Ġdi alog
Ã¼l ern
Ġlu x
Ġ200 6
ott o
vi ce
stra ÃŁe
Ġop tion
Ġanw esen
sto ÃŁ
Ġwil li
amp en
Ġprof it
ĠÃ¤nder ung
ĠtÃ¤ tig
Ġschrei be
Ġdruck er
ĠhÃ¼ b
Ġwoh lt
Ġbeweg ungs
Ġpal Ã¤st
Ġbemerkens werte
ĠreprÃ¤sen tiert
Ġsow je
Ġox yto
Ġass ozi
ĠÃ¼berle bt
Ġev ent
Ġdur fte
Ġaustau sch
gebÃ¤u de
Ġmanh att
ĠÃ¤t hiop
Ġvalle y
ĠgeÃ¶ff net
a mmt
b ru
k i
l Ã¤sst
o st
o sen
t un
Ġ Ã¶rt
in o
an c
Ġb Ã¶sen
Ġz en
Ġwir bel
em a
Ġp or
ach el
Ġver netz
Ġt herapie
Ġbe wohner
Ġsch iz
um b
Ġaus br
Ġaus macht
Ġaus rÃ¼stung
Ġnach mittag
wei st
sp unkt
sp eich
sp anne
ste ckt
li p
Ġunter wasser
Ġdurch einander
ver kehr
ĠgroÃŁ vater
Ġgel angt
Ã¤l le
fl u
Ġkl ug
Ġfl ach
Ġben zin
gar ten
Ġins eln
ĠlÃ¶ wen
Ġbetr Ã¤gt
Ġged ul
dr ehen
ĠschÃ¶n er
ĠÃ¼ ben
Ġpri ma
Ġglob alisierung
gem eine
ĠgebÃ¤u des
Ġausge geben
Ġphys ischen
Ġres pe
stra te
Ġverschw indet
Ġinvest ition
Ġno ti
setz ungen
Ġans ichten
Ġrau chen
Ġkrei ert
grÃ¶ÃŁ e
Ġ197 0
Ġschwei gen
Ġach se
Ġehem ann
Ġtoile tte
Ġberechn ungen
Ġgrie chen
Ġrake ten
Ġpra xis
a ppen
f abr
k ern
l Ã¶sen
s itz
w affen
Ġg ei
ei fen
Ġb licken
te am
ti t
Ġp ein
ge we
Ġge z
Ġl agen
Ġr aten
se x
Ġsp ont
Ġent war
ut h
Ġher ab
Ġunter halb
Ġall gemeine
Ġen zy
mit h
olog ien
Ġor ien
ok ra
Ġfr Ã¼hl
Ġspr ich
Ġph arma
Ġpol ar
Ġbetr acht
Ġmag azin
Ġkultur ellen
Ġto te
rom os
Ġhunder ten
Ġvideo spiele
ĠkÃ¤ fer
Ġweltw eite
Ġon kel
Ġauszu drÃ¼cken
Ġempf ind
ĠbÃ¼rger meister
Ġakt uellen
Ġnachhal tige
Ġbedeuten d
Ġth un
Ġgele hrt
Ġliebl ing
bed ingungen
Ġwa ffe
Ġaussch lieÃŁlich
Ġerl angen
Ġmetap h
Ġkatastrop hen
Ġox ford
Ġnan o
ĠflÃ¼ss igkeit
Ġpfer d
Ġsymme trie
Ġverring ern
ĠkÃ¼mmer t
Ġkonzep te
Ġmart in
Ġug anda
Ġimpro v
Ġarzn ei
Ġoxyto cin
Ġrespe k
f Ã¼hlen
g riff
r Ã¶
s itzen
z ung
Ġs mith
Ġe ver
st unden
Ġun schul
Ġb f
Ġv o
Ġh ass
Ġn imm
Ġder er
Ġp m
Ġp re
Ġer setzt
ben e
ter ien
Ġha m
Ġsch i
Ġsch rieben
eit ungen
re ut
Ġst eig
Ġum gang
Ġum zusetzen
Ġwer be
Ġunter halten
ver hÃ¤lt
ri ck
Ã¼n dung
Ġwirk lichen
he t
Ġne st
Ġselbst mord
Ġwieder auf
fl eisch
Ġbl asen
Ġentw urf
ĠzurÃ¼ck kommen
Ġbesch eid
ap s
Ġschn elle
iv al
Ġsti ck
Ġbew ahren
Ġlehr ern
ord net
Ġkomplex er
Ġerk unden
ĠÃ¤r ger
Ġfahr zeuge
Ġerle digen
Ġvis uellen
wert ung
Ġfel sen
Ġpriv ate
techn ik
Ġbenutz te
ĠhÃ¼ gel
Ġvol ks
Ġbelie bt
Ġangeb ot
ĠauÃŁergewÃ¶hn liche
Ġbehaup te
Ġmechan ismus
Ġdopp el
Ġkontin u
Ġhom o
Ġverwir k
Ġszen ar
Ġjourn alisten
Ġlich ter
kn all
Ġehem al
ĠeuropÃ¤ ischen
ex per
ĠÃ¼berprÃ¼ fen
Ġsymme tr
smod ell
Ġgeschma ck
Ġye ah
Ġmosk it
Ġinklus ive
m or
w ich
as sten
Ġein blick
Ġz ogen
Ġk uchen
Ġk alten
Ġk ub
den k
Ġan spr
de cken
ur r
Ġr Ã¼ber
Ġvor kommen
Ġsp rit
Ġpro b
Ġpro be
ke p
Ġhin weise
ul Ã¤r
Ġgeb rauch
Ġgleich ung
Ġgegen stand
Ġirgend was
Ã¤nd ler
ĠlÃ¶ st
Ġgest altet
Ġamerik as
Ġpar lament
kon stru
Ġbet reten
Ġbet reffen
ĠÃ¼ bung
Ġrich ter
Ġeng agement
Ġ7 00
Ġverein ten
Ġli fe
Ġmat he
Ġfu hren
Ġreich er
Ġanfang s
Ġhar m
Ġelektr onen
Ġintelligen te
Ġentdeck ten
Ġblick winkel
Ġtoll es
az itÃ¤t
Ġcar ol
Ġschie ÃŁen
Ġstatist ik
Ġfrem de
Ġtrin k
Ġarg umen
Ġreicht um
proble me
Ġzufrieden heit
ĠzukÃ¼nf tigen
ĠzukÃ¼nf tige
Ġvirt uellen
Ġdrama tisch
ĠungewÃ¶hn lich
inst it
Ġcle ver
Ġcir ca
Ġbase ball
Ġwohlbe finden
ĠzwÃ¶l f
Ġfeed back
- -
g no
m s
m at
v ern
Ġa qu
Ġein ges
Ġb ig
Ġh ollywood
Ġn adel
Ġk ehr
Ġk ul
ir tschaft
sch ild
ach se
Ġver pa
Ġt ja
Ġge gessen
Ġl im
Ġj Ã¼d
Ġauf trag
eh mer
Ġaus fÃ¼hren
Ġaus wirkung
Ġwas ch
ĠÃ¼ber setzt
Ġwer ke
rei tet
men gen
zu gehen
Ġkon zentration
Ġlie bt
Ġlie bes
lie be
Ã¤u b
Ġbl ase
qu em
op hren
Ġfl asche
Ġfr essen
vers ion
Ġkomp rom
tra gung
Ġgest o
Ġti tan
Ġafrik anische
unter richt
Ġange trieben
Ġ9 5
Ġanzu gehen
Ġsk al
stÃ¤nd ige
tis ieren
Ġempf eh
Ġverbr ennen
sor gan
Ġprak ti
Ġprote st
Ġwinz ige
Ġschie f
the orie
Ġpau se
Ġnahrungs mittel
Ġschrift steller
Ġkompliz ierte
Ġreligi Ã¶sen
Ġmusli me
Ġgewisser maÃŁen
Ġaufst ieg
Ġbehin der
kat astrop
Ġpun kten
Ġokt ober
ĠhÃ¶l le
Ġnervenz ellen
Ġeinzus etzen
e ffekt
m ungen
s u
z heimer
Ġ tel
Ġd Ã¤
Ġw eh
Ġm ah
Ġm ahl
Ġm att
Ġm auer
Ġb rÃ¤
Ġh Ã¤
Ġn obel
le gal
gen den
Ġal zheimer
Ġer richten
Ġver mittelt
Ġge ograph
Ġl Ã¤rm
ĠÃ¼ber s
Ġvor trÃ¤ge
Ġsp ur
sp ers
Ġher bei
Ġkon tra
ing ung
Ã¼n de
Ã¼n det
Ġgew innt
he ber
ul ationen
ges und
Ġgeb ildet
Ġgegen stÃ¤nde
Ġbr on
Ġbesch Ã¼tzen
Ġhei ÃŁe
ha fen
ander t
Ġwissenschaft lich
Ġfal le
Ġbed auern
Ġwohl haben
Ġstand punkt
Ġentst ehung
tis iert
Ġprof itieren
Ġsuch ten
Ġnutz ten
Ã¤uf ig
sum men
uell es
Ġkil o
Ġeff izient
Ġregen er
Ġil legal
Ġkohlen dioxid
Ġumf ang
Ġball on
krank ungen
Ġrech nen
Ġindustr ielle
Ġverwir r
Ġtemp o
Ġliefer t
Ġauftau chen
rid ge
Ġhilf reich
ĠbÃ¤ umen
Ġann Ã¤h
Ġunwahr scheinlich
Ġbedro ht
Ġglet scher
Ġwohlt Ã¤
Ġschiz ophren
a tes
d auer
f eh
f achen
k ol
w ay
z o
z wei
er ei
Ġa re
Ġm ist
Ġg and
Ġein gef
Ġein heiten
Ġn Ã¶r
le hrer
Ġin halte
or te
Ġver ne
Ġver tik
Ġl kw
Ġsch Ã¼lern
Ġo el
re w
Ġaus sterben
ĠÃ¼ber gang
ell es
Ġunter halt
Ġab geschlossen
Ġwo durch
all er
mit t
mit ten
Ġzeit ungen
Ġch ron
Ġob dach
Ġgeb lieben
Ġweiter machen
Ġde z
Ġaut oren
Ġtra ge
Ġlebens qualitÃ¤t
bl ock
Ġprodu ktivitÃ¤t
Ġgest altung
ĠhÃ¶ hle
Ġur knall
Ġ200 1
Ġange kommen
Ġschwer kraft
Ġschwier igen
zeich nung
Ġ8 00
Ġru anda
Ġwert sch
Ġto de
Ġpo cken
Ġgene tisch
Ġpart y
Ġsex uelle
Ġsamm lung
Ġsin ken
Ġaufre cht
Ġaufmerk sam
Ġdigit al
Ġtr ennen
Ġwest liche
ĠfÃ¼hl ten
Ġunterschei det
Ġtrei bt
Ġag gress
Ġheran gehen
Ġschm utz
gro ÃŁ
ĠschÃ¤d el
Ġstift ung
Ġverbrau chen
ĠzusÃ¤tz liche
ĠkÃ¶ pfen
Ġgre en
Ġill usion
Ġorigin al
Ġarbeitsp latz
Ġmanhatt an
g u
i ver
p end
r oren
v ember
w il
ie len
Ġs ir
Ġs atur
Ġg ast
an st
Ġn ick
Ã¼ ger
es pe
Ġf ischen
Ġf oss
sch lieÃŁen
Ġin mitten
Ġwir ft
ti meter
Ġer fordert
de uten
Ġr io
Ġj im
ro tt
Ġwar m
Ġsp uren
Ġc al
Ġkon vention
ab le
ri x
we cken
Ġzwei tes
Ġverb raucht
pf ern
Ġdrei mal
Ġmensch lichkeit
Ġbesch Ã¤d
reich end
ĠerzÃ¤h lten
Ġmar sch
Ġ19 1
dr Ã¼
Ġsozi ales
Ġur heber
Ġflug zeuge
Ġpo ster
ĠkÃ¼ sten
tis ierung
Ġerinner te
Ġbein en
Ġdefin itiv
spe zi
Ġblut gef
Ġinstit ute
kam pf
Ġbenutz er
Ġbeit rag
Ġsm art
Ġdepress ionen
Ġcon ne
Ġfrie d
Ġtrend s
Ġdemon str
Ġfischer ei
Ġkooper ation
Ġsynt he
Ġgig an
Ġskulpt ur
Ġvag ina
strÃ¤ ger
b inden
b reite
i anischen
m ot
r ein
u len
v ille
w Ã¤l
Ġe uer
st rom
Ġun angen
Ġb ir
sch el
de h
Ġt v
Ġt ollen
Ġl ob
Ġj agen
Ġsch ichten
re ter
Ġst ab
Ġst Ã¶rungen
Ã¶n e
ag d
ĠÃ¼ber zeug
Ġges Ã¼nder
Ġvor les
ien e
ĠâĢ º
Ġall zu
Ġgi ft
Ġc lo
Ġab stand
Ġwe tte
Ġbes p
Ġhin weis
Ġse c
la st
ale m
Ġeinz iger
Ġschw ein
Ġzw anzig
Ġhand els
Ġarbeit spl
Ġsicher stellen
Ġrei ste
âĢ ¹
Ġspe ichern
Ġmag ne
Ġat lan
Ġeng ag
Ġeur o
Ġphys i
Ġfolgen der
ĠÃ¤r zten
Ġverd ammt
Ġberu fs
ĠtÃ¤ tigkeit
jen ige
Ġding er
ĠfuÃŁ ball
Ġil leg
Ġkombin ieren
Ġeinkommen s
sichtig t
Ġniedr iger
Ġdynam ik
Ġerzie len
Ġdienst leistungen
Ġemp athie
Ġkno ten
fir men
Ġausgeb ildet
Ġfig uren
Ġintu ition
Ġintu itiv
Ġschlie ÃŁt
Ġlen ken
Ġanerken nung
behÃ¶r de
Ġkorre kt
ĠglÃ¼h bir
Ġastero iden
] .
f anden
s Ã¤
t um
w ol
y o
st Ã¶
Ġv olle
Ġh Ã¤r
Ġk ing
Ġk auft
Ã¼ len
Ã¤ ger
Ġzu hÃ¶r
Ġp c
Ġan sprechen
Ġan zeichen
ur er
Ġbe endet
ra y
Ġle eren
Ġman del
Ġvor trags
Ġre form
sp recher
ste ten
Ġgesch Ã¼tzt
Ġnoch mals
me dizin
Ġerf Ã¼llt
Ġwel le
Ġbest Ã¤u
Ġgleich heit
Ġkinder sterblichkeit
Ġir on
Ġir re
zent ren
Ġzw ingen
Ġ3 3
.. ."
pro f
Ġma is
ander s
bl ei
Ġbew Ã¤ltigen
Ġenergie verbrauch
Ġ200 3
Ġhal s
Ġ8 5
Ġfort gesch
Ġsk i
Ġflug hafen
bes itz
Ġchem ischen
pe dition
gemein schaft
ĠÃ¤ qu
ĠÃ¤ sthe
Ġmolek ul
Ġnord amerika
Ġapp l
Ġgebur ts
Ġant hrop
Ġdeta ill
Ġwein en
ĠgewÃ¶hn lich
Ġbewer ten
Ġvirt uelle
Ġstudi um
lÃ¤ss ig
Ġdre ie
Ġbedien en
Ġpy ram
Ġflor ida
Ġpazi fik
b on
d in
d iert
d iger
e y
f tet
h h
h ur
h lt
m il
n el
Ġ ulti
in son
un ft
Ġa pfel
Ġe chter
ei gung
Ġein wohner
Ġb ay
Ġi b
Ġh ut
Ġn on
Ġk Ã¶pfe
Ã¤ nen
em ie
Ġan re
Ġan kommen
Ġbe ziehen
Ġsch all
um t
Ġauf geben
il la
wei ÃŁ
Ġgeh alt
Ġher kunft
tel n
Ġc amb
Ġam b
ver schm
Ġen det
Ġbeg inne
di um
Ġerf uhr
gel d
Ġma i
Ġsicher er
Ġnor wegen
Ġmin ister
Ġbef rie
Ġfil ter
Ġange passt
Ġkurz er
Ġstatt finden
Ġanzu schauen
Ġsen ken
co de
Ġaben dessen
Ġverwand ten
Ġfel s
Ġsonnen system
Ġinternation al
sor ge
Ġga tes
Ġet abl
Ġoper ationen
ĠhÃ¤uf iger
Ġtrain ieren
ĠursprÃ¼n gliche
Ġzwe ieinhalb
Ġwoh nen
Ġuntersuch ungen
Ġkreis lauf
ĠabhÃ¤ng igkeit
Ġbill iger
Ġeffizien ter
Ġjourn alist
Ġsyn ch
Ġklu ft
Ġlan dete
vir us
Ġmittag essen
Ġeink auf
zum achen
Ġener gien
ĠerwÃ¤r mung
ĠtragÃ¶ die
Ġfortgesch ritten
Ġulti ma
d am
g ab
l as
l Ã¤uft
m Ã¤r
o v
p ap
s rate
u ste
w Ã¤
z ierte
in form
Ġs Ã¤tze
Ġa dr
Ġm ob
Ġun beh
Ġg Ã¼te
Ġein stellen
Ġein nehmen
Ġv it
Ġk b
ar zt
sch alten
sch reiben
ti gend
Ã¶ ch
Ġan son
ber gen
Ġum frage
Ġmein ungen
Ġpro gno
Ġgr enz
Ġher zin
Ġviel zahl
Ġwelt bank
tiv en
Ġgew ohn
per s
per son
Ġkle tter
Ġbeg rÃ¼
Ġbeg riffen
Ġmil l
ichte ten
Ġreg ul
Ġma ÃŁe
ha ber
Ġbewe gte
Ġspiel ten
Ġstar tete
no w
ard o
bo le
âĢľ ,
fÃ¤l len
Ġreich e
Ġpo wer
Ġsen sor
Ġfinanz ieren
Ġtri cks
Ġkom isch
Ġbro ok
Ġperfe kten
ĠtÃ¤ glichen
ĠÃ¼berw Ã¤l
Ġgere det
Ġplan ung
Ġleist ungen
Ġbewusstsein s
Ġpr em
Ġabsch lieÃŁen
Ġwundersch Ã¶nen
Ġspekt ak
Ġfernseh er
Ġfabr iken
Ġerzie hung
Ġprim itiv
Ġschaff te
Ġunend lich
Ġvieler lei
Ġanim ation
ĠzÃ¼ chten
Ġentschul digung
Ġsum me
Ġerkrank ungen
Ġschreib tisch
Ġpan ik
ĠÃ¼berqu eren
Ġmisch ung
Ġamazon as
ĠstÃ¤ mme
bewusst sein
Ġangesch aut
Ġdurchzu fÃ¼hren
Ġhon ig
gewe be
ĠfrÃ¼hl ing
Ġdez ember
Ġcamb ridge
Ġanson sten
' .
b ab
d ar
g ur
g ungen
h aufen
m om
o ÃŁ
r ien
s au
z one
â Ļ
Ġd op
Ġs eil
Ġw att
Ġa ffe
ich ert
Ġe b
Ġm i
st eht
st ande
Ġb anken
Ġf ix
le ger
sch mer
au ert
Ġan ste
Ġl Ã¼cke
Ġauf geb
Ġmit teilen
Ġwen de
Ġaus gang
Ġc ro
Ġkon d
Ġgesch lagen
Ġverb oten
wer ks
he orie
lie ÃŁt
Ġse el
Ġbeg lei
Ġgel Ã¤h
qu e
ĠwÃ¼rde st
op e
Ġor chester
Ġbr uch
Ġbr ennen
Ġfr eit
Ġverl angt
gr enzen
vers itÃ¤t
Ġkomp on
Ġkomp eten
Ġschl ange
gew iesen
Ġspiel s
Ġstra hlung
Ġoffen heit
Ġgra ben
Ġhal ben
zieh ung
Ġbas ieren
Ġfe bru
Ġpsych i
Ġsen si
Ġerle digt
Ġzeich nungen
mo lek
Ġsex u
Ġhervor ra
Ġersch ien
Ġsuper markt
Ġherr scht
Ġinstit ut
Ġregen wald
ka sten
Ġapp ar
ins eln
Ġant ark
Ġsto ÃŁen
ĠwÃ¼ sten
ĠkÃ¶nig in
Ġirgendein er
Ġverhin dert
Ġoptim istisch
Ġtal ent
Ġautor itÃ¤t
Ġelektron ik
Ġband breite
ĠberÃ¼hm te
Ġschaff ten
Ġverbrau cher
Ġumge kehrt
Ġradik al
Ġverdopp elt
Ġausgew Ã¤hlt
Ġfreiwill igen
Ġrelev ant
ĠbrÃ¼ der
ĠlÃ¤cher lich
Ġdist anz
Ġinvol viert
Ġfebru ar
i fiz
l iger
l ings
l eitung
m pfer
w achsen
z it
Ġb iz
Ġz o
Ã¼ ten
Ġf emin
Ġan stellen
de ckt
Ġt oler
Ġr em
Ġsch Ã¶
Ġo ut
tz u
re volution
Ġst Ã¤nd
Ġst reiten
be weg
Ġre ale
Ġkann ten
Ġko st
uch e
uch sen
Ġgen en
Ġc ra
Ġab gel
agen t
we ge
her z
pp ich
ungs los
Ġgef Ã¼llt
Ġerf asst
fl ung
Ġzusammen gef
rÃ¤ umen
Ġgleich er
ĠÃ¶ st
Ġfr isch
Ġfr Ã¶h
Ġma c
fer tigen
Ġpol y
teil s
Ġstra hlen
Ġdi mension
ĠauÃŁer ird
stand ard
Ġwunder vollen
Ġtro pfen
Ġdirekt or
Ġschwe fel
ĠÃ¼berzeu gung
ib an
Ġerfor schung
rop ie
ĠgroÃŁartig es
Ġrau ch
Ġexperimen tel
Ġeffe kte
Ġsim p
ĠwÃ¶rter buch
Ġeinsch lieÃŁlich
ĠfÃ¼ ÃŁen
Ġbus iness
Ġkop ieren
ĠursprÃ¼n glichen
Ġnieder l
Ġlas er
Ġstudieren den
ĠverrÃ¼ck ten
ĠprÃ¼ fen
Ġbeschleun igen
Ġki ste
Ġverzwei flung
frei heit
ĠvergrÃ¶ÃŁ ern
Ġparad ig
Ġbesitz er
Ġanrei ze
kri min
Ġbeobachte te
metho de
Ġpho sph
Ġhundertt ausende
a ce
b us
l v
n d
w ow
ch net
st ei
Ġf ik
Ġan nahmen
Ġt Ã¤n
Ġl eit
Ġl Ã¤nge
Ġj es
Ġsch ienen
Ġauf lÃ¶sung
Ġmit hilfe
Ġwie viele
il de
Ġst ren
Ġst urm
Ġle ere
ĠÃ¼ber lassen
ff in
Ġhier fÃ¼r
Ġall m
Ġab gest
Ġam eise
tr Ã¤ch
Ġlie der
Ġgew achsen
Ġber gen
Ġber ichtet
Ġerf Ã¼l
Ġkl at
geb oren
Ġgenau e
Ġide al
Ġbesch reibung
Ġkre aturen
br achte
Ġbef Ã¶r
Ġstra f
Ġco ole
Ġverf Ã¼gen
Ġunglaub liches
Ġange stellten
ord nen
bo ard
Ġkor an
Ġmedi a
Ġstatt findet
Ġverein bar
Ġfa kt
Ġwin kel
Ġfinanz iellen
Ġarchite kt
Ġkranken schwe
Ġrelig ionen
ĠÃ¼berw achen
Ġindividu elle
ĠgroÃŁartig er
Ġexperimen tieren
Ġeffe ktiver
Ġgeheim nisse
Ġmot oren
Ġand auern
Ã¶pf ung
Ġausw Ã¤hlen
Ġvern unft
aktiv itÃ¤t
Ġunver m
Ġoptim ismus
Ġindustr iellen
ĠberÃ¼hm ten
Ġcha o
Ġverzwei felt
Ġalgorith mus
Ġroll stuhl
lad ung
Ġhindern isse
Ġatt ra
Ġlieb sten
ĠtÃ¤u schung
Ġrett ung
Ġbewir kt
ĠtÃ¼rk ei
wil lige
a mmen
b ogen
k amp
y er
Ã ¡
Ġw ale
Ġg reif
Ġein richtung
Ġb inden
Ã¼ chte
Ġf la
le in
ar re
Ġzu dem
Ġzu geben
Ġer leich
Ġan kommt
Ġr ab
Ġr assen
Ġbe tra
Ġbe Ã¤ngst
Ġbe zieht
Ġauf stehen
Ġauf zeichnungen
is h
Ġso c
Ġle ichte
Ġman ager
ĠfÃ¼r chte
se k
Ġre alist
ah me
Ġdar m
Ġviel mals
uch te
Ġgi f
Ġam y
ĠmÃ¶ bel
Ġlie st
ster s
Ġson nt
Ġwahr schein
Ġwahr haf
cken de
Ġbr Ã¼cken
Ġbesch affen
Ġbesch eiden
form t
Ġsol aren
Ġmon t
Ġqu an
Ġdaten bank
ide e
Ġem issionen
Ġget rei
so urce
Ġkomple tte
Ġur ban
Ġchin as
hunder t
ĠstÃ¤d tischen
Ġmittel punkt
Ġna v
Ġreich weite
Ġpo esie
ĠkÃ¼ chen
Ġerstaun lichen
Ġfinanz iert
Ġschick ten
Ġtief greifen
Ġwider spruch
spro gramm
ĠmÃ¤nn liche
Ġkal k
Ġindividu ellen
Ġgere cht
Ġengl ische
Ġsim ulation
ĠprÃ¤sen tieren
Ġkommunikation s
fa ce
Ġkol onie
Ġgewal tige
Ġignor anz
Ġgering er
Ġbal ance
Ġverletz ungen
zÃ¤h ler
wissenschaft ler
Ġbrei te
ĠschlÃ¤ gt
Ġdutzen de
fig ur
Ġkomment ar
Ġobje kten
Ġanp ass
Ġzehnt ausende
Ġinfe ktion
Ġwid men
urop a
Ġfettleib igkeit
eff izien
Ġschokol ade
ĠauÃŁerorden tlich
Ġhard ware
Ġarznei mittel
Ġsteig ern
Ġtrink wasser
gesund heit
Ġsynch ron
' ,
? Â«
g Ã¤ng
g ase
i len
n amen
r ungen
u zin
w achstum
y on
Ġs kep
Ġw Ã¤
Ġm esser
Ġein geschlossen
Ġh en
Ġh ub
Ġzu ge
Ġder ek
Ġan trieb
Ġl unge
Ġr ing
Ġr ay
Ġj ust
ro s
ro bo
re gel
Ġle gten
Ġre a
Ġunter richtet
Ġc e
ĠgroÃŁ em
Ġwirk sam
Ġ2 9
Ġgew inner
Ġverb orgen
Ġgef l
ran ten
la fen
Ġdan eben
tik eln
Ġhand lung
Ġstu fen
pro gramme
kl ang
Ġsicher zustellen
ĠerzÃ¤h l
Ġschl u
gra mmen
Ġhoch zeit
legen en
ic on
Ġbet onen
fel der
Ġted tal
Ġherz lichen
Ġneur on
ĠrÃ¼ck wÃ¤rts
Ġfinanz ielle
Ġprozess es
ĠÃ¤l testen
Ġintelligen t
Ġkal orien
Ġad op
Ġsym bole
viel falt
reg ion
Ġerkennt nisse
Ġvoraus sagen
Ġspre cher
Ġbehau pt
ĠÃ¤u ÃŁ
Ġeinzig artige
rig ht
ĠkÃ¶nig reich
Ġdrin nen
Ġfotograf iert
Ġhom osex
Ġklass ische
Ġzut ief
Ġreligi Ã¶se
Ġles er
ĠwÃ¼s ste
Ġdipl omat
Ġip od
ĠmerkwÃ¼r dig
Ġreihen folge
Ġdiszipl in
Ġgeeig net
Ġvietn am
Ġzen timeter
Ġblutgef Ã¤
a cken
b at
b ell
g ei
h ad
k il
n icht
n ull
er ten
er geb
ch tern
in v
Ġm Ã¼he
st ad
Ġun aus
Ġv ollen
Ġv Ã¤ter
Ġh ill
Ġz ehen
Ġf Ã¼n
Ã¤ ck
sch ungen
al tete
Ġer nte
Ġt as
Ġr ut
Ġbe woh
sen den
is er
ann er
Ġuns icher
ig em
Ġman agement
Ġum setzen
iel ler
ĠÃ¼ber re
Ġsp ar
Ġar ist
Ġmenschen rechte
os n
ang el
Ġvie h
ver se
ri c
Ġgel ben
Ġgel Ã¤nde
Ã¤l lig
Ġerf and
ist ent
Ġtechn isch
Ġfun k
Ġschn eiden
Ġmar y
Ġmin der
Ġbef ol
Ġster blichkeit
Ġbeob acht
lei den
Ġak ust
tem peratur
Ġerstaun t
Ġbedeut sam
Ġumgeb ungen
ĠgrÃ¶ÃŁer es
Ġlau ter
Ġstud ierte
Ġaufre gende
Ġkont ro
Ġ201 1
ĠunabhÃ¤ng igkeit
ba i
fa ktoren
Ġheil igen
Ġschwarz es
Ã¤st h
wechs eln
Ġtal iban
Ġten denz
ĠerÃ¶ff nen
Ġven e
ĠrÃ¤ um
ĠunglÃ¼ck licherweise
Ġhi pp
Ġkonkurr enz
Ġanrei z
Ġrhyth mus
ĠkÃ¼hl sch
bom ben
Ġauff assung
Ġchirur gen
Ġnirgend wo
Ġsele ktion
Ġaug ust
ĠsorgfÃ¤l tig
ĠbehÃ¶r den
Ġlux us
Ġsatur n
Ġdop amin
Ġzutief st
b ellen
f ikation
i pp
k urs
l asst
m ag
m iert
s ag
w ell
z ierten
Î ²
Ġw i
Ġg ore
Ġb lieben
Ġz ens
Ġk rab
Ġf ang
it s
Ġan zunehmen
de st
Ġha fen
Ġge tragen
Ġge trieben
Ġauf zunehmen
Ġauf klÃ¤r
Ġo s
Ġle der
Ġle go
Ġaus f
Ġaus probieren
Ġaus reichend
Ġges ucht
Ġges etzen
Ã¤n zen
Ġbei zubringen
wei ten
sp art
Ġjahr elang
Ġgr and
Ġdar zustellen
li zieren
Ġgi b
Ġgen i
ver ei
Ġzur zeit
Ġwo hnung
ot ten
ko pp
tr an
Ġerf indungen
Ġste ine
Ã¤nder ung
Ġpl atten
Ġbr em
Ġgrund lagen
ĠerzÃ¤h ler
fer t
los er
Ġprodu kten
Ġdr Ã¼ber
ogen e
ĠhÃ¶ hen
âĢ ĺ
Ġat ome
ust ern
Ã¼tz e
ow s
Ġschul den
Ġaktiv ieren
Ġniemand em
Ġsk iz
stra hl
neh mern
Ġarch iv
Ġbab ies
Ġwider spr
Ġindividu um
iti ver
krie gs
Ġfaszin ieren
Ġbakter ium
Ġbaum w
Ġfeuer wehr
Ġkombin iert
Ġkonsum ieren
Ġfrem d
Ġstrate g
Ġheil ung
Ġausl Ã¤nd
Ġstandard s
Ġlo u
Ġbeteil igen
ffer enz
Ġblog s
jahr e
Ġstabil itÃ¤t
Ġmulti p
esch Ã¶n
ĠwÃ¤h ler
Ġquanten mechan
Ġlaptop s
Ġkomment are
Ġskla ven
ĠwÃ¼s sten
kontr olle
ĠsÃ¤uge tiere
Ġhilfs mittel
Ġfokuss ieren
Ġverur teilt
Ġphant om
Ġhypot hese
Ġgedr eht
Ġschlagzei len
Ġstick stoff
mom ent
âĻ «
Ġsolaren ergie
] ,
f Ã¼
h ier
k ins
m as
m iss
s be
Ġ Ã¤ng
Ġd reck
Ġd ikt
Ġa gen
Ġm otto
Ġb Ã¶r
Ġb zw
Ġn ic
Ġk ie
Ġk um
Ġf assen
em pf
Ã¶ glich
Ġp enn
Ġer ic
Ġan zei
Ġan ziehen
Ġan liegen
de x
Ġge prÃ¤
Ġbe wiesen
Ġsch Ã¤tze
Ġwie gt
Ġuns icherheit
Ġwar f
Ġwar st
ff ung
Ġvor bild
se ktor
Ġre det
Ġpro to
Ġent schl
Ġent ropie
Ġhier bei
Ġgr auen
ort h
os is
Ġte s
Ġen des
Ġpa pa
Ġbis lang
Ġgel ingt
Ġson g
Ġglau b
Ġnie d
fl os
Ġbl inden
Ġbl itz
Ġex pedition
Ġfl aschen
Ġbest ra
Ġpass wÃ¶rter
Ġpl Ã¤ne
Ġschw ellen
Ġbr illi
ant hrop
art h
Ġjeder mann
Ġ5 5
od ie
Ġ4 2
Ġrei s
Ġdank eschÃ¶n
Ġbef ra
Ġco us
Ġperson al
bo x
lo w
Ġglob aler
Ġgesellschaft lichen
Ġnormal es
voll er
Ġanzu wenden
Ġbeob achtung
Ġanw alt
Ġdrau ssen
Ġvir gin
Ġansch au
Ġpsych ologen
Ġzer brech
Ġmathema tische
ĠtÃ¶ tet
Ġmer kte
Ġkeiner lei
Ġkrei se
ĠerwÃ¤h nte
ĠkÃ¼r ze
Ġbiolog isch
Ġkop ie
Ġdrin gend
Ġeigent lichen
Ġangeb oten
Ġklimawandel s
Ġjugend lichen
Ġislam ischen
Ġimp uls
Ġdiskuss ionen
Ġstoff wechsel
Ġinteraktion en
frau en
ĠrÃ¤ umen
Ġrestauran ts
Ġentsprechen d
Ġverpf licht
Ġermu tigen
sthe orie
Ġerlaub nis
Ġtranspor tieren
Ġzusammenf assen
Ġanh Ã¤nger
Ġspann ung
Ġbeu tel
Ġmeth an
Ġsubst anz
Ġexplos ion
Ġzig are
Ġprima ten
ĠwohltÃ¤ tigkeit
Ġarbeitspl Ã¤tze
. :
b al
b ran
d igkeit
p al
s icherheit
u el
w ing
z ier
in dern
ie den
Ġs at
Ġs endet
Ġw at
Ġw all
Ġm t
Ġm ischen
st ock
Ġun ber
Ġein gestellt
Ġb Ã¼n
Ġb Ã¤ren
Ġh ekt
Ã¶ ss
Ã¶ kon
it Ã¤re
Ġver kl
Ġver teil
Ġver raten
Ġt sun
Ġr ass
Ġj os
Ġj ose
is ierten
Ġst ory
be u
Ġmein t
Ġvor ur
ik ationen
Ġeiner seits
Ġc ap
Ġte ure
ver k
ver fahren
ĠgroÃŁ eltern
ungs weise
Ġvers agt
Ġgeb unden
Ġgel eitet
oh a
oh nen
op s
op hen
Ġbest es
Ġsei den
Ġde te
Ġwichtig keit
Ġbild ungssystem
Ġfre ue
Ġins ul
ĠglÃ¼ck liche
Ġgest alt
Ġgest ohlen
Ġbuch es
pl Ã¤tze
Ġho ward
Ġaller er
ĠÃ¶ffent licher
Ġrobo tern
ĠtÃ¶ chter
pa ti
sm ann
Ġkri tik
ĠgefÃ¤hr liche
Ġfel der
Ġmolek ular
Ġfaszin ierende
Ġerfolgreich e
Ġstre cke
amerik anischen
Ġfantast ischen
Ġ201 2
Ġmeeres spiegel
Ġdenk st
Ġbri tische
Ġdeut schen
Ġnotwend igkeit
Ġverkauf te
Ġanru fen
Ġlich ts
Ġbeschleun igt
Ġklei der
ĠeuropÃ¤ ische
Ġimpf stoff
Ġberechn ung
Ġgrie ch
Ġphot os
ĠverblÃ¼ffen d
Ġult ra
Ġverde ut
ĠgerÃ¼ st
Ġgefol gt
Ġdru cken
fabr ik
Ġschizophren ie
verschm utzung
Ġphosph or
Ġsonnt ag
/ &
f assen
i fik
j o
l yn
m asse
n at
Ġs endung
Ġw andern
Ġm ur
Ġg aler
Ġb ast
Ġb aten
Ġb ranche
te in
Ġh altung
Ġk rit
le gte
ar y
ar ren
gen der
Ġsie hst
ge tragen
Ġan at
Ġge plant
Ġr ap
Ġbe quem
Ã¼r zt
Ġauf tritt
ĠfÃ¼r chten
ĠÃ¼ber denken
se y
sp ort
scha fter
Ġc ri
Ġc ome
und ation
Ġdurch laufen
Ġam er
ot herapie
ko se
Ġzwei ter
Ġhin weisen
me er
Ã¤hr ung
pp te
Ġch romos
di ag
auf nahmen
Ġex ter
ist in
Ġwahr genommen
Ġzw ill
pro be
Ġlei se
Ġma x
Ġerst mals
Ġbesser er
Ġkre b
Ġdi fferenz
Ġfrei zeit
Ġfrei willige
Ġfest halten
Ġschwer en
Ġu e
Ġkor tex
Ġla w
Ġaktiv iert
Ġbeein trÃ¤ch
Ġindien s
ĠkÃ¤ se
Ġerk annten
Ġinvest oren
Ġtief see
ĠbenÃ¶ tigte
ĠÃ¶ff nete
Ġverle tzen
stu denten
Ġtrau r
produ kte
Ġind ische
Ġklin ische
Ġfrieden s
Ġerwei tert
schnit te
Ġmotiv ieren
bli cken
Ġbeantwor tet
Ġmerk male
Ġhall uzin
ĠreprÃ¤sen tieren
Ġkonstru ktion
Ġneg ative
Ġelektron ische
Ġakzep tiert
Ġzentr alen
Ġfo undation
Ġberech net
Ġbrenn stoff
kreis lauf
burg h
Ġiniti ative
Ġskla verei
sich tigen
Ġeingesch rÃ¤n
Ġkognitiv e
Ġalex ander
Ġkrankenh Ã¤user
gespr Ã¤ch
Ġausgest orben
Ġanweis ungen
mot or
beweg ungen
a ster
d acht
f amil
g os
g ott
h Ã¤u
k amen
k ore
k reisen
n y
p hin
y le
z ehn
er kt
in os
Ġn el
Ġf bi
Ã¤ le
Ġzu einander
Ġin for
Ġder zei
ti tel
Ġp iz
Ġer wer
ber eit
ber eiten
Ġt ast
Ġr b
il and
Ġle in
Ġman i
Ġaus gesch
be cken
wei l
sp f
Ġgeh st
Ã¶r der
lau bt
ab schluss
Ġdurch messer
ver fol
Ã¼n dete
Ġhin gegen
ul len
end ig
pf te
Ġklein eren
Ġstel l
op ter
Ġpl Ã¤tze
Ġschw amm
Ġreg ist
Ġarbeit sk
pro ben
pro biert
Ġwor tes
fer enzen
Ġ20 50
gew orfen
Ġco unt
âĢ Ļ
Ġel ter
Ġklar en
Ġhal fen
Ġsinn es
Ġgener ell
Ġtyp ische
Ġjen es
Ġvater s
Ġneben wirkungen
Ġehr gei
Ġerre ichte
Ġlehrer in
Ġarchite kton
setz ten
wÃ¤r mung
Ġkolle ge
Ġersch wing
ĠgrÃ¶ÃŁten teils
ĠbeschÃ¤f tigte
reg eln
Ġtrau ma
umm ern
Ã¼ss eln
Ġeinzig artigen
Ġpil z
Ġpil ot
haf ter
ĠreprÃ¤sen t
ĠgewÃ¶hn liche
bas ierte
Ġmem e
fu ÃŁ
ĠbeschrÃ¤n kt
Ġparad ox
ĠgrÃ¶s ser
Ġew ig
Ġros a
ĠgrÃ¶ÃŁen ordnung
Ġve get
Ġverschm utzung
Ġvergewal tigt
Ġschen ken
Ġbla ck
Ġkateg orie
Ġverwen deten
Ġkandid aten
Ġbudd h
Ġfossi len
Ġverhei ratet
Ġanspr uchs
Ġherzin far
a w
b em
b aut
g Ã¼nst
i hr
k ler
w ander
en ergie
Ġd v
Ġd schi
in i
ie ÃŁen
Ġs ach
Ġs now
Ġw on
Ġw Ã¶rtern
Ġm um
Ġun fÃ¤lle
ei dung
Ġein gebaut
Ġb ell
Ġb ogen
Ġb reiten
Ġk au
le uchten
Ã¤ len
or ter
ein heit
al so
it or
it ts
ber ech
Ġr ate
Ġr asse
Ġr ande
Ġsch ar
is ion
il z
us ste
ik ro
Ġjahr tausen
zu halten
Ġher o
Ġunter drÃ¼ck
Ġc lin
Ġgesch m
ab druck
Ġdurch aus
Ġwo anders
ko mmun
Ġeinf Ã¼hren
Ġzeit gen
for scher
Ġverb ren
ges ehen
Ã¤u sen
geb ieten
Ġfl ut
Ġfor dern
Ġsei fe
Ġ3 1
Ġ3 7
Ġbr icht
Ġwoll t
Ġschl angen
Ġkommen den
br Ã¼che
Ġhau p
Ġhel d
Ġbew ahr
ater ial
Ġtei lt
Ġversch le
Ġanders wo
Ã¤tz ung
ingen ie
kon ferenz
Ġgra ph
Ġel f
Ġu fer
ome tern
Ġglob ales
Ġnew ton
Ġabs or
Ġjahrhunder te
Ġausge stat
Ġries iger
Ġprogramm ierer
Ġhar ten
Ġrad i
spro du
sw Ã¼r
Ġsh ang
Ġextrem e
ho ben
ĠfuÃŁ gÃ¤nger
Ġsor gt
ĠtÃ¼r en
Ġwesent liche
gest euer
Ġemotion alen
Ġbedeuten de
Ġind ones
Ġschreck lichen
mpf ung
Ġwohn zimmer
Ġfotograf ieren
Ġwol ke
zut reten
Ġgewal tig
organ isation
Ġentfern ten
Ġunbek annte
Ġerlaub te
Ġsl ums
ĠgÃ¼nst ig
ĠhÃ¼h ner
Ġbeherr schen
Ġanalog ie
Ġparalle l
Ġkarik atur
Ġwilli am
ĠÃ¤thiop ien
Ġjes us
Ġquantenmechan ik
Ġinsul in
Ġnel son
Ġdschi had
a ben
a ids
d ing
g ol
m ut
n ess
n utz
Ġg umm
Ġb amb
Ġb ringe
Ġi di
Ã¼ bt
sch ool
Ġzu vers
Ġge legt
Ġl Ã¤h
ol a
Ġsch ad
um ines
Ġauf bl
sen s
sen der
Ġmit gebracht
Ġo pfern
Ġwar tete
Ġwei zen
rei ÃŁen
Ġher stellt
Ġab weich
Ġdurch gehen
Ġam ate
ver standen
mmer t
ke tten
Ġeinf allen
Ġgew ohnt
Ġgel be
Ġste hlen
Ġmal te
Ġverst orben
Ġgl u
Ġfl ogen
rÃ¤ ge
Ġja zz
Ġde cken
Ġde pri
ak ten
Ġerst mal
Ġwill kÃ¼r
ĠnatÃ¼rlich er
Ġgemein t
Ġmin er
Ġvier ten
Ġbef and
Ġdarauf hin
Ġraum es
Ġsit ze
Ġhinter her
land schaft
Ġtau ch
ogra fen
fÃ¤l lt
ĠsÃ¼ ch
Ġkunst stoff
Ġphys isch
Ġinnov ativ
Ġprogramm iert
gegen wÃ¤r
Ġtechnolog ische
Ġfas ern
Ġter min
Ġempf angen
Ġkri st
Ġnutz te
ĠÃ¼berw achung
Ġtradition en
krie gen
Ġrau schen
Ġ199 8
amerik aner
Ġtrain iert
ĠmÃ¤ch tige
Ġklin ischen
haf tes
Ġumf asst
Ġwunderbar es
Ġgewal tigen
Ġgewal tt
ĠmÃ¤r kten
ĠrÃ¼cken mark
Ġjugend liche
Ġaufw uchs
vier tel
Ġdemokra tischen
Ġmex ik
Ġneg ativen
Ġsolch es
Ġunsicht bare
Ġtemp or
Ġaustr al
Ġverkehr s
Ġangew andt
Ġkoll abor
Ġbom be
Ġintegr ieren
Ġheimat stadt
Ġelektro den
Ġfurcht bar
Ġpaten t
Ġdroh nen
ĠnÃ¤hr stoffe
ĠgÃ¶ tt
Ġgeg ner
ĠtatsÃ¤ch lichen
ĠdÃ¶r fer
Ġdire kte
Ġpolizi sten
ĠkÃ¶r pern
gehÃ¶r igkeit
Ġevent uell
Ġspont an
Ġprem ier
Ġgetrei de
b or
b Ã¼chern
c al
h Ã¤ngen
p um
w al
w ichtig
ch ip
ie gt
Ġs s
Ġs Ã¶h
Ġun zu
Ġg Ã¼ter
an w
an twort
Ġein bringen
Ġein einhalb
Ġb ol
Ġb ern
on anz
sch rei
sch rau
em issionen
Ã¶ scht
ge halten
Ġer be
Ġan hÃ¶ren
Ġan lage
Ġan erk
Ġl ande
Ġl ong
Ġr asch
Ġr atte
Ġauf gestellt
ÃŁ ig
re aktion
Ġum ar
be stand
Ġje gliche
wei ÃŁt
sp ringen
ken nt
Ġc el
Ã¤ch ter
Ġab len
Ġab rah
ver sprechen
ri sten
Ã¤r ten
Ġpa cken
Ġber Ã¼hrung
geb ildet
Ġpass wort
Ġpl at
Ġben j
tt s
gr enze
Ġjeder zeit
iv es
ĠfÃ¼hr enden
fr ont
Ġneue sten
Ġschu fen
Ġhau st
Ġbetr ug
Ġmin en
Ġele gan
ĠglÃ¼ck lichen
Ġgest iegen
Ġjedes mal
Ġwirtschaft lich
Ġho sen
Ġgar age
dig ungs
Ġ200 2
Ġmag net
Ġange zogen
Ġgra mm
Ġkor rig
io le
na ja
Ġnetz werken
Ġschul dig
Ġtyp ischen
Ġrest lichen
ĠpersÃ¶n licher
Ġpsych ische
Ġerle bte
Ġkri tische
Ġnutz e
Ġans ah
Ġanal y
Ġstaat lichen
Ġanges icht
Ġkan ad
beh alten
Ġstamm es
produ kt
Ġfreu en
Ġjohn son
Ġchines isch
Ġverbrei tete
Ġinnen stadt
Ġwohn ungen
Ġkol onien
Ġsowie so
schlÃ¤ gen
Ġmass ive
Ġbras il
Ġport ra
Ġsil icon
Ġinterpre tation
bÃ¼r ger
ĠbestÃ¤ tigen
Ġverdopp eln
Ġwurz el
Ġerkrank ung
Ġflu ores
Ġtranspor tiert
ĠflÃ¼cht linge
ĠverknÃ¼ pft
Ġanp assung
ĠschÃ¤tz ung
Ġphysikal ischen
Ġabh Ã¤ngt
ĠtatsÃ¤ch liche
ĠeinschrÃ¤n kungen
Ġunvor stell
Ġspan ien
Ġbang lad
Ġangelegen heit
Ġgrav itation
mÃ¤n ner
Ġreser v
anal yse
kÃ¶ mm
schmer zen
Ġanzei ge
Ġzuvers icht
. '
1 0
b rett
c or
d eln
e c
f le
h aut
p op
Ġ tiger
Ġs qu
Ġs olle
ei tete
Ġein treten
Ġb un
Ġk rÃ¼
Ġk Ã¼he
Ġzu ver
Ġzu gr
Ġzu stimmen
Ġin der
it a
it Ã¤ren
Ġp rie
Ġer heben
ier bar
Ġt we
mm el
ro gen
Ġauf halten
Ġmit fÃ¼hlen
Ġuns inn
Ġso urce
Ġso uth
re en
Ġst reifen
Ġle on
Ġaus probiert
Ġum gew
ag ert
Ġvor schlagen
Ġre t
Ġre konstru
ell os
Ġher steller
Ġher kÃ¶mm
ess eln
os kop
Ġkon vers
Ġkon kre
Ã¤h e
Ġdurch bruch
Ã¼h nen
Ġzwei er
Ġinter vention
ungs mittel
Ġne use
ĠmÃ¼s st
Ġper io
op ft
op fen
Ġfor d
Ġland schaften
Ġverw andel
ĠmÃ¶glich st
Ġbesch rieb
ĠerzÃ¤h lung
Ġanf ingen
od y
bl att
Ġbi ol
Ġlin col
Ġcomputer s
Ġlu d
Ġwenig sten
bil itÃ¤t
Ġlehr t
Ġtre ppe
Ġform t
Ġster e
Ġklar e
Ġverm uten
Ġu p
Ġhaus halt
Ġbel ei
Ġlos zu
Ġfar m
Ġausge drÃ¼ckt
lei d
Ġak zept
Ġhe bt
Ġkap azitÃ¤t
Ġmik e
Ġries ig
Ġ% .
Ġunbe w
Ġju den
Ġwerk zeugen
Ġris ik
Ġauszu probieren
Ġkolle ktiven
Ġsh ak
Ġintelligen ten
Ġwachsen den
Ġwachsen de
stu die
Ġfortsch rit
Ġkan al
amerik anische
Ġhy dro
ĠunabhÃ¤ng ige
Ġlog isch
Ġbri an
ĠmÃ¼ de
Ġbestand teil
Ġdel f
hei mlich
asi ten
Ġintegr iert
Ġwettbewer bs
Ġinterview s
Ġgeschlecht s
Ġwom Ã¶glich
ĠverÃ¶ffentlich te
Ġlan det
Ġinterpre tieren
Ġrake te
Ġgolden e
Ġmuslim ischen
Ġrecher ch
ĠprÃ¤z ise
Ġatomen ergie
Ġverwirk lichen
Ġtel ler
Ġatlan tik
Ġmandel a
Ġfreit ag
Ġhekt ar
Ġue ber
Ġzugr unde
Ġneuse el
b ranche
f lie
f Ã©
h och
i aner
k ord
m ach
p ort
s wert
t tes
u x
Ġs ang
Ġm agen
st Ã¤r
Ġun gew
Ġun heimlich
an fall
an zug
Ġein ig
Ġv aku
Ġi sst
Ġh ang
Ġk enn
on a
ir ekt
Ġf Ã¼gen
Ġzu sehen
Ġau st
Ġal gen
Ġer o
Ġer nten
Ġan spruch
Ġha ck
ur a
Ġl itt
Ġl ock
Ġauf r
Ġauf stellen
ra mme
ig ungen
Ã¼ber greifen
ĠÃ¼ber nommen
se t
Ġwei ten
ik a
Ġall gegenwÃ¤r
Ġeinf Ã¼hrung
Ġimmer hin
Ġgew Ã¤hr
ul Ã¤re
Ã¼hr te
rie f
Ġgef il
Ġvers orgt
Ġklein sten
Ġbl u
gef ahren
Ġor bit
Ġfor schen
Ġentwick lungen
Ġbesch wer
Ġzie len
Ġmei le
Ġverl eihen
Ġfre quenz
Ġph asen
Ġwor in
Ġschu b
Ġwissenschaft s
Ġdr Ã¼ckt
Ġverg leicht
Ġlin k
âĢ ĵ
Ġpoli tischer
so ur
Ġfest zustellen
Ġrie chen
Ġrie cht
Ġoft mals
Ġsu d
kon z
Ġeng agieren
Ġeur er
Ġeur em
Ġelekt rom
Ġnew s
Ġprojekt s
Ġabs ichten
Ġvorher r
Ġfilm em
Ġvert reten
Ġbestimm tes
Ġkomplex es
Ġfe yn
Ġabsol v
Ġpart eien
Ġauss agen
Ġexist ierte
Ġoze ans
ond s
Ġperfe ktion
wass erstoff
Ġgesp eich
Ġmoral isch
Ġakt uell
Ġra ffin
netz werk
Ġklin iken
Ġfotograf ie
Ġangeb lich
Ġtru gen
maÃŁ nahmen
ĠmÃ¤r z
Ġbal ken
Ġsteu ert
Ġdemokra tische
Ġverwir rt
gri ffe
Ġeth ik
Ġangew endet
kan al
Ġanalys iert
Ġhistor ischen
Ġverhaltens weisen
Ġmc don
Ġzuzu hÃ¶ren
ĠbestÃ¤ tigt
Ġausgel Ã¶st
Ġimmun system
Ġtransform ation
Ġgeg laubt
ĠberÃ¼ck sichtigt
Ġunmittel bar
Ġgaran tiert
Ġbesei tigen
ĠstÃ¤rk sten
Ġdiagnost iziert
Ġpein lich
Ġherangehen sweise
Ġurheber recht
Ġbrook lyn
ĠgelÃ¤h mt
Ġantark tis
Ġwahrschein licher
robo ter
Ġshang hai
Ġpremier minister
" ?
h eil
j u
k reise
l eitungen
m art
n ie
o va
r al
r us
z el
en kt
er krankungen
ie hen
Ġun besch
Ġv al
Ġh ong
Ġn orth
Ġz elt
Ġk as
Ġk ro
Ġf ange
ein kommen
al teten
Ġp end
Ġp est
Ġver fl
Ġt Ã¶ne
Ġge str
Ġr an
Ġr eh
Ġr unde
is ph
il a
re che
re ckt
Ġst Ã¶rung
Ġaus schnitt
Ġaus zur
at ar
Ġum gesetzt
be tt
ag ten
Ġges unken
Ġmein ten
Ġwei te
ut her
Ġunter einander
mit Ã¤t
Ġeinfach ste
Ġgew inne
Ġne andert
Ġgem Ã¤ÃŁ
Ġvers ehen
Ġgel aufen
Ġkl Ã¤nge
rÃ¤ der
Ġteil ten
Ġde tro
Ġ3 8
Ġ3 50
Ġhand elte
ĠkÃ¶nnte st
Ġsicher en
Ġlang leb
Ġwor tw
Ġ4 8
Ġmin us
Ġstar teten
gesch ichten
Ġbew aff
stand s
Ġverk Ã¶rper
sicht s
Ġang i
pr esse
Ġpar ks
Ġur laub
dig te
Ġtre u
Ġform el
Ġhal bes
ta in
Ã¼nst ler
Ġnormal er
Ġverein en
Ġgener ieren
Ġrobo tik
Ġmat rix
Ġunters uchten
ĠschÃ¼ tteln
ĠkÃ¼nst lichen
Ġanw Ã¤lte
ĠkÃ¤ me
Ġpsych op
ans as
Ġfahr t
Ġneben einander
Ġgene tik
Ġzeich nung
ĠrÃ¼ck seite
Ġverantwort ungs
ĠmÃ¤nn lichen
stu dien
Ġtoll er
Ġemotion al
fre quenz
Ġidenti fiziert
Ġta fel
Ġgelegen tlich
kam er
ĠermÃ¶glich te
fa ktor
Ġschmerz haft
Ġausl Ã¶sen
Ġmotiv iert
zut ragen
Ġag ieren
Ġbestand teile
Ġnot fall
Ġverletz lichkeit
ĠÃ¼b licherweise
ĠdÃ¼n n
lu ft
Ġorig ami
Ġunbek annten
ĠvergrÃ¶ÃŁ ert
Ġurs achen
Ġhem isph
Ġintellekt uelle
ĠfÃ¼hrungs krÃ¤fte
Ġration al
metho den
Ġbeeindru ckt
ku gel
vide o
Ġkore a
Ġtreibhaus gase
drÃ¼ sen
Ġclo ud
Ġsec ond
Ġbeglei tet
Ġfik tion
Ġgefl ogen
Ġpiz za
Ġwon ach
kommun ikation
Ġlincol n
b ieten
d achte
k ter
k olle
l abor
m eine
n or
s Ã¤u
u f
Â »
Ġ /
Ġ q
Ġw ho
Ġa gr
an o
Ġz e
es st
Ġf it
le bt
ar tikel
sch ern
ben den
Ġan tik
Ġan kam
Ġha wa
Ġt ak
Ġt rieb
Ġt rÃ¼
Ġge formt
Ġl g
Ġl Ã¼
Ġj Ã¤ger
Ġbe geben
Ġsch il
Ġsch rum
Ġauf weisen
Ġda ta
Ġst ieÃŁ
Ġaus gabe
Ġwas chen
Ġum lauf
be wohner
iel les
ĠÃ¼ber sehen
Ġre formen
Ġpro vin
tw ick
Ġbei spielen
sp unkte
ken n
ken nung
Ġunter e
Ġgen ome
hal ter
Ġdurch fÃ¼hr
Ġen gel
Ġlie fen
Ġverb lei
Ġch or
Ġne tte
Ġber lin
Ġwieder ver
zen s
qu ot
sam er
Ġverl Ã¤uft
Ġ20 30
Ġ20 20
Ġkre u
Ġ4 6
mus ik
woh nern
Ġdi le
Ġentschei det
Ġbew under
so ftware
pl ane
Ġtau schen
Ġkurz es
Ġnatur schutz
Ġhaus es
Ġhaus aufgaben
Ġweit aus
Ġherum zu
Ġbehand lungen
Ġverein t
Ġarten vielfalt
Ġabs ur
Ġstr assen
Ġaktiv isten
Ġmu tig
Ġsk ala
Ġfu er
Ġpf eil
Ġfern e
ĠÃ¤r zt
Ġricht linien
Ġerscha fft
ĠrÃ¼ck mel
Ġno vember
Ġhol te
Ġsamm elt
setz te
Ġkolle ktiv
Ġersch ienen
Ġsin kt
Ġkonzentr ierte
ĠgefÃ¤hr det
Ġexperimen ten
Ġgelegen heiten
Ġspezi fischen
Ġton y
Ġvern ach
Ġeigent um
Ġweib lichen
Ġignor iert
krank heit
Ġschluss fol
mmun ity
Ġkonstru iert
Ġzut aten
Ġbrie fe
Ġcol a
fu hr
Ġradik ale
ĠverÃ¶ffentlich ten
Ġquadrat meter
Ġtranspar ent
Ġwiderstand s
Ġfreiwill ig
Ġskulpt uren
kontr oll
ĠvÃ¶lker mord
Ġsing ap
stechn ologie
Ġcom ics
mitglie der
Ġtherap ien
Ġritu ale
Ġmyth os
Ġmeet ing
Ġfro sch
phys ik
Ġautob ahn
Ġanwesen heit
Ġprob anden
ĠÃ¼berzeug ungen
kamp agne
Ġnav ig
Ġhen ry
Ġcount y
Ġausgestat tet
Ġgewaltt Ã¤
Ġbenj amin
Ġumgew andelt
Ġfeyn man
9 9
f as
g eist
h Ã¶h
i sen
n Ã¶
n utzen
o ffen
r iert
s ucht
z ell
er tigt
Ġd Ã¤n
ie ber
Ġs tig
Ġw inden
un kten
Ġe kel
Ġe arth
Ġm ul
Ġun mÃ¶gliche
Ġein gang
Ġh Ã¤usern
Ġn ieren
Ġk ell
on i
Ġf ox
Ã¤ ser
Ġin ne
Ġau tist
or tex
Ġal arm
Ġer den
ter ung
Ġha w
Ġver setzen
Ġver trag
Ġver arbeitet
Ġver setzt
Ġver schaffen
Ġt ar
Ġr ang
Ġr ick
Ġr iff
Ġbe at
Ġsch alter
is a
Ġda mpf
Ġle d
Ġmein ungs
Ġpro stat
sp aren
sp itzen
ut ung
zu cht
ste uropa
Ġher bst
Ġab kommen
Ġab wasser
hal le
ab len
ot te
sa al
ĠwÃ¼r fel
Ġhin ab
ru he
Ġch ile
Ġch risten
Ġber eiten
stell igen
Ġwieder be
fl asche
Ġbl inde
Ġste ven
Ġste phen
nt eil
Ġfl Ã¼ch
Ġor angen
Ġgleich ungen
Ġmilli meter
ĠmÃ¶chte st
Ġverw ende
Ġhei lige
Ġinteress ierte
Ġlebens l
Ġlebens unter
Ġschu f
Ġscha fe
Ġkre ativer
br icht
Ġqu e
bl og
bl ase
Ġbetr achter
Ġfol gte
wie gend
Ġung ere
Ġem br
ic tion
kon sum
Ġkor rel
Ġro y
Ġli ban
Ġanzu fangen
Ġmittel n
Ġergeb nissen
Ġsau di
Ġmathema tischen
Ġbein halten
Ġplatz ieren
Ġzug riff
Ġverwand t
Ġerd gas
Ġ199 9
Ġentwicklungs hilfe
ĠÂ «
Ġbot schaften
kam era
Ġhimmel s
schu len
Ġspezi fische
Ġzivil isationen
Ġkonflik ten
bi ologie
Ġmark ieren
Ġwoh ler
Ġbetrie bs
Ġvari ationen
Ġke vin
Ġschwei z
Ġkauf ten
Ġend gÃ¼l
Ġfundament ale
itu ation
Ġport ug
ĠfÃ¼hrung spers
Ġleg iti
bit te
Ġbra un
ĠbemÃ¼h en
Ġausb reiten
Ġnukle ar
Ġerneuer bare
ĠberÃ¼ck sichtigen
Ġrett ungs
ĠdÃ¶r fern
Ġrepublik aner
Ġkateg orien
Ġolymp ischen
verl ust
Ġbrow n
Ġverschie ben
Ġexponent iell
Ġmyster i
Ġgeome trie
prin zip
Ġverpflich tet
Ġnoti z
Ġkomprom iss
Ġgand hi
Ġpyram ide
pers onen
Ġarist o
Ã¤sth esie
ĠgeprÃ¤ gt
Ġwat son
Ġlein wand
Ġmani fest
Ġindones ien
Ġbamb us
Ġbiol umines
Ġshak espe
Ġdelf ine
Ġdetro it
: "
b um
c er
h s
k li
m i
m ten
p sych
r and
t lichen
u v
un k
Ġm is
Ġm ord
st reifen
Ġun zÃ¤h
Ġg Ã¤ng
Ġg itter
Ġg lied
ei er
Ġein ladung
Ġb Ã¶s
Ġv in
Ġh an
Ġz unge
sch aut
Ġp anz
Ġp ion
Ġer satz
Ġer lernen
Ġver geben
Ġt ank
Ġge kl
Ġl ohnt
Ġr on
Ġbe ute
Ġbe kl
Ġbe auft
Ġsch lieÃŁ
Ġauf bew
Ġmit machen
eh l
ra in
Ġsich ere
Ġst irn
be zogen
ĠÃ¼ber fluss
Ġvor kommt
Ġje ff
Ġpro th
men ten
ĠâĢ ¦
Ġte urer
Ġte ppich
all s
Ġme ga
her um
per rt
ad o
Ġne bel
Ġbeg ra
glich er
Ġgel ungen
ger ichtet
ma tisch
Ġbl ume
Ġkl o
gef Ã¼gt
gel Ã¶st
Ġir onie
ak er
aut o
Ġreg ulieren
ap ital
Ġlang es
Ġsol dat
ĠerzÃ¤h lungen
gew inn
mus e
no ten
Ġglauben s
pl atten
Ġrie fen
ĠfrÃ¼h stÃ¼ck
Ġkor alle
Ġober e
Ġli ppen
Ġtyp isch
Ġkosten gÃ¼nst
ĠkÃ¼nst lich
ĠkÃ¼nst lern
Ġanw end
Ġwil de
Ġansch lieÃŁend
Ġmikro f
jÃ¤hr iges
Ġkri tiker
Ġchar lie
Ġvergleich bar
icher ung
Ġser v
Ġschrei en
Ġsim ulieren
Ġressour ce
Ġselt samen
Ġand rew
ĠfÃ¶r dert
Ġinse kt
ĠauÃŁergewÃ¶hn lichen
Ġtru ppen
Ġniedr igen
Ġhung rig
Ġgeschle chter
Ġke tten
far ben
Ġunsicht baren
Ġred ner
Ġtemp el
zy klus
ĠprÃ¼ f
Ġtex te
Ġhistor ische
Ġprop he
ĠunglÃ¼ck lich
Ġban anen
Ġpfer de
Ġdisku tiert
eben e
Ġlangfrist ige
Ġbelieb igen
Ġkognitiv en
Ġtren nung
fÃ¶rm ige
vert rauen
ĠkÃ¤mpf e
Ġkrankenh Ã¤usern
Ġrecyc ling
Ġautom obil
Ġstap el
tun ion
Ġkontinu ier
Ġcarol ina
instit ut
Ġzusammengef asst
Ġwahrhaf tig
null summen
Ġcri cket
Ġmcdon ald
Ġsingap ur
. -
a frik
c el
d Ã¤
d ose
f olg
m ikro
t halb
w eit
Â °
Ġ ?
en dete
er ing
Ġg reift
an ter
Ġein her
Ġb ade
Ġi q
Ġi mmen
Ġn ag
Ġf uss
Ġf usion
Ã¤ tzt
sch Ã¼
Ġzu gegeben
Ġsie d
or tion
Ã¶ re
al ie
al lt
Ġp ul
Ġp ip
ge ts
Ġer tr
Ġer greifen
Ġver wei
Ġver Ã¤r
Ġge ziel
Ġl ot
Ġl Ã¼cken
Ġr asen
Ã¼r t
Ġmit leid
re ben
Ġst reich
ag os
Ġvor lesen
Ġsp ender
Ġre produ
oll t
Ġent nehmen
Ġander thalb
li ziert
Ġunter r
Ġc d
Ġab bau
ko pe
we st
sa ck
Ġklein ste
Ġger ichts
Ġger ufen
geb r
auf gabe
Ġheraus fanden
Ġteil s
Ã¶ÃŁ t
Ġsei de
Ġschw imm
Ġben annt
Ġbesch ul
Ġlei tet
Ġlei det
Ġma xi
Ġsti pend
Ġsta te
Ġlebens stil
los es
Ġkur se
Ġbef anden
ĠverÃ¤nder ten
ĠkÃ¶rper liche
sst u
Ġhinter fragen
Ġtau cht
ĠgrÃ¼n der
sel be
Ġsy rien
Ġgra b
Ġbau steine
ord nungen
Ġeur en
Ġ7 2
Ġexper te
Ġru ft
ĠbÃ¼r gern
zess ion
Ġforsch ern
Ġforsch ungen
Ġwert volle
Ġbehand lungs
Ġaktiv en
Ġauto un
Ġanzu g
Ġmittel alter
ium s
stÃ¤nd igen
Ġpf legen
Ġkli cken
Ġweltw irtschaft
Ġumwelt schutz
Ġverschw and
Ġerscha ffung
Ġzeich nete
Ġprof il
Ġfinanz ierung
Ġfing ern
Ġmer kt
Ġempf Ã¤nger
Ġberu ht
Ġstark es
ĠbÃ¼rger krieg
Ġstud ierende
Ġnord pol
sh ir
ka in
Ġerwachsen er
Ġstre cken
az ine
Ġbaum kr
Ġdurchschnitt lichen
Ġmeeres boden
Ġfein de
gl Ã¼ck
Ġpil ze
haf tet
Ġbelie bte
Ġirgendein en
Ġuntersuch te
Ġhor mon
Ġhung ers
organ isationen
Ġgehir nen
Ġten dieren
ĠÃ¶kosystem e
ĠgewÃ¶hn lichen
gesell schaften
Ġdemon stration
res er
Ġastron om
Ġisol iert
Ġkreuz ung
Ġverring ert
Ġeinzeln er
Ġeli te
Ġerweiter ung
Ġerfol ge
Ġschach tel
Ġtheore tisch
bur ger
Ġumwand eln
Ġbekann ter
stÃ¤d te
Ġflederm Ã¤use
Ġbeur teilen
ĠpalÃ¤st inen
Ġsowje tunion
ĠÃ¶rt lichen
Ġszenar io
Ġgesto ÃŁen
ĠannÃ¤h ern
feh ler
ĠzuhÃ¶r er
blei ben
Ġappl aus
ĠtÃ¤n zer
Ġallm Ã¤h
ĠÃ¤ng ste
Ġnied rige
Ġtsun ami
nat Ã¼r
kore a
Ġvaku um
Ġgespeich ert
Ġaristo teles
a x
b c
b liche
b Ã¤ren
d ichte
h ut
k und
l Ã¤nge
n i
n utzung
o cken
r ollen
Ġw uchsen
Ġa ra
Ġa gend
Ġe cken
Ġm rt
Ġg it
Ġein laden
Ġk rÃ¤
Ġk eller
Ã¼ pfen
Ġzu aller
Ġin ti
Ġder art
Ġes s
Ġal tru
Ġp ix
ter s
Ġver bergen
Ġt k
Ġt ans
Ġr am
Ġj ones
Ġbe ten
Ġbe am
Ġden ker
Ġso mal
re t
Ġst ation
Ġaus nahmen
be z
am ie
Ġpro st
sp lan
Ġhier archie
Ġko kain
Ġunter m
Ġgen annten
Ġgesch n
Ġab nehmen
Ġdurch fall
Ã¤t tern
Ġgro b
Ã¤r zte
ick elt
Ġgew Ã¤sser
Ã¼hr ten
Ġse ti
Ġbeg ab
Ġger eist
Ġgel ei
ger issen
Ġkin o
Ġheraus gestellt
Ġir rt
Ġjem en
Ġgrund stÃ¼ck
Ġverl Ã¤sst
Ġschl oss
Ġmon ster
Ġ19 2
Ġ19 00
ĠlÃ¶ schen
br ach
Ġ4 4
Ġbeh Ã¤lter
Ġverg i
ĠkÃ¶rper lich
arbei tern
Ġversch melzen
Ġtre ffe
Ġtro p
Ġange griffen
Ġkurz frist
zeich nete
Ã¤hn liche
fÃ¤l lig
Ġru der
Ġro hr
ĠÃ¤hn elt
Ġvorher sage
Ġveran schau
Ġhe ter
Ġres ul
Ġop ti
ĠpersÃ¶n liches
Ġpsych ologische
Ġsen der
Ġprogramm ier
Ġno te
Ġhervor bringen
sm uster
Ġschwe ben
ograf ische
Ġaufge zeichnet
wert ungen
Ġiden tisch
ĠÃ¼berleben s
Ġerd Ã¶l
verb indung
reg ionen
geh eim
Ġtrau er
beh and
Ġtrain ings
ĠfÃ¶r der
Ġschie ben
Ġverste ckte
Ġpartner schaft
Ġcharakter e
Ġmark iert
Ġmobil itÃ¤t
Ġbio sphÃ¤re
Ġbegeister ung
stre cken
Ġinte gra
Ġschwei zer
ĠwÃ¤r mer
Ġred wood
Ġproduktion s
Ġeth an
dimension alen
Ġsauber e
Ġment or
Ġbeloh nt
Ġstimm ung
Ġschock iert
Ġermu tigt
ĠÃ¶konom ische
Ġlangfrist ig
Ġanstren gung
Ġmanip ulieren
Ġeinzeln es
Ġphysikal ische
bro t
Ġrek ru
Ġneurowissenschaft ler
Ġprior itÃ¤ten
Ġtin te
Ġbrun o
Ġast h
Ġkonz ert
stÃ¤t te
Ġgeograph ic
Ġbron x
Ġunangen ehm
Ġfolgender maÃŁen
ĠschÃ¶ pfer
ergeb nisse
Ġzigare tten
Ġehrgei z
Ġherzinfar kt
Ġneuseel and
Ġhawa ii
Ġlebensunter halt
Ġbegra ben
a ida
b ot
b auer
c es
h ir
k Ã¼nstler
l Ã¶
m ischen
m assen
s ign
t liche
v an
Ġ ut
Ġ Ã¤ngst
Ġs un
Ġun voll
Ġg all
an satz
ei tig
Ġein nahmen
Ġein stellungen
Ġi g
Ġi i
Ã¼ mer
or ten
der weise
em pl
Ġp as
Ġp ir
lich keiten
Ġan geschlossen
Ġan zeigen
Ġver legen
Ġver haftet
ur t
Ġge zeichnet
Ġl Ã¤
Ġr ente
Ġj f
Ġbe gehen
Ġbe werk
um enten
Ġwar e
re d
re de
Ġle ktionen
be wegen
ĠÃ¼ber legt
Ġsp itz
Ġdem Ã¼
Ġdem selben
om aten
Ġent kommen
Ġc r
Ġab sichtlich
ver letz
Ġwe ich
we tt
Ġbes org
Ġinter face
Ġtun nel
Ġkle ttern
Ġgef Ã¼hlt
Ġvers ionen
Ġber at
Ġber eitet
Ġger ichtet
Ġweiter zu
Ġkl eid
Ġper spe
Ġheraus stellt
Ġfl Ã¼sse
Ġtats achen
iger weise
Ġmo z
Ġmo un
Ġhei ra
Ġdenken s
Ġrei fen
wie s
Ġstar r
gesch rieben
Ġstra fe
Ġraum s
Ġgest euert
Ġende te
Ġsah ara
Ġang ere
ic an
Ġho f
Ġsu pern
ĠgrÃ¼n deten
die s
isten ten
Ġweit gehend
sy nd
Ġstatt fand
Ġbel ohn
Ġto x
Ġstand ort
Ġstr ich
Ġgeschichten er
tter t
Ġpf ad
lin der
Ġschau spiel
Ġverd Ã¤ch
Ġtief grÃ¼n
ĠgeschÃ¤ft smodell
Ġtechnik er
ĠbeschÃ¤f tigung
Ġspa zieren
Ġtransp lant
Ġpoten ziel
Ġerschein ung
Ġta xi
seh bar
Ġverbesser ungen
Ġzivil gesellschaft
Ġschei be
mÃ¤ÃŁ ige
Ġpark inson
Ġmechan ismen
Ġas ia
far be
Ġverletz ung
Ġkorallen riffe
gri ppe
abe th
Ġsyn ap
Ġhyp othe
Ġnerven system
Ġmem bran
Ġenth us
Ġref lex
Ġkooper ieren
Ġbon ob
Ġflag gen
Ġpen is
Ġve ter
ĠbemÃ¼h ungen
ĠÃ¶konom ischen
reu en
sproble m
Ġmobilte lefon
Ġcamp us
Ġangelegen heiten
ĠjÃ¼nger en
Ġgraus am
Ġvul kan
Ġmetaph ern
prof ess
Ġeinkauf s
mÃ¤r kte
ĠerfÃ¼l lung
Ġanpass ungs
Ġtast atur
Ġelter nteil
Ġsqu are
Ġzualler erst
synd rom
b ahnen
f ass
g ingen
h Ã¤
h ah
h Ã¤user
k ann
l og
l Ã¤nder
m ie
m Ã¤dchen
t schaften
u le
u cken
Ġd ringen
Ġw olle
Ġa pr
st immt
Ġg uer
ei sten
ei fe
Ġh Ã¤u
Ġn r
Ġk ram
le m
ar g
gen tin
Ġder selbe
au gen
lich ung
Ġan ten
Ġr auf
Ġr eine
Ġsch rit
Ġsch melzen
il y
Ġda mal
Ġaus Ã¼ben
Ġaus zusehen
us alem
ĠÃ¼ber setzung
Ġsp ringt
Ġre dete
Ġre ttet
Ġre alisieren
Ġje tz
sp uren
sp itze
Ġc oll
Ġab w
Ġsag st
Ġzeit schriften
Ġzeit spanne
Ġgew Ã¼n
ad s
Ġse gel
Ġgef roren
ze ttel
Ġber ichte
Ġger Ã¤ten
stell ungs
ger te
Ġbl ue
Ġste ckte
Ġex o
Ġex empl
Ġteil te
Ġteil nahme
Ġschw elle
Ġ3 4
Ġland wir
Ġverw und
att le
iv a
Ġlang zeit
ĠnatÃ¼rlich es
Ġmon tere
Ġmar i
Ġmar ath
Ġ19 0
Ġ19 3
Ġbetr achtung
Ġprodu ktiv
Ġdr achen
Ġfall schirm
Ġti ppen
Ġdi Ã¤t
Ġhel ium
Ġco ca
Ġverf assung
ic al
Ġvoll zeit
Ġhoff nungen
leben s
Ġbet Ã¤u
ord nete
Ã¼tz er
Ġfar mer
Ġca pt
stra fe
son st
Ġop tionen
Ġbemer kten
Ġerwar tete
trie bs
Ġerstaun liches
Ġwochen ende
Ġdemok raten
Ġsen i
ĠrÃ¼ck gang
Ġschick t
Ġauss uchen
Ġdun kler
Ġkom ische
pa ckt
Ġkri tischen
ĠtÃ¤ gliche
Ġherr n
Ġkil ometern
ame ter
Ġser vice
Ã¼ch tern
Ġphil anthrop
Ġsc ott
Ġvertei digung
Ġsign ifik
ĠÃ¶k ologie
ĠverstÃ¤nd lich
hand lung
ĠhÃ¼ tte
Ġaf ro
Ġant reibt
rech ner
Ġ13 0
Ġdok umente
untern ehmer
verstÃ¤nd nis
Ġklass ischen
test s
ĠdÃ¼n ne
Ġangew iesen
Ġgetr Ã¤n
Ġsolar zellen
Ġkr Ã¤hen
Ġwild nis
Ġunend liche
Ġdur ften
Ġabstra kte
Ġentschul digen
hÃ¶ he
Ġbele uchtung
ĠverstÃ¤r kt
ĠverstÃ¤r ken
ĠgÃ¶ tter
Ġverlang sam
Ġchip s
ĠjÃ¼ng ste
Ġgesichts aus
Ġdokumen tieren
Ġverwen dete
Ġbevorzu gen
vort rag
Ġsystema tisch
Ġweihnacht s
strate gie
Ġgriechen land
Ġdemonstr ieren
Ġib m
Ġunverm eid
Ġtas man
ĠkÃ¼hlsch rank
pati enten
ĠeingeschrÃ¤n kt
Ġclin ton
Ġvernach lÃ¤ss
ĠallmÃ¤h lich
Ġagend a
6 0
a in
b lau
h agen
k rÃ¤
l y
m te
m one
n ummer
t asche
er ien
in chen
in ation
Ġw Ã¶rtlich
Ġa er
Ġa ÃŁ
Ġa tember
Ġm s
Ġm Ã¼cken
Ġm ustern
Ġm Ã¤usen
st ill
st ift
Ġg alt
Ġg eister
ei ht
Ġein griff
Ġb or
Ġb Ã¶
Ġb iene
Ġh Ã¼r
Ġn am
Ġn ad
Ġk ran
Ġin j
Ġin fr
gen au
Ġsie g
au schen
au se
it tel
Ġp uls
den ke
Ġer rungen
ach eln
Ġan z
Ġan lagen
ter en
Ġver arbeitung
Ġge o
Ġr m
Ġr enn
Ġbe arbeiten
Ġsch lage
Ġum bringen
ff el
Ġvor geschlagen
Ġre zession
Ġar gentin
kt u
Ġbei j
Ġbei getragen
Ġnach kommen
Ġent lassen
Ġhier mit
li ckt
os ition
Ġgen ehm
Ã¤ch ern
Ġab geben
Ġab schnitt
schaft s
Ġam t
mal er
Ġgef Ã¼hlen
Ġbil des
Ġvers ichern
Ġber kele
Ġger ingen
di an
di te
fl ossen
Ġzusammen zubringen
ist ischer
Ġfl ucht
Ġor ange
Ġide ale
Ġir ration
Ġde kor
Ġfr Ã¶
ak s
Ġkam el
Ã¤d ag
Ġma ster
Ġschn app
alt ungen
Ġwor aus
Ġ5 000
Ġrei z
Ġfol ien
Ġprozent satz
dr ing
Ġhoch schul
Ġraum schiff
Ġlin sen
ph il
unter schiede
Ġgru pp
Ġhil flos
Ġzukunft s
Ġessen s
ĠÃ¼ bel
Ã¤hn lichen
Ġfort pflanz
ĠsÃ¼ dlich
ĠbÃ¼r os
Ġca fÃ©
Ġfa vor
Ġaktiv e
Ġsk y
Ġinst abil
stra hlen
stra hlung
Ġherz krankheiten
Ġdein es
Ġfe sten
ĠnÃ¤h ern
Ġdo ug
Ġmikro b
ĠtÃ¶ dlich
Ġkri tisch
ĠerklÃ¤r ungen
Ġintelligen ter
ĠgefÃ¤hr lichen
Ġbar m
Ġkil ogramm
Ġaufre gung
Ġkont ak
Ġsor te
Ġkat he
Ġanges prochen
techn ologien
Ġprak tische
Ġvertei digungs
Ġredu ktion
Ġozean en
ĠzufÃ¤l lige
Ġdien ste
Ġjapan ischen
ĠprÃ¤sen t
Ġbat terien
grÃ¶ÃŁ te
ĠmÃ¼ ttern
Ġwohin gegen
bed ing
Ġbesuch er
Ġmel den
ĠgeschÃ¤fts fÃ¼hrer
Ġkonstru ieren
rah men
Ġgeschen kt
Ġac tion
Ġbrenn stoffe
gesetz e
Ġklu ge
ĠverÃ¶ffentlich ung
Ġba ck
nach richten
Ġkonkurr ieren
ĠzusÃ¤tz lichen
Ġtom aten
Ġintellekt uellen
Ġpat ri
ĠfranzÃ¶s ischen
Ġverhand lungen
Ġkrimin alitÃ¤t
bom be
Ġcom ic
Ġbundes staat
Ġwahnsinn ig
Ġbeunruh igt
ĠkÃ¼n ste
Ġmobilte lefone
Ġbiom asse
Ġberuh igen
ĠenttÃ¤u scht
milli onen
Ġfrustr iert
Ġhoh em
Ġcarto ons
Ġoffensicht liche
Ġentwar f
Ġthun fisch
Ġargumen tieren
sorgan isationen
Ġbehinder ungen
katastrop hen
Ġconne ct
Ġbefrie digen
kil ometer
Ġbeobacht ungen
ĠaufklÃ¤r ung
Ġhalluzin ationen
Ġdv d
Ġzeitgen Ã¶ss
Ġprie ster
Ġunbew usst
Ġpest izi
Ġagr ar
Ġasth ma
Ġatember au
b elt
b ast
b ane
c la
k ranken
l or
l ampe
m ien
m ess
m ungs
t Ã¶
Â ²
en hagen
Ġd p
in kt
Ġw achte
Ġw itze
Ġa ÃŁen
Ġa bed
st ritten
st Ã¶rungen
Ġun recht
Ġg or
Ġein heim
Ġb indung
Ġb Ã¼hnen
Ġh ans
Ġk unde
Ġk Ã¤lte
Ġf ung
sch war
Ġzu stÃ¤ndig
Ġal ber
Ġer ober
Ġer richtet
Ġan kunft
Ġha ft
Ġver passen
Ġt ok
Ġt ha
Ġj agd
Ġbe acht
Ġsch ri
Ġsch licht
Ġsch Ã¶pfung
um in
Ã¼r e
Ġauf hÃ¶rt
Ġo z
Ġo ma
len n
re chnung
Ġle ge
Ġum sonst
Ã¶n land
be tr
ĠÃ¼ber tragung
Ġvor Ã¼ber
se quenz
och ten
Ġwei st
Ġpro j
Ġko ennen
Ã¼ck te
li sten
ot tet
Ã¤r t
Ġen ge
ges p
Ġgef iel
ster reich
Ġart hur
Ġzusammen bringen
Ġzusammen bruch
Ġbest anden
gel enk
Ġteil zunehmen
ok oll
Ġgenau igkeit
Ġmo di
Ġ3 000
Ġweg zu
Ġpaar e
Ġpaar en
pro zen
Ġschn ellen
ĠwÃ¤hr ung
alt h
ĠwÃ¤hrend dessen
Ġschu h
Ġkre atur
Ġ4 3
ss inn
Ġsa v
teil chen
Ġstar ker
Ġinform ieren
Ġdi am
Ġlin se
spr ung
Ġang riffe
Ġpar asiten
Ġtau cher
Ġbed ingung
Ġange stellte
eist ern
Ġerw ischt
Ġat lant
Ġverm Ã¤chtnis
Ġerkl Ã¤re
lo cken
Ġro ut
Ġdesign ern
Ġkunst werk
Ġamerikan ischer
Ġjahrhunder ten
Ġfreund es
Ġanzu passen
Ġvert reter
Ġkosten lose
Ġpf licht
Ġinv as
sk rise
Ġmeer wasser
Ġpsych ischen
Ġzahl reiche
Ġhar ry
Ġchem otherapie
Ġaufzu geben
Ġsamm elten
Ġentscheiden den
Ġplatz iert
Ġaufge geben
ĠsÃ¼d pol
ĠkÃ¼nstler in
Ġkat hol
Ġgesp annt
sh ow
Ġser i
gest altung
geh irn
Ġdra stisch
fre ie
ĠmitgefÃ¼hl s
Ġjung es
schu he
mÃ¤ÃŁ igen
Ġkop enhagen
Ġverz Ã¶
Ġabsch lieÃŁend
ĠsÃ¤u len
Ġarg umente
stre am
Ġbu sch
Ġmel odie
Ġproje ct
arch ite
Ġphilos ophen
Ġtemperatur en
Ġexistieren den
ĠÃ¼b lichen
Ġdynam isch
Ġextra h
ĠwÃ¤h lten
Ġstimm te
Ġmess ungen
Ġerm Ã¤ch
Ġroh stoffe
Ġbetrachte ten
Ġaustau schen
ĠbÃ¤ cker
Ġabl Ã¤uft
Ġkart off
Ġausges prochen
Ġath le
Ġglamour Ã¶s
Ġangen ehm
ĠalltÃ¤ glichen
Ġvorgehen sweise
Ġrisk ieren
Ġgebrau chen
Ġbefr eit
erz Ã¤hlen
Ġcarto on
Ġgedul d
Ġrespek tieren
Ġwiederauf bau
pap ier
Ġbefol gen
Ġlou is
Ġvirgin ia
Ġjose ph
ĠsÃ¶h ne
Ġfluores zieren
Ġleon ardo
Ġwortw Ã¶rtlich
Ġangi ogenese
Ġdile mma
Ġgelei stet
Ġmoz art
Ġapr il
Ġmontere y
Ġinfr ar
Ġberkele y
Ġatlant a
1 2
b ig
f lich
g ant
k Ã¶r
k uchen
l ingen
m ische
t re
u a
u hren
w an
w is
y nt
z ungen
z essen
in iert
ie ter
Ġs ug
Ġs auer
Ġw right
un dern
un ts
Ġe ti
Ġm m
st euern
Ġein sicht
Ġein samkeit
Ġb re
Ġb rett
Ġb osn
Ġh asse
Ġn i
Ġz orn
Ġf esseln
ar ium
Ġin t
Ã¶ pft
Ġp ath
Ġer spar
Ġan forder
Ġan einander
Ġan gebracht
Ġha ken
Ġver he
Ġl h
Ġl t
Ġr Ã¼
Ġbe cher
Ġbe legen
Ġsch arf
Ġauf wand
Ġo bst
il zt
be ziehen
ag nen
ĠÃ¼ber nimmt
eu ten
Ġsp ag
Ġre ferenz
sp olitik
Ġgr Ã¶nland
Ġgen ossen
Ġab spielen
ab sichtig
ot o
we ichen
eil er
Ġinter ag
pp el
Ġgew ehr
bar t
pf ten
Ġse g
Ġgem erkt
Ġbeg riffe
Ġeigen er
Ġtat to
di mensionen
Ġgeb ilde
Ġdan iel
olog in
Ġkl ische
Ġheraus fand
Ġzusammen kommen
Ġentw ir
op ard
Ġor den
ĠÃ¶ sterreich
Ġide alen
Ġide ologie
Ġmo sche
Ġzw ie
Ġtag s
ine ering
Ġreg ime
att ung
Ã¤d t
alt ungs
Ġanf Ã¼hlt
Ġfol gten
Ġuni versen
Ġsa ison
Ġschnell sten
dr eht
ckt a
Ġdi ff
ĠkÃ¶rper lichen
ph ia
ph ase
Ġfil tern
Ġur teil
Ġform ul
Ġster be
Ġessen z
Ġgra f
Ġbau e
Ġorganis ierten
Ġerfolg reichen
Ġro ute
Ġro ver
ĠÃ¤hn eln
Ġverein f
Ġlos werden
gem Ã¤ÃŁ
Ġstr asse
Ġnetz e
Ġausge ht
Ġanzu bieten
Ġak tien
Ġstunden lang
Ġdis ney
Ġansch lieÃŁen
sta frika
ĠrÃ¼ck kehr
Ġfinanz iell
Ġverd amm
Ġvis uell
Ġwider spie
Ġaufge hÃ¶rt
Ġextrem en
Ġspa zier
Ã¤ss ern
ĠÃ¼berw Ã¤ltigen
Ġschla mm
Ġinspir ierend
Ġverbr achten
verb indungen
Ġ199 4
Ġ199 5
Ġvoraus setzungen
trÃ¤ gen
ĠprÃ¤sen tiert
ĠernÃ¤hr ungs
Ġpark platz
Ġzwe cke
Ġwa isen
artig es
Ġbeteil igung
Ġkla ppt
Ġaufw achsen
Ġdel fin
Ġarab ische
gro ÃŁe
Ġverkauf ten
Ġerl Ã¤u
Ġvorber eiten
Ġanru fe
Ġschlau er
Ġbom bar
Ġroman tische
ĠvÃ¶ geln
Ġenth Ã¼l
Ġausgeb il
Ġkonse quenz
ĠungewÃ¶hn liche
Ġunge he
Ġri ver
Ġpingu in
Ġmodern er
ĠfranzÃ¶s ische
ĠflÃ¼cht lings
ĠverknÃ¼ pfen
Ġanstren gungen
Ġkomponen te
Ġweihn achten
Ġgeschw ister
Ġsar ah
Ġerhol en
Ġunerwar tete
Ġinfe ktionen
Ġbahn brechen
Ġrek ord
Ġlatein amerika
Ġbesa ÃŁ
ĠgÃ¤n zlich
Ġreflek tieren
Ġdum me
Ġdesig nen
Ġpand emie
Ġkontra st
Ġultima tive
gÃ¤ng ig
Ġvorur teile
Ġcome dy
famil ie
Ġmum bai
Ġglu kose
Ġkrist all
Ġelektrom agne
Ġstig ma
muse um
Ġtans ania
Ġgeschichtener zÃ¤hler
b od
b ienen
b recher
c ent
f iel
i anische
j ob
k orn
l ere
m ass
o is
p rei
u ck
u ckt
v al
w ahl
Ġ ]
ch em
in sel
ie dr
Ġm all
Ġm ult
Ġm isser
st euer
an det
Ġb Ã¤lle
Ġn ummern
Ġz et
Ġz ahlt
Ã¤ k
sch Ã¤tzen
Ġzu stande
Ġin halts
Ġsie b
der e
em p
Ġal as
Ġp ik
Ġp ant
Ġer e
Ġer wecken
Ġan bau
ber icht
icht ung
Ġver lieÃŁen
Ġver laufen
Ġt yr
Ġl uther
ol era
Ġr unden
Ġbe er
Ġsch e
Ġsch ale
Ġauf gefallen
Ġo fen
ann ter
re den
re gend
Ġst rei
Ġst Ã¶ren
Ġaus be
Ġaus zut
Ġum setzung
be am
ag ern
ĠÃ¼ber holt
Ġvor nehmen
Ġim per
Ġim plan
Ġim itieren
och e
Ġsp art
Ġre deten
Ġre bell
ik opter
Ġje t
oll o
rei bungen
Ġhier zu
ut s
ste cken
Ġko so
Ġviel versprechen
Ġunter drÃ¼cken
Ġunter brochen
Ġc lip
issen schaften
Ġab holz
Ã¼n deten
all es
me dien
Ġverb rauch
Ġch olera
Ġpa ck
Ġtun es
ad es
Ġse attle
Ġne ok
Ġweiter geben
ger Ã¤u
Ġbl utz
Ġste inen
Ġheraus kommen
Ġheraus fordern
Ġzusammen gestellt
op ol
Ġgleich berech
Ġkinder garten
Ġschw achen
Ġverw under
Ġverw altung
kl ass
ĠfÃ¼hr e
Ġmon tag
zie le
Ġgerade zu
Ġnor men
Ġqu ell
bl asen
Ġ4 7
Ġged auert
Ġbef Ã¤h
Ġhoch wer
Ġseit her
ay a
id met
Ġdollar s
Ġschle u
Ġunterschied licher
je tzt
Ġern ste
Ġern iedr
Ġmag azine
Ġsu ppe
Ġsu pr
die se
Ġfot ografen
Ġhaus halts
Ġfort bewegung
Ġgener iert
Ġrel ation
Ġhe bel
Ġfe der
Ġmasch in
Ġunbe grenz
Ġbez ogen
si us
Ġju p
Ġerre ichten
Ġzeich net
Ġchem iker
Ġsex y
pa cken
spro jekt
Ġschwierig sten
Ġersch reck
Ġersch recken
Ġhinzu gefÃ¼gt
struktur en
Ġtrau rige
Ġfantast isches
ĠÃ¶k ologischen
Ġ16 0
wand eln
Ġlag ern
Ġind us
Ġant reiben
ĠfÃ¼ ttern
Ġtrain er
Ġkop iert
grÃ¼n de
Ġbri ten
Ġdeut sche
Ġpil le
Ġlaut sprecher
ĠphÃ¤nomen e
ynam ik
Ġposition en
Ġvari ante
ĠmilitÃ¤r ische
Ġbehaup tet
plan ung
Ġausdruck s
Ġpal Ã¤
Ġgesundheits versorgung
ĠhÃ¤ufig sten
Ġmerk mal
Ġkompliz ierten
Ġelektron ischen
Ġzut rifft
ĠÃ¼b ungen
Ġsub je
zur ufen
Ġfo ie
Ġdick e
Ġsil ber
Ġsteuer ung
Ġfle ck
ĠÃ¤gyp ter
part ner
Ġastron omen
org ungs
Ġdre ieinhalb
Ġhindern is
Ġbrut to
Ġmr d
Ġanerken nen
Ġveranst altung
Ġabh Ã¤ngen
Ġzusammenzu arbeiten
Ã¼tter t
such e
pflanz t
ĠhÃ¼h nchen
Ġschalt kreise
Ġtin ten
Ġweiterentwick elt
statt ung
ĠgemeinnÃ¼tz ige
Ġpum pen
Ġever est
Ġharm onie
deh nt
Ġklat schen
Ġkrankenschwe stern
ĠbeÃ¤ngst igend
Ġinfor matik
Ġcel sius
Ġfilmem acher
uv erne
ĠunzÃ¤h lige
ĠannÃ¤hern d
Ġperspe ktiven
Ġorden tlich
c l
c ra
e ffe
f euer
i tes
m ir
o sten
r oll
r essen
u k
y e
Ã Ń
en tz
en ix
Ġd od
in fe
Ġs ier
Ġw ag
Ġw unden
Ġa sy
Ġa ct
Ġa part
Ġe k
Ġm Ã¼h
st chen
Ġun ion
Ġun nÃ¶
Ġg ir
Ġg inge
an or
ei ert
Ġein bauen
Ġb ass
Ġb rad
Ġh oll
Ġh ot
Ġh Ã¼lle
Ġn eigung
Ġz oo
Ġk lau
Ġk Ã¼nf
Ġk ehren
Ġf Ã¤r
Ġf lieÃŁend
le cht
ar kt
sch ichten
Ġin f
el ig
ti fiz
der wÃ¤rmung
Ġal bert
Ġer forder
Ġer stellten
ben de
Ġan legen
Ġver scha
Ġge sten
Ġr annte
Ġj ord
Ġbe dient
Ġauf sp
ig sten
re a
Ġle gal
Ġaus sicht
at r
be trieben
am as
ĠÃ¼ber trag
ĠÃ¼ber setz
Ġre chnung
ik on
Ġnach th
Ġnach voll
ne ter
Ġmach er
Ġher kommen
Ġunter nommen
Ġc at
Ġc li
Ġgesch ossen
ang st
ot ter
Ġbes iegen
Ġzeit schrift
per spektive
ges agt
Ġne tten
Ġgem alt
Ġber aten
Ã¤u fen
Ġgel andet
Ġweiter gegeben
fl aschen
Ġper man
Ã¤nder ungen
Ġwahr es
spiel t
Ġir land
Ġmo unt
Ġschw immt
Ġschw Ã¤chen
Ġben ennen
Ġkam bod
form ance
ap fen
dien ste
Ġverl uste
Ġfunktion sweise
fr em
Ġ19 30
im p
Ġanf Ã¤llig
Ġmin im
Ġdank barkeit
Ġinform iert
Ġende ffekt
Ġbew undern
ĠschÃ¶n sten
Ġvoll stÃ¤ndige
Ġpar tikel
Ġmag ische
Ġgra mma
Ġro se
Ġstatt gefunden
Ġpu bert
Ġschul tern
min ist
fin anz
Ġfreund lich
Ġherz schlag
Ġvideo spiel
Ġrep orter
Ġwil der
Ġkrebs zellen
Ġka sten
Ġbeste ch
Ġtages licht
Ġsex uell
Ġhervor rufen
Ġschli mme
Ġberu fe
ĠsÃ¼d lichen
Ġlau tete
Ġtradition ell
Ġsym ph
verb rau
zep te
Ġvertei digen
Ġschei ÃŁe
ĠmÃ¤ch tigen
ĠfÃ¶r derung
Ġlog o
gl as
Ġleidenschaft lich
haf tigkeit
Ġausw endig
Ġbege hren
Ġherunter laden
Ġausl Ã¶ser
Ġingenie uren
bed arf
Ġstei gerung
ĠÃ¶kon omie
Ġmuse ums
Ġhigh school
ĠÃ¤uÃŁer en
Ġpal m
ĠnÃ¶ tige
Ġnot aufnahme
Ġrech tz
Ġgu cken
Ġmass iven
Ġsub vention
Ġvorber eitung
Ġkoll ab
ĠprÃ¼ fung
Ġrelativ itÃ¤t
Ġfo ot
bas is
Ġseh vermÃ¶gen
Ġcol umb
Ġrepar atur
Ġelef ant
Ġhi mal
Ġbehin derung
ĠgrÃ¶s se
Ġkosm os
Ġinstall ation
reu ung
Ġrechen schaft
mechan ismus
Ġverhand eln
Ġgewiss em
Ġgelie bt
Ġprofession elle
Ġerhe blich
mitglie d
ĠjÃ¼ng sten
ĠschÃ¤ tzt
Ġdreidimension alen
Ġlar ry
Ġmissb rauch
Ġflexi bel
ĠhÃ¤ss lich
vide os
ĠvernÃ¼nf tig
Ġbelast ung
Ġky ros
Ġgeome tr
Ġkehr te
Ġmahl zeiten
ĠnÃ¶r dlichen
mitt ler
Ġlob by
ĠÃ¤sthe tik
inform ationen
Ġgewohn heiten
Ġkond ome
Ġhervorra gend
Ġabrah am
Ġkonvers ation
Ġverwandel te
Ġgefil mt
Ġhemisph Ã¤re
Ġshakespe are
Ġbaumkr onen
Ġbewerk stelligen
Ġschrit tw
Ġinfrar ot
Ġspag het
Ġjup iter
Ġpubert Ã¤t
% .
a e
b lichen
b anken
c c
c s
f indung
g anz
h ang
i di
j ourn
m isch
p ool
r ennen
s and
t ie
u ver
v es
Ġ =
Ġd schung
Ġs ant
Ġs ank
Ġw it
Ġw uÃŁ
Ġe ast
Ġm auern
st ationen
Ġg ur
an isch
ei ge
Ġein tau
Ġein verstanden
Ġb m
Ġb ach
Ġb ah
Ġz one
Ġk Ã¼h
Ġk rÃ¤ften
Ġf ass
Ġf inn
Ġf Ã¤den
Ġf Ã¼lle
le vel
Ã¤ s
ar ing
Ġzu stÃ¤nde
Ġin einander
el a
em onie
au chen
Ġer achten
Ġer derwÃ¤rmung
Ġan sammlung
Ġha cken
Ġver passt
Ġl ak
Ġl ade
Ġl ampen
Ġj ane
Ġbe e
Ġbe trag
Ġsch ir
Ġsch lich
Ġsch alten
Ġauf nimmt
Ġwar teten
Ġst Ã¶
Ġst Ã¶rt
Ġst Ã¼tzen
Ġst achel
Ġaus gehend
Ġaus bilden
at men
be sten
Ġvor haben
Ġpro biert
Ġpro grammen
Ġbei seite
ne ur
scha tz
Ġko stete
Ġgen ial
Ġab satz
Ġab kÃ¼r
ĠâĢĵ ,
hal lo
ab y
Ġbes uchten
Ġgew idmet
Ġverb ringe
wer tes
ul Ã¤ren
Ġfra kt
Ġkle ben
Ġbeg angen
Ġbil deten
ze d
Ġber ater
Ġgel der
Ġwieder zu
ger s
chn ungen
Ġbl Ã¼te
qu ote
geb rochen
Ġmal er
Ġzusammen setzen
ok ratie
Ġde ck
Ġland karte
Ġverw alten
Ġhand werk
Ġhei mlich
Ġzie he
Ġgrund schule
Ġreg net
Ġspr ang
ha ie
Ġinteress iere
Ġbewe gten
Ġzwischen zeit
Ġversuch s
im pf
Ġkre ation
br ieren
Ġfol glich
Ġung em
Ġdr Ã¤ngen
Ġti t
Ġbo om
Ġentschei dungs
Ġverk lein
Ġorgan ische
Ġhinter kopf
dig ungen
bil dern
Ġtro ck
iss ion
ĠÃ¼ blich
Ġrich tet
Ġu h
Ġkomm st
Ġru ck
ĠprÃ¤ front
Ġfeh lte
Ġgesellschaft liche
Ġanst eigen
Ġpu bli
Ġvorher igen
Ġvert ie
ĠschÃ¼ tzt
Ġna ckt
Ġhaupt stadt
Ġwil den
Ġpsych o
Ġverschw anden
Ġinnov ative
Ġzer o
Ġabsol uten
ĠtÃ¶ tete
ĠÃ¤l teste
Ġgesetz es
et ro
Ġzehn tel
Ġkolle ktive
Ġpolitik ern
mar sch
ĠbenÃ¶ tigten
ĠÃ¼berw ach
Ġsuper hel
fÃ¤h igen
fÃ¤h iger
Ġkrankheit s
rÃ¤n e
ĠÃ¤lter werden
Ġplan kton
krie ge
Ġ199 7
ĠfÃ¼hl st
fre u
umm eln
Ġeinzu gehen
Ġnachhal tigen
Ġsim ul
Ġhy b
Ġpositiv es
Ġra ster
Ġwebs eiten
Ġdien stag
Ġsto pp
Ġverste ckten
Ġeinge be
Ġstatist isch
Ġdauer haft
Ġvari anten
hy d
Ġdopp elte
ĠjÃ¼n gere
ĠverfÃ¼g baren
Ġproje ktes
Ġgefangen en
Ġarab isch
Ġah nen
Ġyo u
Ġreligi Ã¶s
kn ochen
Ġbewer tet
Ġhistor isch
ĠzurÃ¼ckzu kehren
Ġment ale
Ġvolk es
Ġven us
Ġprop ortion
Ġban ker
ĠschlÃ¤ ft
Ġaufst eigen
Ġentsch loss
Ġfeu ern
Ġsam stag
Ġerg ab
ĠÃ¼bersch reiten
Ġerm or
Ġpaten te
Ġvorzu bereiten
komm st
Ġzwang sl
Ġakadem iker
Ġeink aufen
Ġdroh ne
tausen d
Ġmoch ten
Ġverlang samen
Ġalltag s
Ġschlei mp
Ġline ar
Ġlad ung
Ġjer usalem
Ġfau st
sproble me
ĠgegenwÃ¤r tigen
zusp rechen
typ en
Ġelen d
Ġentwar fen
Ġempfind lich
Ġschi ffe
verhÃ¤lt nis
Ġfoss ilien
rott ung
Ġsmart phone
ĠglÃ¼hbir nen
ĠÃ¤qu ator
Ġmolekul aren
Ġregul ierung
Ġcro w
Ġbruch teil
Ġcra ig
Ġparadig ma
spart ner
Ġjos hu
Ġarbeitsk rÃ¤fte
ingenie ur
Ġsupern ova
Ġnam ib
umin ium
Ġrechtz eitig
Ġspaghet ti
Ġzwangsl Ã¤ufig
2 00
4 0
a f
a i
b ra
b os
d roh
h or
i fiziert
j ahren
k ate
q aida
r olle
t as
t or
t ur
z eln
er be
ch ar
Ġd eh
Ġw uer
un klar
Ġe di
Ġm es
Ġm yst
Ġm ix
st Ã¼cken
Ġg ier
an ern
ei der
Ġein sam
Ġh it
Ġn om
Ġz Ã¶
Ġk h
Ġf an
Ġf da
le gung
le gten
sch Ã¤d
sch ritt
Ġzu lassen
or s
or ig
Ġder jenige
au st
au ff
al gorith
Ġal ice
Ġal uminium
Ġp sy
lich em
Ġer reich
Ġer wiesen
Ġan bauen
de press
Ġver zei
Ġver richten
ier st
Ġt Ã¤ter
Ġt urm
ol s
Ġr og
Ġbe weist
Ġmit zu
Ġo oh
ck end
Ġsich ern
Ġle x
Ġle tzen
Ġman cher
us ionen
at a
be g
ĠÃ¼ber aus
Ã¤n ner
Ġvor ant
och t
Ġsp ass
Ġnach her
Ġko h
Ġunter schieden
Ġc ur
Ġgesch Ã¼tz
Ġab folge
hal l
ri p
we sten
Ġganz er
pp y
Ġlie bten
Ġverb ringt
lie fer
Ġzusammen spiel
ĠzurÃ¼ck ge
Ġja c
Ġbr ille
Ġbede cken
Ġzie gen
aut os
Ġlei hen
Ġlei tete
Ã¤d ie
Ġnor m
Ġkur ven
Ã¶l fe
Ġ4 50
Ġbetr unken
Ġbi ome
Ã¤ng ern
Ġti me
Ġhel ikopter
Ġbo hr
Ġmom enten
Ġang reifen
Ġfrei er
pl Ã¤ne
dig es
Ġtro st
Ġsy lv
Ġhaus halte
Ġorganis ierte
Ġ9 8
Ġglob us
mÃ¶glich keit
Ġmod el
Ġli by
Ġausge stellt
Ġausge zeichnet
ris iko
Ġbas ket
Ġbeob achter
Ġak zent
Ġhe fe
Ġna iv
bes p
Ġwil le
Ġbez irk
Ġverschw enden
amp us
Ġju wel
Ġgemeinsam es
Ġbedeut ungs
Ġmathema tisch
Ġtief sten
sÃ¤tz liche
Ġsamm elte
Ġwider stehen
Ġgo uverne
chter t
Ġkri sen
Ġgeist ige
Ġwahl mÃ¶glichkeiten
ĠsÃ¼d amerika
Ġbar bar
stu fen
stu dium
Ġkil ler
Ġmolek Ã¼len
Ġstaat liche
Ġernst hafte
Ġsonnen systems
ĠmaÃŁ stÃ¤
Ġverbr annt
Ġser ver
Ġwand eln
Ã¼ch tig
Ġphil ip
Ġphil adel
Ã¼ss elt
Ġakt u
Ġmy zel
Ġ14 0
Ġspezi alisten
Ġth ese
Ġ201 5
ĠfÃ¼ gt
recht s
ĠauÃŁen welt
ĠmÃ¤ch tiger
samm eln
Ġausl Ã¶
Ġeigent ums
gere chnet
leist ungs
Ġoptim ieren
Ġgering sten
ĠnÃ¶ tigen
Ġwal mart
kÃ¼nf te
Ġimp ul
ĠÃ¼b liche
Ġgenom s
Ġneugier de
Ġstoff e
Ġruh m
Ġbedroh ungen
Ġschaff ung
Ġverschl Ã¼ssel
Ġfru stration
Ġdauern d
Ġsum pf
Ġbetroffen en
ĠgehÃ¶r te
Ġflu ktu
Ġhu hn
pos itiv
Ġbeeindru ckende
Ġbezahl ung
ep idem
Ġanony m
col a
Ġpho enix
Ġakte ure
gener ation
Ġmusikal ische
Ġmamm ographie
Ġvisu alisierung
Ġeinbe ziehen
Ġtalen te
ĠÃ¼berfl Ã¼ss
stÃ¤t ten
ĠtÃ¤tig keiten
ival ent
exper iment
ĠbeschÃ¤d igt
Ġilleg ale
Ġmob ile
Ġwende punkt
Ġschwefel wasserstoff
Ġattra ktiv
Ġskep tisch
Ġrea ktor
Ġbehaupt ung
ĠÃ¤uÃŁ ere
Ġverpflicht ung
schrau ber
Ġkorrig ieren
Ġabsur d
Ġpanz er
Ġveter anen
Ġseni oren
Ġbarm herz
Ġtha iland
Ġsier ra
Ġsylv ia
2 5
b Ã¼hne
d ringt
d anke
i tis
m acher
n as
n ik
n ot
n Ã¤ck
o ckt
t reffen
v Ã¶
z Ã¤hlen
Ã ³
Ġ ..."
Ġs ad
Ġe c
Ġm Ã¶rder
st em
st unde
an ischer
Ġb ad
Ġv ok
Ġi sa
Ġh Ã¤us
Ġn ike
Ġz oll
Ġf Ã¼l
sch uss
sch Ã¤den
Ġzu fl
Ġin folge
Ġin put
Ġau dio
Ġder gleichen
it te
Ġal an
Ġp ie
Ġp ig
Ġp ess
Ġp ick
ge halt
Ġer bl
Ġan sÃ¤tze
Ġan gerufen
Ġver viel
Ġt s
Ġge ste
Ġl yn
Ġr ind
Ġbe denkt
Ġsch oss
Ġsch erz
um p
Ġauf zeigen
Ġmit bringen
re y
re bs
Ġst unt
Ġle cker
Ġle ichen
Ġaus richten
Ġaus schlag
Ġum satz
Ġum kehr
Ġum drehen
Ġum stritten
be ten
be ste
ĠÃ¼ber d
ĠÃ¼ber schw
ern Ã¤hrung
Ġnach ahmen
Ġnach dachte
Ġent setz
ien ten
Ġgr us
Ġunter ird
Ġgen auen
Ġgen ies
Ġc och
Ġkon s
Ġkon ver
Ġ-- ,
Ġgesch ick
Ġab lauf
Ġab laufen
ver schw
ver teilung
ver arbeitung
ri min
Ġbes orgen
Ġzwei g
Ġme ch
Ġch r
lie f
Ġne tter
Ġbil lige
tier ter
la ster
Ġwieder verw
Ġweiter gehen
ger ungen
Ġzei len
Ġbl Ã¼ten
Ġkl ing
Ġkl Ã¼ger
Ġste tig
Ġper formance
Ġverst eh
Ġfl ossen
Ġteil haben
Ġpass iv
Ġpl atte
Ġir ren
Ġeinz ur
Ġschw ul
Ġschw ache
aut or
Ġreg al
pro jekte
ap e
Ġfre ud
kl op
kl Ã¤ss
Ġwasser s
Ġschl eim
Ġpol en
Ġqu ar
ss lich
Ġsa at
Ġged eihen
ult Ã¤t
Ġraum fahrt
Ġunivers al
Ġverf ein
ĠfÃ¼nf tel
Ġkar o
kon flik
zeit alter
Ġbau er
ord neten
Ġverm ischt
bo ote
Ġlicht geschwindigkeit
Ġkomm and
Ġru fe
Ġfeh lern
ĠstÃ¤d tische
Ġbas en
Ġhe alth
Ġalt mod
Ġpf eifen
ĠkÃ¤ mpft
Ġpos itiver
Ġverschw endung
ĠtrÃ¤ um
ĠplÃ¶ tz
Ġzent ren
Ġumgeb racht
ĠverfÃ¼ gt
fahr zeuge
Ġgeist igen
Ġsh ir
Ġantwor teten
ho le
Ġerd oberflÃ¤che
Ġevolution Ã¤r
ĠÃ¤lter er
Ġfisch fang
Ġerfolgreich er
Ġzeu gen
Ġsc annen
Ġverurs achte
ĠÃ¶k ologische
Ġvertrauen swÃ¼r
Ġeinzu fÃ¼hren
ĠhÃ¼ fte
Ġspezi al
Ġsto ÃŁ
ct us
get reten
Ġ198 4
Ġingenie urs
Ġhart nÃ¤ck
Ġrechte ck
Ġwunderbar er
Ġkenne dy
Ġaussch alten
Ġwun dern
Ġmotor rad
Ġdel hi
Ġdepress iv
ĠgeschÃ¤fts welt
Ġdemokra tien
bereich e
Ġabges chnitten
Ġbegeg net
Ġintens itÃ¤t
Ġfei er
Ġcent s
wahr scheinlich
Ġfehlen den
Ġtab le
Ġdomin iert
Ġinstall ieren
Ġroh stoff
Ġausgel Ã¶scht
Ġbelieb ige
Ġbetrachte te
Ġakadem ischen
material ien
ied elt
komp lex
Ġausger ichtet
Ġnervenz elle
Ġwh ite
Ġstim uliert
Ġgolden en
Ġunvor her
Ġsper mien
Ġschme ckt
Ġakte ur
Ġzy linder
Ġdreidimension ale
Ġdon ner
Ġbesa ÃŁen
Ġpolizi st
Ġreflek tiert
ĠlÃ¤ng ere
Ġverzer r
Ġmoskit os
Ġeinges perrt
ĠglÃ¼hbir ne
bab we
Ġgleicher maÃŁen
stei ger
Ġmont ana
Ġdiplomat ie
inv est
stad ium
ĠfÃ¼n ften
Ġminder heit
Ġkrit erien
ĠsÃ¼ch tig
Ġbanglad esch
Ġvorherr schen
Ġreh abil
Ġantik Ã¶rper
Ġliban on
Ġwohler gehen
Ġgeschn itten
wett bewer
Ġverlangsam t
Ġbeij ing
Ġconnect ome
Ġalas ka
Ġnachth immel
Ġpess im
1 1
a sten
b un
d rin
f urch
g st
h irn
k rÃ¤ften
l Ã¤uf
m orgen
p asste
r Ã¼ck
r ing
s ituation
y d
z og
ch ern
Ġd j
Ġd ol
Ġd ichten
Ġd ala
Ġd own
Ġd osis
Ġs ap
Ġs ehn
Ġw k
Ġw Ã¤nden
un s
un sch
ich tern
Ġm oha
Ġun auf
Ġun wohl
Ġun fa
ei de
Ġein gest
Ġein klang
Ġb len
Ġh mm
Ġh Ã¤ndler
Ġn ich
Ġk ansas
es h
es ung
Ġf lick
ar s
sch eln
sch la
sch recken
Ġzu gelassen
el os
ein richtungen
Ġal bum
Ġp ur
Ġp Ã¤dag
Ġer raten
Ġan blick
ber kul
de cke
Ġge pl
Ġge par
Ġge steckt
Ġbe her
Ġden jenigen
Ġsch rau
Ġauf kommen
Ġauf ruf
eit h
Ġmit tern
ra ffer
Ġso und
ig an
Ã¼ber tragung
Ġaus fÃ¼hr
Ġaus gefÃ¼hrt
ĠÃ¼ber gehen
ĠÃ¼ber blick
ĠÃ¼ber mitteln
ĠÃ¼ber trieben
Ġvor gÃ¤nge
Ġsp inne
Ġre ichte
tw e
rei be
isch te
ut ation
zu legen
tig keiten
rau t
rau chen
Ġher de
Ġher anz
Ġunter grund
Ġunter brechen
Ġc re
Ġ-- -
Ã¤h lten
Ġgesch lafen
Ġab st
Ġab schneiden
Ġte lefone
ver anst
Ã¤r kt
we bs
Ġganz heit
Ġzwei f
Ġen ger
ungs vermÃ¶gen
per t
lie ssen
ges chnitten
Ġse di
Ġbeg eistern
Ġselbst vertrauen
ichtig keit
Ġger inge
fl ag
war ten
Ġzusa mm
Ġheraus ge
Ġentw Ã¼r
Ġwahr zunehmen
rÃ¤ te
rÃ¤ chen
Ġerz ogen
Ġpass ag
Ġeinz elt
Ġde zentr
Ġfr Ã¼chte
Ġlei stet
Ġschn urr
fr esser
Ġbewe ge
Ġlebens zeit
Ġbetr Ã¼gen
Ġdaten satz
Ġhoch geladen
Ġunivers elle
Ġgest ein
Ġbo ote
ic o
ĠfÃ¼nf te
Ġwirtschaft licher
Ġho sp
Ġlehr te
Ġform uliert
kon takt
Ġster ber
Ġessen t
Ġmusik stÃ¼ck
Ġ9 00
Ġbel Ã¤st
Ġamerikan ern
Ġpu ppen
Ġpu zz
Ġmod ellen
Ġober fl
ĠmÃ¤dchen s
zieh ungen
zus ammen
voll es
ĠschÃ¼ chtern
Ġsk and
Ġtyp ischerweise
Ġres onanz
inen te
Ġumwelt freund
Ġdo od
sk rank
Ġkn all
Ġsicht baren
Ġsen de
Ġ18 0
ĠtrÃ¤ ger
Ġvis ionen
Ġaufzu hÃ¶ren
fiz it
Ġdeu ten
Ġkom fort
Ġindi aner
Ġevolution Ã¤ren
fÃ¤h ige
Ġherr schaft
Ġkont inente
Ġdisk rimin
Ġkan inchen
Ġwand te
Ġprak tischen
mu ck
vie w
Ġmonat s
az itÃ¤ten
ĠzufÃ¤l ligen
Ġmitt lere
ĠkÃ¼r zer
Ġbiolog ischer
Ġschreck liches
Ġcar l
Ġprofess oren
Ġpil oten
Ġberg steiger
Ġquad ra
Ġseltsam es
Ġnotwend igen
Ġsetz e
ĠbedÃ¼rf nissen
Ġselten en
Ġmut ationen
Ġdel phin
erken nung
Ġumzu wandeln
teles kop
Ġtodes fÃ¤lle
Ġeffizien te
Ġtum ore
ĠdÃ¼n ger
Ġeindruck s
Ġemp or
Ġfle cken
po int
Ġfehlen de
spl ant
Ġschnitt stelle
ĠÃ¼berprÃ¼ ft
Ġimpf stoffe
Ġunbek annt
ĠbeschrÃ¤n kungen
ĠÃ¼berein stimmen
Ġfeu cht
Ġtu gend
vir en
ĠzÃ¼ ge
Ġinstall iert
ĠbemÃ¼h t
Ġmas sa
ĠwÃ¤l dern
Ġplatt formen
Ġsur fen
ĠschÃ¤tz ungen
Ġtransform ieren
Ġausser gewÃ¶hn
Ġcyber krimin
Ġcan yon
Ġdire kten
Ġfau l
Ġauton ome
Ġskelett mus
Ġmig ration
Ġank Ã¼n
Ġbefeh l
Ġcor tex
Ġrecher che
Ġinstin ktiv
Ġschwanger schaft
ĠzerstÃ¶r er
strÃ¶ me
erf olg
ĠhÃ¼b sch
Ġassozi iert
Ġehemal ige
katastrop he
ĠbrÃ¤ uchten
Ġverne tzt
Ġfoss il
Ġdreie ck
ĠÃ¼berwÃ¤l tigt
Ġspektak ulÃ¤r
Ġseel en
Ġsexu al
Ġappar at
Ġrem ix
agent uren
Ġsoc ial
ĠwÃ¤ sche
Ġtedtal ks
Ġunaus weich
Ġgeni ale
Ġwiderspr Ã¼ch
Ġbaumw olle
Ġdete ktor
Ġchromos omen
Ġarchitekton ische
ĠrÃ¼ckmel dung
Ġbesorg nis
Ġtyr ann
Ġschir m
Ġbasket ball
Ġdala i
Ġmoha mme
" :
1 00
4 7
a iss
b u
b aus
b Ã¤nder
b rauch
c tion
d elt
e arch
f ein
h um
h Ã¤ndler
i os
k k
k om
l Ã¤ufer
m Ã¼
o den
p or
s zeit
s geschichte
w ollen
z onen
ch tet
in str
in dert
Ġs her
Ġs ha
un sten
Ġun sch
Ġein genommen
Ġein gerichtet
Ġb art
te d
Ġv ikt
Ġi d
Ġi kon
Ġn ullen
Ġk asse
Ġk anten
Ã¼ t
Ã¼ chen
Ġf ell
ar me
sch Ã¼tzer
Ġin digen
Ġin haf
Ġsie he
Ã¶ pfen
Ġal li
Ġp ier
Ġan ek
Ġha mmer
Ġver trieben
Ġt ust
Ġt ante
Ġl achten
Ġl isten
Ġl ampe
Ġr ennt
Ġbe ach
sen dung
Ġo kl
il lt
Ġst iegen
Ġle ug
Ġle uchtet
Ġle wis
Ġaus drÃ¼ck
us ster
at rie
Ġum gibt
Ġum kreisen
am era
ag on
ag anda
Ġvor m
Ġvor lieben
Ġvor sitzen
se bene
Ġsp inn
Ġje ffer
Ġar du
Ġar rang
Ġent mu
sp ekt
sp rech
ah oma
aus bildung
os se
Ġte uren
Ġwirk ungs
Ġhin ge
Ġzeit raffer
ul a
Ġgef Ã¤l
schie ben
Ġger issen
Ġgeb ir
Ġgel ten
Ġerf uhren
Ġzei le
zi mmern
fl ation
fl Ã¼gel
ser ie
qu is
Ġste ck
op en
Ġwahr heiten
Ġbest Ã¤nd
Ġor gas
Ġja y
Ġfor dert
ug h
Ġdrei ÃŁig
Ġschw Ã¤r
Ġhand voll
Ġfr isst
Ġverl Ã¤ss
vers icherung
Ġlang em
Ġscha f
Ġscha ffe
Ġbetr Ã¼ger
Ġrei st
schl Ã¼sse
teil te
Ġspiel ern
Ġstra hl
Ġdir igen
Ġbereit schaft
Ġco mmunity
Ġmom a
Ġlernen s
ph ones
Ġlehr plan
kon zept
ĠgrÃ¼n dung
Ġbet re
Ġkrie gt
Ġklar heit
Ġu v
Ġschwier igkeit
Ġted x
Ġdrit tes
Ġgesam tes
Ġverein fachen
Ġli bellen
Ġfa den
Ġausge dacht
Ġfreund schaft
Ġmittel klasse
Ġak tiver
Ġna ir
Ġres earch
Ġflug zeugen
neh me
Ġluft fahrt
Ġarch Ã¤
Ġpo e
Ġpsych ologischen
ans ion
Ġfahr e
Ġmaterial s
Ġwerk statt
Ġ18 7
Ġtechnolog ischen
Ġgemeinsam keiten
urs ache
Ġpart nern
Ġverd reif
Ġvis ueller
Ġsamm ler
ĠtÃ¶ teten
ĠtÃ¶ dliche
Ġhervor heben
kehr te
fahr ts
Ġprin ce
mar ks
Ġantwor tet
Ġspa ce
Ġverle tzlich
ĠÃ¼berw acht
Ġhinaus gehen
fÃ¤h igkeiten
ĠkÃ¼nstler ische
Ġkat al
viel leicht
Ġtrau en
trÃ¤ gt
Ġpe er
Ġeinzu fangen
orien tierten
seh er
ĠkÃ¼r z
Ġbus se
Ġschei ben
Ġsand wich
mpf e
Ġunterschei dung
kur ve
Ġausl Ã¶st
Ġgele hr
Ġhor ror
Ġhor mone
Ġmuse en
Ġaussch au
Ġselten er
Ġtrin kt
Ġlo ve
Ġbesuch e
Ġatmo sph
Ġkontin enten
Ġnahrungs kette
Ġaufw achen
Ġzit tern
Ġindustr ien
entwick lung
fil me
Ġschlaf zimmer
Ġfundament alen
ĠspÃ¼r t
Ġimp or
Ġfo od
ttel t
Ġerzie hen
Ġtex til
fun k
lÃ¶s ungen
Ġbegrenz ten
Ġdrama tische
Ġbeloh nen
uni versitÃ¤t
Ġstad ium
Ġanim ationen
Ġauftau cht
Ġastron omie
Ġwander t
Ġtu berkul
Ġwitz ig
Ġverab schie
Ġsl um
Ġbauch speich
Ġcl ub
Ġkrimin elle
Ġvorder grund
Ġost kÃ¼ste
ĠrÃ¶ hren
Ġult r
Ġimm ig
Ġtele kommunikation
gespr Ã¤che
Ġschild kr
Ġritu al
ĠerhÃ¶h te
ĠvernÃ¼nf tige
ĠmÃ¼n ze
Ġark tis
Ġbrill ante
Ġmak ro
Ġren aiss
Ġmeet ings
Ġausbr eitung
Ġham burger
Ġsymmetr ien
Ġempfeh len
Ġnobel preis
Ġnobel prei
Ġverne tzen
deuten d
Ġmolekul are
Ġvit amin
Ġausgang spunkt
Ġtoler anz
ĠfrÃ¶h lich
Ġskiz zen
Ġtes la
Ã¶kon om
verk auf
Ġanat omie
Ġsnow den
Ġhero in
Ġstere otyp
ĠallgegenwÃ¤r tig
Ġwinden ergie
ĠschlieÃŁ e
Ġmikrof on
Ġethan ol
Ġmari hu
Ġlh c
Ġtags Ã¼ber
Ġkoso vo
Ġabholz ung
Ġerschreck end
Ġcolumb ia
Ġdschung el
Ġeingebe ttet
Ġschleimp ilz
Ġpsy che
Ġphiladel phia
Ġvikt or
Ġjeffer son
Ġbauchspeich el
Ġrenaiss ance
. âĢĿ
1 5
a v
a ffe
b ut
g ay
h esen
k art
l it
t hen
y ota
Ġ one
Ġ oli
Ġd og
in tens
Ġs hr
Ġs eu
Ġs Ã¤nger
Ġs ib
Ġw Ã¤hlt
Ġa cker
Ġun ab
Ġun gar
as ha
Ġg Ã¼
Ġg attung
an y
Ġi ra
Ġn sa
Ġk ick
ir ur
sch me
Ġzu kommen
Ġin tr
Ġin neh
el det
Ġau di
ein genommen
al ore
Ġp ic
Ġan geben
de utet
Ġver all
Ġver ges
Ġge kenn
Ġl asen
Ġl achs
Ġj og
Ġj ill
Ġbe legt
Ġbe heben
Ġsch er
Ġsch ritten
Ġsch recken
Ġauf passen
Ġwie gen
re stau
Ġle e
Ġle ichten
Ġaus denken
Ġaus bruch
Ġaus gangs
Ġges endet
Ġvor ange
Ġvor rang
Ġre pl
Ġdem ut
Ġbei der
tig ungen
Ġmach bar
Ã¶r dert
Ġmich igan
Ġc n
Ġkon g
Ġleben dige
Ġte steten
Ġmehr fach
ver Ã¤ndern
ver stand
ot on
ri pt
ko d
all appen
me te
for scht
Ġgew ichts
wer ker
Ġgef Ã¶rdert
Ġber ichtete
stell ige
Ġmil o
Ġerf Ã¤hrt
fl Ã¼ge
Ġbl eist
ser vice
Ġste wart
Ġper u
Ġheraus kommt
Ġheraus stellte
Ġproble matisch
gel eitet
Ġpl ur
Ġpl ant
Ġbild hau
gr as
reich er
Ġspr uch
Ã¤nd ischen
Ġ5 2
Ġlebens formen
Ġlebens standard
tra t
gew alt
schei dungen
Ġspiel zeuge
Ġschnell ste
Ġbef asst
Ġti pp
Ġhel m
Ġco mm
Ġrecht liche
Ġrecht fertigen
spr achen
Ġtei g
Ġcomputer programm
sst a
asch all
Ġkomple tten
Ġversch rieben
Ġoffen er
Ġunglaub licher
Ġtau sch
Ġtau chte
Ġmag ischen
Ġtro pen
Ġtro mmel
Ġsu bs
ĠgrÃ¼n dlich
Ġnatur wissenschaft
Ġkrie ger
Ġverm ehren
Ġerh oben
Ġvide ok
Ġrob ust
Ġmater ielle
sy m
Ġ9 6
ĠÃ¤hn lichkeit
Ġli zenz
ĠÃ¶ffent liches
Ġstr ang
Ġschul bildung
Ġgeschichten erzÃ¤hlen
ĠgefÃ¼hl s
stra ÃŁen
ĠgeschÃ¤ tzt
Ġmedizin ischer
trie be
sk y
Ġbab b
Ġehr lichkeit
Ġinvest ment
Ġ18 5
Ġhol t
Ġmer kten
co ver
Ġaufge teilt
ĠsÃ¼d afrik
Ġrein igen
Ġlau ten
Ġkontroll ierte
Ġerd n
stu fe
Ġinspir ierte
Ġindividu ell
Ġaufre chter
Ġlok aler
Ġ199 1
Ġ199 3
Ġ199 6
fre d
Ġta geb
trÃ¤ ger
Ġkrei sen
Ġoper ations
gi ft
obil ien
Ġspezi alisiert
Ġverbesser te
schir me
par ks
Ġpil len
Ġker zen
Ġbio technologie
Ġlandwirtschaft lichen
liegen den
Ġbeit rÃ¤
Ġmut ation
erken nen
Ġed in
Ġfundament al
Ġeth ischen
Ġverkauf s
zur eich
kor b
Ġintegr itÃ¤t
fun ktionen
Ġpatient in
ĠflÃ¼ss ig
Ġblock ieren
Ġblock iert
part y
Ġunge achtet
ĠbeschrÃ¤n ken
hel fen
Ġqual it
Ġblind heit
Ġverab schieden
fig uren
ĠfranzÃ¶s isch
Ġteles kope
Ġsynt hese
Ġkrimin ellen
Ġversp reche
Ġspektrum s
ĠstÃ¼r zen
Ġokt op
Ġerneuer baren
Ġeli min
ĠeinschrÃ¤n kung
Ġstim ulation
Ġfokuss iert
ĠbevÃ¶lkerungs wachstum
ĠstÃ¤ mmen
Ġschme tter
ĠkÃ¤mpf ten
Ġdraht lose
Ġimm obilien
Ġspan isch
Ġdokumen tiert
Ġbang alore
Ġprior itÃ¤t
Ġbesei tigt
Ġspirit uellen
Ġbetrieb ssystem
ĠgegenwÃ¤r tige
Ġdiszipl inen
Ġbudd ha
Ġlast wagen
Ġmyster ium
Ġexplod ieren
kÃ¶n nen
fo od
Ġvul k
Ġbefest igt
Ġkonst ant
klin ik
ĠÃ¶rt liche
Ġvernetz ung
mor al
Ġmahl zeit
Ġaggress iv
Ġadr esse
Ġpower point
ĠÃ¼berwÃ¤l tigend
sau ce
Ġeb ay
Ġpsychi ater
molek Ã¼le
Ġrealist isch
Ġjust iz
Ġentschl Ã¼sseln
Ġglaub wÃ¼r
Ġexter ne
Ġderzei tigen
Ġunvorstell bar
stÃ¤r ke
kamer as
Ġprovin z
ĠÃ¤rzt in
Ġungere chtigkeit
Ġproth esen
schÃ¼ ler
Ġreprodu zieren
Ġut op
Ġmoun tain
profess or
Ġnad eln
Ġerrungen schaften
Ġfortpflanz ung
Ġanforder ungen
Ġgraf iken
Ġmult ination
entz Ã¼ndung
Ġkambod scha
Ġgramma tik
Ġfoot ball
Ġschrittw eise
Ġermor det
Ġcrow d
epidem ie
vÃ¶ gel
ĠÃ¼berschw em
klÃ¤ss ler
Ġmittern acht
Ġzweif ellos
Ġokl ahoma
Ġardu ino
Ġoli ver
Ġverall gemein
8 0
d sten
e ts
f ischer
g ige
k indern
m angel
n bar
s ind
s im
v t
w ale
w ider
w unsch
x on
in land
Ġs i
Ġs n
Ġa di
Ġa ktionen
ich ere
Ġm Ã¶n
Ġun o
Ġg leicht
ei ÃŁ
ei ÃŁen
Ġein sen
Ġein greifen
Ġein hundert
Ġb Ã¼
te f
Ġv ib
Ġh ie
Ġh ur
Ġn eh
Ġn ik
Ġk ug
Ġk Ã¼ssen
Ã¼ sten
Ġf asst
ar on
ar ab
ar tiger
Ġzu s
Ġzu folge
au ch
Ġal bt
Ġal bern
Ġp ent
Ġp ist
Ġp rag
Ġp asste
Ġp itts
Ġer trÃ¤ge
ber a
Ġver trÃ¤ge
Ġt Ã¤ten
Ġge ko
Ġl at
Ġl ith
Ġl ama
Ġl Ã¤den
Ġl Ã¼ge
Ġr ussen
Ġr oss
Ġbe an
Ġsch ema
um pf
Ġauf stand
sen de
ig ste
re kord
Ġst ie
Ġle one
us sten
at ter
at han
Ġum fragen
ĠfÃ¼r chter
ĠÃ¼ber geben
Ġges ichtern
Ġvor stand
oll er
Ġhier von
ah a
ut nik
Ġgeh or
Ġander n
zu gs
ste st
ne gie
Ġko ffer
li ber
Ġkon sens
Ġab schied
Ġab grund
Ġam ster
Ġgro sser
Ġwissen schaften
tr ans
Ġzeit ungs
ru hen
Ġneu em
Ġme eren
Ġeinfach sten
rin th
her steller
Ġgew artet
ges chn
ran t
Ġhatte st
Ġselbst wert
schie ÃŁen
la ppen
Ġsoll st
Ġger aden
stell ern
Ġgel des
olog ischer
Ġerf assung
Ġkl ienten
Ġnat han
auf wÃ¤rts
Ġheraus kam
ĠzurÃ¼ck bringen
gel der
Ġland ung
vor stellungen
Ġverw urz
Ġhand lungs
alen der
Ġweg nehmen
pro t
Ġfun ken
vers um
Ġkomp l
Ġkomp ri
Ġsta ates
Ġmon a
Ġversuch ung
Ġlebens weise
Ġwissenschaft licher
ativ es
bl Ã¤tter
gra de
Ġstar ren
Ġti bet
Ġbereit stellen
Ġem ily
Ġspe k
Ġorgan ischen
unter such
Ġgesund es
ĠfrÃ¼h ere
Ġerw Ã¤
Ġ8 6
ĠsÃ¼ ÃŁe
Ġlos lassen
Ġnetz werks
druck er
Ġmittel schicht
Ġop tische
Ġerwar te
Ġbeginnen d
bel ast
Ġnation aler
Ġneur ogenese
Ġverschw endet
Ġsex uellen
Ġdun keln
sph ase
ohn heiten
spro chen
spro gramme
lef onen
fahr zeug
Ġbro ad
gemein de
Ġanal pha
ĠÃ¼berleben den
Ġevolution Ã¤re
Ġherr schen
Ġinternation aler
gest alten
Ġregen wasser
Ġjung frau
glie d
Ġpe king
Ġsim pel
Ġoper ieren
Ġspezi fisch
Ġabge legenen
ĠunabhÃ¤ng igen
rech nen
rech ungen
grÃ¼n den
Ġregion ale
Ġereig nissen
Ġwein te
Ġlust ige
antwor tet
Ġheil mittel
ausen den
Ġangeb oren
Ġvari ation
Ġherzen s
Ġke tte
Ġmechan ische
Ġwandel s
Ġpop ulÃ¤r
othe ken
Ġschwei ÃŁ
Ġtanz t
abt eilung
Ġauseinander setzen
Ġintervie wer
schlÃ¤ gt
Ġruss ischen
Ġszen en
Ġkir ib
Ġsub ti
Ġdynam ische
Ġjourn al
Ġvogel grippe
lu ster
Ġsauber es
Ġprim Ã¤r
Ġbewer ben
Ġgegensei tige
Ġcent ral
po st
Ġisol ation
Ġkapit Ã¤n
Ġerg Ã¤nzen
Ġlangfrist igen
Ġbefrei ung
ĠkÃ¶ der
Ġrechen leistung
leh nt
Ġjewei ligen
Ġmanip uliert
Ġtren nt
ĠsÃ¤uge tieren
Ġgelie fert
Ġap ollo
ĠgÃ¼nst iger
Ġausger ottet
Ġgehei me
Ġpin k
Ġbeunruh igen
Ġlar ven
fot o
fot os
ĠenttÃ¤u schen
Ġbefeh le
Ġhypot hesen
Ġinstin kt
Ġchirur gie
Ġhoh es
Ġfossi le
Ġkommerziel le
Ġversamm eln
sper son
Ġauthen ti
ĠpalÃ¤st ina
Ġnoti zen
Ġenzy klop
Ġunschul dig
Ġkub a
su per
Ġvorles ungen
Ġbesp rechen
ĠbegrÃ¼ ÃŁen
Ġchao tisch
Ġgreif bar
Ġfla mmen
sek unden
Ġquan tit
Ġzens ur
ĠbÃ¶r sen
Ġrass ismus
Ġallerer sten
Ġverdeut lichen
Ġgaler ie
Ġamer ican
Ġminer alien
Ġportra it
Ġfortschrit ts
Ġbeschwer en
Ġneandert hal
twick lung
Ġschlussfol gerung
Ġportug al
Ġintegra tion
ckta il
Ġsupr al
cl ub
Ġjoshu a
furch t
Ġmohamme d
Ġmarihu ana
Ġedin burgh
Ġgeko stet
b is
b eine
c us
c ing
d or
f tigen
f ahrung
h Ã¤lfte
h Ã¤usern
i ent
i ath
k ein
k os
k eine
n iveau
p los
p rÃ¤sen
s eiten
s werte
u u
Ã ¨
en e
ch a
Ġs ab
Ġun ein
Ġun heil
Ġg Ã¤rten
Ġdie go
Ġb ul
Ġb ran
Ġb hut
Ġb lickt
Ġv ent
Ġv ic
Ġn gos
Ġz irk
Ġk ome
Ġk eith
Ã¼ ttet
on etz
on to
Ã¤ umen
Ã¤ uren
sch le
Ġin fiz
Ġin dex
ti ca
em ark
it tern
it ution
den tschaft
Ġer stellte
ach use
Ġt asse
Ġge ck
Ġl ind
Ġl Ã¤ngst
Ġl ila
ol zen
Ġr od
Ġbe achtung
Ġbe wertungen
ro ck
Ġauf baut
Ġo ec
tz er
tz ahl
Ġwar t
Ġwar nung
ig ungs
Ġda tei
Ġst Ã¶r
Ġst Ã¼hle
Ġaus rottung
Ġum geht
ahr t
ĠÃ¼ber gew
Ġges ang
Ġvor tragen
Ġim age
Ġim ker
Ġwei tem
Ġsp h
ik an
tw irtschaft
kt ar
Ġnach for
Ġnach weis
rei ter
ne e
ne st
Ġunter brech
tel ang
ess ion
os h
Ġgen uss
Ġmich elang
Ġc ris
Ġkon ser
Ġkon zip
Ã¤ch te
Ã¤h t
Ã¤h lte
Ġab halten
Ġab lehnen
Ġam ts
ri a
ke y
all as
Ġhin sehen
ru fe
Ġme d
rin de
Ġgew annen
Ġverb ind
ob ile
Ġse par
Ġgef Ã¤ÃŁ
tier tes
ma tische
Ġerf anden
Ġerf reut
Ġzusammen setzung
Ġverst Ã¼
Ġgl att
Ġgl Ã¤nzen
gef angen
Ġor ang
amen te
Ġentwick ler
gel ernt
ĠÃ¶ ko
Ġeinz ut
Ġschw ind
ak rebs
iz itÃ¤t
vers agen
Ġmar gar
Ġlebens rÃ¤ume
Ġlebens dauer
Ġanf Ã¼hlen
Ġdr um
Ġgute m
Ġspie geln
Ġverf olg
Ġy r
arbei tete
Ġpar ameter
Ġange halten
fÃ¼hr ungen
Ġgra ff
Ġgra tis
Ġbau stein
Ġel len
Ġhaus meister
Ġpla kat
ta iner
Ġfort fahren
sy lv
ĠÃ¤hn licher
Ġkopf schmerzen
Ġfa vel
Ġvorher zusagen
fra m
one y
Ġerwar teten
werk zeug
ĠnÃ¤h ert
ĠkÃ¤ fig
ĠkÃ¤ stchen
ank ungen
tis h
Ġwil son
Ġkommun iziert
si dent
ingt on
eig nen
Ġhol ten
ĠtÃ¶ dlichen
Ġauszu bilden
Ġgol iath
Ġverbunden en
Ġverbunden heit
Ġlaufen den
Ġvergleich e
Ġberu hen
Ġbro kk
atten t
Ġblut druck
Ã¤ss ig
Ġbar rel
Ġbar rieren
stu dio
ator ium
Ġkan Ã¤le
geh Ã¶rt
Ġapp s
Ġzeu gs
Ġexp ansion
schw ung
orien tierte
itter t
schu h
ĠuniversitÃ¤t s
lern te
Ġlag os
Ġvol umen
Ġcar negie
Ġzivil isten
Ġentscheidung strÃ¤ger
Ġil lu
Ġwechs elt
Ġschie ÃŁt
Ġvern ichten
mod elle
Ġbestehen den
Ġwoh nt
Ġkol on
Ġvari ablen
ĠsÃ¤u le
Ġwol fram
zÃ¼ glich
Ġindust ri
Ġselten e
ĠmÃ¤r chen
organ ismen
Ġfak ultÃ¤t
ĠÃ¼berras chte
ĠverrÃ¼ck ter
ĠspÃ¼r te
Ġmass iv
gro ÃŁen
Ġbegeg nung
Ġkoll aps
dit ation
Ġbeschleun igung
Ġsolar zelle
kÃ¤ mpfer
Ġprop aganda
gesetz ten
Ġref le
issenschaft ler
Ġauftau chte
Ġentsprechen de
Ġmilch straÃŁe
Ġparad ies
bÃ¼r o
Ġerg Ã¤n
ĠgrÃ¶ÃŁen ordnungen
Ġhem d
Ġve gas
Ġfeind sel
Ġpun k
Ġtur b
spar ungen
Ġausges ucht
mensch lichen
ĠsÃ¤uge tier
Ġbeobachte ten
Ġprofession ellen
vert reter
Ġleh m
Ġleh nte
smod elle
Ġgehei men
Ġunwahr schein
Ġunerwar tet
ĠdÃ¼ ster
Ġraub tier
Ġimm ater
Ġschalt kreis
Ġalpha be
ĠerhÃ¶h ten
Ġkommerziel len
Ġjon gl
Ġversicher ung
Ġforder e
ĠgroÃŁzÃ¼g ig
Ġthun fische
Ġimprov isieren
verhÃ¤lt nisse
Ġszenar ien
Ġmoskit onetz
Ġkul tiv
ĠjÃ¼d ischen
Ġgesto ppt
Ġprakti zieren
ĠbrÃ¤ uchte
Ġverwirr end
Ġengag iert
Ġphysi ologie
besitz er
Ġdetaill iert
wÃ¤ sche
Ġgewohn heit
Ġfix iert
Ġandauern d
Ġhub schrauber
Ġtedtal k
ĠblutgefÃ¤ ÃŁe
Ġvene zu
ĠbÃ¶r se
Ġnic ole
Ġphotos ynt
diag no
Ġerwer ben
verfol gen
sprodu kt
Ġdepri miert
kennt nis
Ġzuver lÃ¤ssig
Ġrisik ok
Ġschrum pfen
gewinn ung
Ġmarath on
ĠfrÃ¶ sche
Ġbrutto inland
freu de
Ġliby en
Ġbarmherz igkeit
Ġausschlag geben
Ġunfa ir
Ġzusamm ent
Ġanek d
Ġprince ton
Ġkirib ati
achuse tts
Ġoec d
sylv ania
Ġbrokk oli
Ġillu str
. ]
4 00
b len
b ud
c r
d licher
f tz
f Ã¤hrt
g lau
g Ã¼ter
h eu
j i
j ung
k as
k Ã¼n
l on
l assung
m Ã¼tter
n g
n obel
p unkten
r onen
u en
w urf
w achs
Â ´
Ã §
Ġ Ã¤h
Ġd Ã¤cher
in as
Ġw unde
Ġw Ã¶ch
st i
st eh
st iegen
st Ã¶rung
an ien
an im
Ġb ag
Ġb iegen
Ġb ahnen
te tes
Ġh ip
Ġn ass
Ġn asen
Ġz ir
Ġz aun
Ġk ru
Ġk eim
Ã¼ m
Ã¼ lt
Ã¼ stet
es a
Ġf ib
Ġf ielen
le hre
Ã¤ ÃŁe
ar tigkeit
ten t
sch alter
sch reiten
Ġin wie
Ġin nern
au te
lich ten
Ġer tragen
Ġan zieh
Ġver ge
Ġver sprochen
Ġj c
Ġbe cken
Ġbe arbeitet
Ġden g
Ġsch r
Ġsch uss
Ġsch ande
Ġsch oÃŁ
Ġauf zeichnen
Ġmit arbeitern
Ġo stafrika
ck ing
ann ung
Ġso ft
Ġwar fen
Ġwar me
Ġwar ren
re zept
Ġst ringt
Ġle ucht
Ġaus kommen
Ġaus gef
Ġaus geschlossen
Ġaus wirken
Ġaus richtung
at sch
be dien
Ġges eg
Ġvor gef
Ġvor stellt
Ġvor geht
Ġvor schlÃ¤ge
Ġim ag
Ġar ro
Ġpro min
sp a
rau sch
Ġdann y
Ġc orn
Ġab k
Ġab wesen
Ġab handlung
Ġte sto
Ġeinf Ã¼hl
sa ft
Ġen te
Ġen gen
mit te
ru ckt
me d
rin a
her s
for ma
Ġlie bst
Ġgew Ã¼r
Ġverb ieten
acht eil
Ġkle be
Ġse en
ster on
Ġger iet
olog isches
ger Ã¤ten
Ġson de
Ġson gs
Ġzusammen gesetzt
ist isches
Ġgl anz
op arden
Ġwahr sten
Ġfor tw
Ġerz ielt
Ã¶ÃŁ e
Ġtechn ischer
Ġmo ores
Ġschw Ã¤ch
tt a
Ġhand gelenk
Ġverl Ã¤nger
Ġfre quenzen
att form
ĠweiÃŁ er
ierte m
Ġfunktion s
Ġfunktion ierten
Ġsta unen
Ġ5 3
Ġ5 4
Ġmar ia
Ġlebens mitteln
im s
ĠnÃ¤ch te
Ġscha tz
Ġqu allen
Ġrei sten
th ese
Ġprodu zenten
gra t
yp e
str eit
Ġus hah
ker t
Ġstra ft
Ġbeh arr
Ġdir ek
Ġdi as
