{"<PAD>":0,"<SOS>":1,"<EOS>":2,"<UNK>":3,"<CLS>":4,"<SEP>":5,"<MASK>":6,"!":7,"\"":8,"#":9,"$":10,"%":11,"&":12,"'":13,"(":14,")":15,"*":16,"+":17,",":18,"-":19,".":20,"/":21,"0":22,"1":23,"2":24,"3":25,"4":26,"5":27,"6":28,"7":29,"8":30,"9":31,":":32,";":33,"<":34,"=":35,">":36,"?":37,"@":38,"A":39,"B":40,"C":41,"D":42,"E":43,"F":44,"G":45,"H":46,"I":47,"J":48,"K":49,"L":50,"M":51,"N":52,"O":53,"P":54,"Q":55,"R":56,"S":57,"T":58,"U":59,"V":60,"W":61,"X":62,"Y":63,"Z":64,"[":65,"\\":66,"]":67,"^":68,"_":69,"`":70,"a":71,"b":72,"c":73,"d":74,"e":75,"f":76,"g":77,"h":78,"i":79,"j":80,"k":81,"l":82,"m":83,"n":84,"o":85,"p":86,"q":87,"r":88,"s":89,"t":90,"u":91,"v":92,"w":93,"x":94,"y":95,"z":96,"{":97,"|":98,"}":99,"~":100,"¡":101,"¢":102,"£":103,"¤":104,"¥":105,"¦":106,"§":107,"¨":108,"©":109,"ª":110,"«":111,"¬":112,"®":113,"¯":114,"°":115,"±":116,"²":117,"³":118,"´":119,"µ":120,"¶":121,"·":122,"¸":123,"¹":124,"º":125,"»":126,"¼":127,"½":128,"¾":129,"¿":130,"À":131,"Á":132,"Â":133,"Ã":134,"Ä":135,"Å":136,"Æ":137,"Ç":138,"È":139,"É":140,"Ê":141,"Ë":142,"Ì":143,"Í":144,"Î":145,"Ï":146,"Ð":147,"Ñ":148,"Ò":149,"Ó":150,"Ô":151,"Õ":152,"Ö":153,"×":154,"Ø":155,"Ù":156,"Ú":157,"Û":158,"Ü":159,"Ý":160,"Þ":161,"ß":162,"à":163,"á":164,"â":165,"ã":166,"ä":167,"å":168,"æ":169,"ç":170,"è":171,"é":172,"ê":173,"ë":174,"ì":175,"í":176,"î":177,"ï":178,"ð":179,"ñ":180,"ò":181,"ó":182,"ô":183,"õ":184,"ö":185,"÷":186,"ø":187,"ù":188,"ú":189,"û":190,"ü":191,"ý":192,"þ":193,"ÿ":194,"Ā":195,"ā":196,"Ă":197,"ă":198,"Ą":199,"ą":200,"Ć":201,"ć":202,"Ĉ":203,"ĉ":204,"Ċ":205,"ċ":206,"Č":207,"č":208,"Ď":209,"ď":210,"Đ":211,"đ":212,"Ē":213,"ē":214,"Ĕ":215,"ĕ":216,"Ė":217,"ė":218,"Ę":219,"ę":220,"Ě":221,"ě":222,"Ĝ":223,"ĝ":224,"Ğ":225,"ğ":226,"Ġ":227,"ġ":228,"Ģ":229,"ģ":230,"Ĥ":231,"ĥ":232,"Ħ":233,"ħ":234,"Ĩ":235,"ĩ":236,"Ī":237,"ī":238,"Ĭ":239,"ĭ":240,"Į":241,"į":242,"İ":243,"ı":244,"Ĳ":245,"ĳ":246,"Ĵ":247,"ĵ":248,"Ķ":249,"ķ":250,"ĸ":251,"Ĺ":252,"ĺ":253,"Ļ":254,"ļ":255,"Ľ":256,"ľ":257,"Ŀ":258,"ŀ":259,"Ł":260,"ł":261,"Ń":262,"en":263,"er":264,"ch":265,"Ġd":266,"in":267,"ie":268,"Ġs":269,"Ġw":270,"un":271,"Ġa":272,"ich":273,"Ġe":274,"Ġm":275,"st":276,"Ġun":277,"as":278,"Ġg":279,"Ġdie":280,"an":281,"ei":282,"Ġein":283,"Ġb":284,"te":285,"Ġv":286,"Ġi":287,"Ġh":288,"Ġund":289,"Ġn":290,"Ġz":291,"Ġk":292,"Ã¼":293,"es":294,"Ġdas":295,"on":296,"ir":297,"Ġf":298,"le":299,"Ã¤":300,"ar":301,"ten":302,"sch":303,"Ġzu":304,"Ġin":305,"Ġwir":306,"gen":307,"el":308,"Ġsie":309,"hr":310,"Ġau":311,"or":312,"Ġder":313,"Ġich":314,"ti":315,"der":316,"em":317,"au":318,"Ã¶":319,"Ġist":320,"ein":321,"Ġes":322,"al":323,"it":324,"Ġal":325,"Ġp":326,"den":327,"lich":328,"ge":329,"Ġer":330,"ach":331,"ben":332,"Ġan":333,"ter":334,"ber":335,"de":336,"Ġha":337,"icht":338,"Ġver":339,"ur":340,"ier":341,"Ġt":342,"Ġdies":343,"Ġge":344,"Ġl":345,"ol":346,"Ġr":347,"ung":348,"Ġj":349,"Ġbe":350,"Ġden":351,"Ġsch":352,"um":353,"Ã¼r":354,"Ġnicht":355,"mm":356,"nen":357,"ro":358,"Ġauf":359,"sen":360,"Ġvon":361,"Ġdass":362,"Ġeine":363,"Ġals":364,"eit":365,"is":366,"Ġmit":367,"Ġo":368,"tz":369,"ck":370,"Ġwie":371,"ann":372,"eh":373,"len":374,"ÃŁ":375,"ra":376,"Ġuns":377,"Ġso":378,"ind":379,"il":380,"Ġwar":381,"ig":382,"Ġda":383,"ent":384,"re":385,"Ġsich":386,"Ġst":387,"Ġle":388,"Ġwen":389,"Ġman":390,"Ã¼ber":391,"Ġaus":392,"us":393,"schen":394,"at":395,"Ġwas":396,"Ġum":397,"ahr":398,"Ġsind":399,"Ġaber":400,"ĠfÃ¼r":401,"and":402,"Ã¶n":403,"be":404,"tion":405,"Ġhaben":406,"Ġwenn":407,"ft":408,"am":409,"iel":410,"ag":411,"ĠÃ¼ber":412,"ehr":413,"Ġhat":414,"Ġwer":415,"Ġges":416,"Ġihr":417,"Ã¤n":418,"Ġmein":419,"ĠkÃ¶n":420,"Ġdiese":421,"ff":422,"Ġ\"":423,"Ġvor":424,"Ġim":425,"se":426,"och":427,"Ġwei":428,"eu":429,"Ġsp":430,"Ġre":431,"Ġâ":432,"sten":433,"Ġdem":434,"ehen":435,"om":436,"ik":437,"Ġje":438,"Ġar":439,"Ġpro":440,"tw":441,"Ġdes":442,"kt":443,"ern":444,"Ġsein":445,"Ġmen":446,"Ġbei":447,"Ġalso":448,"Ġ-":449,"chen":450,"Ġnach":451,"Ġeinen":452,"bt":453,"oll":454,"Ġunser":455,"mmen":456,"Ġih":457,"Ġoder":458,"Ġent":459,"rei":460,"ĠkÃ¶nnen":461,"elt":462,"isch":463,"wei":464,"sp":465,"Ġhier":466,"Ġjahr":467,"Ġwerden":468,"ah":469,"ungen":470,"ut":471,"men":472,"Ġgeh":473,"Ġander":474,"ien":475,"Ġgr":476,"zu":477,"ste":478,"ne":479,"ieren":480,"tig":481,"igen":482,"Ġkann":483,"Ġauch":484,"ell":485,"ken":486,"Ġmach":487,"rau":488,"Ġeiner":489,"Ġher":490,"ation":491,"ĠâĢ":492,"Ġ1":493,"Ġdar":494,"scha":495,"Ġeinem":496,"gt":497,"iert":498,"Ġnur":499,"anz":500,"Ġko":501,"Ã¼ck":502,"Ġdann":503,"Ġetw":504,"aus":505,"Ġsehr":506,"Ġviel":507,"ort":508,"Ġwird":509,"li":510,"Ġunter":511,"Ġall":512,"tel":513,"uch":514,"00":515,"Ġmenschen":516,"ess":517,"Ã¶r":518,"os":519,"Ġgi":520,"Ġgen":521,"Ġmich":522,"Ġc":523,"Ġkon":524,"fen":525,"Ġkein":526,"Ġ--":527,"urch":528,"ute":529,"Ġgibt":530,"Ġihnen":531,"Ġleben":532,"Ã¤ch":533,"Ġwur":534,"Ã¤h":535,"issen":536,"Ġgesch":537,"Ġab":538,"ĠâĢĵ":539,"lau":540,"tzt":541,"hal":542,"Ġnoch":543,"und":544,"Ġalle":545,"Ġte":546,"ab":547,"Ġetwas":548,"Ġsehen":549,"ing":550,"ischen":551,"Ġdieser":552,"Ġdurch":553,"og":554,"dern":555,"Ã¤t":556,"schaft":557,"Ġam":558,"ang":559,"ĠmÃ¶":560,"Ġmehr":561,"Ġvie":562,"Ġmir":563,"Ġgro":564,"Ġhabe":565,"Ġwelt":566,"ver":567,"bei":568,"agen":569,"mal":570,"Ġzur":571,"lt":572,"Ġwissen":573,"mmer":574,"Ġwo":575,"heit":576,"ot":577,"Ġmus":578,"ri":579,"Ġsag":580,"Ã¼n":581,"Ã¼h":582,"ke":583,"ĠgroÃŁ":584,"lichen":585,"keit":586,"ko":587,"Ã¤r":588,"ige":589,"Ġwe":590,"Ġzum":591,"we":592,"Ġeinf":593,"ffen":594,".\"":595,"Ġganz":596,"Ġwirk":597,"all":598,"Ġbes":599,"liche":600,"Ġzwei":601,"Ġihre":602,"Ġ2":603,"sa":604,"Ġen":605,"Ã¼s":606,"Ġmeine":607,"mit":608,"tr":609,"ĠwÃ¼r":610,"eil":611,"ellen":612,"Ġweil":613,"Ġhin":614,"ass":615,"Ġzeit":616,"ru":617,"Ġwurde":618,"tiv":619,"hen":620,"Ġwirklich":621,"ere":622,"tet":623,"tzen":624,"me":625,"Ã¤hr":626,"Ġmachen":627,"Ġdieses":628,"Ġinter":629,"Ġneu":630,"Ġme":631,"assen":632,"Ġeinfach":633,"Ġsel":634,"eln":635,"rin":636,"her":637,"pp":638,"ische":639,"ick":640,"for":641,"Ġlie":642,"cht":643,"Ġimmer":644,"Ġgew":645,"Ġverb":646,"Ġch":647,"ungs":648,"Ġunsere":649,"wer":650,"he":651,"ul":652,"ht":653,"bst":654,"Ġpa":655,"Ġfra":656,"Ġtun":657,"Ġnun":658,"per":659,"ob":660,"Ã¼hr":661,"ad":662,"end":663,"acht":664,"Ġkle":665,"Ġdin":666,"ĠâĻ":667,"lie":668,"ges":669,"Ġbis":670,"bar":671,"pf":672,"Ġjetzt":673,"chte":674,"rie":675,"Ġse":676,"nte":677,"mmt":678,"Ġne":679,"Ġgem":680,"Ġgef":681,"ran":682,"Ġbeg":683,"Ġbil":684,"Ġviele":685,"ĠmÃ¼s":686,"Ġhatte":687,"ner":688,"glich":689,"ze":690,"Ġvers":691,"Ġkeine":692,"inden":693,"Ġklein":694,"ktion":695,"leich":696,"ehmen":697,"che":698,"Ġdenn":699,"Ġdu":700,"Ġselbst":701,"Ġeigen":702,"eiten":703,"ster":704,"tier":705,"Ġleute":706,"Ġber":707,"Ġob":708,"schie":709,"Ġtat":710,"ichtig":711,"la":712,"Ġsoll":713,"Ġger":714,"onen":715,"ĠmÃ¼ssen":716,"di":717,"stell":718,"Ġeines":719,"Ġgeb":720,"Ã¤u":721,"Ġgel":722,"Ġwaren":723,"dem":724,"Ġsagen":725,"Ġdiesem":726,"ÃŁen":727,"Ã¤l":728,"omp":729,"ble":730,"Ġwieder":731,"Ġdan":732,"Ġdiesen":733,"olog":734,"Ġweiter":735,"ĠâĻ«":736,"Ġsagte":737,"ger":738,"Ġdinge":739,"Ġson":740,"gend":741,"Ġalles":742,"Ġmil":743,"ma":744,"Ġandere":745,"unden":746,"Ġjahren":747,"Ġglau":748,"Ġheu":749,"du":750,"chn":751,"Ġbin":752,"Ġerf":753,"ler":754,"zen":755,"Ġnie":756,"Ġzei":757,"zi":758,"kommen":759,"ollen":760,"fl":761,"Ġbl":762,"Ġart":763,"ser":764,"war":765,"Ġanderen":766,"Ġkl":767,"qu":768,"ĠwÃ¼rde":769,"Ġnat":770,"Ġdamit":771,"geb":772,"leicht":773,"Ġkin":774,"Ġste":775,"auf":776,"Ġzusa":777,"Ġmal":778,"Ġwel":779,"Ġstel":780,"Ġex":781,"nis":782,"Ġper":783,"Ġheraus":784,"ichte":785,"Ġzusammen":786,"ist":787,"det":788,"Ġproble":789,"angen":790,"Ġverst":791,"Ġvielleicht":792,"Ġentw":793,"tisch":794,"Ġgl":795,"oh":796,"Ã¤nder":797,"op":798,"nt":799,"itÃ¤t":800,"Ġfl":801,"fe":802,"auen":803,"Ġwahr":804,"gef":805,"Ġtats":806,"rÃ¤":807,"des":808,"Ġbest":809,"Ġgut":810,"Ġor":811,"Ġgeht":812,"tern":813,"yst":814,"under":815,"Ġgleich":816,"Ġjahre":817,"ĠzurÃ¼ck":818,"Ġdav":819,"iger":820,"amen":821,"Ġja":822,"Ġfor":823,"Ġmilli":824,"ystem":825,"ekt":826,"ache":827,"Ġerz":828,"Ġentwick":829,"nten":830,"Ġfrau":831,"Ġmuss":832,"beit":833,"ale":834,"spiel":835,"Ġheute":836,"gel":837,"ion":838,"ill":839,"Ġschon":840,"off":841,"Ġteil":842,"uten":843,"halten":844,"Ã¤re":845,"Ġpass":846,"Ġletz":847,"Ã¶ÃŁ":848,"Ġarbei":849,"rit":850,"Ã¤chlich":851,"Ġtechn":852,"pt":853,"Ġpl":854,"Ġgegen":855,"ok":856,"Ġgenau":857,"ug":858,"Ġdrei":859,"ĠÃ¶":860,"Ġkinder":861,"ĠmÃ¶chte":862,"Ġide":863,"Ġdort":864,"ast":865,"Ġeinige":866,"Ġsei":867,"Ġir":868,"Ġeinz":869,"Ġmo":870,"stellen":871,"Ġde":872,"inn":873,"cken":874,"zent":875,"Ġschw":876,"ringen":877,"Ġbrau":878,"tes":879,"Ġmacht":880,"Ġzw":881,"Ġ3":882,"tigen":883,"Ġwarum":884,"Ġdavon":885,"Ġland":886,"tik":887,"ĠtatsÃ¤chlich":888,"ationen":889,"age":890,"vor":891,"elle":892,"Ġverw":893,"aten":894,"Ġjem":895,"Ġben":896,"Ġtag":897,"ĠmÃ¶glich":898,"Ġbr":899,"Ġbede":900,"Ġwichtig":901,"tt":902,"Ġhand":903,"rechen":904,"Ġmensch":905,"uchen":906,"Ġbesch":907,"Ġhei":908,"Ġdenken":909,"alen":910,"sam":911,"Ġzie":912,"Ġfr":913,"halb":914,"Ġhatten":915,"ahl":916,"Ġweg":917,"ak":918,"Ġgrund":919,"ĠgrÃ¶ÃŁ":920,"Ġmei":921,"Ġpaar":922,"000":923,"Ġoh":924,"ĠkÃ¶nnte":925,"Ġgeschichte":926,"Ġkam":927,"achte":928,"esser":929,"olle":930,"esen":931,"..":932,"Ġbild":933,"iz":934,"aut":935,"mer":936,"Ġstu":937,"ine":938,"Ã¤ndern":939,"mlich":940,"anden":941,"Ġreg":942,"weise":943,"tige":944,"Ġarbeit":945,"ichten":946,"ĠnatÃ¼r":947,"Ġihn":948,"pro":949,"form":950,"achen":951,"ap":952,"dien":953,"Ġgehen":954,"Ġwollen":955,"Ġverl":956,"Ġfre":957,"att":958,"kl":959,"ennen":960,"aum":961,"ĠdarÃ¼ber":962,"ade":963,"Ġfun":964,"Ġmeiner":965,"ologie":966,"Ġlei":967,"Ã¤d":968,"Ġma":969,"Ġschn":970,"ant":971,"art":972,"Ġwoll":973,"kte":974,"gar":975,"uss":976,"gr":977,"Ġpers":978,"oren":979,"Ġihren":980,"Ġbeispiel":981,"Ġwurden":982,"reich":983,"net":984,"Ġjeder":985,"unde":986,"irn":987,"Ġsicher":988,"ĠweiÃŁ":989,"Ġwerde":990,"Ġaut":991,"igkeit":992,"Ġvielen":993,"vers":994,"Ġsondern":995,"iv":996,"ierte":997,"fÃ¼r":998,"Ġseine":999,"Ġspr":1000,"Ġsti":1001,"ha":1002,"est":1003,"Ġfunktion":1004,"hin":1005,"?\"":1006,"schein":1007,"tlich":1008,"zeu":1009,"Ġkomp":1010,"ĠwÃ¤hr":1011,"Ġproblem":1012,"Ġph":1013,"Ġlassen":1014,"ĠfÃ¼hr":1015,"Ġtra":1016,"Ġgab":1017,"fr":1018,"utzen":1019,"Ġlang":1020,"schieden":1021,"ĠwÃ¤re":1022,"Ġdazu":1023,"Ġdoch":1024,"Ġirgend":1025,"Ġsta":1026,"Ġerst":1027,"Ġsol":1028,"Ġunserer":1029,"alt":1030,"ĠwÃ¤hrend":1031,"Ġwill":1032,"ĠerzÃ¤h":1033,"Ġneue":1034,"Ġwasser":1035,"Ġinteress":1036,"Ġwor":1037,"Ġsogar":1038,"ander":1039,"Ã¤nd":1040,"ĠnatÃ¼rlich":1041,"Ġschl":1042,"Ġbewe":1043,"Ġkommen":1044,"Ġ5":1045,"ĠhÃ¤t":1046,"Ġvom":1047,"Ġzwischen":1048,"hn":1049,"Ġgemein":1050,"Ġmon":1051,"fer":1052,"Ġersten":1053,"Ġmar":1054,"Ġfrage":1055,"Ġfinden":1056,"Ġnichts":1057,"Ġversuch":1058,"Ġlebens":1059,"Ġdenke":1060,"achten":1061,"Ġeinmal":1062,"ktiv":1063,"Ġ19":1064,"zie":1065,"Ã¼hl":1066,"Ġgerade":1067,"gie":1068,"im":1069,"nehmen":1070,"los":1071,"ĠnÃ¤ch":1072,"Ġdenen":1073,"Ġihrer":1074,"Ġohne":1075,"Ġglaube":1076,"Ġnor":1077,"tra":1078,"Ġ20":1079,"alten":1080,"gehen":1081,"Ġgeben":1082,"gew":1083,"Ġkur":1084,"Ġins":1085,"Ġschu":1086,"Ġbesser":1087,"Ġpol":1088,"Ġkommt":1089,"geben":1090,"Ġgemacht":1091,"Ġletzten":1092,"ĠdafÃ¼r":1093,"Ġanf":1094,"ften":1095,"Ġwissenschaft":1096,"wir":1097,"Ġfrauen":1098,"ĠwÃ¼rden":1099,"ĠlÃ¶":1100,"od":1101,"Ġscha":1102,"ÃŁer":1103,"Ġgehirn":1104,"ativ":1105,"schei":1106,"ce":1107,"Ġkre":1108,"keiten":1109,"br":1110,"Ã¶l":1111,"Ġverstehen":1112,"gan":1113,"Ġqu":1114,"bl":1115,"Ġzeigen":1116,"ts":1117,"ys":1118,"Ġ4":1119,"Ġsieht":1120,"Ġhau":1121,"Ġbetr":1122,"erik":1123,"tschaft":1124,"ss":1125,"Ã¶ren":1126,"Ġbi":1127,"lung":1128,"Ġverschieden":1129,"uter":1130,"Ġrei":1131,"Ġkonnte":1132,"Ġmeisten":1133,"ierung":1134,"Ġfol":1135,"Ġdaten":1136,"Ġpassiert":1137,"th":1138,"Ġuni":1139,"cher":1140,"chten":1141,"schl":1142,"Ġmin":1143,"Ġvier":1144,"Ġetwa":1145,"licht":1146,"Ġstellen":1147,"gung":1148,"Ġsa":1149,"Ġprozent":1150,"teil":1151,"Ġerste":1152,"Ġspiel":1153,"wie":1154,"Ġprodu":1155,"Ġged":1156,"Ġdaran":1157,"Ġmillionen":1158,"hem":1159,"ahren":1160,"rank":1161,"Ġganze":1162,"Ġdank":1163,"imm":1164,"Ã¶rper":1165,"unkt":1166,"Ã¼nf":1167,"Ġjemand":1168,"ult":1169,"Ġnehmen":1170,"Ġung":1171,"Ġfin":1172,"Ġfragen":1173,"Ġsollte":1174,"Ã¶rt":1175,"mus":1176,"zin":1177,"Ġdr":1178,"bs":1179,"Ġarbeiten":1180,"gra":1181,"Ġdabei":1182,"Ġsollten":1183,"Ġschnell":1184,"enden":1185,"Ġele":1186,"Ġ10":1187,"ĠgroÃŁe":1188,"yp":1189,"str":1190,"ĠkÃ¶nnten":1191,"dr":1192,"Ġus":1193,"ange":1194,"Ġstar":1195,"erst":1196,"utz":1197,"ckt":1198,"Ġmeinen":1199,"gesch":1200,"woh":1201,"mme":1202,"ÃŁt":1203,"Ġidee":1204,"ogen":1205,"ker":1206,"ergie":1207,"Ġfall":1208,"Ġbef":1209,"Ġinform":1210,"ĠverÃ¤nder":1211,"Ã¤ng":1212,"Ġok":1213,"Ġsprechen":1214,"frik":1215,"stellt":1216,"licher":1217,"ane":1218,"Ġmeinem":1219,"Ġgute":1220,"ĠglÃ¼ck":1221,"Ġbek":1222,"Ġwollte":1223,"agt":1224,"Ġgeld":1225,"Ġhoch":1226,"aufen":1227,"ign":1228,"Ġsystem":1229,"Ġstra":1230,"Ġdarauf":1231,"Ġraum":1232,"Ġziemlich":1233,"legen":1234,"chs":1235,"no":1236,"ppe":1237,"tieren":1238,"Ġbeh":1239,"Ġunivers":1240,"Ġdir":1241,"Ġverg":1242,"Ġgest":1243,"schied":1244,"Ġspie":1245,"Ã¤ren":1246,"innen":1247,"Ġcomp":1248,"ate":1249,"Ġti":1250,"Ġseit":1251,"ay":1252,"Ġnah":1253,"mÃ¶":1254,"ollar":1255,"Ġdi":1256,"Ġbekommen":1257,"Ġsagt":1258,"Ã¼l":1259,"ĠkÃ¶rper":1260,"hl":1261,"Ġbereit":1262,"Ġging":1263,"kun":1264,"ĠhÃ¶":1265,"ĠauÃŁer":1266,"Ġlin":1267,"Ġhel":1268,"Ġbedeute":1269,"nung":1270,"id":1271,"Ġende":1272,"gte":1273,"eht":1274,"onder":1275,"ide":1276,"twort":1277,"mals":1278,"Ġwelche":1279,"Ġco":1280,"scheinlich":1281,"Ġverf":1282,"Ġeigentlich":1283,"sehen":1284,"Ġglauben":1285,"âĢ":1286,"ernen":1287,"Ġsah":1288,"ktur":1289,"Ġbo":1290,"amil":1291,"utter":1292,"ite":1293,"adt":1294,"Ġweniger":1295,"Ġentschei":1296,"zei":1297,"jekt":1298,"Ġkind":1299,"Ã¤ter":1300,"Ġem":1301,"fte":1302,"Ġbew":1303,"Ġkleinen":1304,"Ġy":1305,"Ġmann":1306,"Ġdanke":1307,"laub":1308,"ĠmÃ¤n":1309,"stand":1310,"Ġmom":1311,"reiben":1312,"Ġspe":1313,"Ġverk":1314,"enz":1315,"Ġamerik":1316,"Ġbuch":1317,"Ġrecht":1318,"Ġsit":1319,"Ġget":1320,"Ġorgan":1321,"ution":1322,"Ġjeden":1323,"Ġsozi":1324,"Ġdollar":1325,"nah":1326,"ffent":1327,"\".":1328,"kunft":1329,"Ġpoli":1330,"ater":1331,"sicht":1332,"Ġnamen":1333,"spr":1334,"Ġbedeutet":1335,"ischer":1336,"Ġlernen":1337,"tische":1338,"arbei":1339,"Ġfamil":1340,"Ġtei":1341,"Ġenergie":1342,"Ġcomputer":1343,"ĠschÃ¶n":1344,"so":1345,"Ġunseren":1346,"Ġfal":1347,"Ġang":1348,"Ġtechnologie":1349,"Ġwunder":1350,"ĠgroÃŁen":1351,"Ġjedes":1352,"ic":1353,"Ġkleine":1354,"Ġeben":1355,"orgen":1356,"Ġschle":1357,"sst":1358,"annt":1359,"asch":1360,"Ġwahrscheinlich":1361,"Ġsache":1362,"Ġihm":1363,"fall":1364,"Ġdachte":1365,"Ġfrei":1366,"Ġlu":1367,"Ġbringen":1368,"Ġkomple":1369,"Ġerken":1370,"usst":1371,"Ġganzen":1372,"Ġihrem":1373,"ĠfÃ¼nf":1374,"pl":1375,"Ġbrauchen":1376,"Ġperson":1377,"ga":1378,"pr":1379,"Ġgesehen":1380,"Ġversch":1381,"ruck":1382,"Ġbesonder":1383,"Ġbeim":1384,"ppen":1385,"ph":1386,"oten":1387,"dung":1388,"Ġfest":1389,"Ġafrik":1390,"unter":1391,"Ġfil":1392,"Ġweise":1393,"Ġvoll":1394,"Ġoffen":1395,"tei":1396,"Ġpar":1397,"Ġur":1398,"Ġhinter":1399,"Ġwenig":1400,"Ġgesund":1401,"achsen":1402,"ffe":1403,"raft":1404,"Ġunterschied":1405,"Ġwirtschaft":1406,"Ġrie":1407,"Ġho":1408,"Ġversuchen":1409,"Ġanders":1410,"Ġseite":1411,"Ġnutzen":1412,"tischen":1413,"alis":1414,"ald":1415,"ĠspÃ¤ter":1416,"ĠâĢŀ":1417,"Ġgar":1418,"hema":1419,"Ġkar":1420,"immt":1421,"Ġgru":1422,"Ã¤tz":1423,"dig":1424,"tete":1425,"\",":1426,"ĠhÃ¤tte":1427,"bil":1428,"essen":1429,"Ġlehr":1430,"Ġ6":1431,"ĠfrÃ¼h":1432,"je":1433,"mittel":1434,"kten":1435,"Ġhil":1436,"schaften":1437,"Ġhoff":1438,"ert":1439,"Ġfast":1440,"eine":1441,"Ġmoment":1442,"Ġ200":1443,"lig":1444,"Ġern":1445,"Ġtre":1446,"Ġort":1447,"Ġkeinen":1448,"Ġzukunft":1449,"Ġwoch":1450,"leben":1451,"Ġunglaub":1452,"land":1453,"vol":1454,"ia":1455,"lick":1456,"eren":1457,"Ġtau":1458,"Ġgesell":1459,"Ġmag":1460,"Ġtro":1461,"ierten":1462,"Ġmenge":1463,"Ġindem":1464,"Ġoft":1465,"Ġgesagt":1466,"Ġbed":1467,"Ġchin":1468,"ingen":1469,"stellung":1470,"Ġform":1471,"Ġgern":1472,"ommen":1473,"ultur":1474,"wohl":1475,"fft":1476,"Ġsu":1477,"denken":1478,"Ġstadt":1479,"kon":1480,"Ġange":1481,"ĠgrÃ¼n":1482,"Ġaugen":1483,"Ġschwer":1484,"ernt":1485,"Ġster":1486,"Ġjede":1487,"Ã¤lt":1488,"zeit":1489,"Ġkurz":1490,"sel":1491,"die":1492,"alitÃ¤t":1493,"...":1494,"enten":1495,"gang":1496,"iss":1497,"ard":1498,"Ġentde":1499,"asse":1500,"Ġbet":1501,"lieÃŁ":1502,"Ġschaffen":1503,"Ġaller":1504,"ĠheiÃŁt":1505,"Ġsy":1506,"Ġkonnten":1507,"eist":1508,"Ġnatur":1509,"Ġessen":1510,"olg":1511,"Ġrichtig":1512,"Ġmusik":1513,"Ġfunktioniert":1514,"Ġerw":1515,"fÃ¼hr":1516,"Ġgra":1517,"Ġeigenen":1518,"Ġbere":1519,"Ġkrie":1520,"Ġbau":1521,"Ġplane":1522,"ord":1523,"Ġat":1524,"Ġel":1525,"Ġklar":1526,"ruktur":1527,"ĠÃ¼":1528,"Ġverm":1529,"reichen":1530,"Ġhal":1531,"Ġfot":1532,"ĠfÃ¼h":1533,"Ġrich":1534,"Ġwohl":1535,"fel":1536,"schn":1537,"Ġu":1538,"Ġgesundheit":1539,"mp":1540,"reis":1541,"ĠfÃ¤h":1542,"Ġhaus":1543,"tiert":1544,"Ġschwier":1545,"bo":1546,"zt":1547,"Ġmutter":1548,"zeich":1549,"Ġerde":1550,"ÃŁe":1551,"ome":1552,"Ġerkl":1553,"eich":1554,"Ġmilliar":1555,"Ġ8":1556,"welt":1557,"Ġkor":1558,"Ġprobleme":1559,"Ġorganis":1560,"isten":1561,"Ġallen":1562,"satz":1563,"ogra":1564,"Ġeng":1565,"Ġinternet":1566,"Ġlicht":1567,"our":1568,"Ġbevor":1569,"gefÃ¤hr":1570,"Ġhelfen":1571,"Ġtie":1572,"Ã¤hn":1573,"Ġweit":1574,"Ġseiner":1575,"lichkeit":1576,"âĢľ":1577,"Ġschauen":1578,"Ġerh":1579,"atur":1580,"nisse":1581,"ks":1582,"Ġeur":1583,"Ġlange":1584,"Ġmedi":1585,"ĠerzÃ¤hlen":1586,"Ġspielen":1587,"ial":1588,"Ġliebe":1589,"ahlen":1590,"hau":1591,"Ġkomm":1592,"Ġinner":1593,"stoff":1594,"Ġpla":1595,"volution":1596,"Ġvide":1597,"Ġrob":1598,"ĠungefÃ¤hr":1599,"Ġ7":1600,"Ġherum":1601,"Ġmanch":1602,"fÃ¤l":1603,"Ġbit":1604,"ĠnÃ¤chsten":1605,"Ġgenug":1606,"ta":1607,"Ġneuen":1608,"Ġdich":1609,"Ġkennen":1610,"Ġexper":1611,"lo":1612,"Ġdarum":1613,"itt":1614,"Ġzeigt":1615,"Ġwus":1616,"Ġfort":1617,"Ġunserem":1618,"Ã¼nst":1619,"system":1620,"Ġerfolg":1621,"ott":1622,"Ġru":1623,"cke":1624,"Ġblei":1625,"Ġro":1626,"Ġusa":1627,"Ġmanchmal":1628,"Ġkrank":1629,"Ġkultur":1630,"liches":1631,"heiten":1632,"Ġelekt":1633,"ahrung":1634,"Ġmater":1635,"Ġbem":1636,"Ġbauen":1637,"sy":1638,"ĠsÃ¼":1639,"Ġflie":1640,"ĠÃ¼berall":1641,"Ġbegann":1642,"umen":1643,"Ġ100":1644,"Ġ9":1645,"ĠbÃ¼r":1646,"Ġpri":1647,"io":1648,"Ġstatt":1649,"Ġ15":1650,"Ġunternehmen":1651,"ucht":1652,"unst":1653,"Ġted":1654,"Ġ50":1655,"ition":1656,"zess":1657,"ĠprÃ¤":1658,"Ġ30":1659,"'s":1660,"na":1661,"ren":1662,"Ġglob":1663,"Ġfeh":1664,"Ġverhalten":1665,"finden":1666,"lte":1667,"Ġnein":1668,"Ġgesellschaft":1669,"Ġdesign":1670,"spie":1671,"Ġniem":1672,"Ġpati":1673,"racht":1674,"Ġkunst":1675,"Ġnew":1676,"hunder":1677,"Ġliegt":1678,"Ġbisschen":1679,"raum":1680,"Ã¼cken":1681,"Ġeuch":1682,"ĠverÃ¤ndern":1683,"Ġreden":1684,"zeug":1685,"Ġforsch":1686,"Ġplaneten":1687,"richt":1688,"Ġanst":1689,"Ġideen":1690,"Ġtran":1691,"Ġbel":1692,"Ġeinzel":1693,"Ġdeshalb":1694,"Ġseinen":1695,"Ġleuten":1696,"Ġamerikan":1697,"Ġstehen":1698,"Ġwert":1699,"sche":1700,"Ġto":1701,"Ã¤che":1702,"Ġschule":1703,"gramm":1704,"Ġdrit":1705,"ieht":1706,"Ġgesam":1707,"asst":1708,"forder":1709,"Ġstand":1710,"ĠÃ¤hn":1711,"Ã¤dchen":1712,"Ġinformationen":1713,"Ġbehand":1714,"hol":1715,"mÃ¶glich":1716,"ust":1717,"Ġthe":1718,"Ġnormal":1719,"ĠgroÃŁar":1720,"Ġnennen":1721,"Ġpu":1722,"Ġsagten":1723,"Ã¤nde":1724,"Ġkopf":1725,"Ġschein":1726,"Ġmod":1727,"ionen":1728,"kel":1729,"Ġverein":1730,"ĠgehÃ¶rt":1731,"Ġsinn":1732,"Ġarten":1733,"utzt":1734,"Ã¼tz":1735,"Ġlos":1736,"glichen":1737,"Ġprojekt":1738,"Ġabs":1739,"ringt":1740,"Ġbewusst":1741,"Ġgener":1742,"tten":1743,"Ġpunkt":1744,"Ġober":1745,"Ġli":1746,"ritt":1747,"Ġbesonders":1748,"gem":1749,"Ġmilliarden":1750,"Ġla":1751,"Ġsechs":1752,"ĠhÃ¶ren":1753,"Ġfar":1754,"Ġantwort":1755,"Ġmusste":1756,"ĠÃ¶ffent":1757,"ĠmÃ¤nner":1758,"ven":1759,"Ġerinn":1760,"Ġanderes":1761,"Ġca":1762,"dlich":1763,"Ġstr":1764,"Ġbereits":1765,"ĠmÃ¤dchen":1766,"Ġokay":1767,"allen":1768,"Ġkontr":1769,"Ġnetz":1770,"ow":1771,"Ġfa":1772,"Ġjahrhunder":1773,"zieh":1774,"Ġoben":1775,"twor":1776,"ĠgebÃ¤u":1777,"zahl":1778,"Ġschul":1779,"Ġgeschichten":1780,"Ġinteressan":1781,"Ġrobo":1782,"Ġerreichen":1783,"bringen":1784,"etz":1785,"Ġhalten":1786,"Ġerkennen":1787,"Ġvorher":1788,"setzen":1789,"Ġfilm":1790,"Ġuniversum":1791,"druck":1792,"ĠhÃ¤tten":1793,"ĠlÃ¶s":1794,"Ġaktiv":1795,"Ġniemand":1796,"Ġmat":1797,"Ã¼hrt":1798,"rom":1799,"Ġdarin":1800,"ĠstÃ¤d":1801,"Ġausge":1802,"min":1803,"Ġveran":1804,"Ġentwickelt":1805,"fin":1806,"Ġnamens":1807,"einander":1808,"tigt":1809,"Ġafrika":1810,"ip":1811,"zus":1812,"Ġarm":1813,"Ã¤nger":1814,"Ġsteht":1815,"Ġverschiedene":1816,"Ġminuten":1817,"anken":1818,"Ġfreund":1819,"Ġbenutzen":1820,"Ġauto":1821,"ris":1822,"Ġbas":1823,"voll":1824,"Ã¶s":1825,"Ġanzu":1826,"Ġvert":1827,"Ġbeob":1828,"Ġrel":1829,"Ġbestimm":1830,"ennt":1831,"Ġunters":1832,"Ġmu":1833,"Ġ[":1834,"Ġis":1835,"ĠâĻª":1836,"was":1837,"ĠschÃ¼":1838,"grund":1839,"Ġfamilie":1840,"Ġgerne":1841,"igkeiten":1842,"Ġphys":1843,"Ġseinem":1844,"gs":1845,"Ġteilen":1846,"Ġsk":1847,"Ġmittel":1848,"kommt":1849,"isches":1850,"lei":1851,"Ġak":1852,"Ġtyp":1853,"zieren":1854,"Ġbeein":1855,"Ġmachte":1856,"annte":1857,"Ġentf":1858,"Ġfolgen":1859,"inner":1860,"Ġjen":1861,"indung":1862,"ĠgefÃ¼hl":1863,"Ġfu":1864,"Ġinst":1865,"iges":1866,"tter":1867,"Ġhe":1868,"Ġhunder":1869,"Ġna":1870,"Ġindien":1871,"Ġres":1872,"itz":1873,"Ġvater":1874,"fra":1875,"vi":1876,"ock":1877,"stra":1878,"are":1879,"ĠgeschÃ¤":1880,"Ġirgendwie":1881,"ium":1882,"rat":1883,"Ġflug":1884,"ja":1885,"son":1886,"Ġop":1887,"Ġherz":1888,"Ġgruppe":1889,"auer":1890,"Ġwegen":1891,"akter":1892,"Ã¶lker":1893,"Ġstunden":1894,"Ġangst":1895,"Ġinnerhalb":1896,"neh":1897,"Ġbesten":1898,"Ġfir":1899,"Ġvideo":1900,"endet":1901,"unge":1902,"Ġjedem":1903,"ahn":1904,"wo":1905,"Ġalt":1906,"Ġkosten":1907,"Ġergeb":1908,"anzen":1909,"Ġkap":1910,"one":1911,"ings":1912,"Ġbraucht":1913,"gestellt":1914,"bare":1915,"richten":1916,"Ġkomplex":1917,"Ġmik":1918,"halt":1919,"Ġbilder":1920,"Ġries":1921,"stÃ¤nd":1922,"ĠstÃ¼ck":1923,"Ġentwickeln":1924,"Ġbemer":1925,"blik":1926,"itiv":1927,"Ġpatienten":1928,"Ġmedizin":1929,"ume":1930,"Ġdaher":1931,"Ġeinzige":1932,"lieÃŁlich":1933,"gten":1934,"inen":1935,"andel":1936,"Ġvorstellen":1937,"ĠnÃ¤":1938,"omen":1939,"Ġluft":1940,"rieben":1941,"Ġeins":1942,"Ġpf":1943,"Ġbereich":1944,"Ġsprache":1945,"Ġentst":1946,"ehe":1947,"Ġbewegen":1948,"Ġhaupt":1949,"Ġdein":1950,"sych":1951,"gal":1952,"punkt":1953,"ĠnÃ¤mlich":1954,"ĠkÃ¼nst":1955,"Ġerhalten":1956,"Ġobwohl":1957,"Ġerwar":1958,"Ġanw":1959,"euer":1960,"Ġeinigen":1961,"ĠmÃ¶glichkeit":1962,"Ġdis":1963,"Ġtreffen":1964,"affen":1965,"tte":1966,"iere":1967,"Ġgleiche":1968,"aun":1969,"Ġziel":1970,"Ġschwar":1971,"ĠÃ¤ndern":1972,"genommen":1973,"haupt":1974,"Ġarch":1975,"Ġbeiden":1976,"Ġfe":1977,"werk":1978,"Ġdrau":1979,"Ġverschiedenen":1980,"Ġreich":1981,"Ġunterst":1982,"Ġbeginnen":1983,"Ġwelch":1984,"ismus":1985,"ĠnÃ¤h":1986,"Ġ%":1987,"Ġwort":1988,"Ã¤sst":1989,"ĠkÃ¤":1990,"Ġkli":1991,"annen":1992,"Ġwollten":1993,"bes":1994,"Ġdamals":1995,"zentr":1996,"lin":1997,"Ġmasch":1998,"Ġfern":1999,"ĠfÃ¤l":2000,"ank":2001,"Ġweltw":2002,"Ġunglaublich":2003,"Ġeltern":2004,"aktion":2005,"Ġunbe":2006,"esse":2007,"bel":2008,"Ã¤ten":2009,"Ġpo":2010,"ider":2011,"Ġgott":2012,"ĠkÃ¼":2013,"Ã¶hn":2014,"ehn":2015,"Ġumwelt":2016,"trie":2017,"Ġdo":2018,"Ġtausen":2019,"anten":2020,"Ġroboter":2021,"Ġeher":2022,"Ġbezieh":2023,"Ġinv":2024,"Ġregierung":2025,"sk":2026,"Ġnation":2027,"Ġhause":2028,"tens":2029,"tis":2030,"Ġrep":2031,"Ġyor":2032,"Ġtrotz":2033,"Ġsachen":2034,"Ġerk":2035,"Ġbitte":2036,"sto":2037,"tem":2038,"Ġpos":2039,"Ġrest":2040,"Ġneur":2041,"Ġsage":2042,"Ġwil":2043,"Ġverwenden":2044,"ĠverÃ¤ndert":2045,"uer":2046,"Ġvir":2047,"Ġansch":2048,"rak":2049,"ĠpersÃ¶n":2050,"Ġkrebs":2051,"bte":2052,"Ġmeer":2053,"hÃ¤ng":2054,"ĠÃ¤r":2055,"erweise":2056,"als":2057,"Ġanfang":2058,"Ġkommun":2059,"zustellen":2060,"Ġintel":2061,"ziel":2062,"Ġverr":2063,"trag":2064,"Ġpsych":2065,"ĠÃ¼berhaupt":2066,"Ġfand":2067,"Ġmenschlichen":2068,"Ġchina":2069,"ans":2070,"Ġkindern":2071,"Ġmikro":2072,"Ġbez":2073,"iken":2074,"ĠlÃ¤nder":2075,"Ġaufga":2076,"ĠgebÃ¤ude":2077,"Ġfahr":2078,"lossen":2079,"sta":2080,"Ġka":2081,"enzen":2082,"sei":2083,"lek":2084,"tigkeit":2085,"ĠfÃ¼hren":2086,"ligen":2087,"Ġmorgen":2088,"Ġricht":2089,"Ġschreiben":2090,"Ġverschw":2091,"Ġzwar":2092,"denten":2093,"Ġmaterial":2094,"Ġneben":2095,"Ġerzeu":2096,"Ġerstaun":2097,"Ġstruktur":2098,"amp":2099,"reifen":2100,"Ġgetan":2101,"si":2102,"Ġtut":2103,"Ġju":2104,"Ġwerk":2105,"Ġbab":2106,"onnen":2107,"Ã¤us":2108,"vÃ¶lker":2109,"Ġtier":2110,"Ġwin":2111,"Ġsolche":2112,"Ġehr":2113,"Ġgleichen":2114,"man":2115,"Ġjed":2116,"ranken":2117,"ase":2118,"Ġwochen":2119,"Ġdirekt":2120,"Ġerinner":2121,"Ġallem":2122,"Ġversucht":2123,"Ġzahl":2124,"teten":2125,"Ã¼gen":2126,"Ġdemok":2127,"Ġherausforder":2128,"Ġkn":2129,"Ġgene":2130,"nov":2131,"Ġinvest":2132,"Ġsicht":2133,"abor":2134,"eim":2135,"Ġinnov":2136,"Ġschau":2137,"Ġentwicklung":2138,"enn":2139,"Ġsen":2140,"Ġlage":2141,"Ġprogramm":2142,"Ġ18":2143,"ielt":2144,"Ġerle":2145,"Ġerre":2146,"ingt":2147,"eig":2148,"Ġerscha":2149,"Ġjedoch":2150,"orie":2151,"Ġzer":2152,"Ġzeich":2153,"Ġlehrer":2154,"haus":2155,"ĠvÃ¶l":2156,"ĠrÃ¼ck":2157,"Ġverh":2158,"Ġsau":2159,"gegen":2160,"ĠtrÃ¤":2161,"Ġprof":2162,"Ġtechnolog":2163,"Ġhar":2164,"Ġnachdem":2165,"Ġfinanz":2166,"mo":2167,"Ġ...":2168,"Ġschick":2169,"Ã¤ngt":2170,"Ġmeines":2171,"ĠnÃ¤chste":2172,"nahme":2173,"Ġkamen":2174,"Ġgemeinsam":2175,"Ġ40":2176,"Ġabsol":2177,"dik":2178,"Ġchem":2179,"Ġfalsch":2180,"Ġpublik":2181,"etzt":2182,"Ġno":2183,"Ġfing":2184,"Ġris":2185,"ktor":2186,"Ġweitere":2187,"Ġmussten":2188,"Ġletzte":2189,"Ġbedeut":2190,"ĠfÃ¼hlen":2191,"sein":2192,"urs":2193,"Ġwusste":2194,"achst":2195,"Ġanderer":2196,"Ġpart":2197,"tzlich":2198,"ĠÃ¼berr":2199,"Ġprozess":2200,"Ġerfahrung":2201,"flÃ¤che":2202,"orden":2203,"Ġverd":2204,"Ġbetrachten":2205,"Ġunten":2206,"Ġvis":2207,"Ġbeste":2208,"baren":2209,"Ġmathema":2210,"Ġtri":2211,"Ġtiere":2212,"Ã¤hlen":2213,"Ġon":2214,"Ġaufzu":2215,"Ġgenaus":2216,"Ġdingen":2217,"Ġeurop":2218,"hlen":2219,"arbeit":2220,"Ġjunge":2221,"ĠschlieÃŁlich":2222,"Ġtief":2223,"ĠgeschÃ¤ft":2224,"das":2225,"ziert":2226,"Ġbein":2227,"fiz":2228,"enne":2229,"Ġtages":2230,"Ġdeu":2231,"ore":2232,"sÃ¤tz":2233,"zept":2234,"Ġgenauso":2235,"Ġwes":2236,"Ġrad":2237,"Ġfreunde":2238,"Ġvertrau":2239,"Ġauss":2240,"Ġmenschliche":2241,"Ġpublikum":2242,"Ġalter":2243,"eigen":2244,"Ġerinnern":2245,"Ġhol":2246,"tho":2247,"dition":2248,"Ġsex":2249,"Ġexist":2250,"lungs":2251,"Ġdun":2252,"Ġpfl":2253,"Ġ12":2254,"Ġgrunde":2255,"Ġkom":2256,"Ġthema":2257,"Ġsicherheit":2258,"Ġsamm":2259,"indet":2260,"Ġsieben":2261,"Ġderen":2262,"ĠtÃ¶":2263,"achstum":2264,"dungen":2265,"annten":2266,"ager":2267,"sph":2268,"ĠwÃ¤ren":2269,"Ġgedanken":2270,"Ġentscheiden":2271,"Ġ'":2272,"Ġlesen":2273,"rieden":2274,"ĠplÃ¶":2275,"ive":2276,"Ġsitu":2277,"Ġsuch":2278,"rieb":2279,"Ġdanach":2280,"Ġleiden":2281,"Ġboden":2282,"Ġzun":2283,"Ġkraft":2284,"ĠlÃ¤sst":2285,"Ġmanche":2286,"Ġeigene":2287,"Ġsuchen":2288,"Ġauszu":2289,"ĠvÃ¶llig":2290,"Ġmer":2291,"Ġbringt":2292,"Ġhervor":2293,"Ġworden":2294,"Ġwider":2295,"Ġerlau":2296,"Ġsek":2297,"Ġjungen":2298,"nahmen":2299,"Ġplatz":2300,"jÃ¤hr":2301,"pa":2302,"sm":2303,"Ġwich":2304,"ĠmÃ¶glichkeiten":2305,"wirk":2306,"rÃ¼":2307,"lieÃŁen":2308,"Ġyork":2309,"kehr":2310,"to":2311,"Ġfas":2312,"Ġzuerst":2313,"cker":2314,"Ġelektr":2315,"ala":2316,"aler":2317,"pan":2318,"iet":2319,"Ġfer":2320,"uren":2321,"zip":2322,"Ġter":2323,"dete":2324,"ohn":2325,"bau":2326,"ĠÃ¶l":2327,"Ġblau":2328,"Ġzent":2329,"Ġzahlen":2330,"Ġhilfe":2331,"Ġbleiben":2332,"ve":2333,"ĠÃ¤l":2334,"elbe":2335,"Ġumgeb":2336,"Ġstellt":2337,"ĠlÃ¶sen":2338,"ative":2339,"sichtlich":2340,"Ġsterben":2341,"cen":2342,"han":2343,"immen":2344,"Ġgol":2345,"reten":2346,"achtet":2347,"ienen":2348,"Ġzweite":2349,"bauen":2350,"stet":2351,"Ġfunktionieren":2352,"ĠÃ¼br":2353,"Ġsollen":2354,"ĠverfÃ¼":2355,"Ġeis":2356,"Ġgo":2357,"Ġschwe":2358,"Ġoze":2359,"Ġgesetz":2360,"Ġinteressant":2361,"Ġarchite":2362,"Ġjob":2363,"Ġstaaten":2364,"fÃ¼hren":2365,"et":2366,"chter":2367,"Ġmor":2368,"Ġlern":2369,"Ġfragte":2370,"Ġgemeinschaft":2371,"setz":2372,"spro":2373,"ĠbeschÃ¤":2374,"Ġempf":2375,"iff":2376,"Ġ25":2377,"Ġmodell":2378,"innt":2379,"Ġklima":2380,"Ġkranken":2381,"Ġschli":2382,"Ġverbunden":2383,"Ġindi":2384,"ure":2385,"Ġbesteht":2386,"hÃ¶ren":2387,"wÃ¤r":2388,"roh":2389,"Ġdessen":2390,"Ġwoche":2391,"ĠplÃ¶tzlich":2392,"Ġkri":2393,"aren":2394,"Ġchar":2395,"Ġzehn":2396,"Ġfliegen":2397,"Ġwelches":2398,"Ġlaufen":2399,"zug":2400,"ziehen":2401,"bung":2402,"lef":2403,"Ġmonate":2404,"falls":2405,"Ġzerst":2406,"Ġkolle":2407,"Ã¼cher":2408,"Ġzuvor":2409,"Ġtage":2410,"schnitt":2411,"fahr":2412,"Ġgeist":2413,"Ġdefin":2414,"Ġschwierig":2415,"Ġinformation":2416,"Ġverantwort":2417,"durch":2418,"ile":2419,"elte":2420,"ĠmÃ¤nn":2421,"ud":2422,"Ġguten":2423,"yn":2424,"inde":2425,"ograf":2426,"co":2427,"sw":2428,"Ġsh":2429,"Ġzug":2430,"blick":2431,"Ġnutz":2432,"alien":2433,"Ġvergleich":2434,"Ġprin":2435,"spe":2436,"Ġpolitik":2437,"igt":2438,"scht":2439,"Ġmarkt":2440,"pe":2441,"Ġhast":2442,"Ġgesicht":2443,"Ġmedik":2444,"Ġextr":2445,"Ġlangsam":2446,"Ġfamilien":2447,"ĠlÃ¤ndern":2448,"Ġaufge":2449,"ĠÃ¼berzeu":2450,"Ã¤chst":2451,"lage":2452,"Ġfalls":2453,"Ġwahl":2454,"merk":2455,"arbeitet":2456,"spiele":2457,"ĠÃ¤nder":2458,"aschen":2459,"Ġzellen":2460,"mar":2461,"Ġacht":2462,"ĠbenÃ¶":2463,"Ġneues":2464,"Ġberu":2465,"Ġtechnik":2466,"Ġaben":2467,"Ġantwor":2468,"Ġaussehen":2469,"wert":2470,"ĠfÃ¼hrt":2471,"itze":2472,"Ġteam":2473,"ĠerklÃ¤r":2474,"ĠsÃ¼d":2475,"ĠstÃ¤r":2476,"Ġautos":2477,"zeigt":2478,"Ġersch":2479,"Ġdaraus":2480,"Ġgefunden":2481,"Ġrelig":2482,"ue":2483,"ĠhÃ¶r":2484,"Ġunseres":2485,"ĠgrÃ¶ÃŁten":2486,"ĠlÃ¶sung":2487,"Ġans":2488,"Ġextrem":2489,"Ġkaufen":2490,"Ġbro":2491,"riff":2492,"gefÃ¼hl":2493,"ament":2494,"weisen":2495,"ĠgrÃ¶ÃŁer":2496,"kraft":2497,"Ġegal":2498,"Ġstelle":2499,"ĠgrÃ¶ÃŁte":2500,"Ġsprach":2501,"ĠfÃ¤higkeit":2502,"ĠdrauÃŁen":2503,"fort":2504,"eister":2505,"itzen":2506,"alter":2507,"Ġstark":2508,"Ã¤uf":2509,"ĠgegenÃ¼ber":2510,"ĠbeschÃ¤f":2511,"rum":2512,"tag":2513,"Ġlabor":2514,"spir":2515,"ieten":2516,"Ġbru":2517,"ond":2518,"Ġindu":2519,"hren":2520,"Ġscheint":2521,"Ġerschaffen":2522,"Ġmite":2523,"Ġbeeinfl":2524,"xt":2525,"Ã¶ffent":2526,"ĠbevÃ¶lker":2527,"zeuge":2528,"jekte":2529,"Ġkrieg":2530,"lassen":2531,"line":2532,"Ã¤ÃŁ":2533,"auft":2534,"igten":2535,"Ġwissenschaftler":2536,"Ġmitein":2537,"bten":2538,"Ġrein":2539,"Ġihres":2540,"Ġpap":2541,"Ġherauszu":2542,"Ġverwand":2543,"ĠbÃ¼rger":2544,"gemein":2545,"ĠÃ¤":2546,"Ġbist":2547,"Ġsin":2548,"ance":2549,"Ġfant":2550,"Ġspa":2551,"reck":2552,"atten":2553,"Ġbewegung":2554,"Ġtransp":2555,"gn":2556,"Ġgewalt":2557,"Ġperfe":2558,"Ġintelligen":2559,"gliche":2560,"Ã¼cke":2561,"ĠglÃ¼cklich":2562,"Ġentdeck":2563,"Ġbeide":2564,"prochen":2565,"Ġallein":2566,"Ã¤uft":2567,"ware":2568,"wass":2569,"ĠtÃ¤":2570,"Ġlau":2571,"Ġnahm":2572,"reiten":2573,"weg":2574,"pfer":2575,"jen":2576,"Ġnacht":2577,"Ġstimme":2578,"Ġmuster":2579,"Ġgelernt":2580,"Ġwachsen":2581,"icher":2582,"Ġnimmt":2583,"samkeit":2584,"ho":2585,"Ġkal":2586,"Ġanal":2587,"ĠmÃ¶chten":2588,"Ġhinein":2589,"Ġmedien":2590,"Ġgewesen":2591,"Ġvergangen":2592,"Ġanstatt":2593,"Ġkontroll":2594,"nation":2595,"Ġsehe":2596,"ity":2597,"ĠverÃ¶ffent":2598,"tragen":2599,"Ġfanden":2600,"agieren":2601,"gesetzt":2602,"Ġiden":2603,"Ġner":2604,"Ġstud":2605,"zellen":2606,"Ġpassieren":2607,"ĠÃ¶ff":2608,"ĠerklÃ¤ren":2609,"Ġblick":2610,"Ã¼ckt":2611,"Ġschritt":2612,"ĠÃ¼berleben":2613,"Ġ60":2614,"Ġverle":2615,"lauf":2616,"Ġwahrheit":2617,"Ġreihe":2618,"ont":2619,"Ġerd":2620,"ochen":2621,"Ġ80":2622,"elten":2623,"Ġverbindung":2624,"ib":2625,"iko":2626,"Ġkonzentr":2627,"ĠgefÃ¤hr":2628,"Ġblut":2629,"Ġleicht":2630,"Ġnachdenken":2631,"Ġstudenten":2632,"Ġmiteinander":2633,"ment":2634,"Ã¤ss":2635,"ĠÃ¼berw":2636,"Ġmache":2637,"Ġgebaut":2638,"Ġtatsache":2639,"Ġtradition":2640,"Ġsuper":2641,"sum":2642,"Ġbar":2643,"ese":2644,"Ġhinaus":2645,"Ġjemals":2646,"Ġjahrhundert":2647,"kre":2648,"stu":2649,"Ġevolution":2650,"Ġfel":2651,"ikation":2652,"Ġgeworden":2653,"Ġkleiner":2654,"gewÃ¶hn":2655,"Ġschlecht":2656,"mt":2657,"Ġraus":2658,"Ġschla":2659,"uelle":2660,"Ġinspir":2661,"gessen":2662,"Ã¤lfte":2663,"fÃ¤h":2664,"fahren":2665,"Ġtechnologien":2666,"aden":2667,"Ġherr":2668,"Ġbeginnt":2669,"Ġanfangen":2670,"Ġkreativ":2671,"lungen":2672,"uell":2673,"zw":2674,"Ġkil":2675,"Ġerfor":2676,"Ġrevolution":2677,"Ġmolek":2678,"Ġrichtung":2679,"Ġanzahl":2680,"Ġindivi":2681,"kle":2682,"anischen":2683,"gende":2684,"Ġkleines":2685,"Ġverloren":2686,"Ġkrankheit":2687,"Ġindividu":2688,"zogen":2689,"Ġreise":2690,"Ã¶rter":2691,"Ġteile":2692,"Ġphysik":2693,"Ã¼tzen":2694,"Ġfindet":2695,"Ġsoziale":2696,"Ġgere":2697,"ĠkÃ¼nstler":2698,"Ġaufre":2699,"weis":2700,"Ġstaat":2701,"Ġnord":2702,"rÃ¤n":2703,"Ġding":2704,"Ġkont":2705,"Ġstimmt":2706,"zeitig":2707,"gangen":2708,"Ġlinks":2709,"Ġernst":2710,"les":2711,"Ġad":2712,"dent":2713,"Ġgezeigt":2714,"Ġsonnen":2715,"ĠÃ¤lter":2716,"iti":2717,"Ġschrieb":2718,"Ġsym":2719,"Ġdig":2720,"rop":2721,"Ġsofort":2722,"ĠmaÃŁ":2723,"ĠfuÃŁ":2724,"ror":2725,"Ġfahren":2726,"rift":2727,"Ġpriv":2728,"ĠstÃ¤dte":2729,"Ġaufgabe":2730,"Ġpreis":2731,"Ġaufmerk":2732,"Ġstellte":2733,"Ġinstit":2734,"Ġplan":2735,"Ġbildung":2736,"ĠgroÃŁartig":2737,"Ġsor":2738,"Ġmiss":2739,"Ġregel":2740,"Ġfortsch":2741,"Ġumgebung":2742,"Ġalten":2743,"ĠlÃ¤nger":2744,"Ġbekommt":2745,"Ã¤nden":2746,"mens":2747,"Ġsonst":2748,"Ġniemals":2749,"Ã¤ndig":2750,"Ġdigit":2751,"ator":2752,"ĠstraÃŁen":2753,"Ġrolle":2754,"ame":2755,"Ġmetho":2756,"Ġlieben":2757,"Ġkat":2758,"Ġverbr":2759,"ĠtÃ¼r":2760,"Ġgebe":2761,"Ġgesp":2762,"Ġgenannt":2763,"wegen":2764,"Ġfoto":2765,"Ġfehler":2766,"lten":2767,"wissen":2768,"unkte":2769,"Ġeff":2770,"Ġvorstellung":2771,"Ġeinfl":2772,"ĠverÃ¤nderung":2773,"Ġentfernt":2774,"Ġweltweit":2775,"Ġsituation":2776,"kar":2777,"krie":2778,"itÃ¤ten":2779,"Ġtoll":2780,"Ã¤ngen":2781,"ĠgrÃ¶ÃŁe":2782,"Ġdisk":2783,"Ġbedeutung":2784,"Ġverwendet":2785,"Ġrichtige":2786,"Ġfisch":2787,"Ġinternation":2788,"Ġkamer":2789,"Ġfaszin":2790,"fol":2791,"sh":2792,"Ġser":2793,"aner":2794,"roffen":2795,"Ã¤nge":2796,"sprechen":2797,"digen":2798,"Ã¶h":2799,"Ġschrei":2800,"ĠrealitÃ¤t":2801,"ĠmÃ¶gen":2802,"Ġforschung":2803,"Ġprinzip":2804,"ĠhÃ¤lfte":2805,"verb":2806,"Ġmet":2807,"Ġbenutzt":2808,".âĢľ":2809,"Ġgegeben":2810,"Ġnachzu":2811,"wasser":2812,"mung":2813,"otion":2814,"Ġlok":2815,"Ġrau":2816,"Ġformen":2817,"Ġjemanden":2818,"Ġbekannt":2819,"eiden":2820,"Ġversuche":2821,"Ġdor":2822,"Ġanges":2823,"Ġ199":2824,"Ġonline":2825,"daten":2826,"viel":2827,"Ġmeinung":2828,"Ġziehen":2829,"haft":2830,"Ġhoffe":2831,"lagen":2832,"chan":2833,"Ġtest":2834,"Ġschlechte":2835,"Ġkan":2836,"Ġsetzen":2837,"Ġstudie":2838,"Ġerfolgreich":2839,"Ġherausforderung":2840,"gefÃ¼hrt":2841,"Ġregier":2842,"Ġfertig":2843,"Ġbakter":2844,"Ġstrom":2845,"zep":2846,"Ġerreicht":2847,"Ġwesent":2848,"sphÃ¤re":2849,"lang":2850,"pfen":2851,"tau":2852,"gest":2853,"Ġhinzu":2854,"immel":2855,"Ġbekam":2856,"imen":2857,"Ġschmer":2858,"wirtschaft":2859,"Ġpflanzen":2860,"Ġmitte":2861,"Ġregen":2862,"Ġgoog":2863,"Ġmoral":2864,"ka":2865,"Ġwachstum":2866,"Ġentscheidungen":2867,"Ġemotion":2868,"Ġwand":2869,"stens":2870,"Ġtrotzdem":2871,"ers":2872,"asen":2873,"Ġgingen":2874,"Ã¼ch":2875,"Ġtr":2876,"Ġzeige":2877,"Ġentwicklungs":2878,"Ġphil":2879,"Ġkomplett":2880,"ĠÃ¤hnlich":2881,"tzut":2882,"Ġdau":2883,"tzutage":2884,"ari":2885,"reg":2886,"Ġgleichzeitig":2887,"Ġerwachsen":2888,"sor":2889,"Ġwest":2890,"Ġheutzutage":2891,"arbeiten":2892,"Ġdna":2893,"struktur":2894,"Ġmathematik":2895,"ĠÃ¼brigen":2896,"ument":2897,"Ġschneller":2898,"Ġamerika":2899,"Ġoffensichtlich":2900,"Ġurspr":2901,"zer":2902,"Ġtot":2903,"Ġgenommen":2904,"ĠstraÃŁe":2905,"Ġjahrz":2906,"Ġabsolut":2907,"Ġga":2908,"legt":2909,"alle":2910,"ologen":2911,"ierend":2912,"rist":2913,"bildung":2914,"ales":2915,"Ġstre":2916,"dessen":2917,"Ġsonne":2918,"Ġleist":2919,"Ġerkennt":2920,"ister":2921,"ĠÂ":2922,"geh":2923,"Ġinteressiert":2924,"Ġvereinigten":2925,"gru":2926,"Ġapp":2927,"ĠfÃ¼hl":2928,"Ġgeboren":2929,"iment":2930,"feld":2931,"Ġdra":2932,"techn":2933,"Ġprak":2934,"Ġtod":2935,"Ġmachten":2936,"Ġgutes":2937,"ratie":2938,"Ġpapier":2939,"jenigen":2940,"fre":2941,"Ġdruck":2942,"deten":2943,"Ġvoraus":2944,"Ġengl":2945,"wind":2946,"Ġpoten":2947,"Ġgeschieht":2948,"Ġeinfache":2949,"Ġbrachte":2950,"Ġidenti":2951,"Ġwann":2952,"Ġzeu":2953,"ummer":2954,"ĠmitgefÃ¼hl":2955,"ftware":2956,"Ġ11":2957,"Ġherauszufinden":2958,"Ġsc":2959,"Ã¤ume":2960,"Ġnachrichten":2961,"ktive":2962,"ose":2963,"ĠbÃ¼cher":2964,"Ã¤tzen":2965,"Ġtrau":2966,"Ġjung":2967,"Ġmeter":2968,"Ġergebnis":2969,"lefon":2970,"Ġeinfluss":2971,"beh":2972,"mu":2973,"umm":2974,"Ġliegen":2975,"Ġnahe":2976,"ĠoberflÃ¤che":2977,"zte":2978,"Ġsorgen":2979,"Ġnennt":2980,"Ġdiag":2981,"vie":2982,"abhÃ¤ng":2983,"Ġenor":2984,"ĠfÃ¤higkeiten":2985,"Ġwichtige":2986,"ieg":2987,"Ġbald":2988,"Ġerschein":2989,"mpfen":2990,"Ġgeneration":2991,"Ġfirma":2992,"Ġreaktion":2993,"Ġsozialen":2994,"Ġeuropa":2995,"Ġsob":2996,"Ġgeschrieben":2997,"Ġstil":2998,"Ġexperimen":2999,"Ġgesamte":3000,"Ġvertei":3001,"Ġta":3002,"indungen":3003,"Ġnormalerweise":3004,"Ġ000":3005,"ichtet":3006,"Ġvergessen":3007,"bew":3008,"Ġmoder":3009,"Ġwichtiger":3010,"Ġrechts":3011,"Ġbeziehung":3012,"glie":3013,"ins":3014,"trÃ¤":3015,"Ġtragen":3016,"Ġ90":3017,"Ġjahrzeh":3018,"essour":3019,"Ġmaschine":3020,"Ġdachten":3021,"Ġsign":3022,"Ġverurs":3023,"amerik":3024,"Ġkeiner":3025,"Ġexp":3026,"ĠauÃŁerdem":3027,"Ġeinzelne":3028,"tist":3029,"isse":3030,"Ġbeobachten":3031,"!\"":3032,"gendes":3033,"wirkungen":3034,"Ġfantast":3035,"uellen":3036,"Ġet":3037,"Ġbot":3038,"schw":3039,"Ã¼ssel":3040,"Ġbegannen":3041,"ĠÃ¶k":3042,"Ġkompli":3043,"Ġwind":3044,"Ġdadurch":3045,"Ã¼ss":3046,"Ġschulen":3047,"Ġhoffnung":3048,"ub":3049,"Ġpe":3050,"essern":3051,"Ã¤hlt":3052,"Ġvertrauen":3053,"lex":3054,"Ġansehen":3055,"Ġgesprochen":3056,"Ġvorbei":3057,"Ġbestimmt":3058,"Ġregeln":3059,"Ġakt":3060,"Ġeinzu":3061,"Ġverlassen":3062,"Ã¤tze":3063,"Ġinteressante":3064,"Ġgoogle":3065,"Ġseiten":3066,"dert":3067,"Ã¶sen":3068,"Ġgelegen":3069,"ĠgroÃŁer":3070,"Ġsee":3071,"Ġheim":3072,"Ġmonat":3073,"endung":3074,"istan":3075,"Ġwussten":3076,"Ġprote":3077,"Ġnachhal":3078,"Ġgebur":3079,"Ġaufmerksamkeit":3080,"bin":3081,"isst":3082,"ragt":3083,"Ġord":3084,"Ġbewegt":3085,"Ġkarte":3086,"ĠfrÃ¼her":3087,"go":3088,"Ġeffe":3089,"Ġeinst":3090,"Ġkrei":3091,"ussen":3092,"Ġkannst":3093,"kop":3094,"Ġneun":3095,"Ġbewusstsein":3096,"ĠÃ¼brigens":3097,"Ġsobald":3098,"fern":3099,"Ġsim":3100,"Ġhig":3101,"Ġziv":3102,"Ġzuminde":3103,"Ġprodukt":3104,"Ġgruppen":3105,"Ġbemerken":3106,"ons":3107,"Ġlauf":3108,"Ġoper":3109,"tiger":3110,"uchs":3111,"tikel":3112,"Ġeinzelnen":3113,"kam":3114,"Ġmy":3115,"schung":3116,"Ġabzu":3117,"Ġpassierte":3118,"Ġfinde":3119,"az":3120,"Ġdeine":3121,"fik":3122,"gi":3123,"Ġdahin":3124,"Ġredu":3125,"obil":3126,"Ġstudien":3127,"Ġsahen":3128,"Ġspeziel":3129,"Ġsitzen":3130,"Ġbess":3131,"Ġ16":3132,"ĠverstÃ¤nd":3133,"schlag":3134,"Ġozean":3135,"orien":3136,"nete":3137,"rauch":3138,"Ġbedeuten":3139,"ĠbevÃ¶lkerung":3140,"ĠermÃ¶glich":3141,"Ġdenkt":3142,"Ġbenutz":3143,"Ġdemokratie":3144,"hand":3145,"ath":3146,"Ġbestimmten":3147,"Ġressour":3148,"ĠstÃ¤ndig":3149,"altung":3150,"Ġzumindest":3151,"stru":3152,"ĠhÃ¼":3153,"Ġzugang":3154,"hnung":3155,"Ġsan":3156,"Ġhy":3157,"ĠzufÃ¤l":3158,"flik":3159,"gebracht":3160,"Ġversuchte":3161,"ds":3162,"Ġdro":3163,"Ġarme":3164,"ĠgroÃŁes":3165,"Ġinnovation":3166,"Ġdorf":3167,"schul":3168,"Ġgearbeitet":3169,"Ġgrenzen":3170,"Ġorte":3171,"Ġarmut":3172,"wand":3173,"ĠwÃ¶rter":3174,"mmern":3175,"Ġ14":3176,"uchten":3177,"ĠhÃ¤uf":3178,"itter":3179,"Ġkonzept":3180,"Ġmonaten":3181,"ĠerwÃ¤h":3182,"Ġpositiv":3183,"Ġhimmel":3184,"schu":3185,"50":3186,"orfen":3187,"ith":3188,"Ġzweiten":3189,"ĠuniversitÃ¤t":3190,"Ġuhr":3191,"Ġbaum":3192,"Ġgeheim":3193,"Ġirgendw":3194,"Ġspezi":3195,"Ġkontrolle":3196,"Ġtausende":3197,"Ġmedikamen":3198,"Ġbessere":3199,"ry":3200,"ies":3201,"Ġeinsch":3202,"ĠmÃ¶glichen":3203,"male":3204,"Ġexperiment":3205,"Ġanti":3206,"Ġtaten":3207,"Ġvortrag":3208,"Ġbleibt":3209,"Ġra":3210,"Ġsohn":3211,"Ġspre":3212,"Ġverfol":3213,"igner":3214,"Ġgeschehen":3215,"Ġwebs":3216,"Ġverbessern":3217,"Ġstamm":3218,"zies":3219,"Ġaf":3220,"Ġechte":3221,"atte":3222,"Ġbilden":3223,"Ġmenschheit":3224,"produ":3225,"bild":3226,"Ġrichtigen":3227,"Ġterror":3228,"Ġton":3229,"Ġaufgrund":3230,"Ġmitt":3231,"setzt":3232,"herap":3233,"ĠgerÃ¤t":3234,"lern":3235,"seh":3236,"Ġmot":3237,"Ġfeuer":3238,"Ġpr":3239,"Ġlag":3240,"Ġlandes":3241,"dass":3242,"Ġind":3243,"Ġth":3244,"Ġsoftware":3245,"Ġnachbar":3246,"ĠspaÃŁ":3247,"machen":3248,"Ġdien":3249,"Ġselt":3250,"Ġvol":3251,"Ġrund":3252,"nehmer":3253,"etzen":3254,"Ġaltern":3255,"Ġjapan":3256,"Ġverlieren":3257,"ĠhÃ¶her":3258,"blich":3259,"ĠkÃ¼r":3260,"ama":3261,"Ġrede":3262,"Ġleider":3263,"Ġ201":3264,"teile":3265,"Ġkrankheiten":3266,"Ġanschauen":3267,"windigkeit":3268,"Ġkern":3269,"Ã¶ff":3270,"Ġant":3271,"werfen":3272,"Ġorten":3273,"Ġbiolog":3274,"ĠfÃ¼":3275,"itÃ¤r":3276,"Ġallgemein":3277,"Ġabge":3278,"Ġgewinnen":3279,"Ġschreck":3280,"ielle":3281,"Ġpersonen":3282,"Ġgala":3283,"Ġbeispiele":3284,"Ġdiejenigen":3285,"raten":3286,"Ġdeta":3287,"Ġtrain":3288,"Ġangef":3289,"Ġhab":3290,"Ġentwe":3291,"ĠprÃ¤sen":3292,"Ġbus":3293,"Ġhiv":3294,"Ġkaum":3295,"orben":3296,"Ġtagen":3297,"eitung":3298,"Ġarbeitete":3299,"ĠschÃ¼ler":3300,"Ġfirmen":3301,"ĠnÃ¤her":3302,"tiver":3303,"Ġand":3304,"rad":3305,"Ġcar":3306,"Ġtelefon":3307,"Ġverbesser":3308,"Ġfreu":3309,"schluss":3310,"Ġerzeugen":3311,"sweise":3312,"Ġuner":3313,"netz":3314,"Ġproduzieren":3315,"Ġzivil":3316,"zun":3317,"Ã¤chen":3318,"Ġschei":3319,"recht":3320,"Ġsprachen":3321,"Ġvoller":3322,"win":3323,"Ġbat":3324,"schir":3325,"Ġjohn":3326,"Ġsodass":3327,"Ġnachricht":3328,"oss":3329,"quenz":3330,"Ġbehau":3331,"Ġentscheidung":3332,"Ġebenso":3333,"Ġgalax":3334,"Ã¶st":3335,"Ġgek":3336,"Ġgebiet":3337,"Ġspezies":3338,"Ġ70":3339,"Ġwinz":3340,"Ġerlaubt":3341,"Ġvergangenheit":3342,"onie":3343,"abel":3344,"Ġaussieht":3345,"masch":3346,"ĠerzÃ¤hlt":3347,"Ġwirklichkeit":3348,"ull":3349,"Ġnachzudenken":3350,"Ġil":3351,"ital":3352,"Ġkonflik":3353,"Ġchris":3354,"ĠflÃ¼":3355,"rÃ¤fte":3356,"Ġirgendwo":3357,"ativen":3358,"Ġebene":3359,"Ġtrans":3360,"Ġantworten":3361,"Ġbakterien":3362,"ĠwÃ¼n":3363,"Ġwechs":3364,"ulation":3365,"Ġgebracht":3366,"Ġarbeitet":3367,"Ġworte":3368,"Ġsowohl":3369,"Ġsto":3370,"ĠernÃ¤hr":3371,"Ġsekunden":3372,"ps":3373,"ĠwÃ¼":3374,"stern":3375,"ĠunmÃ¶glich":3376,"eisen":3377,"ĠauÃŁen":3378,"Ġretten":3379,"Ġ17":3380,"Ġerfahren":3381,"press":3382,"Ġgesamten":3383,"ĠÂ»":3384,"ĠfÃ¼hrte":3385,"rise":3386,"Ġentweder":3387,"bi":3388,"ca":3389,"ix":3390,"wÃ¼r":3391,"ichter":3392,"tim":3393,"eits":3394,"Ġtraf":3395,"Ġbestimmte":3396,"Ġbaby":3397,"iker":3398,"Ġsolchen":3399,"zeichnet":3400,"ball":3401,"hÃ¤lt":3402,"Â«":3403,"ĠmÃ¤ch":3404,"ĠunabhÃ¤ng":3405,"Ã¶pf":3406,"rech":3407,"Ã¼hne":3408,"Ġverbinden":3409,"Ġbefinden":3410,"ĠgroÃŁartige":3411,"ba":3412,"ĠÃ¤u":3413,"stes":3414,"ĠfÃ¶r":3415,"Ġwarten":3416,"Ġvorstell":3417,"Ġdurchschnitt":3418,"Ã¼hle":3419,"zimmer":3420,"Ġentdecken":3421,"Ġergebnisse":3422,"Ġsammeln":3423,"ct":3424,"mÃ¤ÃŁ":3425,"par":3426,"ĠhÃ¤nde":3427,"Ġalte":3428,"Ġkop":3429,"ferenz":3430,"licherweise":3431,"Ġtheorie":3432,"Ġkommunikation":3433,"Ġkombin":3434,"fa":3435,"Ġschie":3436,"Ġdasselbe":3437,"abil":3438,"grÃ¼n":3439,"Ġchines":3440,"Ġriesige":3441,"Ġmeeres":3442,"Ġfein":3443,"Ġrunter":3444,"ĠâĢĶ":3445,"ossen":3446,"Ġklin":3447,"Ġamerikaner":3448,"Ġuntersuchen":3449,"Ġprofess":3450,"Ġressourcen":3451,"Ġnenne":3452,"Ġfrieden":3453,"get":3454,"Ġgekommen":3455,"Ġlog":3456,"oma":3457,"Ġkohlen":3458,"Ġkonsum":3459,"ingungen":3460,"Ġzeigte":3461,"Ġspielt":3462,"ĠhÃ¶ch":3463,"Ġglobalen":3464,"Ġhaut":3465,"rab":3466,"ils":3467,"lige":3468,"Ġregion":3469,"Ġdritte":3470,"Ġdenk":3471,"Ġhandeln":3472,"ograph":3473,"Ġregierungen":3474,"falt":3475,"Ġsand":3476,"Ġbri":3477,"Ġverste":3478,"ums":3479,"grÃ¶ÃŁ":3480,"Ġpartner":3481,"Ġhum":3482,"werke":3483,"Ġeinzig":3484,"Ġpark":3485,"Ġhundert":3486,"Ġdeut":3487,"Ã¼tzt":3488,"Ġfund":3489,"Ġerwei":3490,"ĠgrÃ¼":3491,"Ġchance":3492,"ĠgefÃ¤ng":3493,"Ġgefragt":3494,"ĠprÃ¤si":3495,"Ġinstitution":3496,"Ġmittler":3497,"altet":3498,"Ã¼rf":3499,"Ġbisher":3500,"tierte":3501,"ĠgrÃ¼nden":3502,"ometer":3503,"fs":3504,"gl":3505,"ox":3506,"pla":3507,"eite":3508,"Ġpil":3509,"peratur":3510,"Ġhilft":3511,"Ġleidenschaft":3512,"Ġku":3513,"Ġgespr":3514,"twend":3515,"Ġobjekt":3516,"Ġzusammenh":3517,"oph":3518,"Ġkampf":3519,"Ġlinie":3520,"nungen":3521,"ina":3522,"Ġker":3523,"Ġlebt":3524,"izien":3525,"izieren":3526,"Ġschmerz":3527,"stÃ¤":3528,"Ã¤te":3529,"Ġverstanden":3530,"seite":3531,"Ġereig":3532,"Ġverz":3533,"Ġlaut":3534,"Ġstol":3535,"assung":3536,"Ġverbrei":3537,"Ġleisten":3538,"haf":3539,"ssystem":3540,"Ġkollegen":3541,"Ġzeug":3542,"hi":3543,"lan":3544,"volle":3545,"ĠmÃ¼":3546,"genie":3547,"Ġberg":3548,"Ġwelcher":3549,"Ġherausfinden":3550,"tischer":3551,"lose":3552,"Ġbelie":3553,"Ġamerikanischen":3554,"Ġfangen":3555,"Ġinnen":3556,"Ġausw":3557,"Ã¤nomen":3558,"Ġ13":3559,"Ġarbeits":3560,"Ġerstens":3561,"mpf":3562,"rt":3563,"rig":3564,"stag":3565,"ante":3566,"ktoren":3567,"Ġwohn":3568,"erstoff":3569,"Ġwein":3570,"Ġeinge":3571,"Ġauswirkungen":3572,"Ġentschieden":3573,"Ġjahres":3574,"Ġquad":3575,"Ġorganisation":3576,"Ġordnung":3577,"Ġseltsam":3578,"ĠdÃ¼r":3579,"ĠhÃ¤lt":3580,"Ġvern":3581,"ĠlÃ¤uft":3582,"Ġunterschei":3583,"ĠberÃ¼h":3584,"Ġblo":3585,"mitteln":3586,"Ġschlimm":3587,"Ġcharakter":3588,"ĠhÃ¶rte":3589,"ghan":3590,"arten":3591,"ĠkÃ¶nig":3592,"Ġstatist":3593,"ĠauÃŁerhalb":3594,"trieben":3595,"ĠursprÃ¼n":3596,"mel":3597,"mod":3598,"ssen":3599,"asche":3600,"Ġeinander":3601,"oli":3602,"Ġwieso":3603,"ĠerzÃ¤hlte":3604,"ĠhÃ¶he":3605,"Ġlust":3606,"Ã¤user":3607,"Ġehrlich":3608,"ĠermÃ¶glicht":3609,"wandel":3610,"eitet":3611,"Ġbienen":3612,"Ġnummer":3613,"bert":3614,"Ġgestellt":3615,"Ġrom":3616,"Ġbezug":3617,"samm":3618,"Ġarbeite":3619,"Ġmark":3620,"ĠschÃ¼tzen":3621,"Ġnotwend":3622,"Ġsinne":3623,"Ġenglisch":3624,"Ġdrin":3625,"Ġmessen":3626,"Ġzwe":3627,"Ġbege":3628,"Ġ21":3629,"Ġverstand":3630,"Ġbestehen":3631,"Ġ198":3632,"Ġbetrachtet":3633,"arbeiter":3634,"stÃ¤ndig":3635,"seits":3636,"stehen":3637,"Ġherunter":3638,"Ġabsch":3639,"laufen":3640,"Ġwiederhol":3641,"Ġmillion":3642,"ĠÃ¶ffentlichen":3643,"Ġbrust":3644,"antwor":3645,"ierende":3646,"Ġnieder":3647,"Ġfrem":3648,"Ġstrate":3649,"Ã¼llen":3650,"Ġfotos":3651,"stÃ¤nde":3652,"ĠlÃ¤ch":3653,"Ġgeschaffen":3654,"Ġwohin":3655,"Ġfreiheit":3656,"gibt":3657,"amm":3658,"kur":3659,"Ġerleben":3660,"Ġerfahr":3661,"Ġfluss":3662,"aktiv":3663,"Ġdrogen":3664,"Ġverdien":3665,"rochen":3666,"rate":3667,"Ġherstellen":3668,"Ġletztes":3669,"Ġeinzigen":3670,"Ġbefindet":3671,"Ġentdeckt":3672,"Ġmethode":3673,"ĠverstÃ¤ndnis":3674,"zunehmen":3675,"Ġheil":3676,"Ġnahrung":3677,"Ġtrei":3678,"Ġof":3679,"Ġausl":3680,"Ġbeginn":3681,"schiede":3682,"ĠgrÃ¼nde":3683,"Ġfotograf":3684,"Ġhunderte":3685,"ĠunterstÃ¼tzen":3686,"Ġbeziehungen":3687,"Ġkrankenhaus":3688,"Ġafghan":3689,"rier":3690,"Ġeinkommen":3691,"Ġingenie":3692,"ausen":3693,"isation":3694,"Ġarzt":3695,"Ġwoh":3696,"ĠgerÃ¤u":3697,"Ġhandelt":3698,"Ġgehirns":3699,"Ġsysteme":3700,"schnit":3701,"Ġgeburt":3702,"Ġwesen":3703,"ierter":3704,"Ġgele":3705,"rifft":3706,"ĠphÃ¤nomen":3707,"ynam":3708,"Ġliebl":3709,"Ġmotiv":3710,"Ġsozial":3711,"alismus":3712,"ĠÃ¤rzte":3713,"Ġarchitektur":3714,"hil":3715,"Ġkol":3716,"Ġgeschah":3717,"abr":3718,"Ġzweitens":3719,"Ġdesto":3720,"Ġirgendein":3721,"Ġwundersch":3722,"ĠunterstÃ¼tz":3723,"Ġfinger":3724,"nein":3725,"bed":3726,"Ġeigent":3727,"Ġfolgendes":3728,"stoffe":3729,"Ġuntersuch":3730,"mension":3731,"ton":3732,"Ġhirn":3733,"Ġtraum":3734,"Ġarmen":3735,"Ġcool":3736,"Ġjene":3737,"ĠzunÃ¤chst":3738,"Ġguter":3739,"iter":3740,"Ġselben":3741,"astrop":3742,"ĠschlÃ¼ssel":3743,"Ġliste":3744,"Ġfarbe":3745,"the":3746,"ĠwÃ¤hlen":3747,"Ġlas":3748,"Ġstei":3749,"Ġumf":3750,"Ġmehrere":3751,"Ġmaschinen":3752,"sÃ¤tzlich":3753,"Ġsuche":3754,"greifen":3755,"sie":3756,"Ġhor":3757,"Ġhart":3758,"Ġdeswegen":3759,"rÃ¤sen":3760,"Ġgrundlegen":3761,"ĠbÃ¼ro":3762,"Ġnetzwerk":3763,"Ġflugzeug":3764,"Ġnational":3765,"Ġposition":3766,"buch":3767,"ek":3768,"sichtig":3769,"Ġdauer":3770,"Ġep":3771,"stÃ¼ck":3772,"anische":3773,"leg":3774,"Ġinse":3775,"Ġangeb":3776,"ĠÃ¶kon":3777,"Ġbetrie":3778,"Ġschwarz":3779,"wÃ¤rts":3780,"ĠfÃ¼hlte":3781,"gere":3782,"Ġunver":3783,"ande":3784,"ĠbÃ¼hne":3785,"geht":3786,"Ġlachen":3787,"Ġsetz":3788,"ed":3789,"lam":3790,"Ġstunde":3791,"Ġwenige":3792,"Ġartikel":3793,"ktionen":3794,"Ġklasse":3795,"Ġbeweg":3796,"mÃ¶glichen":3797,"ĠauÃŁergewÃ¶hn":3798,"Ġrisiko":3799,"frieden":3800,"Ġei":3801,"Ġvari":3802,"Ġname":3803,"Ġpunkte":3804,"Ġzeitpunkt":3805,"Ġgetroffen":3806,"takt":3807,"Ġklimawandel":3808,"Ġnerv":3809,"hy":3810,"ĠsÃ¤u":3811,"Ġwa":3812,"Ġverhin":3813,"urg":3814,"iellen":3815,"Ġrechte":3816,"Ġinteresse":3817,"ulieren":3818,"Ġspiele":3819,"Ġerwarten":3820,"schirm":3821,"leist":3822,"ober":3823,"Ġdok":3824,"Ġtru":3825,"Ġherzen":3826,"Ġbegr":3827,"Ġwunderbar":3828,"Ġebenfalls":3829,"selben":3830,"Ġbehandlung":3831,"eisch":3832,"schte":3833,"Ġweib":3834,"Ġmuse":3835,"Ġwichtigste":3836,"Ġtrag":3837,"Ġvermut":3838,"Ġstattdessen":3839,"Ġerinnere":3840,"passen":3841,"inder":3842,"Ġwol":3843,"ĠmilitÃ¤r":3844,"wart":3845,"Ġverkaufen":3846,"Ġbehaup":3847,"samen":3848,"zut":3849,"anke":3850,"Ġkreis":3851,"Ġkenne":3852,"sage":3853,"laden":3854,"maÃŁ":3855,"maÃŁen":3856,"Ġheutigen":3857,"warum":3858,"ritte":3859,"ĠbedÃ¼rf":3860,"Ġjahrhunderts":3861,"ĠlÃ¶sungen":3862,"Ġerfahrungen":3863,"afft":3864,"zÃ¼":3865,"Ġlond":3866,"cks":3867,"Ġsowie":3868,"Ġgewal":3869,"ulti":3870,"riere":3871,"Ġtisch":3872,"Ġmobil":3873,"stadt":3874,"eid":3875,"Ġkm":3876,"Ġfen":3877,"artig":3878,"Ã¶nen":3879,"ehme":3880,"Ġaussch":3881,"ahlt":3882,"Ġdarf":3883,"Ġganzes":3884,"Ġniedr":3885,"ĠfÃ¤llt":3886,"Ġschicken":3887,"Ġindust":3888,"ĠÃ¶ffnen":3889,"Ġkamera":3890,"ĠgefÃ¤ngnis":3891,"Ġhung":3892,"Ġinstr":3893,"els":3894,"Ġschaut":3895,"Ġselten":3896,"ritann":3897,"Ġspricht":3898,"Ġstimmen":3899,"ĠverÃ¤nderungen":3900,"gaben":3901,"ifor":3902,"ĠmÃ¤r":3903,"Ġgil":3904,"gefunden":3905,"Ġbio":3906,"Ġnahmen":3907,"Ã¼ll":3908,"Ġstandard":3909,"Ġmedikamente":3910,"wa":3911,"iegen":3912,"Ġnahr":3913,"Ġgeschle":3914,"barkeit":3915,"Ġjemandem":3916,"teilen":3917,"immer":3918,"Ġball":3919,"Ġke":3920,"Ġtrin":3921,"indust":3922,"Ġdesigner":3923,"izei":3924,"Ġbehandeln":3925,"iete":3926,"Ã¶se":3927,"ielten":3928,"Ġseien":3929,"Ġ500":3930,"Ġmars":3931,"ids":3932,"Ġunglaubliche":3933,"Ġabend":3934,"bli":3935,"schutz":3936,"Ġrot":3937,"Ġwege":3938,"Ġmechan":3939,"Ġlandwirtschaft":3940,"Ġworten":3941,"Ġunterschiedliche":3942,"dings":3943,"Ġign":3944,"ĠhÃ¶rt":3945,"Ġzeiten":3946,"orn":3947,"Ġlo":3948,"Ġsommer":3949,"Ġeinfachen":3950,"gebaut":3951,"Ġschlag":3952,"Ġfallen":3953,"frastruktur":3954,"Ġhigh":3955,"industrie":3956,"bol":3957,"keln":3958,"Ġwandel":3959,"ana":3960,"organ":3961,"Ġgewe":3962,"bewer":3963,"Ġtem":3964,"liegen":3965,"Ġerfunden":3966,"Ġgedacht":3967,"geschichte":3968,"Ġglobale":3969,"Ġoptim":3970,"Ġerstaunlich":3971,"iforn":3972,"wick":3973,"Ġmassen":3974,"Ġpau":3975,"Ġbeteil":3976,"ragen":3977,"Ġwerte":3978,"eller":3979,"plan":3980,"Ġverantwortung":3981,"Ġx":3982,"Ġag":3983,"Ġas":3984,"stik":3985,"alist":3986,"Ã¶rung":3987,"Ġeigenschaften":3988,"haben":3989,"ritannien":3990,"Ġignor":3991,"brechen":3992,"bahn":3993,"Ġwun":3994,"Ġauge":3995,"Ġendlich":3996,"Ġbegeister":3997,"gress":3998,"Ġfarben":3999,"Ġkonzentrieren":4000,"ĠÃ¤uÃŁer":4001,"Ġlondon":4002,"gien":4003,"arf":4004,"ĠrÃ¼cken":4005,"Ġarg":4006,"Ã¼hlen":4007,"Ġbesuch":4008,"Ġgrad":4009,"zusagen":4010,"Ġdopp":4011,"ĠverrÃ¼ckt":4012,"ĠÃ¼berraschen":4013,"Ġangefangen":4014,"krank":4015,"Ġahnung":4016,"Ġbeit":4017,"Ġkla":4018,"ffer":4019,"Ġsport":4020,"Ġspitze":4021,"Ġrechten":4022,"ahmen":4023,"Ġgehe":4024,"Ġkomme":4025,"Ġverbringen":4026,"drÃ¼cken":4027,"ĠschÃ¶nheit":4028,"spielen":4029,"Ġinteressanter":4030,"ĠverhÃ¤lt":4031,"Ġexistiert":4032,"ĠmÃ¤nnern":4033,"ron":4034,"Ã¤st":4035,"Ġausdruck":4036,"prÃ¼":4037,"Ġentstehen":4038,"ĠnÃ¤he":4039,"\"-":4040,"hle":4041,"Ġtieren":4042,"Ġecht":4043,"ĠjÃ¼n":4044,"ĠabhÃ¤ng":4045,"pfl":4046,"Ġbestand":4047,"Ã¼llt":4048,"Ġatmo":4049,"Ġlernte":4050,"Ġreligion":4051,"Ġwaffen":4052,"Ġzustand":4053,"Ġpal":4054,"Ġreicht":4055,"Ġgehir":4056,"Ġneuer":4057,"Ġfreunden":4058,"Ġschutz":4059,"alisierung":4060,"ĠstÃ¤dten":4061,"Ġkontin":4062,"ool":4063,"sagen":4064,"Ġbeantwor":4065,"Ġvorh":4066,"Ġgering":4067,"istor":4068,"Ġbiologie":4069,"Ġface":4070,"bieren":4071,"britannien":4072,"gor":4073,"mon":4074,"ĠnÃ¼tz":4075,"Ġpop":4076,"ichts":4077,"entlich":4078,"Ġwesten":4079,"Ġeigenes":4080,"ĠfrÃ¼hen":4081,"Ġgesundheits":4082,"ourn":4083,"ĠkÃ¤mpfen":4084,"ĠhÃ¤ufig":4085,"vel":4086,"wenn":4087,"stre":4088,"scher":4089,"Ġprojekte":4090,"ĠgrÃ¶ÃŁere":4091,"Ġschluss":4092,"ĠnÃ¤chstes":4093,"Ġtitel":4094,"ĠschÃ¶ne":4095,"Ġentfern":4096,"Ġtrifft":4097,"Ġspreche":4098,"Ġfreude":4099,"Ġnahrungs":4100,"fisch":4101,"ttet":4102,"Ġbal":4103,"ĠnÃ¶":4104,"Ġgegangen":4105,"raucht":4106,"ickt":4107,"Ã¼hren":4108,"Ġwichtigsten":4109,"Ġjugend":4110,"Ġsauerstoff":4111,"Ġmerk":4112,"Ġprivat":4113,"Ġfenster":4114,"Ġinte":4115,"Ġtolle":4116,"Ġschrift":4117,"Ġaufw":4118,"Ġheran":4119,"othe":4120,"Ġwett":4121,"Ġdennoch":4122,"Ġ197":4123,"haltung":4124,"ĠfÃ¤llen":4125,"ĠverfÃ¼g":4126,"ĠverfÃ¼gung":4127,"Ġkontrollieren":4128,"Ġbemerkens":4129,"Ġzusch":4130,"reise":4131,"tigung":4132,"lieben":4133,"Ġweiterhin":4134,"frika":4135,"Ġmaterialien":4136,"gier":4137,"ende":4138,"Ġgang":4139,"text":4140,"Ġinfrastruktur":4141,"ged":4142,"Ġansatz":4143,"Ġschwei":4144,"isser":4145,"Ġopfer":4146,"ochter":4147,"Ġ300":4148,"Ġsicherlich":4149,"Ġerstes":4150,"Ġprodukte":4151,"Ġallerdings":4152,"Ġislam":4153,"frage":4154,"Ġknochen":4155,"ild":4156,"igung":4157,"Ġspekt":4158,"Ġgeschafft":4159,"ket":4160,"Ġbegonnen":4161,"Ġpolizei":4162,"book":4163,"losen":4164,"Ġerzeugt":4165,"Ġgelegenheit":4166,"ote":4167,"tu":4168,"Ġsm":4169,"Ġwald":4170,"Ġmut":4171,"Ġbu":4172,"ĠbÃ¤ume":4173,"Ġhall":4174,"Ġzit":4175,"Ġaufgenommen":4176,"Ġseines":4177,"mente":4178,"Ġherzustellen":4179,"Ġsteu":4180,"Ġriesigen":4181,"Ġbeeinflusst":4182,"krieg":4183,"Ġirgendwann":4184,"Ġmotor":4185,"hilfe":4186,"gleich":4187,"Ġnot":4188,"Ġfran":4189,"auern":4190,"ckte":4191,"Ġsomit":4192,"wechs":4193,"Ġ24":4194,"Ã¼sse":4195,"meter":4196,"minister":4197,"Ġschwarze":4198,"ĠreprÃ¤sen":4199,"Ġfortschritt":4200,"Ġstolz":4201,"hÃ¶r":4202,"vier":4203,"Ġit":4204,"Ġzelle":4205,"Ġtanz":4206,"mmun":4207,"Ġlegen":4208,"Ġrech":4209,"Ġgenutzt":4210,"istenz":4211,"ĠerhÃ¶":4212,"cy":4213,"Ġwal":4214,"Ġmel":4215,"Ġkauf":4216,"Ġerstellen":4217,"anda":4218,"Ġunterschiede":4219,"ĠlieÃŁ":4220,"Ġverbindungen":4221,"Ġbrauchte":4222,"ĠgrÃ¶ÃŁeren":4223,"ĠfÃ¼hlt":4224,"Ġfett":4225,"abt":4226,"far":4227,"oper":4228,"Ġgu":4229,"tiere":4230,"Ġtal":4231,"Ġtochter":4232,"Ġsogen":4233,"Ġproje":4234,"ĠgroÃŁbritannien":4235,"Ġbill":4236,"Ġdunkel":4237,"Ġstudieren":4238,"ĠkreativitÃ¤t":4239,"Ġindustrie":4240,"up":4241,"Ġdel":4242,"ilien":4243,"Ġauseinander":4244,"Ġreagieren":4245,"neten":4246,"ogel":4247,"Ã¤hrt":4248,"Ġglas":4249,"Ġletztendlich":4250,"wohner":4251,"setzung":4252,"Ġindustr":4253,"kÃ¼nf":4254,"untern":4255,"arch":4256,"itten":4257,"Ġentlang":4258,"Ġvielfalt":4259,"Ã¤cht":4260,"spieler":4261,"proble":4262,"Ġleid":4263,"Ġpolitischen":4264,"Ġerlauben":4265,"Ġkilometer":4266,"Ġentwicklungsl":4267,"Ġten":4268,"erken":4269,"Ġken":4270,"orgung":4271,"ĠermÃ¶glichen":4272,"Ġumzu":4273,"Ġprot":4274,"Ġdepress":4275,"geschlossen":4276,"ĠfÃ¼hle":4277,"hause":4278,"tÃ¤t":4279,"Ġed":4280,"Ġhom":4281,"Ġschm":4282,"entwick":4283,"Ġeinfacher":4284,"Ġgefangen":4285,"tisches":4286,"Ġdorthin":4287,"zeichnen":4288,"Ġwerkzeuge":4289,"ĠgeschÃ¤fts":4290,"bank":4291,"Ġach":4292,"Ġeinsatz":4293,"ration":4294,"Ġdagegen":4295,"Ġgeschwindigkeit":4296,"verstÃ¤nd":4297,"formen":4298,"Ġblog":4299,"Ġdavor":4300,"Ġhaupts":4301,"Ġdemokra":4302,"Ġbeeinflussen":4303,"Ġkompliz":4304,"da":4305,"hei":4306,"ttern":4307,"ement":4308,"Ġhabt":4309,"Ġweb":4310,"Ġmex":4311,"Ġverwir":4312,"vention":4313,"tember":4314,"Ġinvestieren":4315,"Ġzeichen":4316,"Ġdeutlich":4317,"zlich":4318,"Ġiran":4319,"heben":4320,"ĠgefÃ¼hle":4321,"Ġklingt":4322,"Ġmond":4323,"Ġproduziert":4324,"Ġverletz":4325,"Ġgaben":4326,"Ġgilt":4327,"fil":4328,"mann":4329,"ĠwÃ¤r":4330,"stau":4331,"stab":4332,"Ġkennt":4333,"leun":4334,"Ġpassen":4335,"Ġlangen":4336,"Ġosten":4337,"teles":4338,"Ġklass":4339,"Ġklassen":4340,"bruch":4341,"Ġminde":4342,"Ġpolitische":4343,"Ġzusammenhang":4344,"Ġbud":4345,"Ġhielt":4346,"Ġfak":4347,"ami":4348,"osau":4349,"ĠgroÃŁteil":4350,"Ġversion":4351,"Ġautor":4352,"alisieren":4353,"Ġkurzem":4354,"Ġtodes":4355,"Ġfernsehen":4356,"Ġholz":4357,"Ġerforschen":4358,"folge":4359,"Ġphilos":4360,"Ġtemperatur":4361,"geln":4362,"Ġnehme":4363,"Ġkunden":4364,"ĠerÃ¶ff":4365,"Ġloch":4366,"bewe":4367,"Ġkonstru":4368,"Ġstellten":4369,"ritten":4370,"Ġ196":4371,"mÃ¶gen":4372,"Ġkarriere":4373,"Ġatom":4374,"ĠÃ¼berras":4375,"Ġeffizien":4376,"Ġafghanistan":4377,"Ġvermutlich":4378,"ling":4379,"ens":4380,"Ġfok":4381,"Ġschim":4382,"Ġneg":4383,"Ġsolch":4384,"Ġhalb":4385,"ĠverrÃ¼ck":4386,"jÃ¤hrigen":4387,"treten":4388,"test":4389,"urm":4390,"Ġend":4391,"ppt":4392,"fÃ¤lle":4393,"Ġbehandelt":4394,"Ġneuronen":4395,"Ġexistieren":4396,"Ġelektron":4397,"Ġschlaf":4398,"Ġfundament":4399,"gorith":4400,"Ġsal":4401,"Ã¼ben":4402,"ark":4403,"Ġalleine":4404,"Ġameisen":4405,"Ġbegriff":4406,"Ġsoldaten":4407,"Ġentsteht":4408,"gern":4409,"eien":4410,"Ġfurch":4411,"Ġdieselbe":4412,"rael":4413,"Ġunsicht":4414,"ĠspÃ¼r":4415,"Ġkostet":4416,"otyp":4417,"Ġintervie":4418,"schlÃ¤":4419,"Ġtim":4420,"Ġgesellschaften":4421,"Ġkorallen":4422,"Ġplastik":4423,"spektive":4424,"ĠÃ¤ndert":4425,"Ġbrot":4426,"Ġbotschaft":4427,"Ġfacebook":4428,"Ġmass":4429,"asi":4430,"ĠzÃ¤h":4431,"Ġbras":4432,"Ġkarten":4433,"umente":4434,"Ġvirus":4435,"ĠbloÃŁ":4436,"Ġwunsch":4437,"gri":4438,"enze":4439,"Ġarab":4440,"itu":4441,"Ġruss":4442,"Ġsteigen":4443,"Ġred":4444,"Ġentschied":4445,"osystem":4446,"Ġwiederum":4447,"Ġweiteres":4448,"Ġreisen":4449,"Ġproduktion":4450,"Ġverkauft":4451,"Ġhoffentlich":4452,"ĠzufÃ¤llig":4453,"Ġinsekten":4454,"tation":4455,"bereich":4456,"Ġthem":4457,"Ġtemp":4458,"stellte":4459,"spricht":4460,"Ġbetrifft":4461,"ĠerhÃ¤lt":4462,"Ġtypen":4463,"Ġaufgaben":4464,"zwischen":4465,"nissen":4466,"Ġehe":4467,"Ġeth":4468,"Ġzut":4469,"Ġzuhause":4470,"Ġaustr":4471,"Ġausbildung":4472,"Ã¤nglich":4473,"Ġimp":4474,"Ġsatz":4475,"Ġbedingungen":4476,"ĠÃ¼b":4477,"Ġmaterie":4478,"Ġfernseh":4479,"Ġkommunizieren":4480,"Ġwerkzeug":4481,"Ġdiskuss":4482,"ifornien":4483,"gro":4484,"uz":4485,"Ġah":4486,"Ġfach":4487,"Ġche":4488,"pfel":4489,"dimension":4490,"loss":4491,"Ġmeistens":4492,"gramme":4493,"Ġverkauf":4494,"Ġsterne":4495,"ĠkomplexitÃ¤t":4496,"abe":4497,"Ġszen":4498,"Ġband":4499,"Ġirak":4500,"schauen":4501,"Ġerl":4502,"Ġtum":4503,"Ġwerfen":4504,"Ġkontakt":4505,"Ġstein":4506,"Ġbeschreiben":4507,"Ġziele":4508,"Ġgemeinde":4509,"ĠsaÃŁ":4510,"Ġdrittel":4511,"Ġstress":4512,"Ġakzep":4513,"ĠtÃ¶ten":4514,"Ġzentrum":4515,"Ġberuf":4516,"Ġverursacht":4517,"ĠwunderschÃ¶n":4518,"oge":4519,"zy":4520,"ĠgÃ¤":4521,"Ġkir":4522,"Ġabges":4523,"Ġ2000":4524,"ĠqualitÃ¤t":4525,"Ġsub":4526,"Ġresult":4527,"ĠbenÃ¶tigen":4528,"Ġbegeg":4529,"ĠunterstÃ¼tzung":4530,"ĠatmosphÃ¤re":4531,"ns":4532,"ufen":4533,"Ġ.":4534,"chtigkeit":4535,"Ġhund":4536,"lege":4537,"Ġjo":4538,"rah":4539,"iell":4540,"Ġvorber":4541,"twas":4542,"Ġweder":4543,"Ġgewonnen":4544,"Ġdavid":4545,"Ġgestalten":4546,"ĠbuchstÃ¤":4547,"gabe":4548,"digung":4549,"Ġzentr":4550,"ĠÃ¼berzeugt":4551,"Ġdiagno":4552,"will":4553,"stein":4554,"Ġbrie":4555,"Ġanru":4556,"Ġgenom":4557,"Ġentwickelten":4558,"Ġdrehen":4559,"Ġlinken":4560,"Ġyo":4561,"Ġunbed":4562,"Ġbabys":4563,"Ġsekunde":4564,"jÃ¤hrige":4565,"krebs":4566,"ĠdÃ¼n":4567,"Ġasp":4568,"agne":4569,"Ġentwerfen":4570,"liten":4571,"Ġcon":4572,"wirken":4573,"Ġschafft":4574,"schlagen":4575,"Ġdreh":4576,"Ġverkehr":4577,"Ġuniversums":4578,"Ġerinnert":4579,"Ġperfekt":4580,"Ġintelligenz":4581,"ĠverÃ¶ffentlicht":4582,"ĠÃ¶kosystem":4583,"vollen":4584,"zur":4585,"Ġdynam":4586,"Ġwirst":4587,"Ġroten":4588,"isieren":4589,"Ġumgehen":4590,"reibt":4591,"zubringen":4592,"ations":4593,"tierten":4594,"Ġstecken":4595,"Ġzusammenarbeit":4596,"teilung":4597,"ente":4598,"Ã¼le":4599,"Ġangel":4600,"Ġjourn":4601,"kele":4602,"Ġklang":4603,"Ġvollkommen":4604,"Ġhintergrund":4605,"Ġnaja":4606,"Ġtausend":4607,"herapie":4608,"maschine":4609,"fach":4610,"fter":4611,"unt":4612,"Ġmitglie":4613,"Ġneugier":4614,"Ġherausgefunden":4615,"Ġbitten":4616,"Ġunbedingt":4617,"pen":4618,"Ġvogel":4619,"arm":4620,"Ġangew":4621,"ĠschÃ¤d":4622,"ungssystem":4623,"fest":4624,"ĠmÃ¶glicherweise":4625,"Ġlebensmittel":4626,"Ġaugenblick":4627,"Ġorganisationen":4628,"Ġbasis":4629,"Ġisrael":4630,"Ġreligi":4631,"Ġlautet":4632,"gruppe":4633,"jahr":4634,"Ġkoll":4635,"Ġport":4636,"Ġbett":4637,"Ġschlau":4638,"Ġsow":4639,"ildet":4640,"Ġstoff":4641,"ames":4642,"ĠÃ¼bertragen":4643,"Ġunternehmer":4644,"Ġcity":4645,"Ġchir":4646,"Ġhalte":4647,"fiziert":4648,"Ġeffektiv":4649,"Ġlaufe":4650,"ĠbuchstÃ¤blich":4651,"by":4652,"kan":4653,"mutter":4654,"Ġ,":4655,"Ġbom":4656,"ĠprÃ¼":4657,"Ġgetr":4658,"Ġrat":4659,"Ġschiff":4660,"halte":4661,"ĠdurchgefÃ¼hrt":4662,"ford":4663,"Ġhandy":4664,"ĠnatÃ¼rliche":4665,"Ġspieler":4666,"Ġwahrscheinlichkeit":4667,"Ġhohen":4668,"Ġforscher":4669,"Ġrelativ":4670,"ĠkÃ¼mmern":4671,"Ġherausforderungen":4672,"Ġjobs":4673,"markt":4674,"Ġfeld":4675,"technologie":4676,"ĠidentitÃ¤t":4677,"platz":4678,"frist":4679,"iden":4680,"Ġlich":4681,"Ġtw":4682,"ĠschlieÃŁen":4683,"Ġmitten":4684,"ille":4685,"amb":4686,"Ġbesitzen":4687,"Ġselber":4688,"Ġlieber":4689,"werte":4690,"Ġwissenschaftliche":4691,"Ġfalsche":4692,"teilt":4693,"Ġunterschiedlichen":4694,"zeichen":4695,"ĠbeschÃ¤ftigt":4696,"Ġverbreitet":4697,"ĠberÃ¼hm":4698,"Ġverdienen":4699,"kor":4700,"meister":4701,"nern":4702,"va":4703,"Ġdom":4704,"Ġfo":4705,"Ġfabr":4706,"Ġnochmal":4707,"Ġtesten":4708,"ĠgewÃ¶hn":4709,"Ġfragten":4710,"Ġobjekte":4711,"steller":4712,"Ġsitzt":4713,"richtung":4714,"Ġgesetze":4715,"ĠerklÃ¤rt":4716,"Ġmindestens":4717,"Ġschimpan":4718,"lu":4719,"Ġaffen":4720,"ichen":4721,"Ġanderem":4722,"Ġtext":4723,"Ġmusli":4724,"Ġinteraktion":4725,"Ġlief":4726,"ĠgefÃ¼hrt":4727,"Ġproblemen":4728,"Ġungl":4729,"Ġdreht":4730,"Ġusw":4731,"Ġstarb":4732,"Ġberech":4733,"zusehen":4734,"Ġbezahlen":4735,"ĠtÃ¤glich":4736,"Ġmetap":4737,"Ġverfolgen":4738,"dit":4739,"ttel":4740,"Ġ&":4741,"ĠmÃ¼ll":4742,"Ġzufrieden":4743,"anne":4744,"rag":4745,"Ġsozusagen":4746,"Ġkontext":4747,"rup":4748,"ada":4749,"digt":4750,"Ġamerikanische":4751,"Ġladen":4752,"Ġgolf":4753,"Ġschlimmer":4754,"ĠbenÃ¶tigt":4755,"macht":4756,"Ġdick":4757,"Ġbeine":4758,"Ġbank":4759,"Ġhinweg":4760,"Ġwahrneh":4761,"Ġerzie":4762,"Ġautoma":4763,"ĠgetÃ¶":4764,"Ġmodelle":4765,"ĠÃ¶ffentliche":4766,"Ġerwartet":4767,"Ġvergleichen":4768,"Ġkatastrop":4769,"Ġmodernen":4770,"schule":4771,"Ġmasse":4772,"angt":4773,"Ġeindruck":4774,"Ġfrank":4775,"ĠzukÃ¼nf":4776,"Ġerster":4777,"Ġliter":4778,"Ġgelangen":4779,"Ġweiteren":4780,"Ġbestimmen":4781,"Ġsauber":4782,"Ġdienst":4783,"Ġkohlenstoff":4784,"ĠdÃ¼rfen":4785,"Ġroman":4786,"kn":4787,"stimm":4788,"Ġniger":4789,"Ġintens":4790,"orgt":4791,"Ġweiss":4792,"Ġkonferenz":4793,"Ã¤tsel":4794,"Ġsteckt":4795,"Ġbeschleun":4796,"Ġruh":4797,"Ġ150":4798,"Ġradio":4799,"ĠÃ¼berzeugen":4800,"Ġanalys":4801,"Ġsymbol":4802,"Ġintegr":4803,"Ã¤chtnis":4804,"ĠhauptsÃ¤chlich":4805,"osaurier":4806,"sse":4807,"deu":4808,"reffen":4809,"ptop":4810,"Ġbildschirm":4811,"hafte":4812,"Ġgestern":4813,"Ġmilliarde":4814,"Ġprim":4815,"Ġwettbewer":4816,"del":4817,"gyp":4818,"ole":4819,"inne":4820,"Ġehem":4821,"Ġeinsetzen":4822,"Ġfei":4823,"schrift":4824,"Ġbewer":4825,"tigte":4826,"Ġtex":4827,"Ġgewicht":4828,"ungskraft":4829,"Ġglaubt":4830,"ĠfÃ¼hrung":4831,"Ġemp":4832,"ĠpersÃ¶nlich":4833,"Ġgold":4834,"Ġlieblings":4835,"Ġthemen":4836,"bas":4837,"zitÃ¤t":4838,"ĠwÃ¤chst":4839,"ĠhÃ¤ngt":4840,"ong":4841,"ara":4842,"artige":4843,"Ġgeor":4844,"Ġrand":4845,"Ġstabil":4846,"Ġextra":4847,"tiker":4848,"Ġbesseren":4849,"Ġsatel":4850,"Ġkindheit":4851,"Ġdeinen":4852,"Ġkalifornien":4853,"Ġleistung":4854,"ĠprÃ¤sident":4855,"Ġmuseum":4856,"afrika":4857,"Ġol":4858,"Ġsil":4859,"Ġmos":4860,"Ġhistor":4861,"Ġnull":4862,"Ġkno":4863,"Ġinteragieren":4864,"Ġgewissen":4865,"Ġfragt":4866,"Ã¤llt":4867,"Ġgegenteil":4868,"Ġdeb":4869,"Ġschwimmen":4870,"Ġsolar":4871,"Ġdritten":4872,"Ġkaffe":4873,"Ġinstitutionen":4874,"band":4875,"kÃ¤":4876,"zeiten":4877,"Ġmulti":4878,"itzt":4879,"ĠdaÃŁ":4880,"Ġgefahr":4881,"programm":4882,"Ġvision":4883,"Ġverwandeln":4884,"ĠgefÃ¤hrlich":4885,"trÃ¤ge":4886,",\"":4887,"von":4888,"testen":4889,"Ġox":4890,"amin":4891,"Ġgenie":4892,"Ġklei":4893,"ĠzurÃ¼ckzu":4894,"Ġmeilen":4895,"Ġhohe":4896,"alisiert":4897,"Ġsyn":4898,"Ġreichen":4899,"ĠeuropÃ¤":4900,"Ġpraktisch":4901,"ĠÃ¼berrascht":4902,"fun":4903,"lÃ¶s":4904,"Ġass":4905,"Ġastr":4906,"Ġki":4907,"Ġkr":4908,"Ġfische":4909,"lekt":4910,"schau":4911,"Ġcolle":4912,"Ġcha":4913,"achtung":4914,"Ġbildern":4915,"Ġsteuer":4916,"Ġfleisch":4917,"Ġteilchen":4918,"Ġbedroh":4919,"Ġvirt":4920,"Ġstrukturen":4921,"Ġerinnerung":4922,"Ġwesentlichen":4923,"Ġvorhanden":4924,"ĠgetÃ¶tet":4925,"ac":4926,"ex":4927,"pre":4928,"zÃ¤h":4929,"inge":4930,"tex":4931,"omie":4932,"Ġgewisser":4933,"ĠgerÃ¤te":4934,"Ġgegensei":4935,"klus":4936,"ĠbekÃ¤":4937,"Ġwild":4938,"Ġzunehmen":4939,"Ġverzwei":4940,"bewegung":4941,"Ġecke":4942,"Ġment":4943,"lev":4944,"Ġjungs":4945,"illi":4946,"tiges":4947,"Ġgross":4948,"met":4949,"adem":4950,"Ġwelchen":4951,"geladen":4952,"Ġgenauer":4953,"Ġstudi":4954,"Ġinteressieren":4955,"Ġhaufen":4956,"Ġfolge":4957,"Ġverhaltens":4958,"Ġheimat":4959,"Ġgalaxien":4960,"Ġhyp":4961,"Ã¶ÃŁen":4962,"Ġalgorith":4963,"Ġtue":4964,"Ġirgende":4965,"Ġnorden":4966,"gewicht":4967,"ĠvollstÃ¤ndig":4968,"Ġbauern":4969,"Ġelektro":4970,"Ġscheinen":4971,"ĠkÃ¼rzlich":4972,"Ġbegrenz":4973,"Ġinterview":4974,"fische":4975,"nun":4976,"nimmt":4977,"Ġseh":4978,"atoren":4979,"ĠkÃ¶nnt":4980,"Ġcent":4981,"Ġliefer":4982,"Ġverbracht":4983,"Ġsep":4984,"Ġ400":4985,"Ġwunderbare":4986,"Ġrestau":4987,"Ġwillen":4988,"Ġverhindern":4989,"Ġgeschlecht":4990,"Ġirgendetwas":4991,"idem":4992,"lÃ¤ss":4993,"Ġmaus":4994,"Ġfle":4995,"isiert":4996,"ramm":4997,"ingu":4998,"ologische":4999,"Ġfranz":5000,"Ġschaff":5001,"Ġengland":5002,"itionen":5003,"ĠaktivitÃ¤t":5004,"wood":5005,"Ġbruder":5006,"Ġnerven":5007,"ĠmÃ¼tter":5008,"Ġbegeistert":5009,"Ġsteuern":5010,"po":5011,"sal":5012,"sinn":5013,"Ġmc":5014,"ĠhÃ¤user":5015,"tert":5016,"Ġlasst":5017,"ĠrÃ¤tsel":5018,"Ġgeschen":5019,"ĠweiÃŁen":5020,"Ġwoher":5021,"quenzen":5022,"Ġorig":5023,"ĠerzÃ¤hle":5024,"Ġversuchten":5025,"Ġnormale":5026,"Ġpatient":5027,"Ġmorgens":5028,"Ġverschwinden":5029,"Ġholen":5030,"ĠÃ¤gyp":5031,"Ġvolk":5032,"Ġeingesetzt":5033,"ĠvÃ¶":5034,"Ġnan":5035,"esch":5036,"Ġfiel":5037,"ĠÃ¼berle":5038,"Ġreag":5039,"Ġgehabt":5040,"Ġgewisse":5041,"Ġdinosaurier":5042,"stellten":5043,"Ġfilme":5044,"Ġbasiert":5045,"Ġverantwortlich":5046,"wissenschaft":5047,"Ġdrama":5048,"bio":5049,"dy":5050,"frau":5051,"Ġsucht":5052,"Ġven":5053,"Ġzell":5054,"Ġzimmer":5055,"Ġgewinn":5056,"ĠworÃ¼ber":5057,"Ġseitdem":5058,"Ġvideos":5059,"Ġexperten":5060,"Ġnormalen":5061,"Ġpost":5062,"Ġphilosoph":5063,"ĠgÃ¤be":5064,"frei":5065,"izi":5066,"lÃ¼":5067,"ĠrÃ¤":5068,"ĠschÃ¶nen":5069,"ĠmÃ¶gliche":5070,"Ã¤ndert":5071,"Ġkurze":5072,"richtungen":5073,"Ġdauert":5074,"Ġseptember":5075,"fir":5076,"ĠwÃ¤h":5077,"Ġac":5078,"Ġbieten":5079,"Ã¤den":5080,"alisten":5081,"Ġwenigen":5082,"Ġprop":5083,"lieb":5084,"mail":5085,"Ġboot":5086,"Ġunterschiedlich":5087,"Ġkorrup":5088,"Ġtiefe":5089,"Ġforschungs":5090,"ĠÃ¶ffentlichkeit":5091,"Ġbemerkt":5092,"Ġunterscheiden":5093,"ĠunglÃ¼ck":5094,"dige":5095,"bern":5096,"Ġrahmen":5097,"Ġschien":5098,"ram":5099,"Ġvorteil":5100,"Ġteuer":5101,"ĠmÃ¼sste":5102,"Ġstift":5103,"Ġelement":5104,"Ã¤ngst":5105,"Ġbeloh":5106,"ĠstÃ¤rker":5107,"karte":5108,"Ġtotal":5109,"Ġfurcht":5110,"wahr":5111,"ash":5112,"Ġban":5113,"ĠhÃ¤nden":5114,"terie":5115,"ĠaufhÃ¶ren":5116,"gton":5117,"Ġcol":5118,"Ġdurchschnit":5119,"flÃ¤chen":5120,"Ġentworfen":5121,"Ġarbeiteten":5122,"Ġ35":5123,"Ġeure":5124,"fragen":5125,"kehren":5126,"Ġerkenntnis":5127,"Ġstill":5128,"ĠgesprÃ¤ch":5129,"inter":5130,"Ġev":5131,"Ġmem":5132,"Ġnannte":5133,"Ġkna":5134,"let":5135,"Ġles":5136,"Ġstimm":5137,"ktiven":5138,"Ġspiegel":5139,"Ġschaute":5140,"Ġbeinah":5141,"Ġlustig":5142,"Ġgewebe":5143,"Ġbeantworten":5144,"Ġtwitter":5145,"opp":5146,"pft":5147,"zelle":5148,"uni":5149,"Ġeiniger":5150,"Ġbrei":5151,"Ġfrie":5152,"Ġverlie":5153,"Ġtor":5154,"Ġsetzt":5155,"ĠflÃ¼ss":5156,"Ġquanten":5157,"Ġhoffen":5158,"Ġentstanden":5159,"Ġwichtigen":5160,"Ġschwester":5161,"Ġtrend":5162,"ban":5163,"blichkeit":5164,"pekt":5165,"Ġmund":5166,"stÃ¤nden":5167,"Ġunend":5168,"ony":5169,"Ġbeweis":5170,"Ġlebte":5171,"amt":5172,"agement":5173,"Ġenth":5174,"Ġerfinden":5175,"Ġlandschaft":5176,"hington":5177,"ĠschlÃ¤":5178,"Ġgedanke":5179,"Ġungleich":5180,"utzung":5181,"Ġsitz":5182,"Ġfehlen":5183,"fÃ¤higkeit":5184,"Ġgeheimnis":5185,"Ġschimpansen":5186,"Ġdur":5187,"Ġwom":5188,"Ġnutzt":5189,"Ġangenommen":5190,"Ġroll":5191,"Ġausgeb":5192,"Ġgehalten":5193,"wegs":5194,"Ġverbrau":5195,"uliert":5196,"Ġblock":5197,"Ġriesen":5198,"Ġrichard":5199,"trieb":5200,"swesen":5201,"Ġrestauran":5202,"fÃ¼gen":5203,"sver":5204,"Ġdran":5205,"Ġmess":5206,"artigen":5207,"derung":5208,"Ġentspricht":5209,"spl":5210,"ĠlieÃŁen":5211,"gesell":5212,"Ġbrenn":5213,"Ġschlagen":5214,"Ġminute":5215,"Ġviertel":5216,"Ġbekamen":5217,"Ġschlechter":5218,"Ġplanet":5219,"holen":5220,"Ġlaptop":5221,"Ġmedikament":5222,"ĠmolekÃ¼le":5223,"Ġangesehen":5224,"amerika":5225,"unternehmen":5226,"cis":5227,"Ġfig":5228,"gegeben":5229,"Ġlernt":5230,"Ġbehalten":5231,"Ġwobei":5232,"Ġlied":5233,"Ġperspektive":5234,"Ġschnitt":5235,"zeugen":5236,"Ġindividuen":5237,"bewesen":5238,"fu":5239,"part":5240,"ieÃŁ":5241,"ietet":5242,"Ġech":5243,"asa":5244,"Ã¼ste":5245,"Ġwashington":5246,"Ġumge":5247,"ĠÃ¼berprÃ¼":5248,"ffekt":5249,"Ġverbreiten":5250,"gesetz":5251,"Ġgegensatz":5252,"Ġschlechten":5253,"Ġtoile":5254,"Ġerkannte":5255,"Ġerlebt":5256,"fizieren":5257,"Ġfakten":5258,"Ġcollege":5259,"era":5260,"Ġwellen":5261,"Ġnationen":5262,"Ġzog":5263,"ĠkrÃ¤fte":5264,"Ġzucker":5265,"ologe":5266,"Ġimpf":5267,"Ġcy":5268,"Ġkonse":5269,"Ġmusst":5270,"herr":5271,"Ġwahre":5272,"Ġverlangen":5273,"ĠkÃ¶rpers":5274,"Ġradik":5275,"Ġpolitiker":5276,"Ġerwachsenen":5277,"Ġexperimente":5278,"Ġreduzieren":5279,"mÃ¤ÃŁig":5280,"pol":5281,"ĠungewÃ¶hn":5282,"Ġgas":5283,"Ġintu":5284,"Ġtab":5285,"usion":5286,"Ġhergestellt":5287,"Ġdutzen":5288,"Ġgelesen":5289,"ologischen":5290,"Ġklu":5291,"Ġkapital":5292,"Ġunbek":5293,"Ã¤use":5294,"fahrt":5295,"ĠzugÃ¤nglich":5296,"ĠverÃ¶ffentlich":5297,"Ġmission":5298,"Ġinternationale":5299,"ĠfÃ¶rdern":5300,"Ġdomin":5301,"fÃ¶r":5302,"yse":5303,"Ġnu":5304,"Ġlan":5305,"Ġschne":5306,"Ġschlie":5307,"Ġaufgew":5308,"Ġstat":5309,"Ġstad":5310,"Ġref":5311,"Ġdemon":5312,"Ġkohle":5313,"Ġvieler":5314,"kosten":5315,"dia":5316,"Ġmeiste":5317,"Ġstammt":5318,"Ġstarke":5319,"ordnung":5320,"Ġelektri":5321,"Ġerscheinen":5322,"Ġquadrat":5323,"modell":5324,"Ġbrasilien":5325,"Ġechten":5326,"asste":5327,"ĠzÃ¤hlen":5328,"Ġpfer":5329,"Ġanb":5330,"Ġverschl":5331,"Ġschock":5332,"Ġaufbauen":5333,"eut":5334,"Ġgrenze":5335,"kopf":5336,"Ġzeitalter":5337,"dient":5338,"serv":5339,"Ġbrauche":5340,"Ġbrauchten":5341,"fÃ¼hrung":5342,"zusetzen":5343,"zentrum":5344,"Ġschlafen":5345,"Ġdisku":5346,"Ġbewegungen":5347,"Ġgehirne":5348,"Ġsatelliten":5349,"gas":5350,"hÃ¶rt":5351,"iten":5352,"oc":5353,"tial":5354,"Ġanim":5355,"Ġaufst":5356,"Ġstau":5357,"Ġleg":5358,"Ġspannen":5359,"Ġgras":5360,"Ġkogn":5361,"issenschaft":5362,"Ġbilli":5363,"gerÃ¤t":5364,"Ġentwickelte":5365,"Ġbrachten":5366,"Ġinsel":5367,"besch":5368,"Ġdoktor":5369,"ĠtrÃ¤ume":5370,"Ġentdeckung":5371,"ĠabhÃ¤ngig":5372,"30":5373,"ian":5374,"kr":5375,"kreis":5376,"Ġeindeu":5377,"Ġfischer":5378,"Ġaufs":5379,"Ġauftau":5380,"use":5381,"Ġentsch":5382,"Ġkooper":5383,"riften":5384,"Ġchrist":5385,"Ġbeschlossen":5386,"Ġmeist":5387,"iven":5388,"Ġinneren":5389,"Ġmedizinische":5390,"Ġrepar":5391,"Ġbezahlt":5392,"ĠtrÃ¤gt":5393,"Ġzweck":5394,"ĠnÃ¶tig":5395,"Ġbeinahe":5396,"dru":5397,"Ã©":5398,"Ġeinheit":5399,"ĠjÃ¤hr":5400,"ĠÃ¼berlegen":5401,"Ġnachts":5402,"ĠgehÃ¶ren":5403,"Ã¼hlt":5404,"komme":5405,"Ġhinsicht":5406,"werden":5407,"fluss":5408,"akte":5409,"Ġgemeinden":5410,"Ġelef":5411,"Ġgestorben":5412,"Ġbesondere":5413,"Ġsymme":5414,"Ġgrafik":5415,"Ġfuhr":5416,"Ġrespekt":5417,"Ġerleb":5418,"Ġbeinhal":5419,"gruppen":5420,"Ġprofessor":5421,"Ġmittleren":5422,"Ġprototyp":5423,".,":5424,"Ġatem":5425,"iertes":5426,"Ġentsprechen":5427,"ischt":5428,"ular":5429,"Ġgefahren":5430,"stellungen":5431,"Ġlangwei":5432,"Ġstarten":5433,"Ġlinien":5434,"Ġmikroben":5435,"Ġaufregend":5436,"Ġverbrachte":5437,"Ġfantastisch":5438,"Ġaustralien":5439,"nungs":5440,"res":5441,"tÃ¤":5442,"Ġwik":5443,"Ġunge":5444,"Ġhi":5445,"Ġkrise":5446,"Ã¼te":5447,"recher":5448,"Ġlebewesen":5449,"Ġvoran":5450,"Ġentgegen":5451,"Ġwetter":5452,"istisch":5453,"ĠbeschrÃ¤n":5454,"phone":5455,"Ġgesundheitswesen":5456,"Ġschwarzen":5457,"Ġmethoden":5458,"Ġkonflikt":5459,"Ġfrancis":5460,"Ġaids":5461,"stung":5462,"Ġba":5463,"Ġbon":5464,"til":5465,"ĠausmaÃŁ":5466,"ĠÃ¼berein":5467,"utt":5468,"rid":5469,"Ġinterpre":5470,"bares":5471,"Ġmilch":5472,"projekt":5473,"Ġorganismen":5474,"Ġgenerationen":5475,"ĠbeschÃ¤ftigen":5476,"Ġmoderne":5477,"Ġastron":5478,"eben":5479,"fallen":5480,"hel":5481,"nach":5482,"pern":5483,"sc":5484,"Ġfeu":5485,"Ġpasst":5486,"Ġansicht":5487,"ĠvergrÃ¶ÃŁ":5488,"ĠgeÃ¤ndert":5489,"Ġbehin":5490,"rechte":5491,"flug":5492,"Ġkurzen":5493,"Ġ45":5494,"schland":5495,"Ġbuchsta":5496,"Ġparad":5497,"Ġkriegen":5498,"Ġhalbe":5499,"Ġdetails":5500,"ĠelektrizitÃ¤t":5501,"ls":5502,"nÃ¼":5503,"Ġblieb":5504,"ĠfÃ¤ngt":5505,"org":5506,"Ġverpf":5507,"mma":5508,"Ġabstra":5509,"Ġinteressen":5510,"Ġexistenz":5511,"Ġelemente":5512,"Ġhilf":5513,"Ġnetzwerke":5514,"Ġisol":5515,"Ġdunkle":5516,"Ġinternationalen":5517,"hyth":5518,"ĠverhÃ¤ltnis":5519,"Ġzuschauer":5520,"Ġaspekt":5521,"?âĢľ":5522,"bit":5523,"bÃ¼r":5524,"lad":5525,"prÃ¤":5526,"Ġwander":5527,"star":5528,"urf":5529,"ierer":5530,"Ġtu":5531,"Ġlen":5532,"Ġlebten":5533,"Ġflag":5534,"ĠnatÃ¼rlichen":5535,"Ġkreuz":5536,"ĠdrÃ¼ben":5537,"Ġcode":5538,"mÃ¶glichkeiten":5539,"Ġbeobachtet":5540,"Ġkapit":5541,"Ġkomplexe":5542,"Ġerstaunliche":5543,"Ġwebsite":5544,"kurr":5545,"Ġgrundlegende":5546,"Ġzitat":5547,"Ġdiskussion":5548,"20":5549,"skop":5550,"wagen":5551,"Ġbra":5552,"Ġzau":5553,"Ġderzeit":5554,"Ġbeweise":5555,"Ġvorfahren":5556,"Ġweile":5557,"Ġdarstellen":5558,"Ġgeschickt":5559,"Ġweltraum":5560,"Ġbesitz":5561,"Ġwissenschaftlichen":5562,"spruch":5563,"Ġtheater":5564,"Ġerwart":5565,"Ġanwenden":5566,"Ġviren":5567,"Ġchemik":5568,"ĠzerstÃ¶ren":5569,"Ġdefinieren":5570,"Ġwahrnehmung":5571,"jem":5572,"vir":5573,"Ġsam":5574,"Ġsingen":5575,"ĠzÃ¼":5576,"Ġpen":5577,"Ġerg":5578,"Ġermu":5579,"Ġbeweisen":5580,"Ġschool":5581,"rale":5582,"Ġsparen":5583,"ĠgrÃ¶s":5584,"Ġverbindet":5585,"ĠselbstverstÃ¤nd":5586,"Ġbeschloss":5587,"gehend":5588,"Ġfolgt":5589,"Ġgarten":5590,"Ġwohlstand":5591,"aturen":5592,"Ġchemie":5593,"ĠmaÃŁstab":5594,"Ġtests":5595,"Ã¶pfe":5596,"Ġsteigt":5597,"ĠnÃ¼tzlich":5598,"Ġkorruption":5599,"Ġwagen":5600,"Ġfru":5601,"geber":5602,"Ġletzt":5603,"Ġumfeld":5604,"Ġabschluss":5605,"Ġqual":5606,"sprache":5607,"Ġtreten":5608,"Ġvertraut":5609,"ĠzerstÃ¶rt":5610,"Ġdefinition":5611,"Ġtraditionellen":5612,"Ġemotionen":5613,"Ġdauern":5614,"Ġenorme":5615,"Ġeinstein":5616,"Ġkaffee":5617,"fangen":5618,"itieren":5619,"klen":5620,"kat":5621,"passt":5622,"vard":5623,"Ġdach":5624,"Ġew":5625,"ones":5626,"Ġzuzu":5627,"Ġtoten":5628,"Ġros":5629,"Ġmitarbeiter":5630,"ehm":5631,"ĠÃ¼bersch":5632,"ĠspÃ¤t":5633,"ĠgrÃ¶ÃŁen":5634,"Ġbeispielsweise":5635,"nahm":5636,"Ġurs":5637,"Ġrote":5638,"Ġfolgende":5639,"linge":5640,"ĠerklÃ¤rung":5641,"Ġwesentlich":5642,"Ġerscheint":5643,"ĠverfÃ¼gbar":5644,"ĠentwicklungslÃ¤ndern":5645,"ld":5646,"Ġ0":5647,"Ġwitz":5648,"Ġwuchs":5649,"anen":5650,"Ġhem":5651,"Ã¼gt":5652,"Ġerm":5653,"Ġerstellt":5654,"Ġersetzen":5655,"Ġannehmen":5656,"Ġtonnen":5657,"Ġoff":5658,"Ġumgeben":5659,"Ġentschul":5660,"Ġdarunter":5661,"Ġkosm":5662,"Ġpaten":5663,"Ġblind":5664,"ĠweiÃŁe":5665,"Ġhelden":5666,"Ġjedenfalls":5667,"ĠfÃ¤hig":5668,"Ġverring":5669,"ĠÃ¼brig":5670,"Ġarchitekten":5671,"Ġjahrzehnt":5672,"ĠerwÃ¤hnt":5673,"Ġnachbarn":5674,"Ġdeutschland":5675,"Ġsum":5676,"sthe":5677,"Ġve":5678,"Ġanteil":5679,"Ġbedenken":5680,"Ġschatten":5681,"Ġaufgebaut":5682,"Ġspir":5683,"Ġkonkurr":5684,"Ġbesuchen":5685,"Ġpak":5686,"ĠbestÃ¤":5687,"Ġkamp":5688,"Ġschaden":5689,"Ġquelle":5690,"Ġspielte":5691,"Ġgedicht":5692,"Ġschwierigkeiten":5693,"fordert":5694,"Ġinstall":5695,"Ġaufzubauen":5696,"wirkung":5697,"Ġallgemeinen":5698,"Ġkerl":5699,"Ġsetzte":5700,"Ġmexiko":5701,"hÃ¶":5702,"vin":5703,"Ġdre":5704,"Ġmic":5705,"stat":5706,"ĠzusÃ¤tz":5707,"Ġverab":5708,"Ġtom":5709,"Ġroh":5710,"tzeit":5711,"Ġgri":5712,"rige":5713,"riffe":5714,"ĠheiÃŁen":5715,"Ġsolange":5716,"Ġbetroffen":5717,"Ġberechn":5718,"ĠbemÃ¼h":5719,"ĠfÃ¤lle":5720,"Ġintellekt":5721,"Ġverdopp":5722,"Ġenorm":5723,"ĠunabhÃ¤ngig":5724,"olitik":5725,"ĠgerÃ¤usch":5726,"Ġwolken":5727,"Ġtimes":5728,"com":5729,"sser":5730,"ube":5731,"Ġmas":5732,"stelle":5733,"ancen":5734,"Ġbaut":5735,"Ġvermitteln":5736,"Ġlive":5737,"ĠschÃ¤tzen":5738,"Ġvieles":5739,"Ġdurchs":5740,"ĠgemÃ¼":5741,"ĠmÃ¼ssten":5742,"Ġzieht":5743,"ĠgrundsÃ¤tzlich":5744,"Ġirgendjem":5745,"ĠhÃ¶re":5746,"Ġschuld":5747,"Ġfreundin":5748,"Ġzeichnen":5749,"fahrer":5750,"Ã¼chern":5751,"Ġseele":5752,"Ġschrecklich":5753,"ographie":5754,"ĠÃ¶konom":5755,"Ġitalien":5756,".Â«":5757,"Ġergibt":5758,"Ġanrei":5759,"Ġdiesel":5760,"Ġstart":5761,"Ġkonfr":5762,"Ġmehrheit":5763,"Ġwissens":5764,"Ġhindern":5765,"istische":5766,"Ġsolcher":5767,"Ġquasi":5768,"Ġbibli":5769,"stren":5770,"Ġvermeiden":5771,"Ġtiefer":5772,"Ġbereichen":5773,"tismus":5774,"ĠpersÃ¶nliche":5775,"staat":5776,"Ġpflanz":5777,"Ġinspiriert":5778,"fÃ¤hig":5779,"mensionen":5780,"Ġeffekt":5781,"oben":5782,"Ġdns":5783,"Ġwisst":5784,"Ġinhalt":5785,"Ġerlaub":5786,"Ġausgew":5787,"see":5788,"Ġgrie":5789,"Ġkannte":5790,"qualitÃ¤t":5791,"istischen":5792,"Ġhandel":5793,"versorgung":5794,"Ġkulturen":5795,"linie":5796,"Ġharvard":5797,"Ġgeistes":5798,"verbrauch":5799,"Ġzivilisation":5800,"ufel":5801,"wort":5802,"Ġgot":5803,"Ġinn":5804,"ember":5805,"Ġri":5806,"igte":5807,"reu":5808,"ago":5809,"Ġvorzu":5810,"Ġvorne":5811,"olly":5812,"Ġwurz":5813,"komm":5814,"ulpt":5815,"Ġsequenz":5816,"Ġgefallen":5817,"Ġstufe":5818,"Ġfreien":5819,"Ġwirtschaftlichen":5820,"Ġrief":5821,"Ġopen":5822,"Ġsituationen":5823,"Ġentdeckte":5824,"Ġgebeten":5825,"Ġverbessert":5826,"ĠlÃ¤cheln":5827,"fig":5828,"kung":5829,"mord":5830,"preis":5831,"wen":5832,"ston":5833,"stimmen":5834,"eise":5835,"ire":5836,"Ġlager":5837,"Ġjan":5838,"isationen":5839,"Ġstock":5840,"Ġleichter":5841,"Ġausgel":5842,"reif":5843,"Ġteen":5844,"Ġversteht":5845,"Ġarbeiter":5846,"Ġverlust":5847,"gewal":5848,"Ġhotel":5849,"Ġlehren":5850,"Ġkomment":5851,"Ġuntersucht":5852,"Ġleistungs":5853,"Ġdahinter":5854,"ĠmÃ¤chtig":5855,"Ġfeind":5856,"lager":5857,"ĠwÃ¤l":5858,"Ã¼che":5859,"ley":5860,"ĠzuhÃ¶ren":5861,"tere":5862,"Ġbele":5863,"Ã¤ne":5864,"Ġdarwin":5865,"forschung":5866,"ĠgelÃ¶st":5867,"Ġplatt":5868,"Ġseid":5869,"Ġlanger":5870,"Ġlangfrist":5871,"Ġbefrei":5872,"Ġbauten":5873,"Ġvorhersagen":5874,"Ġbereiche":5875,"Ġwelchem":5876,"besonder":5877,"ĠpersÃ¶nlichen":5878,"Ġtranspar":5879,"Ġfaszinierend":5880,"Ġerwachsene":5881,"Ġauswahl":5882,"Ġnotwendig":5883,"Ġepidem":5884,"Ġniedrig":5885,"ĠvÃ¶gel":5886,"kri":5887,"kultur":5888,"mehr":5889,"oo":5890,"unken":5891,"Ġzeh":5892,"Ġkate":5893,"aria":5894,"Ġpun":5895,"ehren":5896,"Ġreal":5897,"Ġentstand":5898,"ĠgroÃŁmutter":5899,"Ġenden":5900,"Ġentz":5901,"Ġhinten":5902,"ĠverblÃ¼":5903,"endungen":5904,"Ġzwang":5905,"Ġmenschlicher":5906,"Ġstuhl":5907,"Ġwillst":5908,"issionen":5909,"Ġschwieriger":5910,"Ġrisiken":5911,"Ġblauen":5912,"Ġverteilt":5913,"Ġsignal":5914,"Ġbuchstaben":5915,"wenden":5916,"Ġachten":5917,"ĠkÃ¶":5918,"hre":5919,"Ġaufnahme":5920,"Ġmittag":5921,"Ġledig":5922,"reisen":5923,"Ġgehol":5924,"Ġherein":5925,"Ġverstehe":5926,"ktivitÃ¤t":5927,"Ġinsbesonder":5928,"Ġbesseres":5929,"ipe":5930,"ĠunterstÃ¼tzt":5931,"ĠkÃ¼mmer":5932,"Ġerkrank":5933,"Ġdigitalen":5934,"Ġoperation":5935,"burg":5936,"ozi":5937,"Ġsl":5938,"Ġwahn":5939,"Ġmale":5940,"eile":5941,"Ġpingu":5942,"denkt":5943,"Ġaufnehmen":5944,"ckten":5945,"Ġsoviel":5946,"Ġwerbung":5947,"kton":5948,"mater":5949,"Ġmodern":5950,"ĠheiÃŁ":5951,"Ġgrundle":5952,"Ġstudent":5953,"Ġworauf":5954,"Ġworld":5955,"fernen":5956,"Ġfeststellen":5957,"Ġkriegs":5958,"Ġatmen":5959,"ĠsÃ¼ÃŁ":5960,"ĠÃ¤hnliche":5961,"Ġstreit":5962,"Ġschreib":5963,"Ġwechsel":5964,"grÃ¼ndet":5965,"Ġirgendjemand":5966,"Ġlediglich":5967,"hu":5968,"zig":5969,"erung":5970,"iein":5971,"iesen":5972,"Ġeier":5973,"Ġzahn":5974,"Ġpan":5975,"Ġpat":5976,"Ġtop":5977,"Ġlungen":5978,"Ġstanden":5979,"Ġaussage":5980,"bevÃ¶lker":5981,"Ġrechen":5982,"Ġentfernen":5983,"ĠgehÃ¶r":5984,"Ġlebenser":5985,"Ġnett":5986,"Ġobje":5987,"Ġflu":5988,"Ġbrut":5989,"Ġbeschrieben":5990,"ĠanfÃ¼hr":5991,"Ġanderson":5992,"bilden":5993,"Ġtausenden":5994,"Ã¤usern":5995,"Ġerinnerungen":5996,"Ġtranspor":5997,"karten":5998,"Ġwestlichen":5999,"Ġstrategie":6000,"Ġinstrument":6001,"ĠfranzÃ¶s":6002,"Ġeindeutig":6003,"Ġdieselben":6004,"Ġinsbesondere":6005,"heim":6006,"ublik":6007,"yl":6008,"Ġbur":6009,"Ġhind":6010,"Ġhunde":6011,"Ġiniti":6012,"einhalb":6013,"Ġrollen":6014,"weile":6015,"Ġhierher":6016,"Ã¶rungen":6017,"Ġkongress":6018,"Ã¤tter":6019,"Ġbesitzt":6020,"mechan":6021,"ĠberÃ¼hrt":6022,"tika":6023,"Ġbildungs":6024,"iziert":6025,"zieht":6026,"Ġkurs":6027,"systeme":6028,"ĠsÃ¼den":6029,"Ġanwendung":6030,"Ġfahrrad":6031,"Ġwiderstand":6032,"ĠstÃ¤rke":6033,"ĠmolekÃ¼l":6034,"Ġlokalen":6035,"Ġetc":6036,"Ġhuman":6037,"Ġbelieb":6038,"ausende":6039,"Ġkontinent":6040,"Ġbrief":6041,"Ġechtzeit":6042,"Ġbeinhaltet":6043,"bevÃ¶lkerung":6044,"ktes":6045,"pha":6046,"vis":6047,"viert":6048,"Ġatt":6049,"eilen":6050,"eilt":6051,"hrop":6052,"alog":6053,"Ġgegend":6054,"Ġmeinte":6055,"reibung":6056,"weite":6057,"Ġherren":6058,"verhalten":6059,"barer":6060,"ĠgefÃ¤llt":6061,"Ġsonder":6062,"ida":6063,"Ġwirtschaftliche":6064,"Ġerhielt":6065,"Ġscheinbar":6066,"Ġskla":6067,"Ġjuli":6068,"Ġverhand":6069,"Ġgemeinsame":6070,"Ġdiagramm":6071,"Ġrake":6072,"ĠflÃ¼cht":6073,"othek":6074,"problem":6075,"Ġyout":6076,"akt":6077,"pel":6078,"sich":6079,"Ġbietet":6080,"Ġhell":6081,"Ġkochen":6082,"berg":6083,"Ġhaar":6084,"tze":6085,"Ġvorzustellen":6086,"ĠenthÃ¤lt":6087,"ĠwofÃ¼r":6088,"Ġbesagt":6089,"Ġchic":6090,"Ġberichten":6091,"Ġstehe":6092,"Ġphot":6093,"losigkeit":6094,"Ġbetrachte":6095,"ĠverknÃ¼":6096,"Ġfreiwill":6097,"Ġverschm":6098,"lieÃŁend":6099,"boden":6100,"Ġakadem":6101,"Ġpfund":6102,"Ġgespielt":6103,"Ġkompliziert":6104,"Ġpositive":6105,"Ġstammzellen":6106,"Ġgalaxie":6107,"Ġdurchschnittliche":6108,"Ġkombination":6109,"ĠgrÃ¼nen":6110,"Ġtumor":6111,"hese":6112,"kungen":6113,"ines":6114,"Ġsur":6115,"Ġaspe":6116,"Ġeink":6117,"ird":6118,"Ġzufall":6119,"Ġmangel":6120,"ĠÃ¼bernehmen":6121,"Ġliefern":6122,"Ġmalaria":6123,"klÃ¤r":6124,"Ġmomentan":6125,"Ġ99":6126,"Ġjunger":6127,"Ġkreieren":6128,"Ġalternative":6129,"ĠbedÃ¼rfnisse":6130,"kelett":6131,"lÃ¶sung":6132,"Ġchemikalien":6133,"ĠselbstverstÃ¤ndlich":6134,"material":6135,"Ġyoutube":6136,"tro":6137,"Ġteles":6138,"Ġmr":6139,"Ġeingesch":6140,"Ġbund":6141,"leh":6142,"artet":6143,"Ġaustau":6144,"Ġanp":6145,"Ġanschein":6146,"Ġanstren":6147,"Ġtur":6148,"Ġtour":6149,"ĠgegrÃ¼ndet":6150,"Ġrennen":6151,"Ġrhyth":6152,"Ġsowas":6153,"Ġjewei":6154,"kette":6155,"Ġwirkliche":6156,"Ġbesessen":6157,"Ġbillig":6158,"Ġweiterer":6159,"Ġzusammenf":6160,"haften":6161,"Ġkomponen":6162,"ĠfÃ¼hrungs":6163,"Ġsynt":6164,"Ġbauch":6165,"Ġdrauf":6166,"Ġwinter":6167,"Ġozeane":6168,"icherheit":6169,"Ġpotential":6170,"ĠÃ¤uÃŁerst":6171,"Ġfabrik":6172,"Ġgeorge":6173,"do":6174,"gut":6175,"itel":6176,"tan":6177,"wesen":6178,"Ġdroh":6179,"Ġsenden":6180,"Ġeiniges":6181,"Ġkra":6182,"Ġanh":6183,"Ġvergewal":6184,"ise":6185,"rett":6186,"Ġweihn":6187,"Ġspringen":6188,"ischem":6189,"licken":6190,"Ġteufel":6191,"anger":6192,"Ġlieb":6193,"hey":6194,"lied":6195,"Ġblumen":6196,"design":6197,"Ġmenschliches":6198,"Ġ2008":6199,"Ġ75":6200,"ĠÃ¼berrasch":6201,"iveau":6202,"Ġcharles":6203,"ĠÃ¼berwinden":6204,"Ġgelebt":6205,"Ġhallo":6206,"Ġgegenseitig":6207,"Ġkognitiv":6208,"Ġfrancisco":6209,"app":6210,"zesse":6211,"ender":6212,"Ġnasa":6213,"Ġmanchen":6214,"tionen":6215,"erne":6216,"Ġmengen":6217,"Ġunterrichten":6218,"Ġzweifel":6219,"ringe":6220,"Ġheisst":6221,"Ġgrundlage":6222,"ĠdrÃ¼cken":6223,"ĠverÃ¤nderte":6224,"Ġwirtschaftsw":6225,"Ġfehl":6226,"Ġsicherheits":6227,"sprozess":6228,"Ġdigitale":6229,"Ġwechseln":6230,"ĠgrÃ¼ne":6231,"Ġpaul":6232,"ĠerhÃ¶hen":6233,"Ġakzeptieren":6234,"Ġpakistan":6235,"ael":6236,"gelt":6237,"Ġair":6238,"ichern":6239,"Ġgre":6240,"ĠbÃ¤":6241,"Ġkabel":6242,"ahnen":6243,"Ġcl":6244,"Ġabsicht":6245,"Ġeinfaches":6246,"Ġgewiss":6247,"gert":6248,"Ġglaubte":6249,"Ġerfindung":6250,"ĠverstÃ¤r":6251,"ĠbrÃ¼cke":6252,"ĠweiÃŁt":6253,"sprach":6254,"ica":6255,"Ġafrikanischen":6256,"ĠgroÃŁartigen":6257,"ĠkÃ¼ste":6258,"Ġneurow":6259,"Ġblaue":6260,"Ġverwandelt":6261,"Ġgerechtigkeit":6262,"Ġsympt":6263,"Ġfasziniert":6264,"Ġlokale":6265,"Ġstatistiken":6266,"Ġhunger":6267,"Ġtrinken":6268,"beln":6269,"inken":6270,"ĠwÃ¼s":6271,"asie":6272,"ores":6273,"Ġpra":6274,"Ġlass":6275,"Ġrum":6276,"Ġstahl":6277,"Ġmanip":6278,"Ġausb":6279,"Ġkonzep":6280,"Ġabl":6281,"Ġ23":6282,"ruh":6283,"gesamt":6284,"lernen":6285,"Ġzeigten":6286,"Ġteilweise":6287,"Ġfunktionierte":6288,"ĠgedÃ¤chtnis":6289,"Ġmomente":6290,"Ġoffenbar":6291,"Ġunglaublichen":6292,"Ġtrocken":6293,"Ġanstelle":6294,"Ġwertvoll":6295,"Ġgesamt":6296,"Ġfarb":6297,"ĠaktivitÃ¤ten":6298,"Ġmedizinischen":6299,"Ġkrimin":6300,"ĠsÃ¼dafrika":6301,"Ġerdbe":6302,"Ġjahrzehnten":6303,"Ġhyper":6304,"Ġerweitern":6305,"Ġkenia":6306,"-,":6307,"cin":6308,"dollar":6309,"inst":6310,"Ġgig":6311,"Ġeinstellung":6312,"Ġnase":6313,"Ġfroh":6314,"Ġanhand":6315,"Ġanerken":6316,"Ġversp":6317,"Ġaufbau":6318,"ĠÃ¼berqu":6319,"Ġgesichter":6320,"Ġvorder":6321,"spar":6322,"ĠgewÃ¤hlt":6323,"uls":6324,"adel":6325,"ĠgemÃ¤l":6326,"Ġblatt":6327,"rÃ¤ume":6328,"Ġinnovationen":6329,"arbeitung":6330,"Ġterrorismus":6331,"ĠÃ¼berraschend":6332,"Ġspektrum":6333,"Ġliteratur":6334,"bungen":6335,"bÃ¼cher":6336,"kul":6337,"Ġstern":6338,"Ġhalt":6339,"Ġkart":6340,"alte":6341,"acher":6342,"ĠtÃ¤u":6343,"Ġleiten":6344,"Ġration":6345,"Ġbezeichnen":6346,"ĠschÃ¤tz":6347,"Ġdamen":6348,"Ġausges":6349,"Ġvorteile":6350,"Ġrealen":6351,"Ġrelev":6352,"tigten":6353,"Ġgeschw":6354,"Ġgeschlossen":6355,"Ġzeitung":6356,"Ġgebiete":6357,"Ã¤ufer":6358,"zipl":6359,"Ġmeister":6360,"prozess":6361,"Ġbekannten":6362,"Ġbedarf":6363,"Ġbaute":6364,"Ġveranst":6365,"Ġskulpt":6366,"Ġjener":6367,"Ġtransport":6368,"behÃ¶r":6369,"Ġsignale":6370,"ĠwÃ¼ste":6371,"Ġereignis":6372,"ĠursprÃ¼nglich":6373,"Ġrussland":6374,"Ġautomatisch":6375,"Ġbillionen":6376,"Ġzauber":6377,"Ġkonfron":6378,"biert":6379,"ging":6380,"tal":6381,"vo":6382,"zten":6383,"Ġalex":6384,"ĠnÃ¤hr":6385,"Ã¤ft":6386,"Ġlanden":6387,"ĠlÃ¤nd":6388,"Ġjames":6389,"Ġschritte":6390,"Ġstir":6391,"Ġlektion":6392,"ĠgenÃ¼":6393,"Ã¼he":6394,"Ġwirkung":6395,"gerung":6396,"Ġsteve":6397,"ĠbrÃ¼":6398,"bilder":6399,"Ġ600":6400,"kontr":6401,"sÃ¤tze":6402,"Ġmerken":6403,"freund":6404,"Ġspeziellen":6405,"Ġinnere":6406,"punkte":6407,"zz":6408,"Ġwach":6409,"ĠgÃ¶":6410,"ĠfÃ¤hrt":6411,"tend":6412,"ĠzusÃ¤tzlich":6413,"Ġtren":6414,"ehung":6415,"recken":6416,"bet":6417,"ikt":6418,"mensch":6419,"menge":6420,"Ġunterhaltung":6421,"Ġzweimal":6422,"Ġgebraucht":6423,"dienst":6424,"drÃ¼ckt":6425,"Ġdipl":6426,"Ġfalschen":6427,"Ġsternen":6428,"stoffen":6429,"Ġansieht":6430,"Ġfortschritte":6431,"tausen":6432,"muster":6433,"Ġ2010":6434,"Ġill":6435,"ĠsÃ¤uge":6436,"Ġbehaupten":6437,"wechsel":6438,"cyc":6439,"Ġkirche":6440,"Ġorigin":6441,"fÃ¶rm":6442,"Ġelefanten":6443,"Ġerlebnis":6444,"Ġchicago":6445,"eten":6446,"nÃ¼tz":6447,"Ġath":6448,"Ġhu":6449,"Ġkoch":6450,"ĠkÃ¼hl":6451,"hrt":6452,"achter":6453,"Ġbekomme":6454,"ĠstÃ¼r":6455,"Ġlebe":6456,"Ġums":6457,"ams":6458,"Ġdargestellt":6459,"Ġlebendig":6460,"ĠdurchfÃ¼hren":6461,"ĠgewÃ¶h":6462,"Ġgelie":6463,"Ġwelten":6464,"Ġgegenwart":6465,"Ġworan":6466,"Ġ194":6467,"Ġanfing":6468,"Ġkorre":6469,"Ġrufen":6470,"Ġinteressantes":6471,"Ġkostenlos":6472,"Ġshow":6473,"Ġperfekte":6474,"Ġwebseite":6475,"Ġbiologische":6476,"Ġdauerte":6477,"Ġsoweit":6478,"gesellschaft":6479,"Ġnukle":6480,"Ġaufgewachsen":6481,"Ġgottes":6482,"dlichen":6483,"hung":6484,"rel":6485,"richtet":6486,"soren":6487,"ied":6488,"ĠsÃ¤":6489,"iche":6490,"Ġmoch":6491,"Ġmio":6492,"Ġimmun":6493,"esie":6494,"ĠlÃ¼gen":6495,"andid":6496,"Ã¶nt":6497,"lischen":6498,"Ġuntersch":6499,"Ġhinunter":6500,"sterben":6501,"ĠfÃ¼hrer":6502,"Ġmarket":6503,"Ġfolie":6504,"ĠglÃ¼cklicherweise":6505,"gangs":6506,"Ġ[\"":6507,"Ġkapitel":6508,"Ġsorg":6509,"Ġtransform":6510,"Ġvorstellungen":6511,"Ġgeburtstag":6512,"Ġuntersuchung":6513,"pflanzen":6514,"Ġangeles":6515,"Ġnigeria":6516,"Ġteenager":6517,"bom":6518,"ktiver":6519,"pos":6520,"Ġseht":6521,"Ġgal":6522,"ĠvÃ¶lker":6523,"Ġhing":6524,"leb":6525,"Ġschen":6526,"Ġokt":6527,"Ġohren":6528,"Ġumher":6529,"amour":6530,"ney":6531,"Ġchancen":6532,"bstoff":6533,"gelassen":6534,"probieren":6535,"Ġverlang":6536,"ĠfÃ¼hrten":6537,"Ġgemeinsamen":6538,"ĠlÃ¶cher":6539,"Ġfingen":6540,"drÃ¼ck":6541,"Ġverglichen":6542,"Ġafrikas":6543,"Ġerneuer":6544,"Ġbeobachte":6545,"Ġpflege":6546,"Ġsichtbar":6547,"Ġtrick":6548,"Ġweshalb":6549,"Ġprinzipien":6550,"azon":6551,"Ġprofession":6552,"Ġresultat":6553,"Ġmetapher":6554,"ech":6555,"krÃ¤fte":6556,"Ġsing":6557,"Ġflex":6558,"urce":6559,"Ġgeg":6560,"Ġauff":6561,"isierung":6562,"Ġwieviel":6563,"Ġbeibringen":6564,"stechn":6565,"Ġmichael":6566,"Ġcom":6567,"vert":6568,"tive":6569,"metho":6570,"Ġverbrechen":6571,"ĠberÃ¼ck":6572,"quelle":6573,"Ġeinzeln":6574,"Ġgemeinschaften":6575,"Ġquer":6576,"Ġhey":6577,"ĠbezÃ¼":6578,"Ġverschwunden":6579,"Ġschicksal":6580,"produktion":6581,"Ġstoppen":6582,"Ġchinesische":6583,"leistungen":6584,"Ġsogenannte":6585,"Ġmicro":6586,"Ġzehnt":6587,"fung":6588,"komp":6589,"phen":6590,"ses":6591,"tÃ¤u":6592,"uhr":6593,"zum":6594,"une":6595,"Ġap":6596,"ĠgÃ¼nst":6597,"Ġip":6598,"Ġnar":6599,"Ġannahme":6600,"urz":6601,"Ġtreiben":6602,"ĠrÃ¤ume":6603,"Ġbedien":6604,"Ġleh":6605,"Ġspann":6606,"Ġunteren":6607,"tritt":6608,"tierung":6609,"zial":6610,"ĠglÃ¼h":6611,"Ġtrafen":6612,"Ġstarben":6613,"nommen":6614,"zeigen":6615,"Ġorganisieren":6616,"spiegel":6617,"Ġbemerkte":6618,"Ġphysikal":6619,"Ġkanada":6620,"Ġmoralische":6621,"ĠprÃ¤sentation":6622,"Ġmittlerweile":6623,"oxid":6624,"Ġtrug":6625,"ĠmerkwÃ¼r":6626,"Ġbundes":6627,"ĠgenÃ¼gend":6628,"azin":6629,"king":6630,"kla":6631,"utern":6632,"vater":6633,"Ġdumm":6634,"Ġsar":6635,"Ġsamen":6636,"Ġeli":6637,"Ġmisch":6638,"Ġunfall":6639,"Ġunmittel":6640,"ĠbÃ¶se":6641,"ĠhÃ¶l":6642,"Ġhielten":6643,"Ġlab":6644,"Ġstan":6645,"andt":6646,"Ġrett":6647,"Ġarz":6648,"Ġdarstellung":6649,"Ġalltag":6650,"Ġabh":6651,"Ġbesorgt":6652,"icken":6653,"Ġchip":6654,"Ã¼hrung":6655,"Ġgebrochen":6656,"Ġglamour":6657,"ohnt":6658,"reiche":6659,"Ġwenigstens":6660,"Ġbeeindru":6661,"Ġkomplexen":6662,"Ġentscheidend":6663,"smod":6664,"ĠmÃ¤nnchen":6665,"Ġsorge":6666,"Ġjahrzehnte":6667,"Ġgeholfen":6668,"comp":6669,"fliegen":6670,"ymp":6671,"schm":6672,"schriften":6673,"Ã¶ser":6674,"itation":6675,"Ġann":6676,"Ġtanzen":6677,"Ġost":6678,"Ġausger":6679,"Ġausser":6680,"euert":6681,"Ġdarstellt":6682,"Ġamazon":6683,"Ġener":6684,"Ġzusammenarbeiten":6685,"Ġregionen":6686,"Ġphase":6687,"Ġworum":6688,"Ġinsgesamt":6689,"Ġbekannte":6690,"ordin":6691,"ĠÃ¶ffentlich":6692,"ografie":6693,"Ġnutzung":6694,"Ġlangsamer":6695,"Ġantwortete":6696,"ĠhÃ¶rten":6697,"Ġkonzentriert":6698,"Ġnachhaltigkeit":6699,"Ġvorstellungskraft":6700,"leistung":6701,"ĠgenieÃŁen":6702,"Ġwikipe":6703,"erte":6704,"Ġaktion":6705,"stÃ¼cke":6706,"Ġbla":6707,"Ġnoten":6708,"Ġnannten":6709,"Ġkalt":6710,"Ġwirken":6711,"gegangen":6712,"Ġerhe":6713,"ĠrÃ¶":6714,"Ġbeachten":6715,"Ġbezahl":6716,"Ġausstellung":6717,"Ġspenden":6718,"Ã¶rtlich":6719,"Ġkonserv":6720,"Ġ22":6721,"ranche":6722,"Ġversagen":6723,"zenz":6724,"gebiet":6725,"Ġschlei":6726,"geschwindigkeit":6727,"Ġoffenen":6728,"Ġparis":6729,"Ġhilfs":6730,"Ġ2007":6731,"Ġbetreiben":6732,"Ġmusiker":6733,"Ġfehlt":6734,"Ġstrand":6735,"leib":6736,"Ġprogrammieren":6737,"Ġschweden":6738,"Ġtraurig":6739,"winkel":6740,"Ġtreib":6741,"Ġbetrieben":6742,"Ġnervenz":6743,"ĠmÃ¤rkte":6744,"Ġasien":6745,"ĠbezÃ¼glich":6746,"dieren":6747,"here":6748,"krise":6749,"ym":6750,"Ġmart":6751,"onien":6752,"Ġaufgere":6753,"ison":6754,"Ġausgesetzt":6755,"Ġweis":6756,"Ġnachged":6757,"Ġenthalten":6758,"halts":6759,"mitglie":6760,"Ã¤ltigen":6761,"Ġzusammenzu":6762,"ĠtatsÃ¤ch":6763,"plant":6764,"Ġerneut":6765,"Ġmagie":6766,"systems":6767,"holz":6768,"Ġfolgenden":6769,"Ġerkannt":6770,"ĠtrÃ¤umen":6771,"ĠverÃ¶ffentlichen":6772,"Ġinspirieren":6773,"zwungen":6774,"Ġregierungs":6775,"ĠeinschrÃ¤n":6776,"Ġantibio":6777,"Ġversteckt":6778,"Ġhoriz":6779,"Ġklassenzimmer":6780,"Ġkampagne":6781,"Ġgrippe":6782,"aber":6783,"ep":6784,"hlung":6785,"kap":6786,"Ġwh":6787,"Ġiphone":6788,"Ġfutter":6789,"Ġanony":6790,"ismen":6791,"ĠfÃ¼rs":6792,"Ġgehei":6793,"Ġabfall":6794,"Ġ27":6795,"Ã¼ssen":6796,"mittag":6797,"Ġhinauf":6798,"Ġheilen":6799,"Ġstim":6800,"Ġquellen":6801,"Ġboston":6802,"Ġangem":6803,"schneiden":6804,"Ġtiefen":6805,"Ġdrittens":6806,"Ġbasierend":6807,"linien":6808,"rÃ¼stung":6809,"kehrt":6810,"Ġschreibt":6811,"athie":6812,"Ġdetail":6813,"Ġerweiter":6814,"Ġereignisse":6815,"Ġfremden":6816,"ĠgerÃ¤usche":6817,"Ġumfassen":6818,"Ġbeteiligt":6819,"Ġdoppelt":6820,"Ġfokus":6821,"griffen":6822,"Ġbegegnen":6823,"Ġfrankreich":6824,"Ġwettbewerb":6825,"Ġdebatte":6826,"Ġcyber":6827,"Ġwikipedia":6828,"Ġnachgedacht":6829,"kÃ¼r":6830,"uar":6831,"Ġ$":6832,"ĠdÃ¶r":6833,"Ġunwahr":6834,"Ġnir":6835,"Ġwirkt":6836,"Ġpin":6837,"Ġverdient":6838,"Ġline":6839,"Ġbewirken":6840,"Ġaufnahmen":6841,"Ġvoneinander":6842,"Ġ1000":6843,"Ġunterricht":6844,"Ġcan":6845,"Ġwovon":6846,"eilung":6847,"Ã¤lter":6848,"aufnahme":6849,"Ġletzter":6850,"wiesen":6851,"Ġdire":6852,"Ġerhol":6853,"Ġruhe":6854,"Ġalters":6855,"Ġsuchte":6856,"Ġgolden":6857,"Ġinformations":6858,"Ġvergangenen":6859,"ĠhinzufÃ¼gen":6860,"Ġstreben":6861,"Ġunerwar":6862,"Ġgekauft":6863,"ĠernÃ¤hrung":6864,"ĠjÃ¼ng":6865,"Ġfokuss":6866,"ĠspÃ¼ren":6867,"Ġrestaurant":6868,"Ġschnee":6869,"ollywood":6870,"Ġmarketing":6871,"aa":6872,"wald":6873,"yr":6874,"Ġabt":6875,"Ġeu":6876,"Ġhir":6877,"Ġinzwischen":6878,"Ġderselben":6879,"tien":6880,"Ġverur":6881,"Ġprogramme":6882,"Ġvielmehr":6883,"Ġlebenden":6884,"werken":6885,"Ġexpl":6886,"Ġirgendeine":6887,"Ġmini":6888,"Ġspielzeug":6889,"Ġuniversity":6890,"Ġkindes":6891,"Ġhinterlassen":6892,"Ġglobal":6893,"Ġheben":6894,"Ġdeiner":6895,"ĠbevÃ¶lkerungs":6896,"ueller":6897,"Ġsonnenlicht":6898,"Ġreduziert":6899,"Ġspeziell":6900,"Ġscheitern":6901,"Ġingenieur":6902,"oberflÃ¤che":6903,"Ġargument":6904,"Ġentfernung":6905,"Ġabgesehen":6906,"Ġreagiert":6907,"Ġstatus":6908,"Ġwahnsinn":6909,"Ġgrundlegend":6910,"ieinhalb":6911,"ĠanfÃ¼hrer":6912,"bro":6913,"bringt":6914,"fi":6915,"fischen":6916,"ku":6917,"enter":6918,"Ġdienen":6919,"Ġunvor":6920,"Ġgps":6921,"Ã¼tter":6922,"Ġinfe":6923,"Ġangen":6924,"Ġlad":6925,"Ġbeenden":6926,"ĠschÃ¤":6927,"Ġschicht":6928,"ĠstÃ¤":6929,"Ġgesamm":6930,"Ġsper":6931,"ience":6932,"Ġunterwegs":6933,"Ġgrosse":6934,"Ã¼nden":6935,"weich":6936,"werten":6937,"mails":6938,"Ġglaubten":6939,"Ġteilnehmer":6940,"Ġschwere":6941,"Ġhalf":6942,"Ġbeeindruck":6943,"Ġdeinem":6944,"Ġweltweiten":6945,"Ġanschaut":6946,"hof":6947,"bewusst":6948,"Ġarmee":6949,"ĠerhÃ¶ht":6950,"Ġarabischen":6951,"Ġletztlich":6952,"ĠdÃ¼":6953,"Ġmisst":6954,"eidet":6955,"Ġbahn":6956,"onent":6957,"leute":6958,"Ġpy":6959,"Ġergeben":6960,"Ġangesch":6961,"ierungs":6962,"oler":6963,"Ġjer":6964,"Ġscham":6965,"Ġschme":6966,"bekommen":6967,"Ġrek":6968,"omas":6969,"abl":6970,"Ġmehreren":6971,"Ã¼nder":6972,"Ġzeitraum":6973,"Ġmeere":6974,"Ġversorgen":6975,"stero":6976,"Ġgelang":6977,"Ã¤lte":6978,"ĠflÃ¤che":6979,"okay":6980,"Ġhandys":6981,"Ġschlacht":6982,"Ġcomputern":6983,"Ġverfahren":6984,"Ġ2005":6985,"Ġschwierige":6986,"Ġniemanden":6987,"ĠkÃ¤mpf":6988,"Ġrepublik":6989,"ĠpersÃ¶nlichkeit":6990,"ĠÃ¤rm":6991,"Ġmikroskop":6992,"Ġgesichts":6993,"Ġkontrolliert":6994,"Ġplanen":6995,"Ġkameras":6996,"Ġraub":6997,"Ġpotenzial":6998,"Ġfantastische":6999,"Ġproteine":7000,"sammlung":7001,"Ġdepression":7002,"Ġgetrennt":7003,"Ġchaos":7004,"ĠbekÃ¤mpfen":7005,"Ġzunehmend":7006,"Ġgeschenk":7007,"ĠverblÃ¼ffen":7008,"Ġaspekte":7009,"Ġanscheinend":7010,"Ġaufgeregt":7011,"col":7012,"such":7013,"xi":7014,"Ġdichte":7015,"unruh":7016,"station":7017,"eigt":7018,"ĠhÃ¤ngen":7019,"hrer":7020,"Ġbeunruh":7021,"ĠalltÃ¤":7022,"Ġerfol":7023,"Ġflor":7024,"ĠflÃ¤chen":7025,"Ġeinzus":7026,"Ġwichtiges":7027,"same":7028,"Ġverliert":7029,"Ġpho":7030,"Ġgaran":7031,"fÃ¼hrt":7032,"Ġkrieges":7033,"Ġdichter":7034,"Ġschauten":7035,"Ġkrankenh":7036,"ĠzerstÃ¶rung":7037,"ĠÃ¤lteren":7038,"Ġdraht":7039,"Ġethn":7040,"Ġirgendwel":7041,"Ġpresse":7042,"Ġwiederholen":7043,"Ġinstrumente":7044,"pflanz":7045,"Ġkleidung":7046,"Ġwomit":7047,"Ġkateg":7048,"Ġneurowissenschaft":7049,"eg":7050,"handel":7051,"lesen":7052,"Ġwem":7053,"Ġeingeb":7054,"Ġeingeladen":7055,"ĠhÃ¼h":7056,"ĠhieÃŁ":7057,"arma":7058,"schi":7059,"ory":7060,"Ġschach":7061,"ehrt":7062,"Ġvorhin":7063,"Ġentsp":7064,"vermÃ¶gen":7065,"Ġwow":7066,"Ġerfassen":7067,"Ġkredit":7068,"Ġbedeutete":7069,"Ġbesonderen":7070,"Ġvermute":7071,"mpft":7072,"Ġruf":7073,"Ġliber":7074,"Ġmittels":7075,"ĠstÃ¼cke":7076,"Ġnebenbei":7077,"Ġsichtweise":7078,"Ġandererseits":7079,"Ġdunklen":7080,"Ġelektrische":7081,"Ġ250":7082,"Ġernsthaft":7083,"Ġfeiern":7084,"Ġkonsequenzen":7085,"Ġlangweilig":7086,"Ġlebenserwart":7087,"Ġerdbeben":7088,"ĠgemÃ¤lde":7089,"car":7090,"kÃ¶rper":7091,"kÃ¼ste":7092,"za":7093,"Ġult":7094,"Ġdh":7095,"Ġakte":7096,"Ġungeh":7097,"Ġbg":7098,"Ġbord":7099,"Ġimm":7100,"Ġzy":7101,"Ã¤sser":7102,"gener":7103,"elang":7104,"tic":7105,"Ġerb":7106,"Ġanpassen":7107,"Ġtaschen":7108,"Ġbeu":7109,"Ġschalt":7110,"Ġvorsichtig":7111,"Ġspan":7112,"Ġgeschma":7113,"riffen":7114,"obel":7115,"Ġbegreifen":7116,"sterblichkeit":7117,"ward":7118,"Ġdecke":7119,"Ġschlussen":7120,"Ġdiabe":7121,"Ġdimensionen":7122,"ĠhÃ¶here":7123,"Ġwunderbaren":7124,"Ġwirtschafts":7125,"Ġangeht":7126,"ĠerwÃ¤r":7127,"Ġkriege":7128,"Ġfaktor":7129,"Ġabente":7130,"ĠÃ¤ra":7131,"Ġinspiration":7132,"Ġgerettet":7133,"Ġwachstums":7134,"Ġverursachen":7135,"Ġwinzig":7136,"ĠflÃ¼gel":7137,"ĠhÃ¶chst":7138,"Ġdokumen":7139,"Ġbemerkenswert":7140,"Ġerwartungen":7141,"Ġschlussendlich":7142,"ci":7143,"pri":7144,"rang":7145,"Ġdicht":7146,"Ġwid":7147,"Ġastero":7148,"andern":7149,"Ġbang":7150,"Ã¼ge":7151,"Ġfau":7152,"Ġpollen":7153,"Ġverde":7154,"Ġtherap":7155,"Ġlate":7156,"Ġjuni":7157,"Ġbezeichnet":7158,"Ġlegt":7159,"Ġleuchten":7160,"Ġmachst":7161,"Ġmeth":7162,"Ġdreidimension":7163,"Ġmode":7164,"Ġkurve":7165,"Ġbox":7166,"Ġrobert":7167,"Ġanstieg":7168,"ĠÃ¤hnliches":7169,"ĠgebÃ¤uden":7170,"Ġrichtungen":7171,"Ġgenetische":7172,"Ġinvestiert":7173,"sproble":7174,"Ġentdeckungen":7175,"stuhl":7176,"Ġphysiker":7177,"Ġverbreitung":7178,"viele":7179,"Ġreaktionen":7180,"Ġingenieure":7181,"Ġeigentliche":7182,"Ġumzugehen":7183,"ĠverrÃ¼ckte":7184,"schlÃ¤ge":7185,"Ġchirurg":7186,"Ġalgorithmen":7187,"Ġknapp":7188,"Ġlatein":7189,"gÃ¤nger":7190,"nchen":7191,"xis":7192,"zahlen":7193,"Ġghan":7194,"ĠeingefÃ¼hrt":7195,"Ġwenden":7196,"ats":7197,"Ġrezept":7198,"Ġcm":7199,"tru":7200,"obi":7201,"ĠgerÃ¼":7202,"Ġgelassen":7203,"gerÃ¤te":7204,"Ġwahrnehmen":7205,"Ġauton":7206,"Ġphant":7207,"Ġye":7208,"ĠschÃ¶nes":7209,"ics":7210,"Ġ2009":7211,"Ġchinesen":7212,"Ġsubst":7213,"Ġprior":7214,"leiter":7215,"ĠgeschÃ¤fte":7216,"Ġpsychologie":7217,"Ġteams":7218,"wissenschaften":7219,"Ġspezielle":7220,"ĠwÃ¼nschte":7221,"Ġgrundlegenden":7222,"zÃ¼ge":7223,"Ġvorbereitet":7224,"ĠÃ¤gypten":7225,"ĠÃ¼berraschung":7226,"Ġhorizont":7227,"dat":7228,"wel":7229,"Ġug":7230,"ief":7231,"Ġskelett":7232,"Ġmig":7233,"standen":7234,"eis":7235,"ĠkÃ¼n":7236,"Ġalpha":7237,"gekommen":7238,"Ġverlauf":7239,"Ġgezogen":7240,"Ġlar":7241,"Ġras":7242,"Ġmitnehmen":7243,"Ġherstellung":7244,"Ġtele":7245,"ots":7246,"Ġeigenschaft":7247,"ĠblÃ¤tter":7248,"Ġgegenden":7249,"Ġverwen":7250,"Ġmarken":7251,"Ġreihen":7252,"Ġstarken":7253,"Ġangriff":7254,"Ġwundervoll":7255,"Ġbevorzu":7256,"Ġkulturelle":7257,"Ġtheorien":7258,"Ġoberen":7259,"Ġfaktoren":7260,"Ġisland":7261,"Ġhundertt":7262,"Ġharte":7263,"Ġdefiniert":7264,"Ġmissb":7265,"Ġstreet":7266,"Ġhiggs":7267,"back":7268,"ĠlÃ¤cher":7269,"Ġeisen":7270,"Ġdokument":7271,"Ġmobilte":7272,"Ġbesuchte":7273,"Ġmuslim":7274,"Ġolymp":7275,"fot":7276,"messer":7277,"vort":7278,"Ġwahlen":7279,"Ġbrechen":7280,"irk":7281,"Ġfalten":7282,"gezogen":7283,"achung":7284,"Ġank":7285,"Ġanhalten":7286,"Ġtin":7287,"Ġausgeben":7288,"ĠÃ¼bert":7289,"Ġimpro":7290,"ĠspÃ¤ten":7291,"Ġrecyc":7292,"Ġbeides":7293,"reift":7294,"Ġcamp":7295,"Ġgrossen":7296,"Ġweltkrieg":7297,"Ġbesei":7298,"ruf":7299,"Ġpazi":7300,"Ġberge":7301,"ĠerfÃ¼llen":7302,"Ġleiter":7303,"Ġsprung":7304,"Ġschuhe":7305,"Ġbiom":7306,"Ġpolitisch":7307,"Ġafrikaner":7308,"Ġbeton":7309,"zeichnungen":7310,"Ġgeneral":7311,"Ġschulter":7312,"findet":7313,"Ġpartei":7314,"Ġzentrale":7315,"Ġberuh":7316,"Ġmetall":7317,"Ġterroristen":7318,"Ġthomas":7319,"ĠernÃ¤hren":7320,"Ġschlimmste":7321,"ĠauÃŁergewÃ¶hnlich":7322,"zÃ¼g":7323,"Ġdunkelheit":7324,"Ġberechnen":7325,"Ġflagge":7326,"ĠgemÃ¼se":7327,"Ġarzn":7328,"Ġweisheit":7329,"fand":7330,"rieren":7331,"Ġdon":7332,"Ġdist":7333,"int":7334,"iner":7335,"Ġvi":7336,"Ġvag":7337,"Ġniveau":7338,"Ã¼ter":7339,"denz":7340,"Ġbeherr":7341,"Ġdenselben":7342,"illen":7343,"Ġvorgehen":7344,"Ġweisen":7345,"ĠenttÃ¤u":7346,"Ġkommer":7347,"Ġcle":7348,"Ġkeines":7349,"verl":7350,"matik":7351,"gebÃ¤u":7352,"Ġtechnischen":7353,"Ġbrand":7354,"klasse":7355,"Ġschlug":7356,"Ġbefeh":7357,"Ã¼lle":7358,"soft":7359,"mittelt":7360,"Ġtauchen":7361,"Ġangelegen":7362,"Ġtheore":7363,"Ġinteressanten":7364,"stamm":7365,"ampe":7366,"Ġstudiert":7367,"Ġadam":7368,"Ġschmerzen":7369,"Ġexplos":7370,"Ġindischen":7371,"Ġnachbarschaft":7372,"Ġbatterie":7373,"Ġhumor":7374,"Ġbrustkrebs":7375,"Ġweibchen":7376,"ĠjÃ¼nger":7377,"Ġsms":7378,"Ġkaufte":7379,"Ġintensiv":7380,"Ġbedrohung":7381,"Ġspirit":7382,"computer":7383,"Ġantibiotika":7384,"Ġlebenserwartung":7385,"500":7386,"dach":7387,"dliche":7388,"ime":7389,"nÃ¼gen":7390,"politik":7391,"Ġneigen":7392,"schicht":7393,"auten":7394,"eins":7395,"Ġanzusehen":7396,"Ġhaiti":7397,"Ġauftreten":7398,"Ġdazwischen":7399,"Ġgriff":7400,"Ġkoordin":7401,"Ġcor":7402,"Ġcenter":7403,"Ã¤rm":7404,"Ġliebte":7405,"gespr":7406,"Ġsech":7407,"Ġobama":7408,"Ġgericht":7409,"ichtete":7410,"ĠzurÃ¼ckkehren":7411,"grenz":7412,"Ġdankbar":7413,"Ġlinke":7414,"Ġhoher":7415,"fÃ¼hrer":7416,"Ġsinnvoll":7417,"vileg":7418,"Ġrisk":7419,"Ġvisuelle":7420,"ĠÃ¤nderungen":7421,"Ġbrow":7422,"Ġanalyse":7423,"Ġkreativen":7424,"Ġdenkweise":7425,"Ġbetrieb":7426,"Ġinteressanterweise":7427,"Ġsogenannten":7428,"Ġprojekten":7429,"ĠzÃ¤hne":7430,"Ġanruf":7431,"stimmung":7432,"Ġruhig":7433,"funktion":7434,"Ġhypot":7435,"izient":7436,"Ġbibliothek":7437,"ĠlÃ¤ndlichen":7438,"Ã¶ntgen":7439,"fang":7440,"sun":7441,"wellen":7442,"anlage":7443,"Ġvierte":7444,"ĠzÃ¤hlt":7445,"arr":7446,"eme":7447,"emin":7448,"Ġhacker":7449,"Ġverschie":7450,"urop":7451,"Ġgezwungen":7452,"Ġschok":7453,"Ġschild":7454,"ratet":7455,"Ġwarte":7456,"ĠvorwÃ¤rts":7457,"Ġrecher":7458,"Ġbeigebracht":7459,"stete":7460,"rauen":7461,"ĠweltbevÃ¶lkerung":7462,"ota":7463,"Ġbesucht":7464,"Ġgemessen":7465,"ĠberÃ¼hren":7466,"Ã¤ufe":7467,"Ġweiterentwick":7468,"Ġbrun":7469,"Ġautom":7470,"Ġproblems":7471,"Ġwasserstoff":7472,"graben":7473,"ĠvergnÃ¼gen":7474,"Ġnahen":7475,"Ġ65":7476,"Ġhoffnungs":7477,"holt":7478,"gemacht":7479,"Ġnationale":7480,"Ġkatze":7481,"Ġchemische":7482,"Ġempfinden":7483,"mark":7484,"ĠerklÃ¤rte":7485,"ĠstÃ¤rk":7486,"Ġerforscht":7487,"Ġursprung":7488,"Ġexponent":7489,"ĠwÃ¼tend":7490,"Ġeinzigartig":7491,"Ġfettleib":7492,"Ġghana":7493,"dro":7494,"ftig":7495,"har":7496,"pu":7497,"wÃ¶rter":7498,"iness":7499,"stÃ¼r":7500,"Ġhitze":7501,"schten":7502,"Ġverdr":7503,"ierungen":7504,"Ġritu":7505,"Ġstap":7506,"Ġleer":7507,"Ġleber":7508,"Ġausmachen":7509,"ĠumstÃ¤nden":7510,"Ġgesunden":7511,"euern":7512,"omat":7513,"iens":7514,"Ã¶rtern":7515,"malen":7516,"Ġenkel":7517,"Ġhinblick":7518,"dizin":7519,"ĠgegenwÃ¤r":7520,"Ġbeschreibt":7521,"Ġfunktionen":7522,"Ġwissenschaftlern":7523,"geschÃ¤ft":7524,"ĠerhÃ¶h":7525,"cket":7526,"Ġrock":7527,"Ġdiszipl":7528,"Ġyorker":7529,"Ġknie":7530,"Ġgenetischen":7531,"ĠÃ¤ltere":7532,"Ġnachhaltig":7533,"Ġmyth":7534,"Ġverfolgt":7535,"ĠwÃ¼nsche":7536,"Ġkuh":7537,"ĠgesprÃ¤che":7538,"Ġseltsame":7539,"ĠberÃ¼hmt":7540,"Ġklavier":7541,"ĠprivatsphÃ¤re":7542,"Ġnegativ":7543,"tteln":7544,"Ġmosk":7545,"Ġjanuar":7546,"Ġkonfrontiert":7547,"Ġflexi":7548,"brech":7549,"dringen":7550,"ice":7551,"tin":7552,"erk":7553,"Ġsw":7554,"stisch":7555,"eiter":7556,"eihen":7557,"ĠhÃ¤ss":7558,"Ġzig":7559,"derm":7560,"Ġhaie":7561,"agte":7562,"Ġspinnen":7563,"menschen":7564,"ierenden":7565,"Ġcir":7566,"Ġkongo":7567,"Ġbesa":7568,"Ġinteraktiv":7569,"Ġgewann":7570,"Ġgeruch":7571,"Ġexakt":7572,"ohlen":7573,"ĠÃ¶fter":7574,"Ġzweit":7575,"Ġverwendung":7576,"Ġheiraten":7577,"klar":7578,"Ġverschiedener":7579,"Ġsaal":7580,"geschlagen":7581,"Ġsystemen":7582,"Ġpolio":7583,"Ġwundervolle":7584,"Ġgesundheitssystem":7585,"Ġprivileg":7586,"ĠprÃ¤z":7587,"zusp":7588,"Ġjenen":7589,"Ġinstin":7590,"Ġaussah":7591,"Ġfantasie":7592,"Ġanalog":7593,"Ġ1990":7594,"Ġidentifizieren":7595,"Ġprotein":7596,"Ġbiologischen":7597,"Ġtraining":7598,"maschinen":7599,"ĠwÃ¼nschen":7600,"ĠnervÃ¶s":7601,"Ġmitglieder":7602,"Ġanalysieren":7603,"firma":7604,"Ġoffiz":7605,"Ġsymptome":7606,"\"]":7607,"bur":7608,"ias":7609,"kra":7610,"vide":7611,"Ġast":7612,"Ġmama":7613,"Ġeinrichtungen":7614,"Ġkandid":7615,"schwe":7616,"Ġautismus":7617,"Ġangehen":7618,"Ġhai":7619,"ĠrÃ¶ntgen":7620,"Ġbewir":7621,"Ġumso":7622,"Ġumwand":7623,"ĠkÃ¶nne":7624,"ossi":7625,"Ġdurchzu":7626,"Ġwozu":7627,"Ġneuigkeiten":7628,"fordern":7629,"Ġbericht":7630,"Ġgebrau":7631,"Ġerfinder":7632,"Ġmalen":7633,"gefallen":7634,"hai":7635,"ĠglÃ¼cklicher":7636,"Ġsystems":7637,"Ġgestartet":7638,"âĢĿ":7639,"alisierte":7640,"ĠfrÃ¼he":7641,"Ġgrav":7642,"Ġkore":7643,"ĠstrÃ¶":7644,"Ġphysische":7645,"Ġnationalen":7646,"Ġinvestitionen":7647,"Ġschaue":7648,"Ġ120":7649,"Ġangesichts":7650,"osex":7651,"ĠhÃ¶chsten":7652,"Ġkugel":7653,"ĠvernÃ¼nf":7654,"melzen":7655,"Ġweibliche":7656,"gleichen":7657,"film":7658,"ĠwÃ¤rme":7659,"Ġbudd":7660,"Ġ1960":7661,"ĠwunderschÃ¶ne":7662,"Ġchirur":7663,"Ġstaub":7664,"Ġwirtschaftswachstum":7665,"Ġbeeindruckend":7666,"don":7667,"ift":7668,"lass":7669,"mÃ¤n":7670,"mern":7671,"uÃŁ":7672,"ya":7673,"Ġstet":7674,"Ġav":7675,"Ġbier":7676,"Ġhassen":7677,"schiff":7678,"Ġdiesmal":7679,"Ġgete":7680,"Ġlast":7681,"Ġlese":7682,"Ġstieg":7683,"Ġlevel":7684,"Ġproben":7685,"Ġgraus":7686,"ĠâĢľ":7687,"Ġmetern":7688,"Ġgelb":7689,"gebiete":7690,"Ġzusammenge":7691,"ĠzurÃ¼ckgehen":7692,"ions":7693,"Ġ32":7694,"Ġfront":7695,"Ġbip":7696,"Ġgedr":7697,"Ġbekann":7698,"Ġparalle":7699,"Ġbedro":7700,"ĠoberflÃ¤chen":7701,"own":7702,"Ġsensoren":7703,"Ġlernten":7704,"ĠregelmÃ¤ÃŁig":7705,"Ġstille":7706,"Ġaktuelle":7707,"Ġwinzigen":7708,"Ġdiagnost":7709,"Ġbelohnung":7710,"ĠwÃ¤lder":7711,"Ġepidemie":7712,"Ġmicrosoft":7713,"Ġnirgend":7714,"bein":7715,"ele":7716,"hop":7717,"wor":7718,"Ġmad":7719,"strÃ¤":7720,"Ġglet":7721,"Ġklick":7722,"Ġalko":7723,"Ġgeeig":7724,"Ã¼ren":7725,"Ġstich":7726,"Ġausnahme":7727,"andelt":7728,"ĠÃ¼bersetzen":7729,"Ġgesetzt":7730,"Ġvorn":7731,"schaffen":7732,"ĠvielfÃ¤l":7733,"Ġmuskel":7734,"Ġmuskeln":7735,"Ġ26":7736,"Ġ28":7737,"Ġsele":7738,"zentration":7739,"Ġschwach":7740,"Ġbibel":7741,"ĠsaÃŁen":7742,"ĠuniversitÃ¤ten":7743,"ischerweise":7744,"Ġkarik":7745,"Ġmusikal":7746,"Ġatomen":7747,"Ġenglischen":7748,"Ġdesigns":7749,"Ġreser":7750,"Ġkaputt":7751,"jÃ¤hriger":7752,"ĠstÃ¤rken":7753,"Ġtraditionelle":7754,"ĠtÃ¼rk":7755,"Ġschlechtes":7756,"Ġmathematiker":7757,"Ġscience":7758,"Ġmyster":7759,"ĠerwÃ¤hnen":7760,"ĠhÃ¶heren":7761,"Ġverstecken":7762,"Ġignorieren":7763,"Ġrechner":7764,"Ġsalz":7765,"Ġkapitalismus":7766,"Ġplattform":7767,"Ġhindurch":7768,"Ġstirbt":7769,"Ġungeheuer":7770,"Ġabenteuer":7771,"bie":7772,"eff":7773,"kw":7774,"mein":7775,"milli":7776,"sol":7777,"Ġmau":7778,"ĠmÃ¼n":7779,"statt":7780,"ĠgÃ¤n":7781,"anlagen":7782,"Ġeingehen":7783,"Ġvan":7784,"Ġhon":7785,"Ġkg":7786,"Ã¤gt":7787,"Ġther":7788,"ĠbefÃ¼r":7789,"Ġdame":7790,"Ġmanh":7791,"Ġvorschlag":7792,"Ġark":7793,"Ġprozesse":7794,"uchtet":7795,"Ġcart":7796,"Ã¤hen":7797,"Ġabgesch":7798,"Ġeinfachheit":7799,"chester":7800,"designer":7801,"Ġgleichgewicht":7802,"Ġschwanger":7803,"Ġbrill":7804,"Ġmamm":7805,"ĠgemeinnÃ¼tz":7806,"trags":7807,"Ġkreative":7808,"ĠhÃ¶hlen":7809,"Ġpolizi":7810,"Ġlehre":7811,"ĠgrÃ¼ndete":7812,"Ġfliegt":7813,"uchtung":7814,"Ġbelast":7815,"Ġbase":7816,"Ġjenem":7817,"Ġjenseits":7818,"Ġriesiges":7819,"stoÃŁen":7820,"Ġfahrzeug":7821,"staaten":7822,"ĠtrÃ¤nen":7823,"Ġelektrischen":7824,"ĠzerstÃ¶r":7825,"Ġstaats":7826,"Ġpeter":7827,"Ġkonflikte":7828,"Ġchinesischen":7829,"Ġirgendeinem":7830,"ĠÃ¶konomen":7831,"ĠtragÃ¶":7832,"Ġszene":7833,"Ġdrehte":7834,"Ġneugierig":7835,"Ġstudio":7836,"Ġentschlossen":7837,"Ġreparieren":7838,"Ġfrustr":7839,"Ġteleskop":7840,"Ġkomponenten":7841,"Ġangemessen":7842,"Ġexplod":7843,"ĠÃ¤rmsten":7844,"Ġdiabetes":7845,"Ġschokol":7846,"aff":7847,"gin":7848,"gÃ¤nge":7849,"ĠÃ¤t":7850,"Ġwut":7851,"Ġmak":7852,"stÃ¤d":7853,"steigen":7854,"Ġhoh":7855,"Ġky":7856,"ĠkÃ¶r":7857,"letz":7858,"Ġinklus":7859,"ora":7860,"Ġgeome":7861,"ckung":7862,"Ġvorgang":7863,"liste":7864,"Ã¤cher":7865,"Ġbildet":7866,"dio":7867,"gerufen":7868,"Ġsystema":7869,"kunst":7870,"Ġgeteilt":7871,"alisierten":7872,"Ġschwerer":7873,"Ġwohlbe":7874,"âĢľ.":7875,"Ġmedium":7876,"Ġfliege":7877,"Ġschwestern":7878,"Ġmoralischen":7879,"Ġnahezu":7880,"Ġbenutze":7881,"ĠfÃ¼ÃŁe":7882,"Ġbush":7883,"ĠprÃ¤sidenten":7884,"ĠbedÃ¼rfnis":7885,"Ġjoe":7886,"Ġkatastrophe":7887,"Ġdurchschnittlich":7888,"Ġdutzend":7889,"Ġreflek":7890,"Ġprototypen":7891,"Ġursache":7892,"Ġtransparenz":7893,"Ġweihnacht":7894,"Ġstanford":7895,"Ġtreibhaus":7896,"Ġalkohol":7897,"brochen":7898,"ham":7899,"itiert":7900,"kal":7901,"kind":7902,"sl":7903,"typ":7904,"enk":7905,"Ġsus":7906,"anal":7907,"Ġbob":7908,"Ġhob":7909,"Ġfossi":7910,"letzt":7911,"Ġinvol":7912,"ĠvermÃ¶gen":7913,"ĠlÃ¤ng":7914,"Ġren":7915,"isierte":7916,"Ġohr":7917,"Ġnachfrage":7918,"zustand":7919,"Ġlebende":7920,"rufen":7921,"Ġmeet":7922,"Ġkleinere":7923,"latz":7924,"Ġgebieten":7925,"Ġjack":7926,"Ġ36":7927,"Ġbrach":7928,"Ġ195":7929,"ĠauÃŁerorden":7930,"Ġspeicher":7931,"Ġorgane":7932,"Ġorganisiert":7933,"Ġorganismus":7934,"stration":7935,"ĠkÃ¼che":7936,"Ġehre":7937,"Ġvisu":7938,"Ġzugleich":7939,"ĠÃ¤nderte":7940,"ĠÃ¶ffnet":7941,"regierung":7942,"gehÃ¶r":7943,"Ġapple":7944,"Ġpotent":7945,"Ġmedikamenten":7946,"Ġechtes":7947,"Ġstrategien":7948,"Ġeffizienz":7949,"Ġchef":7950,"Ġfigur":7951,"Ġspannend":7952,"Ġpflanze":7953,"ack":7954,"gÃ¼l":7955,"hst":7956,"kinder":7957,"lant":7958,"wehr":7959,"steine":7960,"Ġvalle":7961,"Ġhard":7962,"Ã¼d":7963,"Ġfro":7964,"Ġinfiziert":7965,"achs":7966,"bend":7967,"ĠgeÃ¶ff":7968,"Ġbefr":7969,"reicht":7970,"verw":7971,"Ġneutr":7972,"Ġstammen":7973,"drÃ¼cke":7974,"mÃ¶gliche":7975,"phys":7976,"Ġfilmen":7977,"Ġfair":7978,"Ġschauspieler":7979,"Ġschickte":7980,"lefone":7981,"Ġabends":7982,"Ġschlimmsten":7983,"ĠhÃ¶hepunkt":7984,"Ġ1980":7985,"Ġmotivation":7986,"ministerium":7987,"Ġunsichtbar":7988,"Ġzentral":7989,"Ġphilosophie":7990,"Ġkommerziel":7991,"kÃ¶n":7992,"neu":7993,"prin":7994,"tn":7995,"yto":7996,"Ġ:":7997,"erz":7998,"Ġdum":7999,"Ġego":8000,"stil":8001,"Ġeinbe":8002,"tech":8003,"teste":8004,"Ġpreise":8005,"ĠverlieÃŁ":8006,"Ġverarbeiten":8007,"Ġjh":8008,"Ġjon":8009,"Ġausgehen":8010,"ike":8011,"reite":8012,"Ġgipfel":8013,"inger":8014,"Ġhingehen":8015,"Ġselbe":8016,"Ġwiederher":8017,"ologisch":8018,"Ġklingen":8019,"aufgaben":8020,"ĠzwÃ¶l":8021,"Ġtrat":8022,"Ġbiologen":8023,"grad":8024,"Ġmannes":8025,"Ġsozialer":8026,"Ġebenen":8027,"Ġausgest":8028,"Ġfeed":8029,"Ġfahrer":8030,"Ġkatzen":8031,"Ġehren":8032,"Ġverletzt":8033,"Ġemotionale":8034,"Ġbenutzten":8035,"Ġlogik":8036,"Ġkonsumenten":8037,"Ġwiederholt":8038,"Ġsetzten":8039,"Ġpopulation":8040,"Ġdiagnose":8041,"Ġknopf":8042,"Ġbegrenzt":8043,"Ġjeweils":8044,"ĠgewÃ¶hnt":8045,"Ġgesammelt":8046,"fo":8047,"Ġvul":8048,"Ã¼gel":8049,"Ġzurecht":8050,"eltern":8051,"Ġpum":8052,"Ġtalen":8053,"Ġrichten":8054,"ckel":8055,"ight":8056,"ĠausdrÃ¼cken":8057,"ĠumstÃ¤nde":8058,"ĠÃ¼berfl":8059,"Ġgesunde":8060,"Ġdesig":8061,"Ġnachdenkt":8062,"igend":8063,"utet":8064,"Ġhinsichtlich":8065,"Ġgefol":8066,"Ġheutige":8067,"ĠblÃ¶":8068,"quellen":8069,"Ġwahren":8070,"Ġteilnehmen":8071,"Ġbreit":8072,"Ġmenschlich":8073,"aku":8074,"Ġfreie":8075,"Ġ1950":8076,"ĠglÃ¼cks":8077,"Ġdient":8078,"Ġbesonderes":8079,"Ġunternehmens":8080,"ĠÃ¤hnlichen":8081,"Ġabsolute":8082,"Ġdaumen":8083,"Ġenormen":8084,"Ġpositiven":8085,"Ġverbesserung":8086,"park":8087,"ĠhÃ¶chste":8088,"Ġbeitragen":8089,"Ġkomplizierter":8090,"Ġbudget":8091,"ĠerÃ¶ffnet":8092,"Ġmitglied":8093,"Ġtoiletten":8094,"Ġdiskutieren":8095,"Ġcarto":8096,"bir":8097,"con":8098,"dungs":8099,"ii":8100,"kÃ¶":8101,"eng":8102,"ĠwÃ¤nde":8103,"stel":8104,"Ġgreifen":8105,"Ġkab":8106,"arden":8107,"gelegt":8108,"Ġversprechen":8109,"Ġversamm":8110,"Ġtasche":8111,"Ġbefest":8112,"Ġaufeinander":8113,"Ġausgaben":8114,"Ġvorgestellt":8115,"zukommen":8116,"anzig":8117,"Ġkonz":8118,"Ġkonst":8119,"Ġkeinem":8120,"Ġtee":8121,"pper":8122,"endes":8123,"Ġsektor":8124,"Ġversicher":8125,"Ġgeraten":8126,"dioxid":8127,"chnung":8128,"gebung":8129,"rÃ¤ften":8130,"Ġtechniken":8131,"Ġhandlungen":8132,"Ġverlor":8133,"klin":8134,"Ġwillkommen":8135,"Ġmarke":8136,"Ġfestgestellt":8137,"ĠfrÃ¼heren":8138,"Ġ2004":8139,"boot":8140,"Ġinternets":8141,"Ġerfolgs":8142,"ĠflieÃŁen":8143,"ĠflieÃŁt":8144,"Ġanwendungen":8145,"skraft":8146,"ĠmaÃŁnahmen":8147,"Ġprivaten":8148,"Ġserie":8149,"Ġlokal":8150,"Ġverteilen":8151,"Ġklinik":8152,"hiop":8153,"ausend":8154,"Ġschlagzei":8155,"krankheiten":8156,"archie":8157,"Ġresultate":8158,"Ġtexas":8159,"Ġdurchschnitts":8160,"Ġungleichheit":8161,"ĠjÃ¤hrlich":8162,"Ġpinguine":8163,"dis":8164,"felt":8165,"feln":8166,"fache":8167,"lament":8168,"put":8169,"Ġdru":8170,"ĠmÃ¤use":8171,"ani":8172,"ania":8173,"ĠbÃ¼chern":8174,"ĠfÃ¼llen":8175,"Ġaug":8176,"Ġverzer":8177,"Ġratten":8178,"Ġjur":8179,"amer":8180,"Ġwerten":8181,"Ġwerdet":8182,"Ġweltall":8183,"versen":8184,"Ã¼hen":8185,"Ġgeworfen":8186,"Ġfrag":8187,"chnitten":8188,"zenten":8189,"Ġforder":8190,"Ġtechnische":8191,"Ġeinziges":8192,"Ġschweine":8193,"Ġbrauch":8194,"Ġarbeitsp":8195,"Ġautob":8196,"Ġlebensraum":8197,"strÃ¶":8198,"ogenese":8199,"Ġoffene":8200,"Ġoffensicht":8201,"ogramm":8202,"Ġerhielten":8203,"ĠkÃ¼nstliche":8204,"Ġverhei":8205,"Ġentscheidende":8206,"Ġnutzer":8207,"Ġalternativen":8208,"Ġschreckliche":8209,"Ġbritischen":8210,"Ġtreibstoff":8211,"ĠentwicklungslÃ¤nder":8212,"heimer":8213,"Ġbomben":8214,"Ġflederm":8215,"Ġverliebt":8216,"Ġanbieten":8217,"Ġverpflich":8218,"Ġwurzeln":8219,"Ġbefreien":8220,"lehnen":8221,"Ġmochte":8222,"ĠsorgfÃ¤l":8223,"Ġirgendwelche":8224,"Ġstets":8225,"Ġgetestet":8226,"ati":8227,"ativer":8228,"baum":8229,"lag":8230,"leiten":8231,"uster":8232,"erf":8233,"unen":8234,"Ġelen":8235,"stÃ¤t":8236,"asien":8237,"Ġzuletzt":8238,"Ã¶ten":8239,"Ġaltes":8240,"Ġpand":8241,"Ġanweis":8242,"Ġhaare":8243,"Ġverteilung":8244,"Ġtritt":8245,"Ġlasse":8246,"Ġbeur":8247,"Ġwartet":8248,"Ġleb":8249,"Ġlegte":8250,"Ġausland":8251,"Ġspitzen":8252,"Ġprobieren":8253,"sper":8254,"Ġgrau":8255,"Ġvietn":8256,"ĠgroÃŁzÃ¼g":8257,"Ġneulich":8258,"Ġversorgung":8259,"Ġdanken":8260,"Ġflog":8261,"Ġplus":8262,"Ġschwanz":8263,"Ġbedeckt":8264,"Ġfrucht":8265,"Ġauthen":8266,"?\",":8267,"ĠanfÃ¤ngt":8268,"Ġgedichte":8269,"Ġbefassen":8270,"ĠbehÃ¶r":8271,"Ġdialog":8272,"Ã¼lern":8273,"Ġlux":8274,"Ġ2006":8275,"otto":8276,"vice":8277,"straÃŁe":8278,"Ġoption":8279,"Ġanwesen":8280,"stoÃŁ":8281,"Ġwilli":8282,"ampen":8283,"Ġprofit":8284,"ĠÃ¤nderung":8285,"ĠtÃ¤tig":8286,"Ġschreibe":8287,"Ġdrucker":8288,"ĠhÃ¼b":8289,"Ġwohlt":8290,"Ġbewegungs":8291,"ĠpalÃ¤st":8292,"Ġbemerkenswerte":8293,"ĠreprÃ¤sentiert":8294,"Ġsowje":8295,"Ġoxyto":8296,"Ġassozi":8297,"ĠÃ¼berlebt":8298,"Ġevent":8299,"Ġdurfte":8300,"Ġaustausch":8301,"gebÃ¤ude":8302,"Ġmanhatt":8303,"ĠÃ¤thiop":8304,"Ġvalley":8305,"ĠgeÃ¶ffnet":8306,"ammt":8307,"bru":8308,"ki":8309,"lÃ¤sst":8310,"ost":8311,"osen":8312,"tun":8313,"ĠÃ¶rt":8314,"ino":8315,"anc":8316,"ĠbÃ¶sen":8317,"Ġzen":8318,"Ġwirbel":8319,"ema":8320,"Ġpor":8321,"achel":8322,"Ġvernetz":8323,"Ġtherapie":8324,"Ġbewohner":8325,"Ġschiz":8326,"umb":8327,"Ġausbr":8328,"Ġausmacht":8329,"ĠausrÃ¼stung":8330,"Ġnachmittag":8331,"weist":8332,"spunkt":8333,"speich":8334,"spanne":8335,"steckt":8336,"lip":8337,"Ġunterwasser":8338,"Ġdurcheinander":8339,"verkehr":8340,"ĠgroÃŁvater":8341,"Ġgelangt":8342,"Ã¤lle":8343,"flu":8344,"Ġklug":8345,"Ġflach":8346,"Ġbenzin":8347,"garten":8348,"Ġinseln":8349,"ĠlÃ¶wen":8350,"ĠbetrÃ¤gt":8351,"Ġgedul":8352,"drehen":8353,"ĠschÃ¶ner":8354,"ĠÃ¼ben":8355,"Ġprima":8356,"Ġglobalisierung":8357,"gemeine":8358,"ĠgebÃ¤udes":8359,"Ġausgegeben":8360,"Ġphysischen":8361,"Ġrespe":8362,"strate":8363,"Ġverschwindet":8364,"Ġinvestition":8365,"Ġnoti":8366,"setzungen":8367,"Ġansichten":8368,"Ġrauchen":8369,"Ġkreiert":8370,"grÃ¶ÃŁe":8371,"Ġ1970":8372,"Ġschweigen":8373,"Ġachse":8374,"Ġehemann":8375,"Ġtoilette":8376,"Ġberechnungen":8377,"Ġgriechen":8378,"Ġraketen":8379,"Ġpraxis":8380,"appen":8381,"fabr":8382,"kern":8383,"lÃ¶sen":8384,"sitz":8385,"waffen":8386,"Ġgei":8387,"eifen":8388,"Ġblicken":8389,"team":8390,"tit":8391,"Ġpein":8392,"gewe":8393,"Ġgez":8394,"Ġlagen":8395,"Ġraten":8396,"sex":8397,"Ġspont":8398,"Ġentwar":8399,"uth":8400,"Ġherab":8401,"Ġunterhalb":8402,"Ġallgemeine":8403,"Ġenzy":8404,"mith":8405,"ologien":8406,"Ġorien":8407,"okra":8408,"ĠfrÃ¼hl":8409,"Ġsprich":8410,"Ġpharma":8411,"Ġpolar":8412,"Ġbetracht":8413,"Ġmagazin":8414,"Ġkulturellen":8415,"Ġtote":8416,"romos":8417,"Ġhunderten":8418,"Ġvideospiele":8419,"ĠkÃ¤fer":8420,"Ġweltweite":8421,"Ġonkel":8422,"ĠauszudrÃ¼cken":8423,"Ġempfind":8424,"ĠbÃ¼rgermeister":8425,"Ġaktuellen":8426,"Ġnachhaltige":8427,"Ġbedeutend":8428,"Ġthun":8429,"Ġgelehrt":8430,"Ġliebling":8431,"bedingungen":8432,"Ġwaffe":8433,"ĠausschlieÃŁlich":8434,"Ġerlangen":8435,"Ġmetaph":8436,"Ġkatastrophen":8437,"Ġoxford":8438,"Ġnano":8439,"ĠflÃ¼ssigkeit":8440,"Ġpferd":8441,"Ġsymmetrie":8442,"Ġverringern":8443,"ĠkÃ¼mmert":8444,"Ġkonzepte":8445,"Ġmartin":8446,"Ġuganda":8447,"Ġimprov":8448,"Ġarznei":8449,"Ġoxytocin":8450,"Ġrespek":8451,"fÃ¼hlen":8452,"griff":8453,"rÃ¶":8454,"sitzen":8455,"zung":8456,"Ġsmith":8457,"Ġever":8458,"stunden":8459,"Ġunschul":8460,"Ġbf":8461,"Ġvo":8462,"Ġhass":8463,"Ġnimm":8464,"Ġderer":8465,"Ġpm":8466,"Ġpre":8467,"Ġersetzt":8468,"bene":8469,"terien":8470,"Ġham":8471,"Ġschi":8472,"Ġschrieben":8473,"eitungen":8474,"reut":8475,"Ġsteig":8476,"Ġumgang":8477,"Ġumzusetzen":8478,"Ġwerbe":8479,"Ġunterhalten":8480,"verhÃ¤lt":8481,"rick":8482,"Ã¼ndung":8483,"Ġwirklichen":8484,"het":8485,"Ġnest":8486,"Ġselbstmord":8487,"Ġwiederauf":8488,"fleisch":8489,"Ġblasen":8490,"Ġentwurf":8491,"ĠzurÃ¼ckkommen":8492,"Ġbescheid":8493,"aps":8494,"Ġschnelle":8495,"ival":8496,"Ġstick":8497,"Ġbewahren":8498,"Ġlehrern":8499,"ordnet":8500,"Ġkomplexer":8501,"Ġerkunden":8502,"ĠÃ¤rger":8503,"Ġfahrzeuge":8504,"Ġerledigen":8505,"Ġvisuellen":8506,"wertung":8507,"Ġfelsen":8508,"Ġprivate":8509,"technik":8510,"Ġbenutzte":8511,"ĠhÃ¼gel":8512,"Ġvolks":8513,"Ġbeliebt":8514,"Ġangebot":8515,"ĠauÃŁergewÃ¶hnliche":8516,"Ġbehaupte":8517,"Ġmechanismus":8518,"Ġdoppel":8519,"Ġkontinu":8520,"Ġhomo":8521,"Ġverwirk":8522,"Ġszenar":8523,"Ġjournalisten":8524,"Ġlichter":8525,"knall":8526,"Ġehemal":8527,"ĠeuropÃ¤ischen":8528,"exper":8529,"ĠÃ¼berprÃ¼fen":8530,"Ġsymmetr":8531,"smodell":8532,"Ġgeschmack":8533,"Ġyeah":8534,"Ġmoskit":8535,"Ġinklusive":8536,"mor":8537,"wich":8538,"assten":8539,"Ġeinblick":8540,"Ġzogen":8541,"Ġkuchen":8542,"Ġkalten":8543,"Ġkub":8544,"denk":8545,"Ġanspr":8546,"decken":8547,"urr":8548,"ĠrÃ¼ber":8549,"Ġvorkommen":8550,"Ġsprit":8551,"Ġprob":8552,"Ġprobe":8553,"kep":8554,"Ġhinweise":8555,"ulÃ¤r":8556,"Ġgebrauch":8557,"Ġgleichung":8558,"Ġgegenstand":8559,"Ġirgendwas":8560,"Ã¤ndler":8561,"ĠlÃ¶st":8562,"Ġgestaltet":8563,"Ġamerikas":8564,"Ġparlament":8565,"konstru":8566,"Ġbetreten":8567,"Ġbetreffen":8568,"ĠÃ¼bung":8569,"Ġrichter":8570,"Ġengagement":8571,"Ġ700":8572,"Ġvereinten":8573,"Ġlife":8574,"Ġmathe":8575,"Ġfuhren":8576,"Ġreicher":8577,"Ġanfangs":8578,"Ġharm":8579,"Ġelektronen":8580,"Ġintelligente":8581,"Ġentdeckten":8582,"Ġblickwinkel":8583,"Ġtolles":8584,"azitÃ¤t":8585,"Ġcarol":8586,"ĠschieÃŁen":8587,"Ġstatistik":8588,"Ġfremde":8589,"Ġtrink":8590,"Ġargumen":8591,"Ġreichtum":8592,"probleme":8593,"Ġzufriedenheit":8594,"ĠzukÃ¼nftigen":8595,"ĠzukÃ¼nftige":8596,"Ġvirtuellen":8597,"Ġdramatisch":8598,"ĠungewÃ¶hnlich":8599,"instit":8600,"Ġclever":8601,"Ġcirca":8602,"Ġbaseball":8603,"Ġwohlbefinden":8604,"ĠzwÃ¶lf":8605,"Ġfeedback":8606,"--":8607,"gno":8608,"ms":8609,"mat":8610,"vern":8611,"Ġaqu":8612,"Ġeinges":8613,"Ġbig":8614,"Ġhollywood":8615,"Ġnadel":8616,"Ġkehr":8617,"Ġkul":8618,"irtschaft":8619,"schild":8620,"achse":8621,"Ġverpa":8622,"Ġtja":8623,"Ġgegessen":8624,"Ġlim":8625,"ĠjÃ¼d":8626,"Ġauftrag":8627,"ehmer":8628,"ĠausfÃ¼hren":8629,"Ġauswirkung":8630,"Ġwasch":8631,"ĠÃ¼bersetzt":8632,"Ġwerke":8633,"reitet":8634,"mengen":8635,"zugehen":8636,"Ġkonzentration":8637,"Ġliebt":8638,"Ġliebes":8639,"liebe":8640,"Ã¤ub":8641,"Ġblase":8642,"quem":8643,"ophren":8644,"Ġflasche":8645,"Ġfressen":8646,"version":8647,"Ġkomprom":8648,"tragung":8649,"Ġgesto":8650,"Ġtitan":8651,"Ġafrikanische":8652,"unterricht":8653,"Ġangetrieben":8654,"Ġ95":8655,"Ġanzugehen":8656,"Ġskal":8657,"stÃ¤ndige":8658,"tisieren":8659,"Ġempfeh":8660,"Ġverbrennen":8661,"sorgan":8662,"Ġprakti":8663,"Ġprotest":8664,"Ġwinzige":8665,"Ġschief":8666,"theorie":8667,"Ġpause":8668,"Ġnahrungsmittel":8669,"Ġschriftsteller":8670,"Ġkomplizierte":8671,"ĠreligiÃ¶sen":8672,"Ġmuslime":8673,"ĠgewissermaÃŁen":8674,"Ġaufstieg":8675,"Ġbehinder":8676,"katastrop":8677,"Ġpunkten":8678,"Ġoktober":8679,"ĠhÃ¶lle":8680,"Ġnervenzellen":8681,"Ġeinzusetzen":8682,"effekt":8683,"mungen":8684,"su":8685,"zheimer":8686,"Ġtel":8687,"ĠdÃ¤":8688,"Ġweh":8689,"Ġmah":8690,"Ġmahl":8691,"Ġmatt":8692,"Ġmauer":8693,"ĠbrÃ¤":8694,"ĠhÃ¤":8695,"Ġnobel":8696,"legal":8697,"genden":8698,"Ġalzheimer":8699,"Ġerrichten":8700,"Ġvermittelt":8701,"Ġgeograph":8702,"ĠlÃ¤rm":8703,"ĠÃ¼bers":8704,"ĠvortrÃ¤ge":8705,"Ġspur":8706,"spers":8707,"Ġherbei":8708,"Ġkontra":8709,"ingung":8710,"Ã¼nde":8711,"Ã¼ndet":8712,"Ġgewinnt":8713,"heber":8714,"ulationen":8715,"gesund":8716,"Ġgebildet":8717,"ĠgegenstÃ¤nde":8718,"Ġbron":8719,"ĠbeschÃ¼tzen":8720,"ĠheiÃŁe":8721,"hafen":8722,"andert":8723,"Ġwissenschaftlich":8724,"Ġfalle":8725,"Ġbedauern":8726,"Ġwohlhaben":8727,"Ġstandpunkt":8728,"Ġentstehung":8729,"tisiert":8730,"Ġprofitieren":8731,"Ġsuchten":8732,"Ġnutzten":8733,"Ã¤ufig":8734,"summen":8735,"uelles":8736,"Ġkilo":8737,"Ġeffizient":8738,"Ġregener":8739,"Ġillegal":8740,"Ġkohlendioxid":8741,"Ġumfang":8742,"Ġballon":8743,"krankungen":8744,"Ġrechnen":8745,"Ġindustrielle":8746,"Ġverwirr":8747,"Ġtempo":8748,"Ġliefert":8749,"Ġauftauchen":8750,"ridge":8751,"Ġhilfreich":8752,"ĠbÃ¤umen":8753,"ĠannÃ¤h":8754,"Ġunwahrscheinlich":8755,"Ġbedroht":8756,"Ġgletscher":8757,"ĠwohltÃ¤":8758,"Ġschizophren":8759,"ates":8760,"dauer":8761,"feh":8762,"fachen":8763,"kol":8764,"way":8765,"zo":8766,"zwei":8767,"erei":8768,"Ġare":8769,"Ġmist":8770,"Ġgand":8771,"Ġeingef":8772,"Ġeinheiten":8773,"ĠnÃ¶r":8774,"lehrer":8775,"Ġinhalte":8776,"orte":8777,"Ġverne":8778,"Ġvertik":8779,"Ġlkw":8780,"ĠschÃ¼lern":8781,"Ġoel":8782,"rew":8783,"Ġaussterben":8784,"ĠÃ¼bergang":8785,"elles":8786,"Ġunterhalt":8787,"Ġabgeschlossen":8788,"Ġwodurch":8789,"aller":8790,"mitt":8791,"mitten":8792,"Ġzeitungen":8793,"Ġchron":8794,"Ġobdach":8795,"Ġgeblieben":8796,"Ġweitermachen":8797,"Ġdez":8798,"Ġautoren":8799,"Ġtrage":8800,"ĠlebensqualitÃ¤t":8801,"block":8802,"ĠproduktivitÃ¤t":8803,"Ġgestaltung":8804,"ĠhÃ¶hle":8805,"Ġurknall":8806,"Ġ2001":8807,"Ġangekommen":8808,"Ġschwerkraft":8809,"Ġschwierigen":8810,"zeichnung":8811,"Ġ800":8812,"Ġruanda":8813,"Ġwertsch":8814,"Ġtode":8815,"Ġpocken":8816,"Ġgenetisch":8817,"Ġparty":8818,"Ġsexuelle":8819,"Ġsammlung":8820,"Ġsinken":8821,"Ġaufrecht":8822,"Ġaufmerksam":8823,"Ġdigital":8824,"Ġtrennen":8825,"Ġwestliche":8826,"ĠfÃ¼hlten":8827,"Ġunterscheidet":8828,"Ġtreibt":8829,"Ġaggress":8830,"Ġherangehen":8831,"Ġschmutz":8832,"groÃŁ":8833,"ĠschÃ¤del":8834,"Ġstiftung":8835,"Ġverbrauchen":8836,"ĠzusÃ¤tzliche":8837,"ĠkÃ¶pfen":8838,"Ġgreen":8839,"Ġillusion":8840,"Ġoriginal":8841,"Ġarbeitsplatz":8842,"Ġmanhattan":8843,"gu":8844,"iver":8845,"pend":8846,"roren":8847,"vember":8848,"wil":8849,"ielen":8850,"Ġsir":8851,"Ġsatur":8852,"Ġgast":8853,"anst":8854,"Ġnick":8855,"Ã¼ger":8856,"espe":8857,"Ġfischen":8858,"Ġfoss":8859,"schlieÃŁen":8860,"Ġinmitten":8861,"Ġwirft":8862,"timeter":8863,"Ġerfordert":8864,"deuten":8865,"Ġrio":8866,"Ġjim":8867,"rott":8868,"Ġwarm":8869,"Ġspuren":8870,"Ġcal":8871,"Ġkonvention":8872,"able":8873,"rix":8874,"wecken":8875,"Ġzweites":8876,"Ġverbraucht":8877,"pfern":8878,"Ġdreimal":8879,"Ġmenschlichkeit":8880,"ĠbeschÃ¤d":8881,"reichend":8882,"ĠerzÃ¤hlten":8883,"Ġmarsch":8884,"Ġ191":8885,"drÃ¼":8886,"Ġsoziales":8887,"Ġurheber":8888,"Ġflugzeuge":8889,"Ġposter":8890,"ĠkÃ¼sten":8891,"tisierung":8892,"Ġerinnerte":8893,"Ġbeinen":8894,"Ġdefinitiv":8895,"spezi":8896,"Ġblutgef":8897,"Ġinstitute":8898,"kampf":8899,"Ġbenutzer":8900,"Ġbeitrag":8901,"Ġsmart":8902,"Ġdepressionen":8903,"Ġconne":8904,"Ġfried":8905,"Ġtrends":8906,"Ġdemonstr":8907,"Ġfischerei":8908,"Ġkooperation":8909,"Ġsynthe":8910,"Ġgigan":8911,"Ġskulptur":8912,"Ġvagina":8913,"strÃ¤ger":8914,"binden":8915,"breite":8916,"ianischen":8917,"mot":8918,"rein":8919,"ulen":8920,"ville":8921,"wÃ¤l":8922,"Ġeuer":8923,"strom":8924,"Ġunangen":8925,"Ġbir":8926,"schel":8927,"deh":8928,"Ġtv":8929,"Ġtollen":8930,"Ġlob":8931,"Ġjagen":8932,"Ġschichten":8933,"reter":8934,"Ġstab":8935,"ĠstÃ¶rungen":8936,"Ã¶ne":8937,"agd":8938,"ĠÃ¼berzeug":8939,"ĠgesÃ¼nder":8940,"Ġvorles":8941,"iene":8942,"ĠâĢº":8943,"Ġallzu":8944,"Ġgift":8945,"Ġclo":8946,"Ġabstand":8947,"Ġwette":8948,"Ġbesp":8949,"Ġhinweis":8950,"Ġsec":8951,"last":8952,"alem":8953,"Ġeinziger":8954,"Ġschwein":8955,"Ġzwanzig":8956,"Ġhandels":8957,"Ġarbeitspl":8958,"Ġsicherstellen":8959,"Ġreiste":8960,"âĢ¹":8961,"Ġspeichern":8962,"Ġmagne":8963,"Ġatlan":8964,"Ġengag":8965,"Ġeuro":8966,"Ġphysi":8967,"Ġfolgender":8968,"ĠÃ¤rzten":8969,"Ġverdammt":8970,"Ġberufs":8971,"ĠtÃ¤tigkeit":8972,"jenige":8973,"Ġdinger":8974,"ĠfuÃŁball":8975,"Ġilleg":8976,"Ġkombinieren":8977,"Ġeinkommens":8978,"sichtigt":8979,"Ġniedriger":8980,"Ġdynamik":8981,"Ġerzielen":8982,"Ġdienstleistungen":8983,"Ġempathie":8984,"Ġknoten":8985,"firmen":8986,"Ġausgebildet":8987,"Ġfiguren":8988,"Ġintuition":8989,"Ġintuitiv":8990,"ĠschlieÃŁt":8991,"Ġlenken":8992,"Ġanerkennung":8993,"behÃ¶rde":8994,"Ġkorrekt":8995,"ĠglÃ¼hbir":8996,"Ġasteroiden":8997,"].":8998,"fanden":8999,"sÃ¤":9000,"tum":9001,"wol":9002,"yo":9003,"stÃ¶":9004,"Ġvolle":9005,"ĠhÃ¤r":9006,"Ġking":9007,"Ġkauft":9008,"Ã¼len":9009,"Ã¤ger":9010,"ĠzuhÃ¶r":9011,"Ġpc":9012,"Ġansprechen":9013,"Ġanzeichen":9014,"urer":9015,"Ġbeendet":9016,"ray":9017,"Ġleeren":9018,"Ġmandel":9019,"Ġvortrags":9020,"Ġreform":9021,"sprecher":9022,"steten":9023,"ĠgeschÃ¼tzt":9024,"Ġnochmals":9025,"medizin":9026,"ĠerfÃ¼llt":9027,"Ġwelle":9028,"ĠbestÃ¤u":9029,"Ġgleichheit":9030,"Ġkindersterblichkeit":9031,"Ġiron":9032,"Ġirre":9033,"zentren":9034,"Ġzwingen":9035,"Ġ33":9036,"...\"":9037,"prof":9038,"Ġmais":9039,"anders":9040,"blei":9041,"ĠbewÃ¤ltigen":9042,"Ġenergieverbrauch":9043,"Ġ2003":9044,"Ġhals":9045,"Ġ85":9046,"Ġfortgesch":9047,"Ġski":9048,"Ġflughafen":9049,"besitz":9050,"Ġchemischen":9051,"pedition":9052,"gemeinschaft":9053,"ĠÃ¤qu":9054,"ĠÃ¤sthe":9055,"Ġmolekul":9056,"Ġnordamerika":9057,"Ġappl":9058,"Ġgeburts":9059,"Ġanthrop":9060,"Ġdetaill":9061,"Ġweinen":9062,"ĠgewÃ¶hnlich":9063,"Ġbewerten":9064,"Ġvirtuelle":9065,"Ġstudium":9066,"lÃ¤ssig":9067,"Ġdreie":9068,"Ġbedienen":9069,"Ġpyram":9070,"Ġflorida":9071,"Ġpazifik":9072,"bon":9073,"din":9074,"diert":9075,"diger":9076,"ey":9077,"ftet":9078,"hh":9079,"hur":9080,"hlt":9081,"mil":9082,"nel":9083,"Ġulti":9084,"inson":9085,"unft":9086,"Ġapfel":9087,"Ġechter":9088,"eigung":9089,"Ġeinwohner":9090,"Ġbay":9091,"Ġib":9092,"Ġhut":9093,"Ġnon":9094,"ĠkÃ¶pfe":9095,"Ã¤nen":9096,"emie":9097,"Ġanre":9098,"Ġankommen":9099,"Ġbeziehen":9100,"Ġschall":9101,"umt":9102,"Ġaufgeben":9103,"illa":9104,"weiÃŁ":9105,"Ġgehalt":9106,"Ġherkunft":9107,"teln":9108,"Ġcamb":9109,"Ġamb":9110,"verschm":9111,"Ġendet":9112,"Ġbeginne":9113,"dium":9114,"Ġerfuhr":9115,"geld":9116,"Ġmai":9117,"Ġsicherer":9118,"Ġnorwegen":9119,"Ġminister":9120,"Ġbefrie":9121,"Ġfilter":9122,"Ġangepasst":9123,"Ġkurzer":9124,"Ġstattfinden":9125,"Ġanzuschauen":9126,"Ġsenken":9127,"code":9128,"Ġabendessen":9129,"Ġverwandten":9130,"Ġfels":9131,"Ġsonnensystem":9132,"Ġinternational":9133,"sorge":9134,"Ġgates":9135,"Ġetabl":9136,"Ġoperationen":9137,"ĠhÃ¤ufiger":9138,"Ġtrainieren":9139,"ĠursprÃ¼ngliche":9140,"Ġzweieinhalb":9141,"Ġwohnen":9142,"Ġuntersuchungen":9143,"Ġkreislauf":9144,"ĠabhÃ¤ngigkeit":9145,"Ġbilliger":9146,"Ġeffizienter":9147,"Ġjournalist":9148,"Ġsynch":9149,"Ġkluft":9150,"Ġlandete":9151,"virus":9152,"Ġmittagessen":9153,"Ġeinkauf":9154,"zumachen":9155,"Ġenergien":9156,"ĠerwÃ¤rmung":9157,"ĠtragÃ¶die":9158,"Ġfortgeschritten":9159,"Ġultima":9160,"dam":9161,"gab":9162,"las":9163,"lÃ¤uft":9164,"mÃ¤r":9165,"ov":9166,"pap":9167,"srate":9168,"uste":9169,"wÃ¤":9170,"zierte":9171,"inform":9172,"ĠsÃ¤tze":9173,"Ġadr":9174,"Ġmob":9175,"Ġunbeh":9176,"ĠgÃ¼te":9177,"Ġeinstellen":9178,"Ġeinnehmen":9179,"Ġvit":9180,"Ġkb":9181,"arzt":9182,"schalten":9183,"schreiben":9184,"tigend":9185,"Ã¶ch":9186,"Ġanson":9187,"bergen":9188,"Ġumfrage":9189,"Ġmeinungen":9190,"Ġprogno":9191,"Ġgrenz":9192,"Ġherzin":9193,"Ġvielzahl":9194,"Ġweltbank":9195,"tiven":9196,"Ġgewohn":9197,"pers":9198,"person":9199,"Ġkletter":9200,"ĠbegrÃ¼":9201,"Ġbegriffen":9202,"Ġmill":9203,"ichteten":9204,"Ġregul":9205,"ĠmaÃŁe":9206,"haber":9207,"Ġbewegte":9208,"Ġspielten":9209,"Ġstartete":9210,"now":9211,"ardo":9212,"bole":9213,"âĢľ,":9214,"fÃ¤llen":9215,"Ġreiche":9216,"Ġpower":9217,"Ġsensor":9218,"Ġfinanzieren":9219,"Ġtricks":9220,"Ġkomisch":9221,"Ġbrook":9222,"Ġperfekten":9223,"ĠtÃ¤glichen":9224,"ĠÃ¼berwÃ¤l":9225,"Ġgeredet":9226,"Ġplanung":9227,"Ġleistungen":9228,"Ġbewusstseins":9229,"Ġprem":9230,"ĠabschlieÃŁen":9231,"ĠwunderschÃ¶nen":9232,"Ġspektak":9233,"Ġfernseher":9234,"Ġfabriken":9235,"Ġerziehung":9236,"Ġprimitiv":9237,"Ġschaffte":9238,"Ġunendlich":9239,"Ġvielerlei":9240,"Ġanimation":9241,"ĠzÃ¼chten":9242,"Ġentschuldigung":9243,"Ġsumme":9244,"Ġerkrankungen":9245,"Ġschreibtisch":9246,"Ġpanik":9247,"ĠÃ¼berqueren":9248,"Ġmischung":9249,"Ġamazonas":9250,"ĠstÃ¤mme":9251,"bewusstsein":9252,"Ġangeschaut":9253,"ĠdurchzufÃ¼hren":9254,"Ġhonig":9255,"gewebe":9256,"ĠfrÃ¼hling":9257,"Ġdezember":9258,"Ġcambridge":9259,"Ġansonsten":9260,"'.":9261,"bab":9262,"dar":9263,"gur":9264,"gungen":9265,"haufen":9266,"mom":9267,"oÃŁ":9268,"rien":9269,"sau":9270,"zone":9271,"âĻ":9272,"Ġdop":9273,"Ġseil":9274,"Ġwatt":9275,"Ġaffe":9276,"ichert":9277,"Ġeb":9278,"Ġmi":9279,"steht":9280,"stande":9281,"Ġbanken":9282,"Ġfix":9283,"leger":9284,"schmer":9285,"auert":9286,"Ġanste":9287,"ĠlÃ¼cke":9288,"Ġaufgeb":9289,"Ġmitteilen":9290,"Ġwende":9291,"Ġausgang":9292,"Ġcro":9293,"Ġkond":9294,"Ġgeschlagen":9295,"Ġverboten":9296,"werks":9297,"heorie":9298,"lieÃŁt":9299,"Ġseel":9300,"Ġbeglei":9301,"ĠgelÃ¤h":9302,"que":9303,"ĠwÃ¼rdest":9304,"ope":9305,"Ġorchester":9306,"Ġbruch":9307,"Ġbrennen":9308,"Ġfreit":9309,"Ġverlangt":9310,"grenzen":9311,"versitÃ¤t":9312,"Ġkompon":9313,"Ġkompeten":9314,"Ġschlange":9315,"gewiesen":9316,"Ġspiels":9317,"Ġstrahlung":9318,"Ġoffenheit":9319,"Ġgraben":9320,"Ġhalben":9321,"ziehung":9322,"Ġbasieren":9323,"Ġfebru":9324,"Ġpsychi":9325,"Ġsensi":9326,"Ġerledigt":9327,"Ġzeichnungen":9328,"molek":9329,"Ġsexu":9330,"Ġhervorra":9331,"Ġerschien":9332,"Ġsupermarkt":9333,"Ġherrscht":9334,"Ġinstitut":9335,"Ġregenwald":9336,"kasten":9337,"Ġappar":9338,"inseln":9339,"Ġantark":9340,"ĠstoÃŁen":9341,"ĠwÃ¼sten":9342,"ĠkÃ¶nigin":9343,"Ġirgendeiner":9344,"Ġverhindert":9345,"Ġoptimistisch":9346,"Ġtalent":9347,"ĠautoritÃ¤t":9348,"Ġelektronik":9349,"Ġbandbreite":9350,"ĠberÃ¼hmte":9351,"Ġschafften":9352,"Ġverbraucher":9353,"Ġumgekehrt":9354,"Ġradikal":9355,"Ġverdoppelt":9356,"ĠausgewÃ¤hlt":9357,"Ġfreiwilligen":9358,"Ġrelevant":9359,"ĠbrÃ¼der":9360,"ĠlÃ¤cherlich":9361,"Ġdistanz":9362,"Ġinvolviert":9363,"Ġfebruar":9364,"ifiz":9365,"liger":9366,"lings":9367,"leitung":9368,"mpfer":9369,"wachsen":9370,"zit":9371,"Ġbiz":9372,"Ġzo":9373,"Ã¼ten":9374,"Ġfemin":9375,"Ġanstellen":9376,"deckt":9377,"Ġtoler":9378,"Ġrem":9379,"ĠschÃ¶":9380,"Ġout":9381,"tzu":9382,"revolution":9383,"ĠstÃ¤nd":9384,"Ġstreiten":9385,"beweg":9386,"Ġreale":9387,"Ġkannten":9388,"Ġkost":9389,"uche":9390,"uchsen":9391,"Ġgenen":9392,"Ġcra":9393,"Ġabgel":9394,"agent":9395,"wege":9396,"herz":9397,"ppich":9398,"ungslos":9399,"ĠgefÃ¼llt":9400,"Ġerfasst":9401,"flung":9402,"Ġzusammengef":9403,"rÃ¤umen":9404,"Ġgleicher":9405,"ĠÃ¶st":9406,"Ġfrisch":9407,"ĠfrÃ¶h":9408,"Ġmac":9409,"fertigen":9410,"Ġpoly":9411,"teils":9412,"Ġstrahlen":9413,"Ġdimension":9414,"ĠauÃŁerird":9415,"standard":9416,"Ġwundervollen":9417,"Ġtropfen":9418,"Ġdirektor":9419,"Ġschwefel":9420,"ĠÃ¼berzeugung":9421,"iban":9422,"Ġerforschung":9423,"ropie":9424,"ĠgroÃŁartiges":9425,"Ġrauch":9426,"Ġexperimentel":9427,"Ġeffekte":9428,"Ġsimp":9429,"ĠwÃ¶rterbuch":9430,"ĠeinschlieÃŁlich":9431,"ĠfÃ¼ÃŁen":9432,"Ġbusiness":9433,"Ġkopieren":9434,"ĠursprÃ¼nglichen":9435,"Ġniederl":9436,"Ġlaser":9437,"Ġstudierenden":9438,"ĠverrÃ¼ckten":9439,"ĠprÃ¼fen":9440,"Ġbeschleunigen":9441,"Ġkiste":9442,"Ġverzweiflung":9443,"freiheit":9444,"ĠvergrÃ¶ÃŁern":9445,"Ġparadig":9446,"Ġbesitzer":9447,"Ġanreize":9448,"krimin":9449,"Ġbeobachtete":9450,"methode":9451,"Ġphosph":9452,"Ġhunderttausende":9453,"ace":9454,"bus":9455,"lv":9456,"nd":9457,"wow":9458,"chnet":9459,"stei":9460,"Ġfik":9461,"Ġannahmen":9462,"ĠtÃ¤n":9463,"Ġleit":9464,"ĠlÃ¤nge":9465,"Ġjes":9466,"Ġschienen":9467,"ĠauflÃ¶sung":9468,"Ġmithilfe":9469,"Ġwieviele":9470,"ilde":9471,"Ġstren":9472,"Ġsturm":9473,"Ġleere":9474,"ĠÃ¼berlassen":9475,"ffin":9476,"ĠhierfÃ¼r":9477,"Ġallm":9478,"Ġabgest":9479,"Ġameise":9480,"trÃ¤ch":9481,"Ġlieder":9482,"Ġgewachsen":9483,"Ġbergen":9484,"Ġberichtet":9485,"ĠerfÃ¼l":9486,"Ġklat":9487,"geboren":9488,"Ġgenaue":9489,"Ġideal":9490,"Ġbeschreibung":9491,"Ġkreaturen":9492,"brachte":9493,"ĠbefÃ¶r":9494,"Ġstraf":9495,"Ġcoole":9496,"ĠverfÃ¼gen":9497,"Ġunglaubliches":9498,"Ġangestellten":9499,"ordnen":9500,"board":9501,"Ġkoran":9502,"Ġmedia":9503,"Ġstattfindet":9504,"Ġvereinbar":9505,"Ġfakt":9506,"Ġwinkel":9507,"Ġfinanziellen":9508,"Ġarchitekt":9509,"Ġkrankenschwe":9510,"Ġreligionen":9511,"ĠÃ¼berwachen":9512,"Ġindividuelle":9513,"ĠgroÃŁartiger":9514,"Ġexperimentieren":9515,"Ġeffektiver":9516,"Ġgeheimnisse":9517,"Ġmotoren":9518,"Ġandauern":9519,"Ã¶pfung":9520,"ĠauswÃ¤hlen":9521,"Ġvernunft":9522,"aktivitÃ¤t":9523,"Ġunverm":9524,"Ġoptimismus":9525,"Ġindustriellen":9526,"ĠberÃ¼hmten":9527,"Ġchao":9528,"Ġverzweifelt":9529,"Ġalgorithmus":9530,"Ġrollstuhl":9531,"ladung":9532,"Ġhindernisse":9533,"Ġattra":9534,"Ġliebsten":9535,"ĠtÃ¤uschung":9536,"Ġrettung":9537,"Ġbewirkt":9538,"ĠtÃ¼rkei":9539,"willige":9540,"ammen":9541,"bogen":9542,"kamp":9543,"yer":9544,"Ã¡":9545,"Ġwale":9546,"Ġgreif":9547,"Ġeinrichtung":9548,"Ġbinden":9549,"Ã¼chte":9550,"Ġfla":9551,"lein":9552,"arre":9553,"Ġzudem":9554,"Ġzugeben":9555,"Ġerleich":9556,"Ġankommt":9557,"Ġrab":9558,"Ġrassen":9559,"Ġbetra":9560,"ĠbeÃ¤ngst":9561,"Ġbezieht":9562,"Ġaufstehen":9563,"Ġaufzeichnungen":9564,"ish":9565,"Ġsoc":9566,"Ġleichte":9567,"Ġmanager":9568,"ĠfÃ¼rchte":9569,"sek":9570,"Ġrealist":9571,"ahme":9572,"Ġdarm":9573,"Ġvielmals":9574,"uchte":9575,"Ġgif":9576,"Ġamy":9577,"ĠmÃ¶bel":9578,"Ġliest":9579,"sters":9580,"Ġsonnt":9581,"Ġwahrschein":9582,"Ġwahrhaf":9583,"ckende":9584,"ĠbrÃ¼cken":9585,"Ġbeschaffen":9586,"Ġbescheiden":9587,"formt":9588,"Ġsolaren":9589,"Ġmont":9590,"Ġquan":9591,"Ġdatenbank":9592,"idee":9593,"Ġemissionen":9594,"Ġgetrei":9595,"source":9596,"Ġkomplette":9597,"Ġurban":9598,"Ġchinas":9599,"hundert":9600,"ĠstÃ¤dtischen":9601,"Ġmittelpunkt":9602,"Ġnav":9603,"Ġreichweite":9604,"Ġpoesie":9605,"ĠkÃ¼chen":9606,"Ġerstaunlichen":9607,"Ġfinanziert":9608,"Ġschickten":9609,"Ġtiefgreifen":9610,"Ġwiderspruch":9611,"sprogramm":9612,"ĠmÃ¤nnliche":9613,"Ġkalk":9614,"Ġindividuellen":9615,"Ġgerecht":9616,"Ġenglische":9617,"Ġsimulation":9618,"ĠprÃ¤sentieren":9619,"Ġkommunikations":9620,"face":9621,"Ġkolonie":9622,"Ġgewaltige":9623,"Ġignoranz":9624,"Ġgeringer":9625,"Ġbalance":9626,"Ġverletzungen":9627,"zÃ¤hler":9628,"wissenschaftler":9629,"Ġbreite":9630,"ĠschlÃ¤gt":9631,"Ġdutzende":9632,"figur":9633,"Ġkommentar":9634,"Ġobjekten":9635,"Ġanpass":9636,"Ġzehntausende":9637,"Ġinfektion":9638,"Ġwidmen":9639,"uropa":9640,"Ġfettleibigkeit":9641,"effizien":9642,"Ġschokolade":9643,"ĠauÃŁerordentlich":9644,"Ġhardware":9645,"Ġarzneimittel":9646,"Ġsteigern":9647,"Ġtrinkwasser":9648,"gesundheit":9649,"Ġsynchron":9650,"',":9651,"?Â«":9652,"gÃ¤ng":9653,"gase":9654,"ilen":9655,"namen":9656,"rungen":9657,"uzin":9658,"wachstum":9659,"yon":9660,"Ġskep":9661,"ĠwÃ¤":9662,"Ġmesser":9663,"Ġeingeschlossen":9664,"Ġhen":9665,"Ġhub":9666,"Ġzuge":9667,"Ġderek":9668,"Ġantrieb":9669,"Ġlunge":9670,"Ġring":9671,"Ġray":9672,"Ġjust":9673,"ros":9674,"robo":9675,"regel":9676,"Ġlegten":9677,"Ġrea":9678,"Ġunterrichtet":9679,"Ġce":9680,"ĠgroÃŁem":9681,"Ġwirksam":9682,"Ġ29":9683,"Ġgewinner":9684,"Ġverborgen":9685,"Ġgefl":9686,"ranten":9687,"lafen":9688,"Ġdaneben":9689,"tikeln":9690,"Ġhandlung":9691,"Ġstufen":9692,"programme":9693,"klang":9694,"Ġsicherzustellen":9695,"ĠerzÃ¤hl":9696,"Ġschlu":9697,"grammen":9698,"Ġhochzeit":9699,"legenen":9700,"icon":9701,"Ġbetonen":9702,"felder":9703,"Ġtedtal":9704,"Ġherzlichen":9705,"Ġneuron":9706,"ĠrÃ¼ckwÃ¤rts":9707,"Ġfinanzielle":9708,"Ġprozesses":9709,"ĠÃ¤ltesten":9710,"Ġintelligent":9711,"Ġkalorien":9712,"Ġadop":9713,"Ġsymbole":9714,"vielfalt":9715,"region":9716,"Ġerkenntnisse":9717,"Ġvoraussagen":9718,"Ġsprecher":9719,"Ġbehaupt":9720,"ĠÃ¤uÃŁ":9721,"Ġeinzigartige":9722,"right":9723,"ĠkÃ¶nigreich":9724,"Ġdrinnen":9725,"Ġfotografiert":9726,"Ġhomosex":9727,"Ġklassische":9728,"Ġzutief":9729,"ĠreligiÃ¶se":9730,"Ġleser":9731,"ĠwÃ¼sste":9732,"Ġdiplomat":9733,"Ġipod":9734,"ĠmerkwÃ¼rdig":9735,"Ġreihenfolge":9736,"Ġdisziplin":9737,"Ġgeeignet":9738,"Ġvietnam":9739,"Ġzentimeter":9740,"ĠblutgefÃ¤":9741,"acken":9742,"bat":9743,"bell":9744,"gei":9745,"had":9746,"kil":9747,"nicht":9748,"null":9749,"erten":9750,"ergeb":9751,"chtern":9752,"inv":9753,"ĠmÃ¼he":9754,"stad":9755,"Ġunaus":9756,"Ġvollen":9757,"ĠvÃ¤ter":9758,"Ġhill":9759,"Ġzehen":9760,"ĠfÃ¼n":9761,"Ã¤ck":9762,"schungen":9763,"altete":9764,"Ġernte":9765,"Ġtas":9766,"Ġrut":9767,"Ġbewoh":9768,"senden":9769,"iser":9770,"anner":9771,"Ġunsicher":9772,"igem":9773,"Ġmanagement":9774,"Ġumsetzen":9775,"ieller":9776,"ĠÃ¼berre":9777,"Ġspar":9778,"Ġarist":9779,"Ġmenschenrechte":9780,"osn":9781,"angel":9782,"Ġvieh":9783,"verse":9784,"ric":9785,"Ġgelben":9786,"ĠgelÃ¤nde":9787,"Ã¤llig":9788,"Ġerfand":9789,"istent":9790,"Ġtechnisch":9791,"Ġfunk":9792,"Ġschneiden":9793,"Ġmary":9794,"Ġminder":9795,"Ġbefol":9796,"Ġsterblichkeit":9797,"Ġbeobacht":9798,"leiden":9799,"Ġakust":9800,"temperatur":9801,"Ġerstaunt":9802,"Ġbedeutsam":9803,"Ġumgebungen":9804,"ĠgrÃ¶ÃŁeres":9805,"Ġlauter":9806,"Ġstudierte":9807,"Ġaufregende":9808,"Ġkontro":9809,"Ġ2011":9810,"ĠunabhÃ¤ngigkeit":9811,"bai":9812,"faktoren":9813,"Ġheiligen":9814,"Ġschwarzes":9815,"Ã¤sth":9816,"wechseln":9817,"Ġtaliban":9818,"Ġtendenz":9819,"ĠerÃ¶ffnen":9820,"Ġvene":9821,"ĠrÃ¤um":9822,"ĠunglÃ¼cklicherweise":9823,"Ġhipp":9824,"Ġkonkurrenz":9825,"Ġanreiz":9826,"Ġrhythmus":9827,"ĠkÃ¼hlsch":9828,"bomben":9829,"Ġauffassung":9830,"Ġchirurgen":9831,"Ġnirgendwo":9832,"Ġselektion":9833,"Ġaugust":9834,"ĠsorgfÃ¤ltig":9835,"ĠbehÃ¶rden":9836,"Ġluxus":9837,"Ġsaturn":9838,"Ġdopamin":9839,"Ġzutiefst":9840,"bellen":9841,"fikation":9842,"ipp":9843,"kurs":9844,"lasst":9845,"mag":9846,"miert":9847,"sag":9848,"well":9849,"zierten":9850,"Î²":9851,"Ġwi":9852,"Ġgore":9853,"Ġblieben":9854,"Ġzens":9855,"Ġkrab":9856,"Ġfang":9857,"its":9858,"Ġanzunehmen":9859,"dest":9860,"Ġhafen":9861,"Ġgetragen":9862,"Ġgetrieben":9863,"Ġaufzunehmen":9864,"ĠaufklÃ¤r":9865,"Ġos":9866,"Ġleder":9867,"Ġlego":9868,"Ġausf":9869,"Ġausprobieren":9870,"Ġausreichend":9871,"Ġgesucht":9872,"Ġgesetzen":9873,"Ã¤nzen":9874,"Ġbeizubringen":9875,"weiten":9876,"spart":9877,"Ġjahrelang":9878,"Ġgrand":9879,"Ġdarzustellen":9880,"lizieren":9881,"Ġgib":9882,"Ġgeni":9883,"verei":9884,"Ġzurzeit":9885,"Ġwohnung":9886,"otten":9887,"kopp":9888,"tran":9889,"Ġerfindungen":9890,"Ġsteine":9891,"Ã¤nderung":9892,"Ġplatten":9893,"Ġbrem":9894,"Ġgrundlagen":9895,"ĠerzÃ¤hler":9896,"fert":9897,"loser":9898,"Ġprodukten":9899,"ĠdrÃ¼ber":9900,"ogene":9901,"ĠhÃ¶hen":9902,"âĢĺ":9903,"Ġatome":9904,"ustern":9905,"Ã¼tze":9906,"ows":9907,"Ġschulden":9908,"Ġaktivieren":9909,"Ġniemandem":9910,"Ġskiz":9911,"strahl":9912,"nehmern":9913,"Ġarchiv":9914,"Ġbabies":9915,"Ġwiderspr":9916,"Ġindividuum":9917,"itiver":9918,"kriegs":9919,"Ġfaszinieren":9920,"Ġbakterium":9921,"Ġbaumw":9922,"Ġfeuerwehr":9923,"Ġkombiniert":9924,"Ġkonsumieren":9925,"Ġfremd":9926,"Ġstrateg":9927,"Ġheilung":9928,"ĠauslÃ¤nd":9929,"Ġstandards":9930,"Ġlou":9931,"Ġbeteiligen":9932,"fferenz":9933,"Ġblogs":9934,"jahre":9935,"ĠstabilitÃ¤t":9936,"Ġmultip":9937,"eschÃ¶n":9938,"ĠwÃ¤hler":9939,"Ġquantenmechan":9940,"Ġlaptops":9941,"Ġkommentare":9942,"Ġsklaven":9943,"ĠwÃ¼ssten":9944,"kontrolle":9945,"ĠsÃ¤ugetiere":9946,"Ġhilfsmittel":9947,"Ġfokussieren":9948,"Ġverurteilt":9949,"Ġphantom":9950,"Ġhypothese":9951,"Ġgedreht":9952,"Ġschlagzeilen":9953,"Ġstickstoff":9954,"moment":9955,"âĻ«":9956,"Ġsolarenergie":9957,"],":9958,"fÃ¼":9959,"hier":9960,"kins":9961,"mas":9962,"miss":9963,"sbe":9964,"ĠÃ¤ng":9965,"Ġdreck":9966,"Ġdikt":9967,"Ġagen":9968,"Ġmotto":9969,"ĠbÃ¶r":9970,"Ġbzw":9971,"Ġnic":9972,"Ġkie":9973,"Ġkum":9974,"Ġfassen":9975,"empf":9976,"Ã¶glich":9977,"Ġpenn":9978,"Ġeric":9979,"Ġanzei":9980,"Ġanziehen":9981,"Ġanliegen":9982,"dex":9983,"ĠgeprÃ¤":9984,"Ġbewiesen":9985,"ĠschÃ¤tze":9986,"Ġwiegt":9987,"Ġunsicherheit":9988,"Ġwarf":9989,"Ġwarst":9990,"ffung":9991,"Ġvorbild":9992,"sektor":9993,"Ġredet":9994,"Ġproto":9995,"Ġentschl":9996,"Ġentropie":9997,"Ġhierbei":9998,"Ġgrauen":9999,"orth":10000,"osis":10001,"Ġtes":10002,"Ġendes":10003,"Ġpapa":10004,"Ġbislang":10005,"Ġgelingt":10006,"Ġsong":10007,"Ġglaub":10008,"Ġnied":10009,"flos":10010,"Ġblinden":10011,"Ġblitz":10012,"Ġexpedition":10013,"Ġflaschen":10014,"Ġbestra":10015,"ĠpasswÃ¶rter":10016,"ĠplÃ¤ne":10017,"Ġschwellen":10018,"Ġbrilli":10019,"anthrop":10020,"arth":10021,"Ġjedermann":10022,"Ġ55":10023,"odie":10024,"Ġ42":10025,"Ġreis":10026,"ĠdankeschÃ¶n":10027,"Ġbefra":10028,"Ġcous":10029,"Ġpersonal":10030,"box":10031,"low":10032,"Ġglobaler":10033,"Ġgesellschaftlichen":10034,"Ġnormales":10035,"voller":10036,"Ġanzuwenden":10037,"Ġbeobachtung":10038,"Ġanwalt":10039,"Ġdraussen":10040,"Ġvirgin":10041,"Ġanschau":10042,"Ġpsychologen":10043,"Ġzerbrech":10044,"Ġmathematische":10045,"ĠtÃ¶tet":10046,"Ġmerkte":10047,"Ġkeinerlei":10048,"Ġkreise":10049,"ĠerwÃ¤hnte":10050,"ĠkÃ¼rze":10051,"Ġbiologisch":10052,"Ġkopie":10053,"Ġdringend":10054,"Ġeigentlichen":10055,"Ġangeboten":10056,"Ġklimawandels":10057,"Ġjugendlichen":10058,"Ġislamischen":10059,"Ġimpuls":10060,"Ġdiskussionen":10061,"Ġstoffwechsel":10062,"Ġinteraktionen":10063,"frauen":10064,"ĠrÃ¤umen":10065,"Ġrestaurants":10066,"Ġentsprechend":10067,"Ġverpflicht":10068,"Ġermutigen":10069,"stheorie":10070,"Ġerlaubnis":10071,"Ġtransportieren":10072,"Ġzusammenfassen":10073,"ĠanhÃ¤nger":10074,"Ġspannung":10075,"Ġbeutel":10076,"Ġmethan":10077,"Ġsubstanz":10078,"Ġexplosion":10079,"Ġzigare":10080,"Ġprimaten":10081,"ĠwohltÃ¤tigkeit":10082,"ĠarbeitsplÃ¤tze":10083,".:":10084,"bal":10085,"bran":10086,"digkeit":10087,"pal":10088,"sicherheit":10089,"uel":10090,"wing":10091,"zier":10092,"indern":10093,"ieden":10094,"Ġsat":10095,"Ġsendet":10096,"Ġwat":10097,"Ġwall":10098,"Ġmt":10099,"Ġmischen":10100,"stock":10101,"Ġunber":10102,"Ġeingestellt":10103,"ĠbÃ¼n":10104,"ĠbÃ¤ren":10105,"Ġhekt":10106,"Ã¶ss":10107,"Ã¶kon":10108,"itÃ¤re":10109,"Ġverkl":10110,"Ġverteil":10111,"Ġverraten":10112,"Ġtsun":10113,"Ġrass":10114,"Ġjos":10115,"Ġjose":10116,"isierten":10117,"Ġstory":10118,"beu":10119,"Ġmeint":10120,"Ġvorur":10121,"ikationen":10122,"Ġeinerseits":10123,"Ġcap":10124,"Ġteure":10125,"verk":10126,"verfahren":10127,"ĠgroÃŁeltern":10128,"ungsweise":10129,"Ġversagt":10130,"Ġgebunden":10131,"Ġgeleitet":10132,"oha":10133,"ohnen":10134,"ops":10135,"ophen":10136,"Ġbestes":10137,"Ġseiden":10138,"Ġdete":10139,"Ġwichtigkeit":10140,"Ġbildungssystem":10141,"Ġfreue":10142,"Ġinsul":10143,"ĠglÃ¼ckliche":10144,"Ġgestalt":10145,"Ġgestohlen":10146,"Ġbuches":10147,"plÃ¤tze":10148,"Ġhoward":10149,"Ġallerer":10150,"ĠÃ¶ffentlicher":10151,"Ġrobotern":10152,"ĠtÃ¶chter":10153,"pati":10154,"smann":10155,"Ġkritik":10156,"ĠgefÃ¤hrliche":10157,"Ġfelder":10158,"Ġmolekular":10159,"Ġfaszinierende":10160,"Ġerfolgreiche":10161,"Ġstrecke":10162,"amerikanischen":10163,"Ġfantastischen":10164,"Ġ2012":10165,"Ġmeeresspiegel":10166,"Ġdenkst":10167,"Ġbritische":10168,"Ġdeutschen":10169,"Ġnotwendigkeit":10170,"Ġverkaufte":10171,"Ġanrufen":10172,"Ġlichts":10173,"Ġbeschleunigt":10174,"Ġkleider":10175,"ĠeuropÃ¤ische":10176,"Ġimpfstoff":10177,"Ġberechnung":10178,"Ġgriech":10179,"Ġphotos":10180,"ĠverblÃ¼ffend":10181,"Ġultra":10182,"Ġverdeut":10183,"ĠgerÃ¼st":10184,"Ġgefolgt":10185,"Ġdrucken":10186,"fabrik":10187,"Ġschizophrenie":10188,"verschmutzung":10189,"Ġphosphor":10190,"Ġsonntag":10191,"/&":10192,"fassen":10193,"ifik":10194,"jo":10195,"lyn":10196,"masse":10197,"nat":10198,"Ġsendung":10199,"Ġwandern":10200,"Ġmur":10201,"Ġgaler":10202,"Ġbast":10203,"Ġbaten":10204,"Ġbranche":10205,"tein":10206,"Ġhaltung":10207,"Ġkrit":10208,"legte":10209,"ary":10210,"arren":10211,"gender":10212,"Ġsiehst":10213,"getragen":10214,"Ġanat":10215,"Ġgeplant":10216,"Ġrap":10217,"Ġbequem":10218,"Ã¼rzt":10219,"Ġauftritt":10220,"ĠfÃ¼rchten":10221,"ĠÃ¼berdenken":10222,"sey":10223,"sport":10224,"schafter":10225,"Ġcri":10226,"Ġcome":10227,"undation":10228,"Ġdurchlaufen":10229,"Ġamer":10230,"otherapie":10231,"kose":10232,"Ġzweiter":10233,"Ġhinweisen":10234,"meer":10235,"Ã¤hrung":10236,"ppte":10237,"Ġchromos":10238,"diag":10239,"aufnahmen":10240,"Ġexter":10241,"istin":10242,"Ġwahrgenommen":10243,"Ġzwill":10244,"probe":10245,"Ġleise":10246,"Ġmax":10247,"Ġerstmals":10248,"Ġbesserer":10249,"Ġkreb":10250,"Ġdifferenz":10251,"Ġfreizeit":10252,"Ġfreiwillige":10253,"Ġfesthalten":10254,"Ġschweren":10255,"Ġue":10256,"Ġkortex":10257,"Ġlaw":10258,"Ġaktiviert":10259,"ĠbeeintrÃ¤ch":10260,"Ġindiens":10261,"ĠkÃ¤se":10262,"Ġerkannten":10263,"Ġinvestoren":10264,"Ġtiefsee":10265,"ĠbenÃ¶tigte":10266,"ĠÃ¶ffnete":10267,"Ġverletzen":10268,"studenten":10269,"Ġtraur":10270,"produkte":10271,"Ġindische":10272,"Ġklinische":10273,"Ġfriedens":10274,"Ġerweitert":10275,"schnitte":10276,"Ġmotivieren":10277,"blicken":10278,"Ġbeantwortet":10279,"Ġmerkmale":10280,"Ġhalluzin":10281,"ĠreprÃ¤sentieren":10282,"Ġkonstruktion":10283,"Ġnegative":10284,"Ġelektronische":10285,"Ġakzeptiert":10286,"Ġzentralen":10287,"Ġfoundation":10288,"Ġberechnet":10289,"Ġbrennstoff":10290,"kreislauf":10291,"burgh":10292,"Ġinitiative":10293,"Ġsklaverei":10294,"sichtigen":10295,"ĠeingeschrÃ¤n":10296,"Ġkognitive":10297,"Ġalexander":10298,"ĠkrankenhÃ¤user":10299,"gesprÃ¤ch":10300,"Ġausgestorben":10301,"Ġanweisungen":10302,"motor":10303,"bewegungen":10304,"aster":10305,"dacht":10306,"famil":10307,"gos":10308,"gott":10309,"hÃ¤u":10310,"kamen":10311,"kore":10312,"kreisen":10313,"ny":10314,"phin":10315,"yle":10316,"zehn":10317,"erkt":10318,"inos":10319,"Ġnel":10320,"Ġfbi":10321,"Ã¤le":10322,"Ġzueinander":10323,"Ġinfor":10324,"Ġderzei":10325,"titel":10326,"Ġpiz":10327,"Ġerwer":10328,"bereit":10329,"bereiten":10330,"Ġtast":10331,"Ġrb":10332,"iland":10333,"Ġlein":10334,"Ġmani":10335,"Ġausgesch":10336,"becken":10337,"weil":10338,"spf":10339,"Ġgehst":10340,"Ã¶rder":10341,"laubt":10342,"abschluss":10343,"Ġdurchmesser":10344,"verfol":10345,"Ã¼ndete":10346,"Ġhingegen":10347,"ullen":10348,"endig":10349,"pfte":10350,"Ġkleineren":10351,"Ġstell":10352,"opter":10353,"ĠplÃ¤tze":10354,"Ġschwamm":10355,"Ġregist":10356,"Ġarbeitsk":10357,"proben":10358,"probiert":10359,"Ġwortes":10360,"ferenzen":10361,"Ġ2050":10362,"geworfen":10363,"Ġcount":10364,"âĢĻ":10365,"Ġelter":10366,"Ġklaren":10367,"Ġhalfen":10368,"Ġsinnes":10369,"Ġgenerell":10370,"Ġtypische":10371,"Ġjenes":10372,"Ġvaters":10373,"Ġnebenwirkungen":10374,"Ġehrgei":10375,"Ġerreichte":10376,"Ġlehrerin":10377,"Ġarchitekton":10378,"setzten":10379,"wÃ¤rmung":10380,"Ġkollege":10381,"Ġerschwing":10382,"ĠgrÃ¶ÃŁtenteils":10383,"ĠbeschÃ¤ftigte":10384,"regeln":10385,"Ġtrauma":10386,"ummern":10387,"Ã¼sseln":10388,"Ġeinzigartigen":10389,"Ġpilz":10390,"Ġpilot":10391,"hafter":10392,"ĠreprÃ¤sent":10393,"ĠgewÃ¶hnliche":10394,"basierte":10395,"Ġmeme":10396,"fuÃŁ":10397,"ĠbeschrÃ¤nkt":10398,"Ġparadox":10399,"ĠgrÃ¶sser":10400,"Ġewig":10401,"Ġrosa":10402,"ĠgrÃ¶ÃŁenordnung":10403,"Ġveget":10404,"Ġverschmutzung":10405,"Ġvergewaltigt":10406,"Ġschenken":10407,"Ġblack":10408,"Ġkategorie":10409,"Ġverwendeten":10410,"Ġkandidaten":10411,"Ġbuddh":10412,"Ġfossilen":10413,"Ġverheiratet":10414,"Ġanspruchs":10415,"Ġherzinfar":10416,"aw":10417,"bem":10418,"baut":10419,"gÃ¼nst":10420,"ihr":10421,"kler":10422,"wander":10423,"energie":10424,"Ġdv":10425,"Ġdschi":10426,"ini":10427,"ieÃŁen":10428,"Ġsach":10429,"Ġsnow":10430,"Ġwon":10431,"ĠwÃ¶rtern":10432,"Ġmum":10433,"ĠunfÃ¤lle":10434,"eidung":10435,"Ġeingebaut":10436,"Ġbell":10437,"Ġbogen":10438,"Ġbreiten":10439,"Ġkau":10440,"leuchten":10441,"Ã¤len":10442,"orter":10443,"einheit":10444,"also":10445,"itor":10446,"itts":10447,"berech":10448,"Ġrate":10449,"Ġrasse":10450,"Ġrande":10451,"Ġschar":10452,"ision":10453,"ilz":10454,"usste":10455,"ikro":10456,"Ġjahrtausen":10457,"zuhalten":10458,"Ġhero":10459,"ĠunterdrÃ¼ck":10460,"Ġclin":10461,"Ġgeschm":10462,"abdruck":10463,"Ġdurchaus":10464,"Ġwoanders":10465,"kommun":10466,"ĠeinfÃ¼hren":10467,"Ġzeitgen":10468,"forscher":10469,"Ġverbren":10470,"gesehen":10471,"Ã¤usen":10472,"gebieten":10473,"Ġflut":10474,"Ġfordern":10475,"Ġseife":10476,"Ġ31":10477,"Ġ37":10478,"Ġbricht":10479,"Ġwollt":10480,"Ġschlangen":10481,"Ġkommenden":10482,"brÃ¼che":10483,"Ġhaup":10484,"Ġheld":10485,"Ġbewahr":10486,"aterial":10487,"Ġteilt":10488,"Ġverschle":10489,"Ġanderswo":10490,"Ã¤tzung":10491,"ingenie":10492,"konferenz":10493,"Ġgraph":10494,"Ġelf":10495,"Ġufer":10496,"ometern":10497,"Ġglobales":10498,"Ġnewton":10499,"Ġabsor":10500,"Ġjahrhunderte":10501,"Ġausgestat":10502,"Ġriesiger":10503,"Ġprogrammierer":10504,"Ġharten":10505,"Ġradi":10506,"sprodu":10507,"swÃ¼r":10508,"Ġshang":10509,"Ġextreme":10510,"hoben":10511,"ĠfuÃŁgÃ¤nger":10512,"Ġsorgt":10513,"ĠtÃ¼ren":10514,"Ġwesentliche":10515,"gesteuer":10516,"Ġemotionalen":10517,"Ġbedeutende":10518,"Ġindones":10519,"Ġschrecklichen":10520,"mpfung":10521,"Ġwohnzimmer":10522,"Ġfotografieren":10523,"Ġwolke":10524,"zutreten":10525,"Ġgewaltig":10526,"organisation":10527,"Ġentfernten":10528,"Ġunbekannte":10529,"Ġerlaubte":10530,"Ġslums":10531,"ĠgÃ¼nstig":10532,"ĠhÃ¼hner":10533,"Ġbeherrschen":10534,"Ġanalogie":10535,"Ġparallel":10536,"Ġkarikatur":10537,"Ġwilliam":10538,"ĠÃ¤thiopien":10539,"Ġjesus":10540,"Ġquantenmechanik":10541,"Ġinsulin":10542,"Ġnelson":10543,"Ġdschihad":10544,"aben":10545,"aids":10546,"ding":10547,"gol":10548,"mut":10549,"ness":10550,"nutz":10551,"Ġgumm":10552,"Ġbamb":10553,"Ġbringe":10554,"Ġidi":10555,"Ã¼bt":10556,"school":10557,"Ġzuvers":10558,"Ġgelegt":10559,"ĠlÃ¤h":10560,"ola":10561,"Ġschad":10562,"umines":10563,"Ġaufbl":10564,"sens":10565,"sender":10566,"Ġmitgebracht":10567,"Ġopfern":10568,"Ġwartete":10569,"Ġweizen":10570,"reiÃŁen":10571,"Ġherstellt":10572,"Ġabweich":10573,"Ġdurchgehen":10574,"Ġamate":10575,"verstanden":10576,"mmert":10577,"ketten":10578,"Ġeinfallen":10579,"Ġgewohnt":10580,"Ġgelbe":10581,"Ġstehlen":10582,"Ġmalte":10583,"Ġverstorben":10584,"Ġglu":10585,"Ġflogen":10586,"rÃ¤ge":10587,"Ġjazz":10588,"Ġdecken":10589,"Ġdepri":10590,"akten":10591,"Ġerstmal":10592,"ĠwillkÃ¼r":10593,"ĠnatÃ¼rlicher":10594,"Ġgemeint":10595,"Ġminer":10596,"Ġvierten":10597,"Ġbefand":10598,"Ġdaraufhin":10599,"Ġraumes":10600,"Ġsitze":10601,"Ġhinterher":10602,"landschaft":10603,"Ġtauch":10604,"ografen":10605,"fÃ¤llt":10606,"ĠsÃ¼ch":10607,"Ġkunststoff":10608,"Ġphysisch":10609,"Ġinnovativ":10610,"Ġprogrammiert":10611,"gegenwÃ¤r":10612,"Ġtechnologische":10613,"Ġfasern":10614,"Ġtermin":10615,"Ġempfangen":10616,"Ġkrist":10617,"Ġnutzte":10618,"ĠÃ¼berwachung":10619,"Ġtraditionen":10620,"kriegen":10621,"Ġrauschen":10622,"Ġ1998":10623,"amerikaner":10624,"Ġtrainiert":10625,"ĠmÃ¤chtige":10626,"Ġklinischen":10627,"haftes":10628,"Ġumfasst":10629,"Ġwunderbares":10630,"Ġgewaltigen":10631,"Ġgewaltt":10632,"ĠmÃ¤rkten":10633,"ĠrÃ¼ckenmark":10634,"Ġjugendliche":10635,"Ġaufwuchs":10636,"viertel":10637,"Ġdemokratischen":10638,"Ġmexik":10639,"Ġnegativen":10640,"Ġsolches":10641,"Ġunsichtbare":10642,"Ġtempor":10643,"Ġaustral":10644,"Ġverkehrs":10645,"Ġangewandt":10646,"Ġkollabor":10647,"Ġbombe":10648,"Ġintegrieren":10649,"Ġheimatstadt":10650,"Ġelektroden":10651,"Ġfurchtbar":10652,"Ġpatent":10653,"Ġdrohnen":10654,"ĠnÃ¤hrstoffe":10655,"ĠgÃ¶tt":10656,"Ġgegner":10657,"ĠtatsÃ¤chlichen":10658,"ĠdÃ¶rfer":10659,"Ġdirekte":10660,"Ġpolizisten":10661,"ĠkÃ¶rpern":10662,"gehÃ¶rigkeit":10663,"Ġeventuell":10664,"Ġspontan":10665,"Ġpremier":10666,"Ġgetreide":10667,"bor":10668,"bÃ¼chern":10669,"cal":10670,"hÃ¤ngen":10671,"pum":10672,"wal":10673,"wichtig":10674,"chip":10675,"iegt":10676,"Ġss":10677,"ĠsÃ¶h":10678,"Ġunzu":10679,"ĠgÃ¼ter":10680,"anw":10681,"antwort":10682,"Ġeinbringen":10683,"Ġeineinhalb":10684,"Ġbol":10685,"Ġbern":10686,"onanz":10687,"schrei":10688,"schrau":10689,"emissionen":10690,"Ã¶scht":10691,"gehalten":10692,"Ġerbe":10693,"ĠanhÃ¶ren":10694,"Ġanlage":10695,"Ġanerk":10696,"Ġlande":10697,"Ġlong":10698,"Ġrasch":10699,"Ġratte":10700,"Ġaufgestellt":10701,"ÃŁig":10702,"reaktion":10703,"Ġumar":10704,"bestand":10705,"Ġjegliche":10706,"weiÃŁt":10707,"springen":10708,"kennt":10709,"Ġcel":10710,"Ã¤chter":10711,"Ġablen":10712,"Ġabrah":10713,"versprechen":10714,"risten":10715,"Ã¤rten":10716,"Ġpacken":10717,"ĠberÃ¼hrung":10718,"gebildet":10719,"Ġpasswort":10720,"Ġplat":10721,"Ġbenj":10722,"tts":10723,"grenze":10724,"Ġjederzeit":10725,"ives":10726,"ĠfÃ¼hrenden":10727,"front":10728,"Ġneuesten":10729,"Ġschufen":10730,"Ġhaust":10731,"Ġbetrug":10732,"Ġminen":10733,"Ġelegan":10734,"ĠglÃ¼cklichen":10735,"Ġgestiegen":10736,"Ġjedesmal":10737,"Ġwirtschaftlich":10738,"Ġhosen":10739,"Ġgarage":10740,"digungs":10741,"Ġ2002":10742,"Ġmagnet":10743,"Ġangezogen":10744,"Ġgramm":10745,"Ġkorrig":10746,"iole":10747,"naja":10748,"Ġnetzwerken":10749,"Ġschuldig":10750,"Ġtypischen":10751,"Ġrestlichen":10752,"ĠpersÃ¶nlicher":10753,"Ġpsychische":10754,"Ġerlebte":10755,"Ġkritische":10756,"Ġnutze":10757,"Ġansah":10758,"Ġanaly":10759,"Ġstaatlichen":10760,"Ġangesicht":10761,"Ġkanad":10762,"behalten":10763,"Ġstammes":10764,"produkt":10765,"Ġfreuen":10766,"Ġjohnson":10767,"Ġchinesisch":10768,"Ġverbreitete":10769,"Ġinnenstadt":10770,"Ġwohnungen":10771,"Ġkolonien":10772,"Ġsowieso":10773,"schlÃ¤gen":10774,"Ġmassive":10775,"Ġbrasil":10776,"Ġportra":10777,"Ġsilicon":10778,"Ġinterpretation":10779,"bÃ¼rger":10780,"ĠbestÃ¤tigen":10781,"Ġverdoppeln":10782,"Ġwurzel":10783,"Ġerkrankung":10784,"Ġfluores":10785,"Ġtransportiert":10786,"ĠflÃ¼chtlinge":10787,"ĠverknÃ¼pft":10788,"Ġanpassung":10789,"ĠschÃ¤tzung":10790,"Ġphysikalischen":10791,"ĠabhÃ¤ngt":10792,"ĠtatsÃ¤chliche":10793,"ĠeinschrÃ¤nkungen":10794,"Ġunvorstell":10795,"Ġspanien":10796,"Ġbanglad":10797,"Ġangelegenheit":10798,"Ġgravitation":10799,"mÃ¤nner":10800,"Ġreserv":10801,"analyse":10802,"kÃ¶mm":10803,"schmerzen":10804,"Ġanzeige":10805,"Ġzuversicht":10806,".'":10807,"10":10808,"brett":10809,"cor":10810,"deln":10811,"ec":10812,"fle":10813,"haut":10814,"pop":10815,"Ġtiger":10816,"Ġsqu":10817,"Ġsolle":10818,"eitete":10819,"Ġeintreten":10820,"Ġbun":10821,"ĠkrÃ¼":10822,"ĠkÃ¼he":10823,"Ġzuver":10824,"Ġzugr":10825,"Ġzustimmen":10826,"Ġinder":10827,"ita":10828,"itÃ¤ren":10829,"Ġprie":10830,"Ġerheben":10831,"ierbar":10832,"Ġtwe":10833,"mmel":10834,"rogen":10835,"Ġaufhalten":10836,"ĠmitfÃ¼hlen":10837,"Ġunsinn":10838,"Ġsource":10839,"Ġsouth":10840,"reen":10841,"Ġstreifen":10842,"Ġleon":10843,"Ġausprobiert":10844,"Ġumgew":10845,"agert":10846,"Ġvorschlagen":10847,"Ġret":10848,"Ġrekonstru":10849,"ellos":10850,"Ġhersteller":10851,"ĠherkÃ¶mm":10852,"esseln":10853,"oskop":10854,"Ġkonvers":10855,"Ġkonkre":10856,"Ã¤he":10857,"Ġdurchbruch":10858,"Ã¼hnen":10859,"Ġzweier":10860,"Ġintervention":10861,"ungsmittel":10862,"Ġneuse":10863,"ĠmÃ¼sst":10864,"Ġperio":10865,"opft":10866,"opfen":10867,"Ġford":10868,"Ġlandschaften":10869,"Ġverwandel":10870,"ĠmÃ¶glichst":10871,"Ġbeschrieb":10872,"ĠerzÃ¤hlung":10873,"Ġanfingen":10874,"ody":10875,"blatt":10876,"Ġbiol":10877,"Ġlincol":10878,"Ġcomputers":10879,"Ġlud":10880,"Ġwenigsten":10881,"bilitÃ¤t":10882,"Ġlehrt":10883,"Ġtreppe":10884,"Ġformt":10885,"Ġstere":10886,"Ġklare":10887,"Ġvermuten":10888,"Ġup":10889,"Ġhaushalt":10890,"Ġbelei":10891,"Ġloszu":10892,"Ġfarm":10893,"ĠausgedrÃ¼ckt":10894,"leid":10895,"Ġakzept":10896,"Ġhebt":10897,"ĠkapazitÃ¤t":10898,"Ġmike":10899,"Ġriesig":10900,"Ġ%.":10901,"Ġunbew":10902,"Ġjuden":10903,"Ġwerkzeugen":10904,"Ġrisik":10905,"Ġauszuprobieren":10906,"Ġkollektiven":10907,"Ġshak":10908,"Ġintelligenten":10909,"Ġwachsenden":10910,"Ġwachsende":10911,"studie":10912,"Ġfortschrit":10913,"Ġkanal":10914,"amerikanische":10915,"Ġhydro":10916,"ĠunabhÃ¤ngige":10917,"Ġlogisch":10918,"Ġbrian":10919,"ĠmÃ¼de":10920,"Ġbestandteil":10921,"Ġdelf":10922,"heimlich":10923,"asiten":10924,"Ġintegriert":10925,"Ġwettbewerbs":10926,"Ġinterviews":10927,"Ġgeschlechts":10928,"ĠwomÃ¶glich":10929,"ĠverÃ¶ffentlichte":10930,"Ġlandet":10931,"Ġinterpretieren":10932,"Ġrakete":10933,"Ġgoldene":10934,"Ġmuslimischen":10935,"Ġrecherch":10936,"ĠprÃ¤zise":10937,"Ġatomenergie":10938,"Ġverwirklichen":10939,"Ġteller":10940,"Ġatlantik":10941,"Ġmandela":10942,"Ġfreitag":10943,"Ġhektar":10944,"Ġueber":10945,"Ġzugrunde":10946,"Ġneuseel":10947,"branche":10948,"flie":10949,"fÃ©":10950,"hoch":10951,"ianer":10952,"kord":10953,"mach":10954,"port":10955,"swert":10956,"ttes":10957,"ux":10958,"Ġsang":10959,"Ġmagen":10960,"stÃ¤r":10961,"Ġungew":10962,"Ġunheimlich":10963,"anfall":10964,"anzug":10965,"Ġeinig":10966,"Ġvaku":10967,"Ġisst":10968,"Ġhang":10969,"Ġkenn":10970,"ona":10971,"irekt":10972,"ĠfÃ¼gen":10973,"Ġzusehen":10974,"Ġaust":10975,"Ġalgen":10976,"Ġero":10977,"Ġernten":10978,"Ġanspruch":10979,"Ġhack":10980,"ura":10981,"Ġlitt":10982,"Ġlock":10983,"Ġaufr":10984,"Ġaufstellen":10985,"ramme":10986,"igungen":10987,"Ã¼bergreifen":10988,"ĠÃ¼bernommen":10989,"set":10990,"Ġweiten":10991,"ika":10992,"ĠallgegenwÃ¤r":10993,"ĠeinfÃ¼hrung":10994,"Ġimmerhin":10995,"ĠgewÃ¤hr":10996,"ulÃ¤re":10997,"Ã¼hrte":10998,"rief":10999,"Ġgefil":11000,"Ġversorgt":11001,"Ġkleinsten":11002,"Ġblu":11003,"gefahren":11004,"Ġorbit":11005,"Ġforschen":11006,"Ġentwicklungen":11007,"Ġbeschwer":11008,"Ġzielen":11009,"Ġmeile":11010,"Ġverleihen":11011,"Ġfrequenz":11012,"Ġphasen":11013,"Ġworin":11014,"Ġschub":11015,"Ġwissenschafts":11016,"ĠdrÃ¼ckt":11017,"Ġvergleicht":11018,"Ġlink":11019,"âĢĵ":11020,"Ġpolitischer":11021,"sour":11022,"Ġfestzustellen":11023,"Ġriechen":11024,"Ġriecht":11025,"Ġoftmals":11026,"Ġsud":11027,"konz":11028,"Ġengagieren":11029,"Ġeurer":11030,"Ġeurem":11031,"Ġelektrom":11032,"Ġnews":11033,"Ġprojekts":11034,"Ġabsichten":11035,"Ġvorherr":11036,"Ġfilmem":11037,"Ġvertreten":11038,"Ġbestimmtes":11039,"Ġkomplexes":11040,"Ġfeyn":11041,"Ġabsolv":11042,"Ġparteien":11043,"Ġaussagen":11044,"Ġexistierte":11045,"Ġozeans":11046,"onds":11047,"Ġperfektion":11048,"wasserstoff":11049,"Ġgespeich":11050,"Ġmoralisch":11051,"Ġaktuell":11052,"Ġraffin":11053,"netzwerk":11054,"Ġkliniken":11055,"Ġfotografie":11056,"Ġangeblich":11057,"Ġtrugen":11058,"maÃŁnahmen":11059,"ĠmÃ¤rz":11060,"Ġbalken":11061,"Ġsteuert":11062,"Ġdemokratische":11063,"Ġverwirrt":11064,"griffe":11065,"Ġethik":11066,"Ġangewendet":11067,"kanal":11068,"Ġanalysiert":11069,"Ġhistorischen":11070,"Ġverhaltensweisen":11071,"Ġmcdon":11072,"ĠzuzuhÃ¶ren":11073,"ĠbestÃ¤tigt":11074,"ĠausgelÃ¶st":11075,"Ġimmunsystem":11076,"Ġtransformation":11077,"Ġgeglaubt":11078,"ĠberÃ¼cksichtigt":11079,"Ġunmittelbar":11080,"Ġgarantiert":11081,"Ġbeseitigen":11082,"ĠstÃ¤rksten":11083,"Ġdiagnostiziert":11084,"Ġpeinlich":11085,"Ġherangehensweise":11086,"Ġurheberrecht":11087,"Ġbrooklyn":11088,"ĠgelÃ¤hmt":11089,"Ġantarktis":11090,"Ġwahrscheinlicher":11091,"roboter":11092,"Ġshanghai":11093,"Ġpremierminister":11094,"\"?":11095,"heil":11096,"ju":11097,"kreise":11098,"leitungen":11099,"mart":11100,"nie":11101,"ova":11102,"ral":11103,"rus":11104,"zel":11105,"enkt":11106,"erkrankungen":11107,"iehen":11108,"Ġunbesch":11109,"Ġval":11110,"Ġhong":11111,"Ġnorth":11112,"Ġzelt":11113,"Ġkas":11114,"Ġkro":11115,"Ġfange":11116,"einkommen":11117,"alteten":11118,"Ġpend":11119,"Ġpest":11120,"Ġverfl":11121,"ĠtÃ¶ne":11122,"Ġgestr":11123,"Ġran":11124,"Ġreh":11125,"Ġrunde":11126,"isph":11127,"ila":11128,"reche":11129,"reckt":11130,"ĠstÃ¶rung":11131,"Ġausschnitt":11132,"Ġauszur":11133,"atar":11134,"Ġumgesetzt":11135,"bett":11136,"agten":11137,"Ġgesunken":11138,"Ġmeinten":11139,"Ġweite":11140,"uther":11141,"Ġuntereinander":11142,"mitÃ¤t":11143,"Ġeinfachste":11144,"Ġgewinne":11145,"Ġneandert":11146,"ĠgemÃ¤ÃŁ":11147,"Ġversehen":11148,"Ġgelaufen":11149,"ĠklÃ¤nge":11150,"rÃ¤der":11151,"Ġteilten":11152,"Ġdetro":11153,"Ġ38":11154,"Ġ350":11155,"Ġhandelte":11156,"ĠkÃ¶nntest":11157,"Ġsicheren":11158,"Ġlangleb":11159,"Ġwortw":11160,"Ġ48":11161,"Ġminus":11162,"Ġstarteten":11163,"geschichten":11164,"Ġbewaff":11165,"stands":11166,"ĠverkÃ¶rper":11167,"sichts":11168,"Ġangi":11169,"presse":11170,"Ġparks":11171,"Ġurlaub":11172,"digte":11173,"Ġtreu":11174,"Ġformel":11175,"Ġhalbes":11176,"tain":11177,"Ã¼nstler":11178,"Ġnormaler":11179,"Ġvereinen":11180,"Ġgenerieren":11181,"Ġrobotik":11182,"Ġmatrix":11183,"Ġuntersuchten":11184,"ĠschÃ¼tteln":11185,"ĠkÃ¼nstlichen":11186,"ĠanwÃ¤lte":11187,"ĠkÃ¤me":11188,"Ġpsychop":11189,"ansas":11190,"Ġfahrt":11191,"Ġnebeneinander":11192,"Ġgenetik":11193,"Ġzeichnung":11194,"ĠrÃ¼ckseite":11195,"Ġverantwortungs":11196,"ĠmÃ¤nnlichen":11197,"studien":11198,"Ġtoller":11199,"Ġemotional":11200,"frequenz":11201,"Ġidentifiziert":11202,"Ġtafel":11203,"Ġgelegentlich":11204,"kamer":11205,"ĠermÃ¶glichte":11206,"faktor":11207,"Ġschmerzhaft":11208,"ĠauslÃ¶sen":11209,"Ġmotiviert":11210,"zutragen":11211,"Ġagieren":11212,"Ġbestandteile":11213,"Ġnotfall":11214,"Ġverletzlichkeit":11215,"ĠÃ¼blicherweise":11216,"ĠdÃ¼nn":11217,"luft":11218,"Ġorigami":11219,"Ġunbekannten":11220,"ĠvergrÃ¶ÃŁert":11221,"Ġursachen":11222,"Ġhemisph":11223,"Ġintellektuelle":11224,"ĠfÃ¼hrungskrÃ¤fte":11225,"Ġrational":11226,"methoden":11227,"Ġbeeindruckt":11228,"kugel":11229,"video":11230,"Ġkorea":11231,"Ġtreibhausgase":11232,"drÃ¼sen":11233,"Ġcloud":11234,"Ġsecond":11235,"Ġbegleitet":11236,"Ġfiktion":11237,"Ġgeflogen":11238,"Ġpizza":11239,"Ġwonach":11240,"kommunikation":11241,"Ġlincoln":11242,"bieten":11243,"dachte":11244,"kter":11245,"kolle":11246,"labor":11247,"meine":11248,"nor":11249,"sÃ¤u":11250,"uf":11251,"Â»":11252,"Ġ/":11253,"Ġq":11254,"Ġwho":11255,"Ġagr":11256,"ano":11257,"Ġze":11258,"esst":11259,"Ġfit":11260,"lebt":11261,"artikel":11262,"schern":11263,"benden":11264,"Ġantik":11265,"Ġankam":11266,"Ġhawa":11267,"Ġtak":11268,"Ġtrieb":11269,"ĠtrÃ¼":11270,"Ġgeformt":11271,"Ġlg":11272,"ĠlÃ¼":11273,"ĠjÃ¤ger":11274,"Ġbegeben":11275,"Ġschil":11276,"Ġschrum":11277,"Ġaufweisen":11278,"Ġdata":11279,"ĠstieÃŁ":11280,"Ġausgabe":11281,"Ġwaschen":11282,"Ġumlauf":11283,"bewohner":11284,"ielles":11285,"ĠÃ¼bersehen":11286,"Ġreformen":11287,"Ġprovin":11288,"twick":11289,"Ġbeispielen":11290,"spunkte":11291,"kenn":11292,"kennung":11293,"Ġuntere":11294,"Ġgenome":11295,"halter":11296,"ĠdurchfÃ¼hr":11297,"Ġengel":11298,"Ġliefen":11299,"Ġverblei":11300,"Ġchor":11301,"Ġnette":11302,"Ġberlin":11303,"Ġwiederver":11304,"zens":11305,"quot":11306,"samer":11307,"ĠverlÃ¤uft":11308,"Ġ2030":11309,"Ġ2020":11310,"Ġkreu":11311,"Ġ46":11312,"musik":11313,"wohnern":11314,"Ġdile":11315,"Ġentscheidet":11316,"Ġbewunder":11317,"software":11318,"plane":11319,"Ġtauschen":11320,"Ġkurzes":11321,"Ġnaturschutz":11322,"Ġhauses":11323,"Ġhausaufgaben":11324,"Ġweitaus":11325,"Ġherumzu":11326,"Ġbehandlungen":11327,"Ġvereint":11328,"Ġartenvielfalt":11329,"Ġabsur":11330,"Ġstrassen":11331,"Ġaktivisten":11332,"Ġmutig":11333,"Ġskala":11334,"Ġfuer":11335,"Ġpfeil":11336,"Ġferne":11337,"ĠÃ¤rzt":11338,"Ġrichtlinien":11339,"Ġerschafft":11340,"ĠrÃ¼ckmel":11341,"Ġnovember":11342,"Ġholte":11343,"Ġsammelt":11344,"setzte":11345,"Ġkollektiv":11346,"Ġerschienen":11347,"Ġsinkt":11348,"Ġkonzentrierte":11349,"ĠgefÃ¤hrdet":11350,"Ġexperimenten":11351,"Ġgelegenheiten":11352,"Ġspezifischen":11353,"Ġtony":11354,"Ġvernach":11355,"Ġeigentum":11356,"Ġweiblichen":11357,"Ġignoriert":11358,"krankheit":11359,"Ġschlussfol":11360,"mmunity":11361,"Ġkonstruiert":11362,"Ġzutaten":11363,"Ġbriefe":11364,"Ġcola":11365,"fuhr":11366,"Ġradikale":11367,"ĠverÃ¶ffentlichten":11368,"Ġquadratmeter":11369,"Ġtransparent":11370,"Ġwiderstands":11371,"Ġfreiwillig":11372,"Ġskulpturen":11373,"kontroll":11374,"ĠvÃ¶lkermord":11375,"Ġsingap":11376,"stechnologie":11377,"Ġcomics":11378,"mitglieder":11379,"Ġtherapien":11380,"Ġrituale":11381,"Ġmythos":11382,"Ġmeeting":11383,"Ġfrosch":11384,"physik":11385,"Ġautobahn":11386,"Ġanwesenheit":11387,"Ġprobanden":11388,"ĠÃ¼berzeugungen":11389,"kampagne":11390,"Ġnavig":11391,"Ġhenry":11392,"Ġcounty":11393,"Ġausgestattet":11394,"ĠgewalttÃ¤":11395,"Ġbenjamin":11396,"Ġumgewandelt":11397,"Ġfeynman":11398,"99":11399,"fas":11400,"geist":11401,"hÃ¶h":11402,"isen":11403,"nÃ¶":11404,"nutzen":11405,"offen":11406,"riert":11407,"sucht":11408,"zell":11409,"ertigt":11410,"ĠdÃ¤n":11411,"ieber":11412,"Ġstig":11413,"Ġwinden":11414,"unkten":11415,"Ġekel":11416,"Ġearth":11417,"Ġmul":11418,"ĠunmÃ¶gliche":11419,"Ġeingang":11420,"ĠhÃ¤usern":11421,"Ġnieren":11422,"Ġkell":11423,"oni":11424,"Ġfox":11425,"Ã¤ser":11426,"Ġinne":11427,"Ġautist":11428,"ortex":11429,"Ġalarm":11430,"Ġerden":11431,"terung":11432,"Ġhaw":11433,"Ġversetzen":11434,"Ġvertrag":11435,"Ġverarbeitet":11436,"Ġversetzt":11437,"Ġverschaffen":11438,"Ġtar":11439,"Ġrang":11440,"Ġrick":11441,"Ġriff":11442,"Ġbeat":11443,"Ġschalter":11444,"isa":11445,"Ġdampf":11446,"Ġled":11447,"Ġmeinungs":11448,"Ġprostat":11449,"sparen":11450,"spitzen":11451,"utung":11452,"zucht":11453,"steuropa":11454,"Ġherbst":11455,"Ġabkommen":11456,"Ġabwasser":11457,"halle":11458,"ablen":11459,"otte":11460,"saal":11461,"ĠwÃ¼rfel":11462,"Ġhinab":11463,"ruhe":11464,"Ġchile":11465,"Ġchristen":11466,"Ġbereiten":11467,"stelligen":11468,"Ġwiederbe":11469,"flasche":11470,"Ġblinde":11471,"Ġsteven":11472,"Ġstephen":11473,"nteil":11474,"ĠflÃ¼ch":11475,"Ġorangen":11476,"Ġgleichungen":11477,"Ġmillimeter":11478,"ĠmÃ¶chtest":11479,"Ġverwende":11480,"Ġheilige":11481,"Ġinteressierte":11482,"Ġlebensl":11483,"Ġlebensunter":11484,"Ġschuf":11485,"Ġschafe":11486,"Ġkreativer":11487,"bricht":11488,"Ġque":11489,"blog":11490,"blase":11491,"Ġbetrachter":11492,"Ġfolgte":11493,"wiegend":11494,"Ġungere":11495,"Ġembr":11496,"iction":11497,"konsum":11498,"Ġkorrel":11499,"Ġroy":11500,"Ġliban":11501,"Ġanzufangen":11502,"Ġmitteln":11503,"Ġergebnissen":11504,"Ġsaudi":11505,"Ġmathematischen":11506,"Ġbeinhalten":11507,"Ġplatzieren":11508,"Ġzugriff":11509,"Ġverwandt":11510,"Ġerdgas":11511,"Ġ1999":11512,"Ġentwicklungshilfe":11513,"ĠÂ«":11514,"Ġbotschaften":11515,"kamera":11516,"Ġhimmels":11517,"schulen":11518,"Ġspezifische":11519,"Ġzivilisationen":11520,"Ġkonflikten":11521,"biologie":11522,"Ġmarkieren":11523,"Ġwohler":11524,"Ġbetriebs":11525,"Ġvariationen":11526,"Ġkevin":11527,"Ġschweiz":11528,"Ġkauften":11529,"ĠendgÃ¼l":11530,"Ġfundamentale":11531,"ituation":11532,"Ġportug":11533,"ĠfÃ¼hrungspers":11534,"Ġlegiti":11535,"bitte":11536,"Ġbraun":11537,"ĠbemÃ¼hen":11538,"Ġausbreiten":11539,"Ġnuklear":11540,"Ġerneuerbare":11541,"ĠberÃ¼cksichtigen":11542,"Ġrettungs":11543,"ĠdÃ¶rfern":11544,"Ġrepublikaner":11545,"Ġkategorien":11546,"Ġolympischen":11547,"verlust":11548,"Ġbrown":11549,"Ġverschieben":11550,"Ġexponentiell":11551,"Ġmysteri":11552,"Ġgeometrie":11553,"prinzip":11554,"Ġverpflichtet":11555,"Ġnotiz":11556,"Ġkompromiss":11557,"Ġgandhi":11558,"Ġpyramide":11559,"personen":11560,"Ġaristo":11561,"Ã¤sthesie":11562,"ĠgeprÃ¤gt":11563,"Ġwatson":11564,"Ġleinwand":11565,"Ġmanifest":11566,"Ġindonesien":11567,"Ġbambus":11568,"Ġbiolumines":11569,"Ġshakespe":11570,"Ġdelfine":11571,"Ġdetroit":11572,":\"":11573,"bum":11574,"cer":11575,"hs":11576,"kli":11577,"mi":11578,"mten":11579,"psych":11580,"rand":11581,"tlichen":11582,"uv":11583,"unk":11584,"Ġmis":11585,"Ġmord":11586,"streifen":11587,"ĠunzÃ¤h":11588,"ĠgÃ¤ng":11589,"Ġgitter":11590,"Ġglied":11591,"eier":11592,"Ġeinladung":11593,"ĠbÃ¶s":11594,"Ġvin":11595,"Ġhan":11596,"Ġzunge":11597,"schaut":11598,"Ġpanz":11599,"Ġpion":11600,"Ġersatz":11601,"Ġerlernen":11602,"Ġvergeben":11603,"Ġtank":11604,"Ġgekl":11605,"Ġlohnt":11606,"Ġron":11607,"Ġbeute":11608,"Ġbekl":11609,"Ġbeauft":11610,"ĠschlieÃŁ":11611,"Ġaufbew":11612,"Ġmitmachen":11613,"ehl":11614,"rain":11615,"Ġsichere":11616,"Ġstirn":11617,"bezogen":11618,"ĠÃ¼berfluss":11619,"Ġvorkommt":11620,"Ġjeff":11621,"Ġproth":11622,"menten":11623,"ĠâĢ¦":11624,"Ġteurer":11625,"Ġteppich":11626,"alls":11627,"Ġmega":11628,"herum":11629,"perrt":11630,"ado":11631,"Ġnebel":11632,"Ġbegra":11633,"glicher":11634,"Ġgelungen":11635,"gerichtet":11636,"matisch":11637,"Ġblume":11638,"Ġklo":11639,"gefÃ¼gt":11640,"gelÃ¶st":11641,"Ġironie":11642,"aker":11643,"auto":11644,"Ġregulieren":11645,"apital":11646,"Ġlanges":11647,"Ġsoldat":11648,"ĠerzÃ¤hlungen":11649,"gewinn":11650,"muse":11651,"noten":11652,"Ġglaubens":11653,"platten":11654,"Ġriefen":11655,"ĠfrÃ¼hstÃ¼ck":11656,"Ġkoralle":11657,"Ġobere":11658,"Ġlippen":11659,"Ġtypisch":11660,"ĠkostengÃ¼nst":11661,"ĠkÃ¼nstlich":11662,"ĠkÃ¼nstlern":11663,"Ġanwend":11664,"Ġwilde":11665,"ĠanschlieÃŁend":11666,"Ġmikrof":11667,"jÃ¤hriges":11668,"Ġkritiker":11669,"Ġcharlie":11670,"Ġvergleichbar":11671,"icherung":11672,"Ġserv":11673,"Ġschreien":11674,"Ġsimulieren":11675,"Ġressource":11676,"Ġseltsamen":11677,"Ġandrew":11678,"ĠfÃ¶rdert":11679,"Ġinsekt":11680,"ĠauÃŁergewÃ¶hnlichen":11681,"Ġtruppen":11682,"Ġniedrigen":11683,"Ġhungrig":11684,"Ġgeschlechter":11685,"Ġketten":11686,"farben":11687,"Ġunsichtbaren":11688,"Ġredner":11689,"Ġtempel":11690,"zyklus":11691,"ĠprÃ¼f":11692,"Ġtexte":11693,"Ġhistorische":11694,"Ġprophe":11695,"ĠunglÃ¼cklich":11696,"Ġbananen":11697,"Ġpferde":11698,"Ġdiskutiert":11699,"ebene":11700,"Ġlangfristige":11701,"Ġbeliebigen":11702,"Ġkognitiven":11703,"Ġtrennung":11704,"fÃ¶rmige":11705,"vertrauen":11706,"ĠkÃ¤mpfe":11707,"ĠkrankenhÃ¤usern":11708,"Ġrecycling":11709,"Ġautomobil":11710,"Ġstapel":11711,"tunion":11712,"Ġkontinuier":11713,"Ġcarolina":11714,"institut":11715,"Ġzusammengefasst":11716,"Ġwahrhaftig":11717,"nullsummen":11718,"Ġcricket":11719,"Ġmcdonald":11720,"Ġsingapur":11721,".-":11722,"afrik":11723,"cel":11724,"dÃ¤":11725,"dose":11726,"folg":11727,"mikro":11728,"thalb":11729,"weit":11730,"Â°":11731,"Ġ?":11732,"endete":11733,"ering":11734,"Ġgreift":11735,"anter":11736,"Ġeinher":11737,"Ġbade":11738,"Ġiq":11739,"Ġimmen":11740,"Ġnag":11741,"Ġfuss":11742,"Ġfusion":11743,"Ã¤tzt":11744,"schÃ¼":11745,"Ġzugegeben":11746,"Ġsied":11747,"ortion":11748,"Ã¶re":11749,"alie":11750,"allt":11751,"Ġpul":11752,"Ġpip":11753,"gets":11754,"Ġertr":11755,"Ġergreifen":11756,"Ġverwei":11757,"ĠverÃ¤r":11758,"Ġgeziel":11759,"Ġlot":11760,"ĠlÃ¼cken":11761,"Ġrasen":11762,"Ã¼rt":11763,"Ġmitleid":11764,"reben":11765,"Ġstreich":11766,"agos":11767,"Ġvorlesen":11768,"Ġspender":11769,"Ġreprodu":11770,"ollt":11771,"Ġentnehmen":11772,"Ġanderthalb":11773,"liziert":11774,"Ġunterr":11775,"Ġcd":11776,"Ġabbau":11777,"kope":11778,"west":11779,"sack":11780,"Ġkleinste":11781,"Ġgerichts":11782,"Ġgerufen":11783,"gebr":11784,"aufgabe":11785,"Ġherausfanden":11786,"Ġteils":11787,"Ã¶ÃŁt":11788,"Ġseide":11789,"Ġschwimm":11790,"Ġbenannt":11791,"Ġbeschul":11792,"Ġleitet":11793,"Ġleidet":11794,"Ġmaxi":11795,"Ġstipend":11796,"Ġstate":11797,"Ġlebensstil":11798,"loses":11799,"Ġkurse":11800,"Ġbefanden":11801,"ĠverÃ¤nderten":11802,"ĠkÃ¶rperliche":11803,"sstu":11804,"Ġhinterfragen":11805,"Ġtaucht":11806,"ĠgrÃ¼nder":11807,"selbe":11808,"Ġsyrien":11809,"Ġgrab":11810,"Ġbausteine":11811,"ordnungen":11812,"Ġeuren":11813,"Ġ72":11814,"Ġexperte":11815,"Ġruft":11816,"ĠbÃ¼rgern":11817,"zession":11818,"Ġforschern":11819,"Ġforschungen":11820,"Ġwertvolle":11821,"Ġbehandlungs":11822,"Ġaktiven":11823,"Ġautoun":11824,"Ġanzug":11825,"Ġmittelalter":11826,"iums":11827,"stÃ¤ndigen":11828,"Ġpflegen":11829,"Ġklicken":11830,"Ġweltwirtschaft":11831,"Ġumweltschutz":11832,"Ġverschwand":11833,"Ġerschaffung":11834,"Ġzeichnete":11835,"Ġprofil":11836,"Ġfinanzierung":11837,"Ġfingern":11838,"Ġmerkt":11839,"ĠempfÃ¤nger":11840,"Ġberuht":11841,"Ġstarkes":11842,"ĠbÃ¼rgerkrieg":11843,"Ġstudierende":11844,"Ġnordpol":11845,"shir":11846,"kain":11847,"Ġerwachsener":11848,"Ġstrecken":11849,"azine":11850,"Ġbaumkr":11851,"Ġdurchschnittlichen":11852,"Ġmeeresboden":11853,"Ġfeinde":11854,"glÃ¼ck":11855,"Ġpilze":11856,"haftet":11857,"Ġbeliebte":11858,"Ġirgendeinen":11859,"Ġuntersuchte":11860,"Ġhormon":11861,"Ġhungers":11862,"organisationen":11863,"Ġgehirnen":11864,"Ġtendieren":11865,"ĠÃ¶kosysteme":11866,"ĠgewÃ¶hnlichen":11867,"gesellschaften":11868,"Ġdemonstration":11869,"reser":11870,"Ġastronom":11871,"Ġisoliert":11872,"Ġkreuzung":11873,"Ġverringert":11874,"Ġeinzelner":11875,"Ġelite":11876,"Ġerweiterung":11877,"Ġerfolge":11878,"Ġschachtel":11879,"Ġtheoretisch":11880,"burger":11881,"Ġumwandeln":11882,"Ġbekannter":11883,"stÃ¤dte":11884,"ĠfledermÃ¤use":11885,"Ġbeurteilen":11886,"ĠpalÃ¤stinen":11887,"Ġsowjetunion":11888,"ĠÃ¶rtlichen":11889,"Ġszenario":11890,"ĠgestoÃŁen":11891,"ĠannÃ¤hern":11892,"fehler":11893,"ĠzuhÃ¶rer":11894,"bleiben":11895,"Ġapplaus":11896,"ĠtÃ¤nzer":11897,"ĠallmÃ¤h":11898,"ĠÃ¤ngste":11899,"Ġniedrige":11900,"Ġtsunami":11901,"natÃ¼r":11902,"korea":11903,"Ġvakuum":11904,"Ġgespeichert":11905,"Ġaristoteles":11906,"ax":11907,"bc":11908,"bliche":11909,"bÃ¤ren":11910,"dichte":11911,"hut":11912,"kund":11913,"lÃ¤nge":11914,"ni":11915,"nutzung":11916,"ocken":11917,"rollen":11918,"Ġwuchsen":11919,"Ġara":11920,"Ġagend":11921,"Ġecken":11922,"Ġmrt":11923,"Ġgit":11924,"Ġeinladen":11925,"ĠkrÃ¤":11926,"Ġkeller":11927,"Ã¼pfen":11928,"Ġzualler":11929,"Ġinti":11930,"Ġderart":11931,"Ġess":11932,"Ġaltru":11933,"Ġpix":11934,"ters":11935,"Ġverbergen":11936,"Ġtk":11937,"Ġtans":11938,"Ġram":11939,"Ġjones":11940,"Ġbeten":11941,"Ġbeam":11942,"Ġdenker":11943,"Ġsomal":11944,"ret":11945,"Ġstation":11946,"Ġausnahmen":11947,"bez":11948,"amie":11949,"Ġprost":11950,"splan":11951,"Ġhierarchie":11952,"Ġkokain":11953,"Ġunterm":11954,"Ġgenannten":11955,"Ġgeschn":11956,"Ġabnehmen":11957,"Ġdurchfall":11958,"Ã¤ttern":11959,"Ġgrob":11960,"Ã¤rzte":11961,"ickelt":11962,"ĠgewÃ¤sser":11963,"Ã¼hrten":11964,"Ġseti":11965,"Ġbegab":11966,"Ġgereist":11967,"Ġgelei":11968,"gerissen":11969,"Ġkino":11970,"Ġherausgestellt":11971,"Ġirrt":11972,"Ġjemen":11973,"ĠgrundstÃ¼ck":11974,"ĠverlÃ¤sst":11975,"Ġschloss":11976,"Ġmonster":11977,"Ġ192":11978,"Ġ1900":11979,"ĠlÃ¶schen":11980,"brach":11981,"Ġ44":11982,"ĠbehÃ¤lter":11983,"Ġvergi":11984,"ĠkÃ¶rperlich":11985,"arbeitern":11986,"Ġverschmelzen":11987,"Ġtreffe":11988,"Ġtrop":11989,"Ġangegriffen":11990,"Ġkurzfrist":11991,"zeichnete":11992,"Ã¤hnliche":11993,"fÃ¤llig":11994,"Ġruder":11995,"Ġrohr":11996,"ĠÃ¤hnelt":11997,"Ġvorhersage":11998,"Ġveranschau":11999,"Ġheter":12000,"Ġresul":12001,"Ġopti":12002,"ĠpersÃ¶nliches":12003,"Ġpsychologische":12004,"Ġsender":12005,"Ġprogrammier":12006,"Ġnote":12007,"Ġhervorbringen":12008,"smuster":12009,"Ġschweben":12010,"ografische":12011,"Ġaufgezeichnet":12012,"wertungen":12013,"Ġidentisch":12014,"ĠÃ¼berlebens":12015,"ĠerdÃ¶l":12016,"verbindung":12017,"regionen":12018,"geheim":12019,"Ġtrauer":12020,"behand":12021,"Ġtrainings":12022,"ĠfÃ¶rder":12023,"Ġschieben":12024,"Ġversteckte":12025,"Ġpartnerschaft":12026,"Ġcharaktere":12027,"Ġmarkiert":12028,"ĠmobilitÃ¤t":12029,"ĠbiosphÃ¤re":12030,"Ġbegeisterung":12031,"strecken":12032,"Ġintegra":12033,"Ġschweizer":12034,"ĠwÃ¤rmer":12035,"Ġredwood":12036,"Ġproduktions":12037,"Ġethan":12038,"dimensionalen":12039,"Ġsaubere":12040,"Ġmentor":12041,"Ġbelohnt":12042,"Ġstimmung":12043,"Ġschockiert":12044,"Ġermutigt":12045,"ĠÃ¶konomische":12046,"Ġlangfristig":12047,"Ġanstrengung":12048,"Ġmanipulieren":12049,"Ġeinzelnes":12050,"Ġphysikalische":12051,"brot":12052,"Ġrekru":12053,"Ġneurowissenschaftler":12054,"ĠprioritÃ¤ten":12055,"Ġtinte":12056,"Ġbruno":12057,"Ġasth":12058,"Ġkonzert":12059,"stÃ¤tte":12060,"Ġgeographic":12061,"Ġbronx":12062,"Ġunangenehm":12063,"ĠfolgendermaÃŁen":12064,"ĠschÃ¶pfer":12065,"ergebnisse":12066,"Ġzigaretten":12067,"Ġehrgeiz":12068,"Ġherzinfarkt":12069,"Ġneuseeland":12070,"Ġhawaii":12071,"Ġlebensunterhalt":12072,"Ġbegraben":12073,"aida":12074,"bot":12075,"bauer":12076,"ces":12077,"hir":12078,"kÃ¼nstler":12079,"lÃ¶":12080,"mischen":12081,"massen":12082,"sign":12083,"tliche":12084,"van":12085,"Ġut":12086,"ĠÃ¤ngst":12087,"Ġsun":12088,"Ġunvoll":12089,"Ġgall":12090,"ansatz":12091,"eitig":12092,"Ġeinnahmen":12093,"Ġeinstellungen":12094,"Ġig":12095,"Ġii":12096,"Ã¼mer":12097,"orten":12098,"derweise":12099,"empl":12100,"Ġpas":12101,"Ġpir":12102,"lichkeiten":12103,"Ġangeschlossen":12104,"Ġanzeigen":12105,"Ġverlegen":12106,"Ġverhaftet":12107,"urt":12108,"Ġgezeichnet":12109,"ĠlÃ¤":12110,"Ġrente":12111,"Ġjf":12112,"Ġbegehen":12113,"Ġbewerk":12114,"umenten":12115,"Ġware":12116,"red":12117,"rede":12118,"Ġlektionen":12119,"bewegen":12120,"ĠÃ¼berlegt":12121,"Ġspitz":12122,"ĠdemÃ¼":12123,"Ġdemselben":12124,"omaten":12125,"Ġentkommen":12126,"Ġcr":12127,"Ġabsichtlich":12128,"verletz":12129,"Ġweich":12130,"wett":12131,"Ġbesorg":12132,"Ġinterface":12133,"Ġtunnel":12134,"Ġklettern":12135,"ĠgefÃ¼hlt":12136,"Ġversionen":12137,"Ġberat":12138,"Ġbereitet":12139,"Ġgerichtet":12140,"Ġweiterzu":12141,"Ġkleid":12142,"Ġperspe":12143,"Ġherausstellt":12144,"ĠflÃ¼sse":12145,"Ġtatsachen":12146,"igerweise":12147,"Ġmoz":12148,"Ġmoun":12149,"Ġheira":12150,"Ġdenkens":12151,"Ġreifen":12152,"wies":12153,"Ġstarr":12154,"geschrieben":12155,"Ġstrafe":12156,"Ġraums":12157,"Ġgesteuert":12158,"Ġendete":12159,"Ġsahara":12160,"Ġangere":12161,"ican":12162,"Ġhof":12163,"Ġsupern":12164,"ĠgrÃ¼ndeten":12165,"dies":12166,"istenten":12167,"Ġweitgehend":12168,"synd":12169,"Ġstattfand":12170,"Ġbelohn":12171,"Ġtox":12172,"Ġstandort":12173,"Ġstrich":12174,"Ġgeschichtener":12175,"ttert":12176,"Ġpfad":12177,"linder":12178,"Ġschauspiel":12179,"ĠverdÃ¤ch":12180,"ĠtiefgrÃ¼n":12181,"ĠgeschÃ¤ftsmodell":12182,"Ġtechniker":12183,"ĠbeschÃ¤ftigung":12184,"Ġspazieren":12185,"Ġtransplant":12186,"Ġpotenziel":12187,"Ġerscheinung":12188,"Ġtaxi":12189,"sehbar":12190,"Ġverbesserungen":12191,"Ġzivilgesellschaft":12192,"Ġscheibe":12193,"mÃ¤ÃŁige":12194,"Ġparkinson":12195,"Ġmechanismen":12196,"Ġasia":12197,"farbe":12198,"Ġverletzung":12199,"Ġkorallenriffe":12200,"grippe":12201,"abeth":12202,"Ġsynap":12203,"Ġhypothe":12204,"Ġnervensystem":12205,"Ġmembran":12206,"Ġenthus":12207,"Ġreflex":12208,"Ġkooperieren":12209,"Ġbonob":12210,"Ġflaggen":12211,"Ġpenis":12212,"Ġveter":12213,"ĠbemÃ¼hungen":12214,"ĠÃ¶konomischen":12215,"reuen":12216,"sproblem":12217,"Ġmobiltelefon":12218,"Ġcampus":12219,"Ġangelegenheiten":12220,"ĠjÃ¼ngeren":12221,"Ġgrausam":12222,"Ġvulkan":12223,"Ġmetaphern":12224,"profess":12225,"Ġeinkaufs":12226,"mÃ¤rkte":12227,"ĠerfÃ¼llung":12228,"Ġanpassungs":12229,"Ġtastatur":12230,"Ġelternteil":12231,"Ġsquare":12232,"Ġzuallererst":12233,"syndrom":12234,"bahnen":12235,"fass":12236,"gingen":12237,"hÃ¤":12238,"hah":12239,"hÃ¤user":12240,"kann":12241,"log":12242,"lÃ¤nder":12243,"mie":12244,"mÃ¤dchen":12245,"tschaften":12246,"ule":12247,"ucken":12248,"Ġdringen":12249,"Ġwolle":12250,"Ġapr":12251,"stimmt":12252,"Ġguer":12253,"eisten":12254,"eife":12255,"ĠhÃ¤u":12256,"Ġnr":12257,"Ġkram":12258,"lem":12259,"arg":12260,"gentin":12261,"Ġderselbe":12262,"augen":12263,"lichung":12264,"Ġanten":12265,"Ġrauf":12266,"Ġreine":12267,"Ġschrit":12268,"Ġschmelzen":12269,"ily":12270,"Ġdamal":12271,"ĠausÃ¼ben":12272,"Ġauszusehen":12273,"usalem":12274,"ĠÃ¼bersetzung":12275,"Ġspringt":12276,"Ġredete":12277,"Ġrettet":12278,"Ġrealisieren":12279,"Ġjetz":12280,"spuren":12281,"spitze":12282,"Ġcoll":12283,"Ġabw":12284,"Ġsagst":12285,"Ġzeitschriften":12286,"Ġzeitspanne":12287,"ĠgewÃ¼n":12288,"ads":12289,"Ġsegel":12290,"Ġgefroren":12291,"zettel":12292,"Ġberichte":12293,"ĠgerÃ¤ten":12294,"stellungs":12295,"gerte":12296,"Ġblue":12297,"Ġsteckte":12298,"Ġexo":12299,"Ġexempl":12300,"Ġteilte":12301,"Ġteilnahme":12302,"Ġschwelle":12303,"Ġ34":12304,"Ġlandwir":12305,"Ġverwund":12306,"attle":12307,"iva":12308,"Ġlangzeit":12309,"ĠnatÃ¼rliches":12310,"Ġmontere":12311,"Ġmari":12312,"Ġmarath":12313,"Ġ190":12314,"Ġ193":12315,"Ġbetrachtung":12316,"Ġproduktiv":12317,"Ġdrachen":12318,"Ġfallschirm":12319,"Ġtippen":12320,"ĠdiÃ¤t":12321,"Ġhelium":12322,"Ġcoca":12323,"Ġverfassung":12324,"ical":12325,"Ġvollzeit":12326,"Ġhoffnungen":12327,"lebens":12328,"ĠbetÃ¤u":12329,"ordnete":12330,"Ã¼tzer":12331,"Ġfarmer":12332,"Ġcapt":12333,"strafe":12334,"sonst":12335,"Ġoptionen":12336,"Ġbemerkten":12337,"Ġerwartete":12338,"triebs":12339,"Ġerstaunliches":12340,"Ġwochenende":12341,"Ġdemokraten":12342,"Ġseni":12343,"ĠrÃ¼ckgang":12344,"Ġschickt":12345,"Ġaussuchen":12346,"Ġdunkler":12347,"Ġkomische":12348,"packt":12349,"Ġkritischen":12350,"ĠtÃ¤gliche":12351,"Ġherrn":12352,"Ġkilometern":12353,"ameter":12354,"Ġservice":12355,"Ã¼chtern":12356,"Ġphilanthrop":12357,"Ġscott":12358,"Ġverteidigung":12359,"Ġsignifik":12360,"ĠÃ¶kologie":12361,"ĠverstÃ¤ndlich":12362,"handlung":12363,"ĠhÃ¼tte":12364,"Ġafro":12365,"Ġantreibt":12366,"rechner":12367,"Ġ130":12368,"Ġdokumente":12369,"unternehmer":12370,"verstÃ¤ndnis":12371,"Ġklassischen":12372,"tests":12373,"ĠdÃ¼nne":12374,"Ġangewiesen":12375,"ĠgetrÃ¤n":12376,"Ġsolarzellen":12377,"ĠkrÃ¤hen":12378,"Ġwildnis":12379,"Ġunendliche":12380,"Ġdurften":12381,"Ġabstrakte":12382,"Ġentschuldigen":12383,"hÃ¶he":12384,"Ġbeleuchtung":12385,"ĠverstÃ¤rkt":12386,"ĠverstÃ¤rken":12387,"ĠgÃ¶tter":12388,"Ġverlangsam":12389,"Ġchips":12390,"ĠjÃ¼ngste":12391,"Ġgesichtsaus":12392,"Ġdokumentieren":12393,"Ġverwendete":12394,"Ġbevorzugen":12395,"vortrag":12396,"Ġsystematisch":12397,"Ġweihnachts":12398,"strategie":12399,"Ġgriechenland":12400,"Ġdemonstrieren":12401,"Ġibm":12402,"Ġunvermeid":12403,"Ġtasman":12404,"ĠkÃ¼hlschrank":12405,"patienten":12406,"ĠeingeschrÃ¤nkt":12407,"Ġclinton":12408,"ĠvernachlÃ¤ss":12409,"ĠallmÃ¤hlich":12410,"Ġagenda":12411,"60":12412,"ain":12413,"blau":12414,"hagen":12415,"krÃ¤":12416,"ly":12417,"mte":12418,"mone":12419,"nummer":12420,"tasche":12421,"erien":12422,"inchen":12423,"ination":12424,"ĠwÃ¶rtlich":12425,"Ġaer":12426,"ĠaÃŁ":12427,"Ġatember":12428,"Ġms":12429,"ĠmÃ¼cken":12430,"Ġmustern":12431,"ĠmÃ¤usen":12432,"still":12433,"stift":12434,"Ġgalt":12435,"Ġgeister":12436,"eiht":12437,"Ġeingriff":12438,"Ġbor":12439,"ĠbÃ¶":12440,"Ġbiene":12441,"ĠhÃ¼r":12442,"Ġnam":12443,"Ġnad":12444,"Ġkran":12445,"Ġinj":12446,"Ġinfr":12447,"genau":12448,"Ġsieg":12449,"auschen":12450,"ause":12451,"ittel":12452,"Ġpuls":12453,"denke":12454,"Ġerrungen":12455,"acheln":12456,"Ġanz":12457,"Ġanlagen":12458,"teren":12459,"Ġverarbeitung":12460,"Ġgeo":12461,"Ġrm":12462,"Ġrenn":12463,"Ġbearbeiten":12464,"Ġschlage":12465,"Ġumbringen":12466,"ffel":12467,"Ġvorgeschlagen":12468,"Ġrezession":12469,"Ġargentin":12470,"ktu":12471,"Ġbeij":12472,"Ġbeigetragen":12473,"Ġnachkommen":12474,"Ġentlassen":12475,"Ġhiermit":12476,"lickt":12477,"osition":12478,"Ġgenehm":12479,"Ã¤chern":12480,"Ġabgeben":12481,"Ġabschnitt":12482,"schafts":12483,"Ġamt":12484,"maler":12485,"ĠgefÃ¼hlen":12486,"Ġbildes":12487,"Ġversichern":12488,"Ġberkele":12489,"Ġgeringen":12490,"dian":12491,"dite":12492,"flossen":12493,"Ġzusammenzubringen":12494,"istischer":12495,"Ġflucht":12496,"Ġorange":12497,"Ġideale":12498,"Ġirration":12499,"Ġdekor":12500,"ĠfrÃ¶":12501,"aks":12502,"Ġkamel":12503,"Ã¤dag":12504,"Ġmaster":12505,"Ġschnapp":12506,"altungen":12507,"Ġworaus":12508,"Ġ5000":12509,"Ġreiz":12510,"Ġfolien":12511,"Ġprozentsatz":12512,"dring":12513,"Ġhochschul":12514,"Ġraumschiff":12515,"Ġlinsen":12516,"phil":12517,"unterschiede":12518,"Ġgrupp":12519,"Ġhilflos":12520,"Ġzukunfts":12521,"Ġessens":12522,"ĠÃ¼bel":12523,"Ã¤hnlichen":12524,"Ġfortpflanz":12525,"ĠsÃ¼dlich":12526,"ĠbÃ¼ros":12527,"ĠcafÃ©":12528,"Ġfavor":12529,"Ġaktive":12530,"Ġsky":12531,"Ġinstabil":12532,"strahlen":12533,"strahlung":12534,"Ġherzkrankheiten":12535,"Ġdeines":12536,"Ġfesten":12537,"ĠnÃ¤hern":12538,"Ġdoug":12539,"Ġmikrob":12540,"ĠtÃ¶dlich":12541,"Ġkritisch":12542,"ĠerklÃ¤rungen":12543,"Ġintelligenter":12544,"ĠgefÃ¤hrlichen":12545,"Ġbarm":12546,"Ġkilogramm":12547,"Ġaufregung":12548,"Ġkontak":12549,"Ġsorte":12550,"Ġkathe":12551,"Ġangesprochen":12552,"technologien":12553,"Ġpraktische":12554,"Ġverteidigungs":12555,"Ġreduktion":12556,"Ġozeanen":12557,"ĠzufÃ¤llige":12558,"Ġdienste":12559,"Ġjapanischen":12560,"ĠprÃ¤sent":12561,"Ġbatterien":12562,"grÃ¶ÃŁte":12563,"ĠmÃ¼ttern":12564,"Ġwohingegen":12565,"beding":12566,"Ġbesucher":12567,"Ġmelden":12568,"ĠgeschÃ¤ftsfÃ¼hrer":12569,"Ġkonstruieren":12570,"rahmen":12571,"Ġgeschenkt":12572,"Ġaction":12573,"Ġbrennstoffe":12574,"gesetze":12575,"Ġkluge":12576,"ĠverÃ¶ffentlichung":12577,"Ġback":12578,"nachrichten":12579,"Ġkonkurrieren":12580,"ĠzusÃ¤tzlichen":12581,"Ġtomaten":12582,"Ġintellektuellen":12583,"Ġpatri":12584,"ĠfranzÃ¶sischen":12585,"Ġverhandlungen":12586,"ĠkriminalitÃ¤t":12587,"bombe":12588,"Ġcomic":12589,"Ġbundesstaat":12590,"Ġwahnsinnig":12591,"Ġbeunruhigt":12592,"ĠkÃ¼nste":12593,"Ġmobiltelefone":12594,"Ġbiomasse":12595,"Ġberuhigen":12596,"ĠenttÃ¤uscht":12597,"millionen":12598,"Ġfrustriert":12599,"Ġhohem":12600,"Ġcartoons":12601,"Ġoffensichtliche":12602,"Ġentwarf":12603,"Ġthunfisch":12604,"Ġargumentieren":12605,"sorganisationen":12606,"Ġbehinderungen":12607,"katastrophen":12608,"Ġconnect":12609,"Ġbefriedigen":12610,"kilometer":12611,"Ġbeobachtungen":12612,"ĠaufklÃ¤rung":12613,"Ġhalluzinationen":12614,"Ġdvd":12615,"ĠzeitgenÃ¶ss":12616,"Ġpriester":12617,"Ġunbewusst":12618,"Ġpestizi":12619,"Ġagrar":12620,"Ġasthma":12621,"Ġatemberau":12622,"belt":12623,"bast":12624,"bane":12625,"cla":12626,"kranken":12627,"lor":12628,"lampe":12629,"mien":12630,"mess":12631,"mungs":12632,"tÃ¶":12633,"Â²":12634,"enhagen":12635,"Ġdp":12636,"inkt":12637,"Ġwachte":12638,"Ġwitze":12639,"ĠaÃŁen":12640,"Ġabed":12641,"stritten":12642,"stÃ¶rungen":12643,"Ġunrecht":12644,"Ġgor":12645,"Ġeinheim":12646,"Ġbindung":12647,"ĠbÃ¼hnen":12648,"Ġhans":12649,"Ġkunde":12650,"ĠkÃ¤lte":12651,"Ġfung":12652,"schwar":12653,"ĠzustÃ¤ndig":12654,"Ġalber":12655,"Ġerober":12656,"Ġerrichtet":12657,"Ġankunft":12658,"Ġhaft":12659,"Ġverpassen":12660,"Ġtok":12661,"Ġtha":12662,"Ġjagd":12663,"Ġbeacht":12664,"Ġschri":12665,"Ġschlicht":12666,"ĠschÃ¶pfung":12667,"umin":12668,"Ã¼re":12669,"ĠaufhÃ¶rt":12670,"Ġoz":12671,"Ġoma":12672,"lenn":12673,"rechnung":12674,"Ġlege":12675,"Ġumsonst":12676,"Ã¶nland":12677,"betr":12678,"ĠÃ¼bertragung":12679,"ĠvorÃ¼ber":12680,"sequenz":12681,"ochten":12682,"Ġweist":12683,"Ġproj":12684,"Ġkoennen":12685,"Ã¼ckte":12686,"listen":12687,"ottet":12688,"Ã¤rt":12689,"Ġenge":12690,"gesp":12691,"Ġgefiel":12692,"sterreich":12693,"Ġarthur":12694,"Ġzusammenbringen":12695,"Ġzusammenbruch":12696,"Ġbestanden":12697,"gelenk":12698,"Ġteilzunehmen":12699,"okoll":12700,"Ġgenauigkeit":12701,"Ġmodi":12702,"Ġ3000":12703,"Ġwegzu":12704,"Ġpaare":12705,"Ġpaaren":12706,"prozen":12707,"Ġschnellen":12708,"ĠwÃ¤hrung":12709,"alth":12710,"ĠwÃ¤hrenddessen":12711,"Ġschuh":12712,"Ġkreatur":12713,"Ġ43":12714,"ssinn":12715,"Ġsav":12716,"teilchen":12717,"Ġstarker":12718,"Ġinformieren":12719,"Ġdiam":12720,"Ġlinse":12721,"sprung":12722,"Ġangriffe":12723,"Ġparasiten":12724,"Ġtaucher":12725,"Ġbedingung":12726,"Ġangestellte":12727,"eistern":12728,"Ġerwischt":12729,"Ġatlant":12730,"ĠvermÃ¤chtnis":12731,"ĠerklÃ¤re":12732,"locken":12733,"Ġrout":12734,"Ġdesignern":12735,"Ġkunstwerk":12736,"Ġamerikanischer":12737,"Ġjahrhunderten":12738,"Ġfreundes":12739,"Ġanzupassen":12740,"Ġvertreter":12741,"Ġkostenlose":12742,"Ġpflicht":12743,"Ġinvas":12744,"skrise":12745,"Ġmeerwasser":12746,"Ġpsychischen":12747,"Ġzahlreiche":12748,"Ġharry":12749,"Ġchemotherapie":12750,"Ġaufzugeben":12751,"Ġsammelten":12752,"Ġentscheidenden":12753,"Ġplatziert":12754,"Ġaufgegeben":12755,"ĠsÃ¼dpol":12756,"ĠkÃ¼nstlerin":12757,"Ġkathol":12758,"Ġgespannt":12759,"show":12760,"Ġseri":12761,"gestaltung":12762,"gehirn":12763,"Ġdrastisch":12764,"freie":12765,"ĠmitgefÃ¼hls":12766,"Ġjunges":12767,"schuhe":12768,"mÃ¤ÃŁigen":12769,"Ġkopenhagen":12770,"ĠverzÃ¶":12771,"ĠabschlieÃŁend":12772,"ĠsÃ¤ulen":12773,"Ġargumente":12774,"stream":12775,"Ġbusch":12776,"Ġmelodie":12777,"Ġproject":12778,"archite":12779,"Ġphilosophen":12780,"Ġtemperaturen":12781,"Ġexistierenden":12782,"ĠÃ¼blichen":12783,"Ġdynamisch":12784,"Ġextrah":12785,"ĠwÃ¤hlten":12786,"Ġstimmte":12787,"Ġmessungen":12788,"ĠermÃ¤ch":12789,"Ġrohstoffe":12790,"Ġbetrachteten":12791,"Ġaustauschen":12792,"ĠbÃ¤cker":12793,"ĠablÃ¤uft":12794,"Ġkartoff":12795,"Ġausgesprochen":12796,"Ġathle":12797,"ĠglamourÃ¶s":12798,"Ġangenehm":12799,"ĠalltÃ¤glichen":12800,"Ġvorgehensweise":12801,"Ġriskieren":12802,"Ġgebrauchen":12803,"Ġbefreit":12804,"erzÃ¤hlen":12805,"Ġcartoon":12806,"Ġgeduld":12807,"Ġrespektieren":12808,"Ġwiederaufbau":12809,"papier":12810,"Ġbefolgen":12811,"Ġlouis":12812,"Ġvirginia":12813,"Ġjoseph":12814,"ĠsÃ¶hne":12815,"Ġfluoreszieren":12816,"Ġleonardo":12817,"ĠwortwÃ¶rtlich":12818,"Ġangiogenese":12819,"Ġdilemma":12820,"Ġgeleistet":12821,"Ġmozart":12822,"Ġapril":12823,"Ġmonterey":12824,"Ġinfrar":12825,"Ġberkeley":12826,"Ġatlanta":12827,"12":12828,"big":12829,"flich":12830,"gant":12831,"kÃ¶r":12832,"kuchen":12833,"lingen":12834,"mische":12835,"tre":12836,"ua":12837,"uhren":12838,"wan":12839,"wis":12840,"ynt":12841,"zungen":12842,"zessen":12843,"iniert":12844,"ieter":12845,"Ġsug":12846,"Ġsauer":12847,"Ġwright":12848,"undern":12849,"unts":12850,"Ġeti":12851,"Ġmm":12852,"steuern":12853,"Ġeinsicht":12854,"Ġeinsamkeit":12855,"Ġbre":12856,"Ġbrett":12857,"Ġbosn":12858,"Ġhasse":12859,"Ġni":12860,"Ġzorn":12861,"Ġfesseln":12862,"arium":12863,"Ġint":12864,"Ã¶pft":12865,"Ġpath":12866,"Ġerspar":12867,"Ġanforder":12868,"Ġaneinander":12869,"Ġangebracht":12870,"Ġhaken":12871,"Ġverhe":12872,"Ġlh":12873,"Ġlt":12874,"ĠrÃ¼":12875,"Ġbecher":12876,"Ġbelegen":12877,"Ġscharf":12878,"Ġaufwand":12879,"Ġobst":12880,"ilzt":12881,"beziehen":12882,"agnen":12883,"ĠÃ¼bernimmt":12884,"euten":12885,"Ġspag":12886,"Ġreferenz":12887,"spolitik":12888,"ĠgrÃ¶nland":12889,"Ġgenossen":12890,"Ġabspielen":12891,"absichtig":12892,"oto":12893,"weichen":12894,"eiler":12895,"Ġinterag":12896,"ppel":12897,"Ġgewehr":12898,"bart":12899,"pften":12900,"Ġseg":12901,"Ġgemerkt":12902,"Ġbegriffe":12903,"Ġeigener":12904,"Ġtatto":12905,"dimensionen":12906,"Ġgebilde":12907,"Ġdaniel":12908,"ologin":12909,"Ġklische":12910,"Ġherausfand":12911,"Ġzusammenkommen":12912,"Ġentwir":12913,"opard":12914,"Ġorden":12915,"ĠÃ¶sterreich":12916,"Ġidealen":12917,"Ġideologie":12918,"Ġmosche":12919,"Ġzwie":12920,"Ġtags":12921,"ineering":12922,"Ġregime":12923,"attung":12924,"Ã¤dt":12925,"altungs":12926,"ĠanfÃ¼hlt":12927,"Ġfolgten":12928,"Ġuniversen":12929,"Ġsaison":12930,"Ġschnellsten":12931,"dreht":12932,"ckta":12933,"Ġdiff":12934,"ĠkÃ¶rperlichen":12935,"phia":12936,"phase":12937,"Ġfiltern":12938,"Ġurteil":12939,"Ġformul":12940,"Ġsterbe":12941,"Ġessenz":12942,"Ġgraf":12943,"Ġbaue":12944,"Ġorganisierten":12945,"Ġerfolgreichen":12946,"Ġroute":12947,"Ġrover":12948,"ĠÃ¤hneln":12949,"Ġvereinf":12950,"Ġloswerden":12951,"gemÃ¤ÃŁ":12952,"Ġstrasse":12953,"Ġnetze":12954,"Ġausgeht":12955,"Ġanzubieten":12956,"Ġaktien":12957,"Ġstundenlang":12958,"Ġdisney":12959,"ĠanschlieÃŁen":12960,"stafrika":12961,"ĠrÃ¼ckkehr":12962,"Ġfinanziell":12963,"Ġverdamm":12964,"Ġvisuell":12965,"Ġwiderspie":12966,"ĠaufgehÃ¶rt":12967,"Ġextremen":12968,"Ġspazier":12969,"Ã¤ssern":12970,"ĠÃ¼berwÃ¤ltigen":12971,"Ġschlamm":12972,"Ġinspirierend":12973,"Ġverbrachten":12974,"verbindungen":12975,"Ġ1994":12976,"Ġ1995":12977,"Ġvoraussetzungen":12978,"trÃ¤gen":12979,"ĠprÃ¤sentiert":12980,"ĠernÃ¤hrungs":12981,"Ġparkplatz":12982,"Ġzwecke":12983,"Ġwaisen":12984,"artiges":12985,"Ġbeteiligung":12986,"Ġklappt":12987,"Ġaufwachsen":12988,"Ġdelfin":12989,"Ġarabische":12990,"groÃŁe":12991,"Ġverkauften":12992,"ĠerlÃ¤u":12993,"Ġvorbereiten":12994,"Ġanrufe":12995,"Ġschlauer":12996,"Ġbombar":12997,"Ġromantische":12998,"ĠvÃ¶geln":12999,"ĠenthÃ¼l":13000,"Ġausgebil":13001,"Ġkonsequenz":13002,"ĠungewÃ¶hnliche":13003,"Ġungehe":13004,"Ġriver":13005,"Ġpinguin":13006,"Ġmoderner":13007,"ĠfranzÃ¶sische":13008,"ĠflÃ¼chtlings":13009,"ĠverknÃ¼pfen":13010,"Ġanstrengungen":13011,"Ġkomponente":13012,"Ġweihnachten":13013,"Ġgeschwister":13014,"Ġsarah":13015,"Ġerholen":13016,"Ġunerwartete":13017,"Ġinfektionen":13018,"Ġbahnbrechen":13019,"Ġrekord":13020,"Ġlateinamerika":13021,"ĠbesaÃŁ":13022,"ĠgÃ¤nzlich":13023,"Ġreflektieren":13024,"Ġdumme":13025,"Ġdesignen":13026,"Ġpandemie":13027,"Ġkontrast":13028,"Ġultimative":13029,"gÃ¤ngig":13030,"Ġvorurteile":13031,"Ġcomedy":13032,"familie":13033,"Ġmumbai":13034,"Ġglukose":13035,"Ġkristall":13036,"Ġelektromagne":13037,"Ġstigma":13038,"museum":13039,"Ġtansania":13040,"ĠgeschichtenerzÃ¤hler":13041,"bod":13042,"bienen":13043,"brecher":13044,"cent":13045,"fiel":13046,"ianische":13047,"job":13048,"korn":13049,"lere":13050,"mass":13051,"ois":13052,"prei":13053,"uck":13054,"uckt":13055,"val":13056,"wahl":13057,"Ġ]":13058,"chem":13059,"insel":13060,"iedr":13061,"Ġmall":13062,"Ġmult":13063,"Ġmisser":13064,"steuer":13065,"andet":13066,"ĠbÃ¤lle":13067,"Ġnummern":13068,"Ġzet":13069,"Ġzahlt":13070,"Ã¤k":13071,"schÃ¤tzen":13072,"Ġzustande":13073,"Ġinhalts":13074,"Ġsieb":13075,"dere":13076,"emp":13077,"Ġalas":13078,"Ġpik":13079,"Ġpant":13080,"Ġere":13081,"Ġerwecken":13082,"Ġanbau":13083,"bericht":13084,"ichtung":13085,"ĠverlieÃŁen":13086,"Ġverlaufen":13087,"Ġtyr":13088,"Ġluther":13089,"olera":13090,"Ġrunden":13091,"Ġbeer":13092,"Ġsche":13093,"Ġschale":13094,"Ġaufgefallen":13095,"Ġofen":13096,"annter":13097,"reden":13098,"regend":13099,"Ġstrei":13100,"ĠstÃ¶ren":13101,"Ġausbe":13102,"Ġauszut":13103,"Ġumsetzung":13104,"beam":13105,"agern":13106,"ĠÃ¼berholt":13107,"Ġvornehmen":13108,"Ġimper":13109,"Ġimplan":13110,"Ġimitieren":13111,"oche":13112,"Ġspart":13113,"Ġredeten":13114,"Ġrebell":13115,"ikopter":13116,"Ġjet":13117,"ollo":13118,"reibungen":13119,"Ġhierzu":13120,"uts":13121,"stecken":13122,"Ġkoso":13123,"Ġvielversprechen":13124,"ĠunterdrÃ¼cken":13125,"Ġunterbrochen":13126,"Ġclip":13127,"issenschaften":13128,"Ġabholz":13129,"Ã¼ndeten":13130,"alles":13131,"medien":13132,"Ġverbrauch":13133,"Ġcholera":13134,"Ġpack":13135,"Ġtunes":13136,"ades":13137,"Ġseattle":13138,"Ġneok":13139,"Ġweitergeben":13140,"gerÃ¤u":13141,"Ġblutz":13142,"Ġsteinen":13143,"Ġherauskommen":13144,"Ġherausfordern":13145,"Ġzusammengestellt":13146,"opol":13147,"Ġgleichberech":13148,"Ġkindergarten":13149,"Ġschwachen":13150,"Ġverwunder":13151,"Ġverwaltung":13152,"klass":13153,"ĠfÃ¼hre":13154,"Ġmontag":13155,"ziele":13156,"Ġgeradezu":13157,"Ġnormen":13158,"Ġquell":13159,"blasen":13160,"Ġ47":13161,"Ġgedauert":13162,"ĠbefÃ¤h":13163,"Ġhochwer":13164,"Ġseither":13165,"aya":13166,"idmet":13167,"Ġdollars":13168,"Ġschleu":13169,"Ġunterschiedlicher":13170,"jetzt":13171,"Ġernste":13172,"Ġerniedr":13173,"Ġmagazine":13174,"Ġsuppe":13175,"Ġsupr":13176,"diese":13177,"Ġfotografen":13178,"Ġhaushalts":13179,"Ġfortbewegung":13180,"Ġgeneriert":13181,"Ġrelation":13182,"Ġhebel":13183,"Ġfeder":13184,"Ġmaschin":13185,"Ġunbegrenz":13186,"Ġbezogen":13187,"sius":13188,"Ġjup":13189,"Ġerreichten":13190,"Ġzeichnet":13191,"Ġchemiker":13192,"Ġsexy":13193,"packen":13194,"sprojekt":13195,"Ġschwierigsten":13196,"Ġerschreck":13197,"Ġerschrecken":13198,"ĠhinzugefÃ¼gt":13199,"strukturen":13200,"Ġtraurige":13201,"Ġfantastisches":13202,"ĠÃ¶kologischen":13203,"Ġ160":13204,"wandeln":13205,"Ġlagern":13206,"Ġindus":13207,"Ġantreiben":13208,"ĠfÃ¼ttern":13209,"Ġtrainer":13210,"Ġkopiert":13211,"grÃ¼nde":13212,"Ġbriten":13213,"Ġdeutsche":13214,"Ġpille":13215,"Ġlautsprecher":13216,"ĠphÃ¤nomene":13217,"ynamik":13218,"Ġpositionen":13219,"Ġvariante":13220,"ĠmilitÃ¤rische":13221,"Ġbehauptet":13222,"planung":13223,"Ġausdrucks":13224,"ĠpalÃ¤":13225,"Ġgesundheitsversorgung":13226,"ĠhÃ¤ufigsten":13227,"Ġmerkmal":13228,"Ġkomplizierten":13229,"Ġelektronischen":13230,"Ġzutrifft":13231,"ĠÃ¼bungen":13232,"Ġsubje":13233,"zurufen":13234,"Ġfoie":13235,"Ġdicke":13236,"Ġsilber":13237,"Ġsteuerung":13238,"Ġfleck":13239,"ĠÃ¤gypter":13240,"partner":13241,"Ġastronomen":13242,"orgungs":13243,"Ġdreieinhalb":13244,"Ġhindernis":13245,"Ġbrutto":13246,"Ġmrd":13247,"Ġanerkennen":13248,"Ġveranstaltung":13249,"ĠabhÃ¤ngen":13250,"Ġzusammenzuarbeiten":13251,"Ã¼ttert":13252,"suche":13253,"pflanzt":13254,"ĠhÃ¼hnchen":13255,"Ġschaltkreise":13256,"Ġtinten":13257,"Ġweiterentwickelt":13258,"stattung":13259,"ĠgemeinnÃ¼tzige":13260,"Ġpumpen":13261,"Ġeverest":13262,"Ġharmonie":13263,"dehnt":13264,"Ġklatschen":13265,"Ġkrankenschwestern":13266,"ĠbeÃ¤ngstigend":13267,"Ġinformatik":13268,"Ġcelsius":13269,"Ġfilmemacher":13270,"uverne":13271,"ĠunzÃ¤hlige":13272,"ĠannÃ¤hernd":13273,"Ġperspektiven":13274,"Ġordentlich":13275,"cl":13276,"cra":13277,"effe":13278,"feuer":13279,"ites":13280,"mir":13281,"osten":13282,"roll":13283,"ressen":13284,"uk":13285,"ye":13286,"ÃŃ":13287,"entz":13288,"enix":13289,"Ġdod":13290,"infe":13291,"Ġsier":13292,"Ġwag":13293,"Ġwunden":13294,"Ġasy":13295,"Ġact":13296,"Ġapart":13297,"Ġek":13298,"ĠmÃ¼h":13299,"stchen":13300,"Ġunion":13301,"ĠunnÃ¶":13302,"Ġgir":13303,"Ġginge":13304,"anor":13305,"eiert":13306,"Ġeinbauen":13307,"Ġbass":13308,"Ġbrad":13309,"Ġholl":13310,"Ġhot":13311,"ĠhÃ¼lle":13312,"Ġneigung":13313,"Ġzoo":13314,"Ġklau":13315,"ĠkÃ¼nf":13316,"Ġkehren":13317,"ĠfÃ¤r":13318,"ĠflieÃŁend":13319,"lecht":13320,"arkt":13321,"schichten":13322,"Ġinf":13323,"elig":13324,"tifiz":13325,"derwÃ¤rmung":13326,"Ġalbert":13327,"Ġerforder":13328,"Ġerstellten":13329,"bende":13330,"Ġanlegen":13331,"Ġverscha":13332,"Ġgesten":13333,"Ġrannte":13334,"Ġjord":13335,"Ġbedient":13336,"Ġaufsp":13337,"igsten":13338,"rea":13339,"Ġlegal":13340,"Ġaussicht":13341,"atr":13342,"betrieben":13343,"amas":13344,"ĠÃ¼bertrag":13345,"ĠÃ¼bersetz":13346,"Ġrechnung":13347,"ikon":13348,"Ġnachth":13349,"Ġnachvoll":13350,"neter":13351,"Ġmacher":13352,"Ġherkommen":13353,"Ġunternommen":13354,"Ġcat":13355,"Ġcli":13356,"Ġgeschossen":13357,"angst":13358,"otter":13359,"Ġbesiegen":13360,"Ġzeitschrift":13361,"perspektive":13362,"gesagt":13363,"Ġnetten":13364,"Ġgemalt":13365,"Ġberaten":13366,"Ã¤ufen":13367,"Ġgelandet":13368,"Ġweitergegeben":13369,"flaschen":13370,"Ġperman":13371,"Ã¤nderungen":13372,"Ġwahres":13373,"spielt":13374,"Ġirland":13375,"Ġmount":13376,"Ġschwimmt":13377,"ĠschwÃ¤chen":13378,"Ġbenennen":13379,"Ġkambod":13380,"formance":13381,"apfen":13382,"dienste":13383,"Ġverluste":13384,"Ġfunktionsweise":13385,"frem":13386,"Ġ1930":13387,"imp":13388,"ĠanfÃ¤llig":13389,"Ġminim":13390,"Ġdankbarkeit":13391,"Ġinformiert":13392,"Ġendeffekt":13393,"Ġbewundern":13394,"ĠschÃ¶nsten":13395,"ĠvollstÃ¤ndige":13396,"Ġpartikel":13397,"Ġmagische":13398,"Ġgramma":13399,"Ġrose":13400,"Ġstattgefunden":13401,"Ġpubert":13402,"Ġschultern":13403,"minist":13404,"finanz":13405,"Ġfreundlich":13406,"Ġherzschlag":13407,"Ġvideospiel":13408,"Ġreporter":13409,"Ġwilder":13410,
[...]
