#version: 0.2
Ġ t
Ġt h
Ġ a
Ġ i
Ġ w
Ġth e
Ġ s
r e
Ġ o
i n
a t
n d
e r
o u
Ġ c
Ġ b
Ġ m
Ġ h
in g
Ġa nd
e n
Ġ p
Ġt o
o n
Ġ f
Ġ d
a n
e s
Ġo f
o r
l l
Ġi n
Ġ l
e d
i s
Ġ y
i t
a r
Ġth at
Ġ g
Ġw e
Ġ n
Ġy ou
o m
a s
Ġw h
Ġi t
i c
l e
v e
a l
Ġ e
Ġi s
Ġb e
o w
u s
u t
i on
o t
' s
e t
Ġ re
Ġo n
Ġh a
en t
c t
Ġth is
l d
v er
Ġs o
a y
s e
a ll
r o
Ġs t
s t
i d
i g
u r
l y
c h
Ġh e
k e
Ġf or
c e
Ġthe y
r a
Ġa n
Ġw as
Ġd o
i m
Ġa re
Ġ u
i r
Ġg o
Ġl i
t h
it h
o p
all y
Ġ k
Ġw ith
Ġs e
a m
Ġha ve
Ġa b
Ġwh at
Ġb ut
Ġc an
Ġa s
Ġm o
Ġ -
Ġ- -
at ion
ou t
Ġ j
h t
Ġs h
o l
e re
Ġw or
Ġn e
Ġc om
Ġa t
ver y
Ġm e
' t
a d
Ġc h
Ġthe re
ou ld
Ġn ot
Ġab out
Ġ r
Ġa ll
i ll
an t
t er
g e
i l
Ġf r
u l
Ġs om
us t
o o
Ġe x
Ġm y
Ġo r
er s
Ġp ro
Ġd e
us e
ig ht
Ġp e
Ġon e
Ġ "
Ġc on
' re
u m
ar t
Ġpe op
Ġli ke
Ġpeop le
e ar
Ġbe c
p p
c k
es s
Ġm a
u re
at e
i es
Ġi f
Ġfr om
it y
i ve
es t
Ġk n
Ġa l
Ġ v
i f
e ct
is t
n t
b le
Ġn ow
q u
Ġo ur
in d
Ġj ust
Ġt e
Ġ us
in k
Ġthe se
Ġo ut
Ġin t
Ġkn ow
Ġs p
a use
r ou
oo k
u n
o d
Ġth ing
Ġwh en
Ġbec ause
Ġse e
Ġt r
Ġthe m
Ġ very
Ġwh o
a nd
Ġth ink
i e
Ġu p
o s
or t
h er
Ġg et
Ġp l
Ġb y
Ġsom e
ic h
Ġh ow
Ġgo ing
c i
Ġa ct
i v
a in
Ġ 1
Ġyou r
on e
Ġmo re
o g
Ġi m
Ġs a
e l
Ġha d
Ġy ear
Ġt im
Ġwh ich
Ġw ould
e m
Ġ en
Ġl ook
Ġhe re
Ġwe re
Ġs u
a p
0 0
in e
ou r
Ġthe ir
Ġcom p
Ġre ally
am e
Ġw ant
as t
m ent
Ġc o
Ġt a
u ally
Ġwor k
Ġl e
. "
Ġth an
ar d
i z
ou s
' ve
Ġthe n
a ct
g h
Ġwor ld
re at
a ck
Ġw ay
Ġe very
a re
h ing
o se
' m
Ġtim e
Ġm an
Ġh as
Ġp er
Ġu n
Ġo th
Ġd on
an s
Ġ qu
a b
Ġe v
Ġn o
re s
a g
Ġact ually
Ġw ill
Ġex p
id e
Ġint o
Ġwh ere
Ġf e
Ġc ould
Ġs ay
Ġa g
a ce
on g
ion s
i ld
o re
Ġthing s
en ce
it t
u d
Ġoth er
Ġyear s
a ge
Ġd id
Ġsom et
Ġa m
al k
Ġt w
Ġan y
Ġa f
Ġc l
if f
nd er
Ġr ight
ic al
a ch
Ġne w
Ġbe en
Ġma ke
Ġp r
Ġha pp
Ġd iff
Ġa r
Ġwe ll
Ġsh e
i p
Ġp o
s o
Ġne ed
Ġo ver
Ġb u
Ġsa id
Ġp art
Ġf ir
Ġst art
Ġ ro
Ġ â
f e
Ġsomet hing
re d
Ġtw o
Ġ 2
Ġim p
Ġd is
Ġfir st
re e
ow n
i a
Ġth ose
Ġm u
ic e
r y
Ġb ack
or y
Ġl o
it e
p t
Ġg ot
or m
Ġmu ch
rou nd
ou nt
ol og
Ġk ind
Ġc all
ig n
en s
as s
Ġch an
Ġdiff ere
d e
Ġal so
itt le
at er
Ġl ittle
Ġp h
ou nd
i b
f f
se l
Ġâ Ļ
c ent
Ġl ot
Ġmo st
Ġsp e
Ġa c
u e
Ġcon t
p le
c es
g ht
ul t
Ġt alk
Ġd es
w ay
b er
Ġbe t
e ll
v es
Ġev en
Ġon ly
Ġa d
Ġre s
v ing
Ġli fe
k ing
ra in
Ġs y
Ġh is
ve l
om e
Ġu nder
od y
c o
r u
at ed
Ġi nd
Ġd ay
a ble
Ġh um
Ġman y
e p
ation s
Ġb l
Ġta ke
Ġgo od
ĠâĻ «
Ġb r
Ġl et
p h
m s
Ġdo es
Ġdiffere nt
Ġh er
is h
ic k
ic t
i al
rou gh
ot her
Ġre al
oo d
in t
Ġd own
Ġi de
Ġth rough
Ġa round
Ġcom m
Ġin ter
Ġp ut
d u
i re
as e
Ġm ay
Ġp re
p l
ent s
' ll
Ġs c
Ġsh ow
Ġwh y
Ġ use
ar k
ur n
Ġte ll
Ġbe ing
Ġ ra
c ess
d ay
Ġe m
Ġf l
Ġof f
f orm
i ble
or s
res s
ad e
Ġs ame
Ġs m
Ġin c
Ġth ou
Ġhapp en
Ġtr y
Ġto o
Ġcom e
Ġg reat
Ġpro ble
a k
et her
Ġg en
o b
an ce
Ġc ount
ch n
ar y
w n
Ġf act
at h
Ġb ig
p e
j ect
Ġth ree
Ġc ar
y s
i ver
st em
an g
Ġdo ing
x t
f ul
Ġte chn
Ġhum an
Ġg r
u al
n ing
Ġf ind
Ġw r
ic ally
t ing
Ġg u
or d
Ġp ers
Ġs ur
w e
i le
Ġthan k
Ġt ra
v ed
Ġag ain
p er
r ic
Ġa pp
a c
Ġaf ter
Ġsy stem
Ġst ud
Ġper cent
olog y
Ġbu ild
Ġs im
Ġde c
i ed
Ġch ild
ow er
nd s
f ore
re n
th ing
b ody
Ġcall ed
ill ion
sel f
' d
b e
Ġe ar
on s
Ġre m
ig h
Ġto day
Ġin st
Ġw om
Ġf o
Ġin v
Ġl ong
Ġqu est
Ġbe l
ic s
Ġm ade
it ion
ci al
i ous
at ing
Ġexp er
Ġsh ould
Ġo b
Ġo wn
Ġl ear
Ġimp ort
it ies
f t
iz e
Ġb as
l es
i an
Ġt urn
os s
t e
w h
Ġs ch
ar s
Ġg l
Ġdes ign
Ġl ast
Ġunder st
c on
ere st
Ġhe l
a v
Ġb o
Ġc our
at es
Ġme an
t y
Ġan other
Ġchan ge
Ġe nd
Ġs ci
u b
Ġb rain
Ġpl ay
Ġdid n
Ġas k
00 0
Ġfe el
Ġthou ght
Ġimport ant
ct ion
Ġc reat
Ġpers on
Ġide a
Ġint erest
Ġre l
Ġg ra
Ġ ke
Ġit s
al s
? "
Ġh im
Ġstart ed
Ġbe fore
Ġc r
Ġtr ans
Ġex am
a il
Ġd r
Ġcon s
Ġg ive
Ġin s
u ll
o ol
Ġw ent
Ġunderst and
Ġne ver
Ġm ight
ou gh
is e
g an
Ġhel p
Ġco ll
Ġcour se
Ġs l
Ġbet ter
Ġb it
Ġim ag
ut ion
Ġ 3
Ġe le
Ġpo int
Ġm on
il ity
ist s
Ġl a
Ġproble m
ul ar
Ġpro du
Ġf ound
Ġst ory
Ġbel ie
i ly
Ġp ol
Ġn um
Ġsch ool
at ter
Ġpl an
Ġst ill
Ġab le
l ic
Ġk id
er t
Ġne xt
Ġfe w
k es
ro s
Ġp ower
Ġen g
Ġ ent
Ġto g
Ġs ort
Ġtog ether
i x
Ġso l
Ġag o
Ġe ach
Ġw ater
er g
Ġh igh
Ġf am
u c
Ġar t
Ġh u
ot h
Ġpl ace
Ġc ame
Ġ1 9
Ġcomm un
er ic
Ġm ed
Ġst r
vel op
Ġt er
Ġmo d
m o
al th
a ve
Ġcomp le
en se
Ġc ent
it ed
w ard
at ch
Ġse co
we en
Ġtechn ology
Ġf in
Ġf our
i ence
Ġre c
Ġd at
at her
Ġlear n
re ad
Ġde velop
Ġbet ween
Ġs er
Ġm in
Ġ ed
Ġus ed
Ġn at
n ess
Ġ1 0
Ġex t
iz ed
Ġ2 0
ar ch
Ġquest ion
Ġm et
Ġlo ve
Ġo k
Ġo p
o ld
Ġsm all
Ġwom en
Ġat t
, "
is s
Ġc re
Ġlook ing
ure s
Ġm om
Ġmay be
Ġexam ple
Ġo ld
Ġm us
if ic
g er
v en
way s
Ġdat a
Ġpart ic
Ġd one
Ġl ight
in es
Ġe l
Ġdoes n
Ġam eric
Ġcomp ut
or k
ra m
in ess
Ġgr ow
Ġwor d
Ġe ff
Ġf ar
et s
ab ly
Ġc ell
Ġl ar
a z
Ġmo ve
Ġc are
ere d
c ed
Ġb i
Ġbe h
ce pt
ut e
Ġre ad
Ġb us
Ġh ard
Ġst u
Ġwant ed
c y
Ġre p
Ġc ap
Ġwho le
con om
Ġe ver
Ġli ve
Ġp oss
Ġre as
Ġchild ren
Ġs k
Ġtry ing
Ġseco nd
Ġhe alth
Ġw ar
Ġin form
Ġe conom
Ġwork ing
Ġg iv
Ġm illion
and s
Ġchan g
ing s
Ġgen er
ros s
at ive
Ġl ess
Ġexp l
ation al
Ġal ways
ot e
sel ves
Ġc or
Ġa way
Ġun iver
Ġbelie ve
op e
ir d
Ġpro ject
c er
one y
Ġb ook
a h
Ġsu pp
Ġ 5
Ġcount ry
Ġf ive
Ġevery thing
Ġan im
p s
ur al
Ġsp ace
Ġaf ric
is m
. .
ment s
Ġres p
Ġp ict
Ġop en
Ġsu b
Ġnum ber
Ġr un
Ġfr ie
Ġus ing
Ġc ou
n o
Ġpro b
r ies
Ġc a
Ġfor m
g in
ru ct
Ġkid s
Ġha nd
n ect
ra ct
Ġp res
Ġs ing
f ect
Ġme ans
Ġv is
h ip
Ġinform ation
Ġor gan
Ġthink ing
Ġtoo k
Ġp ub
e w
ver s
Ġcomp an
Ġle ad
Ġcre ate
l ed
Ġ 4
Ġtim es
Ġinter n
e ad
a ces
Ġh ome
Ġspe c
Ġm oney
Ġdo ll
Ġm ind
g g
k s
Ġac c
Ġre g
Ġw alk
al f
Ġte ach
ver n
a ir
Ġm ark
Ġbec ome
Ġle ft
c r
Ġpro cess
Ġf ood
Ġinterest ing
it s
t en
Ġen erg
Ġqu ite
u es
Ġpro g
Ġb est
a le
Ġw o
Ġhe ad
ie w
Ġget ting
Ġen ough
s w
o ck
Ġf ut
ent ion
Ġgo vern
Ġso cial
Ġprob ably
p r
Ġs et
Ġj o
a ut
Ġf un
Ġc le
Ġcom es
Ġcon f
Ġp at
Ġgl ob
or ies
Ġf u
Ġs ense
Ġc ur
Ġenerg y
Ġele ct
Ġfut ure
ou se
Ġc am
it al
it ing
Ġan sw
Ġad d
on t
Ġg rou
Ġhappen ed
Ġear th
Ġc ity
Ġg re
e ver
Ġcon nect
Ġwith out
Ġch ar
Ġp ass
ert ain
Ġpre t
Ġbuild ing
Ġs w
Ġtalk ing
Ġmon th
Ġcont ro
v ir
Ġp op
Ġma king
Ġbe gin
et y
i er
Ġro om
Ġstu ff
Ġh alf
t s
Ġph ys
Ġpret ty
Ġa ir
Ġe as
Ġmom ent
Ġ z
n e
Ġb ody
Ġh ist
Ġs ign
Ġbus iness
i ent
Ġso ci
Ġd ist
Ġke ep
Ġc ol
Ġsci ence
Ġto ld
n ce
Ġs ide
Ġsu ch
Ġbe aut
Ġwe e
Ġj ob
ate ly
Ġmod el
Ġel se
c us
Ġany thing
Ġb ad
Ġcom ing
Ġcount ries
Ġto p
n er
y ing
ic es
Ġdoll ars
Ġreas on
vir on
Ġp ie
Ġli ves
Ġm en
Ġen viron
og ra
Ġt y
Ġo pp
m e
l f
g s
Ġall ow
i or
Ġst op
Ġs ound
Ġimag ine
n g
Ġre se
Ġac ross
Ġh ope
wh ere
ar r
Ġon ce
Ġpr ot
Ġst and
Ġv al
em ber
Ġin f
d er
Ġbr ing
Ġed uc
Ġl ater
Ġp ar
Ġma kes
Ġli ving
Ġsay s
ur ing
in ce
Ġsci ent
Ġafric a
Ġam az
Ġm atter
Ġm id
Ġsim ple
m an
Ġ2 00
Ġd et
Ġc ult
Ġse en
Ġsa w
Ġglob al
Ġs ix
ol ution
Ġha ving
Ġa ut
Ġb re
Ġbas ically
Ġy et
mo st
Ġf ig
Ġpro f
Ġgo es
Ġh our
Ġph ot
Ġe y
Ġrese arch
Ġask ed
Ġexper ience
i o
Ġpartic ular
Ġwo nder
Ġw a
ort un
Ġs it
id ed
Ġm or
Ġwh ile
Ġhapp ens
Ġl ist
k en
Ġf ace
Ġro b
Ġpict ure
ll ow
al ity
th e
o c
Ġeff ect
Ġst re
Ġth ous
Ġl ang
Ġway s
Ġcomple te
Ġme m
Ġm il
Ġyou ng
Ġma ch
as h
Ġfam ily
Ġenviron ment
u ght
ap s
Ġnot hing
Ġv ide
iz ation
Ġsh are
Ġre f
il t
Ġcomput er
Ġf ore
Ġwh ether
Ġe qu
Ġs ure
Ġal most
Ġlang u
in a
Ġc ase
Ġb oth
Ġproble ms
Ġre st
Ġday s
Ġplan et
Ġw atch
ot t
Ġle vel
Ġmus ic
im es
Ġlo c
Ġsing le
Ġrem ember
Ġc ertain
Ġst ates
it er
Ġins ide
Ġpub lic
ot s
Ġt est
Ġa ge
Ġpol it
ogra ph
ir l
are nt
Ġwith in
Ġch e
Ġl ab
Ġde f
n a
in s
read y
Ġu nt
ul ation
Ġsome one
Ġposs ible
m ed
c l
Ġsay ing
Ġevery body
or n
Ġhe ar
im e
Ġgu y
Ġansw er
Ġok ay
Ġal ready
Ġdis co
Ġp ain
an k
l ess
Ġinc red
Ġex act
it ive
all en
Ġse lf
Ġt reat
un ch
Ġcont in
Ġhist ory
Ġsu c
ant s
Ġdis e
Ġide as
Ġs ou
Ġhe art
Ġwr ong
os ed
an ge
Ġb illion
Ġlook ed
ur y
Ġas s
Ġlar ge
Ġma g
iv id
Ġco st
d le
l ish
Ġst ate
Ġlook s
Ġof ten
Ġcontro l
Ġt ed
Ġg e
Ġde v
Ġprodu ct
o ice
Ġcommun ity
Ġamaz ing
Ġd ire
Ġtr ue
â Ģ
Ġbeaut if
er n
Ġnew s
Ġmy self
Ġv ir
ie ld
Ġy es
w are
Ġg irl
as es
Ġn et
Ġse c
r on
Ġis s
Ġcell s
Ġco nd
Ġd i
Ġch allen
Ġhe ard
nd red
Ġn or
Ġad v
s ide
Ġs ince
Ġword s
Ġhu ndred
ut es
Ġun ited
Ġinst ead
Ġ [
Ġk ill
im ate
w ork
Ġis n
Ġvide o
u ro
Ġn ight
Ġgo d
Ġsomet imes
Ġfig ure
Ġcan cer
Ġt re
c le
ap e
Ġwork s
i ans
Ġbu ilt
ag es
p ect
nd ing
Ġf ull
ater ial
v ious
Ġc al
Ġcl ass
âĢ Ļ
Ġ1 5
iv ity
ter s
Ġla w
Ġter r
Ġgovern ment
Ġunt il
Ġbeautif ul
Ġfrie nds
er ing
Ġmonth s
Ġa ud
l and
o y
Ġcou ple
b r
Ġd ra
Ġor der
Ġlangu age
Ġp ay
Ġ1 00
Ġf il
Ġind ivid
Ġent ire
Ġgrou p
g et
Ġnat ure
Ġmark et
d en
Ġ3 0
b ers
Ġc ra
Ġm ust
Ġinc re
Ġm ic
Ġ 6
Ġres ult
Ġo ce
Ġex c
Ġde ep
Ġh ouse
Ġwom an
Ġintern et
Ġcon st
ap er
Ġfo llow
Ġspec ies
Ġ5 0
Ġeduc ation
Ġmid dle
iv es
Ġl ine
Ġpie ce
b s
Ġfr ont
Ġsome body
re am
t o
ter n
Ġv iew
Ġpl aces
Ġm aterial
Ġindivid ual
l ine
Ġab s
en e
Ġp ast
Ġwas n
Ġapp ro
Ġ '
Ġcomplete ly
ust r
Ġuniver se
Ġexact ly
Ġqu ick
at ic
u p
Ġdec ided
ent al
i red
at or
Ġbeh av
Ġst ories
Ġre t
Ġt rain
Ġthou gh
Ġstud ents
Ġstud y
Ġf ree
Ġa v
Ġsoci ety
Ġ 9
Ġl and
Ġn ame
ib ly
Ġob ject
Ġta king
e ah
Ġm ess
Ġre d
c ing
Ġr is
Ġar ch
Ġhu ge
om es
Ġde al
Ġbec ame
in ed
an e
Ġin no
Ġcoll ect
Ġeng ine
l ing
Ġth ird
Ġanim als
u ck
Ġm ass
Ġturn s
Ġp os
Ġexper im
Ġr ather
Ġb ab
Ġto ol
are d
Ġhappen ing
Ġgre en
g est
Ġd ru
Ġevery one
Ġkn ew
Ġkind s
h e
Ġit self
l i
Ġcompan y
Ġcl ose
o nd
Ġh ar
act er
Ġsuc cess
Ġs un
Ġind ia
Ġlearn ed
Ġb ro
Ġst ruct
Ġour selves
Ġm other
at s
ion al
i en
Ġal ong
Ġmin utes
i ents
Ġget s
og n
Ġre v
Ġw ind
s y
Ġan t
Ġcle ar
Ġf ly
et ic
Ġagain st
Ġcomple x
Ġme et
Ġquest ions
Ġg ame
Ġameric a
h aps
as ter
r ow
Ġpro v
Ġper haps
Ġle g
Ġh y
Ġthem selves
Ġ ve
is ion
ic ult
Ġrel ations
Ġst e
Ġuniver s
Ġopp ortun
Ġinv est
Ġb ott
Ġm iss
itt ing
Ġm ar
ro p
ab ility
Ġhour s
Ġn orm
am es
Ġ 7
v ation
Ġon es
Ġbl ack
Ġcreat ed
Ġp arent
Ġoth ers
Ġde p
Ġcould n
Ġi d
Ġb ra
Ġm ill
Ġm ath
Ġ 8
c c
f ace
Ġw on
ur s
Ġgu ys
.. .
Ġfo cus
Ġst ep
Ġexp ect
Ġme as
Ġle ast
Ġi ll
Ġh old
ct or
Ġra d
Ġfu nd
Ġwork ed
Ġprog ram
Ġp red
id ent
Ġthous ands
a ke
n ot
Ġear ly
ward s
Ġde m
Ġl iter
us h
Ġhapp y
Ġdiff icult
Ġdise ase
Ġ es
Ġlot s
r ib
m ing
on es
at t
Ġv ar
Ġf ield
Ġnat ural
Ġfin ally
Ġm ot
Ġd a
Ġspe ak
Ġlist en
Ġg ave
Ġv i
Ġse ven
Ġh o
Ġch ina
Ġy eah
Ġsystem s
Ġte am
Ġre cent
ist ic
pl es
i um
Ġam ount
Ġo per
Ġc ir
ol ved
Ġprot ect
Ġsou th
Ġo il
Ġch r
Ġob vious
Ġs ens
Ġp le
Ġe uro
Ġlear ning
c ul
Ġbehav ior
Ġc ut
Ġrec ord
Ġmach ine
Ġf re
id er
ent ed
Ġex ist
Ġde ath
g en
Ġcoll e
Ġp ot
ith er
w ell
Ġout side
Ġameric an
Ġinter act
Ġsu per
Ġta ken
Ġrelations hip
in ation
st er
Ġoce an
Ġse x
olog ical
Ġext ra
i ally
Ġs qu
Ġdiffere nce
Ġf ail
Ġare a
n s
i qu
Ġnet work
Ġde mo
ve red
Ġde l
Ġchang ed
Ġsh ort
Ġcent ury
at ure
Ġy ork
Ġgiv en
Ġbl ue
Ġw all
Ġj our
Ġcomm on
Ġmo ving
Ġe ight
ent ial
Ġha nds
Ġ er
Ġsy m
Ġeuro pe
Ġd uring
Ġgra nd
Ġeas y
a king
Ġ ...
Ġc ities
ĠâĻ ª
Ġp atter
Ġn on
Ġbegin ning
wh at
Ġl im
id es
ull y
Ġf ish
Ġyour self
Ġd ig
Ġle ave
Ġar g
Ġwhat ever
Ġey es
sy ch
Ġl ow
Ġty p
Ġint ell
Ġturn ed
Ġbeh ind
Ġâ Ģ
ut ions
Ġnor th
Ġo cc
ver age
Ġta kes
t ed
Ġp sych
Ġinc l
Ġcult ure
Ġma j
Ġpop ulation
Ġexpl ain
Ġs ent
Ġter ms
Ġte m
as ed
Ġch em
Ġneed s
Ġsupp ort
Ġwonder ful
Ġaud ience
Ġsee ing
Ġcommun ic
it ions
ol ute
Ġ1 2
Ġev ent
Ġinst it
Ġloc al
Ġse a
Ġper fect
Ġtra d
Ġimp ro
Ġid ent
Ġcompan ies
Ġp aper
pt ion
Ġmed ia
um p
ud e
Ġp ick
Ġf all
Ġext re
Ġbre ak
i pp
in ary
Ġp ract
p ly
ast ic
Ġper form
Ġto t
Ġbe gan
Ġabs olute
Ġre ach
Ġsu d
Ġcan not
Ġfrie nd
Ġ ess
Ġpart s
Ġser v
Ġst ay
id ence
Ġsim ply
re t
Ġim age
Ġmic ro
Ġ1 8
ar ing
Ġd ark
y ear
Ġmaj or
it ch
a pp
Ġd ream
ĠâĢ Ķ
c ra
Ġlong er
Ġeconom ic
el t
Ġac cess
Ġcons um
Ġpower ful
g es
t on
Ġpo or
Ġwee k
Ġreal ized
it ect
Ġneed ed
Ġspe cial
h ow
f ully
Ġa p
ci ous
our ce
Ġparent s
Ġn ational
Ġem b
Ġs ize
Ġc y
Ġbu y
Ġrep res
Ġarch itect
Ġfam il
Ġem ot
Ġperson al
Ġg round
Ġtr ied
Ġcent er
b o
p id
Ġo h
iv ing
Ġtrans form
Ġ4 0
Ġsur pr
Ġc iv
Ġhum ans
Ġreal ity
Ġsur v
p ort
Ġfe ed
our ces
Ġpres ent
Ġrob ot
Ġinterest ed
Ġvi ol
Ġp ress
Ġe at
Ġpr iv
Ġf elt
Ġg one
Ġcon v
Ġf ather
y ou
Ġr ich
Ġs um
Ġe ither
iver s
Ġgrow th
Ġsit u
Ġsc ale
Ġquick ly
is ing
Ġke y
Ġstr ong
is on
rou ght
led ge
Ġprof ess
m er
Ġwh ite
Ġen c
is ed
il ar
Ġrec ogn
Ġne ar
ib ility
Ġspe nd
s h
Ġp en
ro du
h ood
el s
Ġco ol
cr ib
Ġsud den
Ġsl ow
Ġ ur
Ġab ility
Ġsp ent
av or
Ġappro ach
x y
Ġanim al
Ġval ue
g ed
Ġre qu
Ġdire ct
Ġs itting
Ġd na
Ġopportun ity
e x
in al
Ġm ult
Ġf ear
Ġfe et
Ġshow s
Ġwee ks
Ġf ight
Ġph one
ne y
Ġs il
iv ed
Ġpolit ical
Ġincred ible
re nt
Ġor ig
Ġ vers
if e
Ġwould n
Ġro ck
Ġtra vel
Ġi ce
ro om
Ġw in
at ors
Ġknow n
os p
Ġmor ning
Ġlo st
Ġlead ers
o h
Ġp ur
Ġeconom y
Ġstre et
um ent
Ġextre me
Ġb ar
Ġf ast
Ġs at
Ġd est
iz ing
Ġtechn olog
Ġsur face
Ġob s
Ġn ice
Ġmed ic
Ġresp ons
Ġpred ict
Ġmeas ure
Ġc op
Ġpat ients
Ġdra w
Ġbott om
Ġare as
ard s
Ġwr ite
Ġbas ed
Ġcam er
Ġbl ood
ow s
Ġfor ce
od e
c om
Ġb ill
Ġso ft
Ġev olution
Ġatt ention
Ġphot ograph
Ġstruct ure
Ġp ull
on y
Ġv ol
ain s
Ġfo ot
o f
e nd
Ġany one
Ġca us
Ġc e
Ġd ie
h or
u le
Ġchang es
Ġpr in
Ġmo le
Ġar m
Ġ2 5
r al
Ġchallen ge
Ġind ust
ress ion
Ġsim ilar
Ġa verage
in y
ou ch
al es
Ġcr it
al a
ive ly
Ġnum bers
Ġsh o
ci ally
Ġbo x
z y
Ġun f
le ct
Ġimp act
l er
Ġreal ize
n y
Ġv oice
Ġciv il
Ġp a
ut h
Ġphys ical
Ġi r
Ġb rought
ust ain
Ġmean ing
ent ially
Ġgrow ing
Ġcl imate
Ġrel ig
id s
ate g
ac y
Ġfeel ing
b or
l t
Ġh or
Ġre du
Ġbook s
Ġcam p
Ġhundred s
f ord
Ġb orn
Ġb ene
Ġcom b
ang er
Ġins p
Ġcol or
Ġscient ists
Ġst ra
Ġv ill
Ġst age
Ġma p
Ġma in
Ġte le
Ġdevelop ed
Ġfil m
Ġris k
Ġan al
Ġknow ledge
Ġh osp
Ġgiv ing
Ġliter ally
o ve
Ġh ot
Ġexperim ent
Ġrun ning
Ġo pt
Ġf ac
b on
Ġfor ward
Ġsee ms
Ġtechnolog ies
e g
Ġthe ory
Ġso on
Ġmo v
b y
er m
Ġde g
Ġdevelop ment
Ġsp read
Ġwr ote
Ġfund am
Ġa ch
Ġser ious
Ġb all
Ġcar s
Ġs le
Ġm ount
Ġre le
Ġunderstand ing
Ġcur rent
p ar
if ied
Ġpo st
Ġstart ing
Ġeng lish
Ġmill ions
Ġre pl
Ġwe b
ore d
Ġst at
Ġde ad
Ġde pe
Ġgu ess
Ġelect ric
n ed
Ġne igh
Ġte xt
Ġtrad ition
Ġabsolute ly
Ġf avor
Ġmil es
Ġimag es
Ġrev olution
Ġwor th
ill s
Ġty pe
ch an
Ġno body
Ġmove ment
g o
Ġp ath
Ġam ong
Ġcir c
ag ed
Ġgener al
Ġpr om
Ġrecent ly
l u
Ġmod ern
Ġgiv es
gg est
Ġal one
Ġsu ggest
Ġpo ll
Ġnorm al
g ing
Ġtell ing
Ġtool s
am p
Ġcomp et
Ġcomp ass
Ġfl o
Ġs ustain
Ġh on
Ġsc re
Ġd ou
Ġpro per
Ġf ur
Ġro ad
Ġdes crib
p or
Ġ est
Ġs n
Ġex cept
Ġpol ic
Ġvis ual
Ġh ig
Ġintell ig
ad es
Ġbab y
Ġincl ud
Ġon line
Ġr ul
b it
v ent
om et
Ġiss ue
Ġav ail
Ġmath em
il ities
Ġtr uth
p o
ens ive
Ġcreat ing
en cy
Ġsu ff
Ġplay ing
it es
pl oy
if t
un g
Ġdisco vered
Ġaf fect
Ġf ire
Ġsee m
Ġshow ed
Ġdevelop ing
Ġt ouch
am ed
Ġcon cept
Ġse ll
Ġem p
b an
er o
Ġindust ry
Ġs ong
Ġf a
Ġpat ient
e ed
Ġpe ace
Ġso ld
Ġinno vation
Ġobvious ly
Ġpro p
pe cially
h ead
as ing
im ens
Ġsa ve
Ġph il
Ġunivers ity
Ġu lt
Ġtra ck
Ġmed ical
Ġes pecially
ou d
Ġme chan
Ġar r
Ġcompass ion
Ġas king
Ġchan ce
Ġres ources
Ġach ie
i ant
th er
Ġincred ibly
Ġtalk ed
Ġl ay
ur ity
Ġper i
Ġany body
Ġsh ape
Ġcon vers
Ġiss ues
as c
Ġre act
Ġsub ject
Ġperi od
Ġha ven
Ġreas ons
li ke
Ġp ark
ines e
iqu e
Ġbene f
a w
ish ed
Ġfl u
Ġexper ien
Ġprodu ce
ere nce
Ġch oice
Ġb ird
iv al
Ġbo y
uc le
Ġey e
Ġavail able
Ġe c
st r
Ġare n
Ġknow s
Ġfl ow
Ġsol ution
Ġf air
Ġne g
Ġev idence
Ġatt ack
Ġmess age
an ces
Ġse ver
Ġr ate
ph ere
Ġchang ing
Ġpict ures
Ġt iny
Ġd in
Ġinv olved
Ġdesign ed
Ġcomput ers
Ġse arch
Ġsitu ation
Ġl ed
Ġtr ust
Ġsol ar
g n
Ġd om
Ġch inese
Ġcar bon
Ġgirl s
u g
er v
es e
Ġfore st
ict ion
Ġ19 9
d o
Ġa w
Ġn ine
Ġne ur
Ġsol ve
is ter
Ġgo og
Ġb ed
Ġsm art
y ond
Ġbec omes
Ġsle ep
en ces
Ġn ucle
Ġem erg
Ġoff ice
Ġbig ger
Ġrep ort
x ic
Ġch oo
if y
Ġput ting
Ġbe yond
Ġind eed
Ġwr iting
Ġsound s
Ġsever al
h ere
Ġ rain
Ġcl os
le t
Ġsa fe
Ġgener ation
y n
Ġf em
ap t
Ġgrou ps
p ed
Ġim m
Ġdr ive
Ġfun ction
Ġ ver
5 0
m a
Ġa st
Ġli ved
Ġsoft ware
l ight
u nt
ist an
Ġta ble
Ġ6 0
Ġdru gs
c ome
l ict
o ices
Ġlike ly
Ġb acter
ar ily
Ġdemo cra
Ġp ort
Ġd ied
Ġli f
Ġle a
Ġdef in
e e
un e
Ġspe ed
op h
Ġcertain ly
Ġrul es
Ġto wards
Ġd anger
is hing
Ġpr im
Ġcap ital
Ġt as
Ġw est
Ġne cess
Ġpl ant
Ġsec urity
i k
Ġw ish
Ġh it
Ġse nd
ip s
Ġdev ice
i res
pp ed
or ing
Ġte nd
ab or
Ġbl ock
Ġdru g
Ġsy n
Ġintern ational
f ort
l o
Ġb reat
Ġe th
Ġad m
Ġcons cious
Ġparticular ly
Ġs am
Ġnot ice
um b
ress ed
us ion
ct ors
Ġact ion
ous ly
Ġple ase
om s
Ġgoog le
Ġl ink
Ġinter v
ie f
Ġcap t
Ġscient ific
Ġsudden ly
Ġprin ci
Ġp u
Ġt ar
Ġb ur
Ġg ames
Ġmo ved
Ġr id
Ġqu ality
Ġany way
Ġbas ic
Ġschool s
Ġchar acter
Ġextra ord
e xt
Ġvis ion
b ook
Ġl og
Ġon to
Ġvir t
Ġvir us
g th
Ġre ce
Ġwalk ing
Ġevent ually
o k
Ġp an
Ġst ru
Ġevery where
Ġdig ital
Ġb al
Ġl ad
Ġe ast
med i
Ġpot ential
g round
Ġd iv
Ġcr is
Ġcons ider
f or
r ast
Ġd an
Ġfar m
Ġvar i
Ġpartic ip
Ġjob s
Ġc ross
Ġm arr
Ġshow ing
Ġproject s
u ly
Ġs on
Ġb ir
Ġmo b
Ġexam ples
Ġmaterial s
Ġtot ally
Ġg as
Ġn arr
Ġstud ent
Ġteach ers
Ġjour ney
Ġenc ou
Ġst ar
Ġextreme ly
Ġchem ical
i ar
Ġa ware
Ġs and
Ġc it
Ġeff ic
Ġsk y
Ġsqu are
et er
Ġcont ext
Ġacc ount
Ġhosp ital
Ġscre en
Ġact iv
Ġwant s
Ġstart s
Ġbig gest
Ġmem ory
Ġexc iting
Ġm al
Ġdo or
Ġlar gest
Ġche ck
Ġresult s
Ġrepres ent
Ġfundam ental
n ers
Ġf ix
Ġhapp iness
Ġdet ail
Ġfur ther
Ġhig her
Ġread y
Ġap art
ver ty
Ġess entially
on se
Ġsk in
Ġneigh bor
Ġdemocra cy
im s
Ġcar ry
Ġviol ence
Ġcamer a
Ġc art
Ġf ant
Ġme ant
Ġcle an
it ary
Ġsp ir
Ġvill age
en om
Ġcomp lic
Ġterr or
Ġpos itive
Ġst ick
ant ly
Ġv ac
Ġpo verty
Ġad ult
Ġprog ress
Ġcolle ge
Ġpatter n
Ġro le
Ġear l
Ġtr ial
Ġ8 0
Ġs an
Ġs al
ic le
Ġis l
Ġint rodu
ap an
Ġsupp osed
Ġthous and
Ġcontin ue
Ġmedic ine
Ġth reat
os phere
Ġlab or
Ġtre es
Ġbir th
u it
Ġc at
Ġb om
Ġl os
Ġse qu
Ġimp oss
Ġbr it
Ġcreat ive
Ġresp onse
Ġjo h
Ġconf lict
cus s
Ġb ank
Ġg ala
itt en
Ġfavor ite
e y
Ġmodel s
Ġcra zy
Ġ x
Ġf ill
Ġn amed
Ġim medi
Ġtrans l
Ġimpro ve
r ing
Ġb an
Ġd ro
Ġd am
Ġse par
Ġj apan
Ġgra ph
Ġmet h
Ġdisco ver
Ġindividual s
Ġcit iz
er y
is ions
Ġcl in
Ġmathem at
Ġus ually
Ġpl ants
Ġconnect ed
Ġc ause
Ġdo ctor
ru ction
ught er
Ġdi ag
Ġret urn
o id
Ġb unch
Ġl uck
Ġan g
im p
Ġcoll abor
Ġorgan ization
Ġmind s
Ġwatch ing
Ġmag n
Ġnucle ar
Ġm ine
Ġto m
Ġf aster
Ġco ld
Ġbuild ings
n ces
Ġp ush
om ing
ul ate
Ġact ivity
Ġwa it
Ġass um
Ġl ose
Ġsome where
Ġpers pect
z e
ig er
Ġ1 6
Ġen j
Ġac cept
Ġtell s
Ġteach er
Ġgo al
Ġwor se
Ġde b
ph one
Ġfre ed
. ,
Ġwe bs
Ġwas te
Ġcon cer
od ies
Ġthank s
Ġstr ateg
Ġpass ion
Ġcond itions
Ġunf ortun
Ġimposs ible
Ġw ild
Ġb ud
Ġh iv
Ġl ate
Ġrem ark
Ġbrain s
Ġgre w
Ġmov ie
Ġdis app
Ġfind ing
Ġcommun ities
et h
op s
Ġsh own
Ġchoo se
Ġs ource
er ve
Ġobject s
re st
Ġm is
Ġl ands
Ġcent ral
id ge
Ġ1 1
Ġbl ind
Ġapp ear
Ġla unch
Ġ20 1
Ġextraord inary
f er
ou ght
Ġan n
ip t
Ġla u
Ġsort s
Ġlar ger
Ġafric an
Ġcolle ag
Ġab ove
Ġright s
Ġcou n
Ġpub lish
me nd
m ore
Ġs ite
Ġf ine
Ġman age
Ġfin an
Ġf ing
Ġsome how
Ġ1 4
Ġdet ect
at ory
Ġp ack
Ġhe av
Ġra nd
Ġstud ies
c ape
in ct
Ġb urn
ak es
Ġmin ute
Ġinclud ing
c ise
an a
Ġsign ific
Ġc ode
Ġf le
us s
Ġst ars
Ġfor ms
Ġhow ever
Ġta ught
Ġaut hor
Ġkill ed
Ġtradition al
n al
u ed
Ġw ife
Ġo xy
Ġc ard
Ġg er
Ġj ud
Ġallow ed
Ġinf lu
Ġproduct s
Ġc ook
Ġl ower
Ġdo c
Ġpr ote
Ġdes p
oth ers
Ġcomplic ated
a i
Ġh op
Ġend ed
Ġmor al
Ġtem per
Ġto wn
es tern
se ct
ra ge
Ġ1 7
Ġtrain ing
Ġc ases
th ough
Ġthere fore
iz ations
Ġz ero
Ġpos ition
r or
Ġt ree
Ġm use
ure d
Ġtr uly
Ġqu ant
ound s
Ġold er
Ġpres ident
Ġclear ly
Ġm ist
Ġk ing
Ġal though
Ġaf ford
Ġdis cuss
Ġallow s
Ġincre ase
Ġchr is
enom en
Ġp age
Ġdo ctors
Ġgo ld
Ġup on
Ġpr ison
Ġph enomen
Ġstand ing
Ġfamil ies
Ġf ram
Ġk il
Ġal ive
Ġsp o
em ic
Ġro ll
Ġpoint s
Ġread ing
Ġsuccess ful
Ġchr ist
Ġpur p
Ġbacter ia
in ing
Ġdec ision
Ġexc ited
Ġcris is
! "
Ġth row
Ġbeing s
Ġdist rib
Ġserv ice
Ġcrit ical
Ġelectric ity
a ur
Ġh ur
Ġpr ice
te nd
Ġur ban
p ut
Ġm am
Ġbo ard
Ġser ies
Ġreg ion
m en
Ġm ention
Ġf ra
Ġin e
Ġbi ology
Ġcor re
Ġl ines
Ġter m
Ġhealth y
Ġphys ics
Ġincre asing
Ġpolic y
Ġachie ve
Ġmuse um
Ġf asc
Ġin fect
Ġthrough out
Ġgl ass
Ġmag ic
Ġcal cul
Ġt rou
Ġh om
Ġd ad
Ġfor t
Ġany where
Ġeng age
Ġstr ange
Ġpie ces
Ġrob ots
Ġmil itary
Ġpatter ns
Ġarchitect ure
Ġconvers ation
Ġperspect ive
i ers
Ġs we
is ms
ic ed
Ġsmall er
Ġresp ect
Ġsec ret
Ġstra ight
d om
in ated
Ġtreat ment
Ġprov ide
Ġfreed om
r ation
Ġs us
Ġs ad
Ġv ict
Ġen orm
Ġpr int
Ġcont ent
Ġwr itten
Ġpol ice
Ġspec ific
f act
so ci
Ġseco nds
Ġt v
Ġwh e
Ġke pt
Ġhim self
Ġsl ight
Ġ19 8
i et
Ġocc ur
Ġneur ons
b b
Ġi gn
Ġwe ight
ra p
Ġcl im
iss ion
Ġrecogn ize
Ġmole c
m et
v ision
ci ent
Ġvers ion
Ġw estern
Ġunfortun ately
e ch
Ġsp ect
Ġact ual
olog ists
Ġgen es
Ġtrans port
Ġm ars
Ġdo g
Ġany more
Ġcl oud
ff ic
Ġearl ier
ent ly
Ġgreat er
Ġadd ress
ustr ial
Ġs or
re p
Ġtr ick
Ġtra de
Ġameric ans
Ġeff ort
Ġmach ines
Ġve h
ivers ity
u be
z z
Ġa ra
Ġb odies
Ġm ental
Ġp al
Ġbec oming
Ġsc r
Ġlisten ing
Ġfant astic
b ol
b ack
g ra
Ġm r
Ġin it
Ġr an
il ing
um ents
Ġaf gh
Ġcont rib
Ġexpl ore
Ġj ump
Ġcom fort
Ġher o
Ġrem ind
Ġenvironment al
Ġpriv ate
Ġintellig ence
ul f
Ġ1 3
Ġlo ved
Ġaut om
Ġpain ting
Ġinterv iew
Ġc atch
Ġal g
Ġwere n
Ġle gs
Ġwill ing
Ġbro ad
Ġlau gh
i ra
ies t
ag ing
Ġ2 1
Ġem ail
Ġdec isions
Ġsk ills
Ġst ore
Ġas soci
Ġsh ot
Ġat m
iv en
Ġfam ous
o on
Ġn one
Ġexp ensive
Ġem ploy
Ġgen etic
Ġprodu ction
Ġinno v
Ġfamil iar
m b
Ġt un
ll y
Ġy ell
le br
et ies
Ġfin al
Ġcost s
Ġce lebr
Ġdanger ous
Ġstru gg
r ied
Ġth r
Ġd en
it ation
Ġwor ry
Ġex h
Ġco ver
Ġdr ink
Ġsol utions
Ġ9 0
Ġt ur
it ude
se qu
Ġli ber
Ġun ique
ac ity
Ġgovern ments
Ġwa iting
Ġpract ice
i ke
t ime
ol es
Ġr ise
Ġspir it
Ġenj oy
in ating
Ġsh ark
Ġsur ger
Ġelect r
Ġbeaut y
Ġimmedi ately
Ġafgh an
c ies
Ġha ll
Ġfor th
am ic
Ġsur ve
Ġdet erm
Ġlevel s
Ġperform ance
Ġwebs ite
Ġt en
Ġc ry
ce ed
ra ms
Ġr ange
Ġhuman ity
nd on
Ġsa ving
w ater
Ġm atch
ar ies
al y
Ġr iver
ain ed
res h
Ġgreat est
Ġdire ction
Ġlaw s
Ġw ood
Ġwe alth
Ġn ation
Ġwalk ed
Ġval ues
Ġinstit utions
Ġcitiz ens
Ġt it
at ives
Ġwe ap
ay s
Ġhe ll
Ġfor get
el ess
Ġra ise
Ġserv ices
Ġrand om
b el
im ately
Ġor d
ab les
Ġdr iving
Ġteach ing
Ġl at
ut ed
Ġpl astic
Ġdec ade
Ġfu el
Ġeffect ive
Ġbab ies
Ġmult ip
i ation
id ing
Ġind ustrial
Ġsm o
ren e
Ġhar v
Ġmeet ing
p ro
Ġf it
il s
Ġgra du
Ġmass ive
Ġvar ious
Ġjour nal
Ġopt im
Ġfinan cial
at ically
ist ics
un k
Ġinc ome
Ġpop ular
Ġdem on
ot y
Ġr ule
Ġdec ades
Ġinv ented
Ġflo or
b all
p ing
Ġh ous
is es
Ġpre p
Ġelect ron
Ġstand ard
Ġtyp es
Ġmeth od
Ġger man
Ġa head
Ġb en
Ġd ar
Ġin sect
Ġk en
Ġsim pl
Ġphys ic
i ate
it or
ver t
air s
Ġeffect s
Ġfollow ing
att le
s c
Ġsh ap
Ġlo ndon
Ġapp ly
Ġconnect ion
Ġrad io
Ġneighbor hood
re es
Ġm ut
Ġd yn
Ġdec ide
Ġinst r
Ġcare er
Ġopp os
Ġcult ural
Ġcond ition
Ġmount ain
Ġhon est
Ġo d
Ġe t
Ġinf rast
Ġpolit ics
Ġfly ing
Ġjoh n
Ġinfrast ruct
ant ic
Ġexp ress
Ġra ce
Ġrel ative
Ġ ut
Ġa ustr
Ġc ust
Ġha ir
ke y
Ġcon cl
Ġus es
Ġuse ful
Ġinst ance
Ġposs ibly
Ġterr ible
Ġremark able
Ġenorm ous
ch es
Ġch oices
il es
Ġint eg
Ġmost ly
Ġdepe nd
i ot
olog ist
ric ult
Ġengine ering
Ġn ut
Ġst ress
Ġag ricult
ep end
Ġcomm er
u ct
Ġd ram
ers on
Ġoff ic
wh y
Ġbo ys
Ġ7 0
bo ard
Ġdemon str
a ign
w ise
Ġb ase
Ġchallen ges
Ġmicro b
Ġmam m
Ġsor ry
Ġatm osphere
Ġt ens
Ġa id
op er
Ġ2 4
Ġbel ow
Ġ19 7
Ġsoci eties
Ġcamp aign
Ġfem ale
Ġpurp ose
Ġslight ly
y le
Ġal tern
Ġspe ech
Ġdise ases
Ġpress ure
6 0
er vation
Ġp ig
Ġwor st
Ġwho se
Ġbl og
Ġsl ide
Ġsupp ly
Ġhy d
n el
Ġd rop
or row
if orn
Ġind epend
Ġgen e
Ġsur round
Ġcreat ivity
Ġhelp ed
Ġresp ond
Ġcal iforn
Ġmot iv
Ġsym bol
m y
Ġt iss
an cy
Ġco ast
Ġpo et
Ġspe aking
Ġsc an
Ġunderst ood
Ġcap acity
Ġ5 00
Ġsum mer
Ġtele vision
Ġphil os
Ġtas k
rep rene
f fe
itt ed
Ġsw im
Ġsw itch
Ġshare d
Ġdirect ly
Ġb ang
Ġh us
Ġto r
Ġis land
ck s
Ġma le
Ġrelig ion
Ġcolleag ues
l s
w in
Ġt al
Ġi ra
Ġp et
Ġfor ces
Ġind ian
Ġinv ent
Ġart ist
Ġtre mend
Ġrelationship s
Ġdemo cr
Ġsurv ive
Ġdest ro
Ġpa id
Ġdou b
Ġmob ile
Ġtemper ature
Ġara b
Ġinfrastruct ure
Ġcaliforn ia
e f
l a
Ġcon sequ
c les
u fact
am a
Ġknow ing
Ġpre vent
Ġbelie f
Ġprog rams
Ġansw ers
Ġtot al
Ġent reprene
Ġho le
Ġoxy gen
ce ll
Ġsp aces
Ġtw ice
Ġdiffere nces
Ġcr ow
Ġcontro ll
Ġbird s
Ġd imens
Ġhe at
Ġmet ers
Ġorgan izations
Ġfun ny
Ġleg al
Ġcaus es
Ġpublish ed
c ope
d ing
i os
an c
Ġwas hing
ol ve
Ġbi ological
Ġprof ound
Ġdesp ite
w ood
Ġc ru
Ġd ance
Ġd av
Ġl oss
Ġbe at
st e
Ġnot iced
Ġman ufact
Ġ3 00
Ġconf erence
Ġref lect
lo ad
Ġyell ow
Ġsurger y
Ġafghan istan
an ced
ar ian
Ġcon c
Ġexp and
Ġhigh ly
Ġmark ets
Ġnetwork s
Ġf at
Ġsh ock
Ġwork ers
iz es
Ġgen ome
cul es
Ġsustain able
Ġclos er
g ress
us ed
ra id
em ent
Ġdes ert
Ġmus l
Ġhist or
Ġstre ets
Ġorig inal
Ġtrou ble
g y
r ight
Ġw ide
in ate
Ġaf raid
Ġpart y
ru pt
ren ch
Ġstop ped
Ġrespons ibility
Ġcust om
e c
h y
r ay
Ġha ck
Ġfr ank
Ġta x
ib er
Ġapp lic
Ġdesign ers
Ġplay ed
Ġprodu ced
g u
Ġr ough
and a
Ġact ive
Ġco oper
Ġev olved
Ġdis pl
Ġgot ten
Ġfo ld
Ġcommunic ate
Ġcop y
Ġira q
u ing
Ġb ought
en ed
al ing
Ġr uss
Ġcomp on
Ġmiss ing
Ġcommunic ation
Ġemot ional
Ġsurpr ising
b and
l ook
Ġt um
Ġf ro
Ġsee med
Ġexperim ents
d s
Ġs ick
Ġm ix
Ġd ying
Ġst em
ra el
Ġmo s
pp ing
Ġtr ib
Ġra pid
Ġsm ell
Ġfeel s
Ġnear ly
Ġsho ot
Ġl ack
ic les
Ġv ul
Ġv ast
and er
Ġcl a
Ġcor ner
Ġeas ily
Ġphot o
Ġvol unt
Ġmole cules
k n
Ġw ire
re w
es is
Ġe ating
ate ll
Ġbr ill
cept ion
ash ion
m on
or ith
Ġj u
Ġte en
Ġpl at
ord er
Ġmem bers
Ġmag az
Ġclass room
Ġwind ow
Ġir an
Ġredu ce
Ġtar get
Ġalg orith
Ġaustr al
z il
Ġm ich
Ġn ations
Ġha bit
Ġmo on
em pt
Ġdifferent ly
Ġbas is
Ġhelp ing
Ġdeg rees
Ġexperien ces
Ġdin os
n ight
ou th
Ġd iversity
Ġwe ird
Ġam b
Ġra re
Ġcreat es
Ġplan ets
Ġmet ap
Ġscient ist
Ġmiss ion
Ġdel iver
Ġeffic ient
Ġbom b
Ġsignific ant
Ġs atell
Ġh ang
Ġr out
Ġal t
Ġfl ight
Ġatt ract
Ġbra zil
Ġclim b
a ff
Ġme xic
Ġtr ip
Ġres ist
Ġapp l
Ġbring ing
Ġbro ken
Ġda ughter
Ġec os
Ġconscious ness
Ġs ke
Ġg h
Ġbe es
ter m
Ġco re
Ġacc ord
Ġcomplex ity
Ġet c
Ġw is
Ġse as
Ġsh ift
Ġr om
ist ry
Ġback ground
Ġfl ag
Ġent er
Ġvis it
Ġ $
it ter
Ġg ent
ic king
Ġre co
Ġan cient
Ġj e
Ġspe nding
Ġlight s
Ġadd ition
Ġair pl
Ġbre ast
Ġhear ing
Ġdem and
y stem
Ġag ree
Ġstud ying
Ġpar ad
Ġdev ices
Ġvul ner
t le
v it
Ġst ren
Ġjo in
Ġphot os
Ġface book
Ġanal y
en ing
Ġin j
Ġco ffe
Ġcont act
Ġopportun ities
Ġlands cape
Ġcommer cial
Ġtremend ous
Ġm ad
Ġbr other
ac ed
Ġimag ination
Ġfound ation
Ġjo y
Ġfore ign
Ġdep art
Ġident ity
f r
r ate
Ġm ort
ar ter
Ġg ard
Ġis rael
ain ing
Ġpo em
Ġbr idge
Ġbo at
Ġcorre ct
Ġecos ystem
Ġstren gth
o res
Ġb read
Ġm as
ro gen
Ġsh op
cr ipt
Ġfocus ed
Ġinsp ir
Ġult imately
Ġdav id
f l
ar m
Ġg iant
Ġun like
Ġart ists
Ġcor por
Ġfore ver
Ġfull y
Ġfair ly
Ġi ron
Ġg un
Ġmy ster
Ġpass ed
Ġsex ual
Ġvirt ual
b u
d ed
h ouse
Ġthe rap
re ci
Ġb le
Ġpart ners
Ġple as
Ġfarm ers
Ġcoffe e
o ff
Ġc red
Ġc ogn
ic a
Ġpre v
Ġsc ul
Ġrelig ious
Ġinsp ired
Ġluck y
ber t
Ġbr ight
Ġche ap
m ark
Ġb and
Ġf ol
Ġch ick
Ġac ad
Ġcons id
Ġfail ure
Ġbrill iant
b ased
c an
h and
i us
r ated
y a
Ġas pect
Ġsh aring
Ġnot e
Ġturn ing
Ġcreat ures
Ġprofess or
Ġphenomen on
Ġoppos ite
w or
Ġf ed
Ġg ar
Ġe p
Ġsh ip
Ġsp ort
Ġev ents
ord ers
Ġposs ibility
Ġacc om
Ġho st
Ġarg ument
t ies
Ġre pe
Ġpartic les
Ġdream s
Ġdescrib e
Ġgent le
e es
Ġm outh
Ġfor g
if ying
Ġother wise
Ġtra ffic
Ġimportant ly
Ġeas ier
Ġadv ant
Ġhar m
Ġleaders hip
c est
at ures
or ge
th is
Ġnot ion
Ġex er
Ġqu e
ite ly
Ġra ised
Ġinv is
Ġmom ents
Ġlead s
Ġfigure d
Ġentire ly
Ġav oid
Ġbra nd
Ġvac c
Ġaccord ing
Ġscul pt
3 0
z en
Ġb atter
Ġe gg
Ġrem ote
ific ation
Ġstruct ures
Ġdep ression
ipp ed
Ġbill ions
a f
c op
Ġhe ld
Ġj ew
Ġreg ular
Ġmot or
Ġbenef its
h a
Ġf ashion
Ġn iger
ve re
Ġan cest
Ġjust ice
Ġdis p
Ġapp reci
Ġele ments
re g
Ġm it
Ġp rou
Ġe pid
Ġas ia
ul ations
Ġcall s
Ġbr ings
Ġpre vious
con nect
pr int
Ġhor r
Ġsuff ering
Ġneg ative
Ġm ig
Ġm ouse
Ġu g
Ġcon cent
ag er
Ġad apt
Ġgr ass
Ġshould n
Ġed ge
Ġchar ge
ograph y
Ġdisco very
Ġrespons ible
Ġnecess arily
Ġpu zz
Ġf rench
Ġse ed
Ġatt empt
Ġacc ur
Ġrest aur
Ġoce ans
Ġrequ ire
Ġcoun ter
k y
v ity
Ġt ough
Ġc and
Ġb ound
Ġm aster
is co
le y
ad a
Ġqu ote
Ġstre am
Ġeurope an
Ġcompet ition
Ġkil omet
a x
d imens
ou n
Ġf ab
Ġl unch
Ġsh el
ear s
Ġstud ied
Ġhelp s
Ġopen ed
Ġdist ance
Ġmatter s
Ġhold ing
Ġintell ect
Ġemot ion
Ġdou ble
Ġadult s
Ġprou d
g ar
k ed
Ġp ounds
Ġre ve
Ġli br
Ġno ise
Ġpr ize
Ġtrans p
Ġlead ing
Ġ4 00
Ġdoll ar
Ġdefin ition
Ġquant um
Ġweap ons
Ġinsect s
Ġtiss ue
Ġphilos oph
Ġhus band
ste in
s es
Ġt our
Ġto w
ver se
ro ll
ce ler
Ġan ge
Ġse ctor
Ġch ur
ul ated
if ically
Ġtalk s
ru ption
Ġind ic
Ġinstit ution
Ġfa ith
Ġnecess ary
Ġbal ance
e ared
s et
Ġt ast
Ġf is
Ġl in
id ents
am i
Ġr ot
Ġex ch
Ġpr ior
ib ilities
ys is
Ġchild hood
Ġinvest ment
Ġfail ed
Ġdoc ument
c are
m ar
p re
Ġd iver
id den
Ġu nd
Ġsa f
Ġrel ated
Ġbelie ved
Ġstu ck
Ġsub st
Ġhope fully
Ġgrand m
Ġslow ly
l in
Ġf oss
Ġe gy
Ġma int
Ġv all
Ġtr uck
Ġcomp ared
Ġoff er
Ġele ph
Ġconv in
Ġsn ow
Ġwhe el
Ġdestro y
Ġplat form
Ġmagaz ine
Ġegy pt
c ons
v ant
Ġp ow
Ġn an
Ġsh r
pp er
Ġfour th
Ġsign al
Ġcol ors
Ġsuc ceed
Ġnews p
Ġemb ra
Ġlea ving
Ġsyn th
Ġvolunt e
Ġmetap hor
h old
i ors
u ros
w ord
Ġl apt
Ġcl ick
ia ble
Ġexh ib
dimens ional
i age
Ġan ts
Ġwhen ever
Ġcomp are
Ġno vel
Ġlo ck
Ġele ment
Ġcre ation
Ġcor al
Ġfre qu
Ġcurrent ly
Ġconcer ned
Ġs ister
in ist
Ġb ag
Ġh ate
ct ions
Ġch ap
Ġlet ter
Ġcr ash
Ġless on
Ġpolit ic
ograph ic
Ġconst ruct
Ġcollect ive
Ġtyp ical
Ġsequ ence
Ġinflu ence
h i
m it
Ġc os
Ġm ir
Ġwe ak
Ġmo ves
Ġch air
Ġfr anc
Ġsp ot
ag ers
Ġdeep ly
Ġprofess ional
Ġfight ing
Ġdeg ree
Ġmathemat ics
Ġinvis ible
u ge
Ġc ro
Ġf resh
Ġst ation
ter day
Ġde fe
Ġte les
Ġun less
Ġca ught
Ġpain t
Ġ15 0
Ġconst antly
Ġtrain ed
Ġengine ers
Ġnorm ally
Ġdiag n
Ġfra g
x ies
Ġa x
Ġm er
Ġp urs
Ġac celer
Ġfact ory
Ġinst all
Ġbegin s
Ġprot oty
Ġhy p
Ġoper ating
Ġprote in
Ġfasc inating
in o
Ġb one
Ġf aces
Ġg all
Ġn ames
ill ed
Ġcl osed
Ġins ight
Ġfin ished
Ġop in
Ġorgan isms
Ġequ al
Ġinteract ion
Ġwall s
Ġarg ue
Ġgala xy
Ġfort un
Ġcogn itive
w ide
Ġp un
ot ed
ent y
am b
Ġatt ach
Ġcap able
Ġacc ident
Ġcir cle
Ġer a
ipp ing
Ġmajor ity
Ġemot ions
Ġsurpr ise
Ġbrit ish
Ġfing er
re l
Ġd ue
Ġl en
le x
le ction
Ġre ward
th rop
Ġme at
ort ex
Ġman aged
Ġfe llow
Ġph ones
ath y
Ġdescrib ed
Ġsepar ate
Ġstrateg y
y es
Ġa h
Ġh un
Ġf if
es th
ess ed
Ġro of
Ġad op
Ġart ific
Ġequ ival
Ġpay ing
Ġinvest ig
Ġserious ly
Ġsold iers
Ġgala xies
Ġagricult ure
Ġchur ch
d es
m p
p her
om y
th at
Ġse at
Ġco al
Ġhead s
Ġyes terday
Ġfollow ed
Ġperfect ly
Ġconsum ption
Ġprinci ples
Ġadvant age
f o
er al
ur ally
Ġor g
Ġbusiness es
Ġcivil ization
Ġbreat h
i j
Ġa ids
Ġm ur
Ġm others
Ġd ry
ed ia
Ġso il
Ġst im
ur ies
ir t
Ġme l
Ġhas n
Ġgr own
Ġapp le
Ġdi et
Ġlim ited
Ġbenef it
u nd
Ġw ave
Ġc ateg
an es
Ġwh om
ent ally
Ġr ow
ck et
Ġsp ring
ap ers
Ġbr ief
Ġem pt
Ġlead er
Ġsurpr ised
Ġorig in
Ġrepl ace
Ġmention ed
h ab
Ġt ap
Ġh omes
Ġin cent
Ġwe ather
as ion
Ġre form
Ġdo l
Ġne uro
ul ous
Ġdis c
Ġpre cise
Ġsur ge
Ġinf in
Ġequ ip
Ġlangu ages
Ġfeed back
Ġmexic o
Ġwis dom
b l
Ġb attle
or ation
Ġwe ar
Ġre ef
Ġwor ried
Ġpro st
Ġevery day
Ġfe ll
Ġdes ire
Ġhard er
Ġtreat ed
Ġveh icle
Ġdepart ment
Ġg ap
Ġwe aring
Ġbe ar
Ġst ock
Ġeng land
Ġeconom ics
Ġorgan ic
Ġsym met
Ġinstit ute
Ġpa ul
Ġast ron
Ġrece ived
Ġincreasing ly
Ġwashing ton
kn own
Ġaustral ia
Ġequival ent
Ġn erv
Ġso ph
Ġgo als
Ġag re
Ġcont ract
Ġbel ong
Ġplan ning
Ġcy cle
Ġvall ey
Ġcos m
Ġb on
ar ia
Ġbe ach
Ġsp l
ap se
Ġtw itter
Ġar ms
Ġinv ited
Ġ3 5
Ġmarr ied
Ġdeb ate
Ġdar win
Ġaltern ative
Ġpoet ry
r ict
Ġh idden
st on
Ġr ound
Ġpe ak
Ġint u
em y
Ġbu ll
Ġimp lic
Ġdesign er
Ġresearch ers
Ġwatch ed
Ġant i
Ġfield s
Ġrich ard
Ġlaunch ed
Ġmolec ule
Ġord inary
2 0
c il
Ġthe ater
Ġb ul
Ġp ages
Ġk ick
Ġse lect
iss ions
Ġcur ious
Ġda ily
Ġsurv ival
Ġfol ks
Ġequip ment
p et
y l
ar a
as a
Ġex ists
Ġpro s
Ġlo ad
ens ity
Ġcomm it
Ġexper t
Ġhigh est
Ġstu pid
Ġmot ion
cra ft
Ġstat istics
Ġdin ner
Ġmultip le
i at
t ical
Ġf al
an z
ic ity
ro ph
Ġsh ad
Ġne uros
Ġr at
um e
Ġus ers
Ġcomp l
Ġput s
Ġplay er
Ġstep s
Ġdraw ing
Ġprinci ple
Ġlad y
Ġnut r
Ġsaf ety
b i
t a
Ġt ick
Ġto ward
Ġre in
Ġsh ut
Ġr ural
Ġthink s
ag o
Ġcr ime
Ġwar m
Ġge nder
Ġve get
Ġunivers al
Ġvers us
Ġtom orrow
Ġmanage ment
Ġassoci ated
Ġgerman y
Ġshap es
Ġnerv ous
b ble
l ife
Ġch imp
Ġmy th
Ġqu iet
Ġbr own
Ġtechn ical
Ġplay ers
Ġtest ing
Ġident ify
Ġproper ty
Ġdistrib ution
Ġindepend ent
Ġdol ph
Ġd ate
Ġg ather
ic ated
Ġfl at
Ġart icle
Ġsign als
po int
Ġaw ful
Ġlea ves
Ġstrugg le
Ġkilomet ers
a e
h am
p es
Ġe in
us hing
Ġch ain
Ġr ub
Ġv es
Ġv ent
Ġres ource
fore st
Ġplan e
Ġprocess es
Ġz o
Ġexist ence
Ġsent ence
Ġintellig ent
c ast
m as
m ission
Ġc ow
Ġm at
en cies
Ġp oo
Ġd ial
Ġg ang
ant ed
Ġma ps
Ġsa ved
Ġta il
Ġsc en
Ġtrans ition
Ġdr iver
Ġwar ming
Ġgener ations
Ġsupp ose
Ġsit es
Ġill ness
Ġcaus ed
Ġlos ing
Ġdemocr atic
Ġairpl ane
Ġintellect ual
Ġt all
Ġs en
Ġp il
Ġp ip
Ġto ile
Ġst ood
Ġfr ustr
Ġcon gress
Ġpr ay
ib r
pl ace
Ġdesign ing
Ġart s
Ġwonder ing
oc ol
Ġant ib
Ġsho es
Ġcirc um
Ġfill ed
Ġcomfort able
Ġelectr ical
Ġartific ial
Ġp ac
Ġin ner
Ġfact s
Ġcr im
Ġval u
Ġcond uct
Ġdeal ing
he y
Ġlif et
Ġspo ke
Ġhur t
Ġdimens ions
Ġb ow
Ġh ide
Ġto ns
al ed
Ġli e
Ġab st
ol ves
Ġhad n
Ġcl oth
Ġinter face
Ġimport ance
Ġexpl an
Ġset ting
Ġref uge
Ġengine er
Ġmount ains
Ġexperien ced
Ġjapan ese
Ġheav y
Ġken ya
Ġconsequ ences
Ġmos qu
Ġves sel
a urs
c ol
er ves
Ġre con
Ġv oices
Ġco vered
Ġwhere as
Ġpart ner
Ġlet ters
Ġsc ene
Ġbit s
Ġcor ruption
Ġspec ifically
Ġmov ies
Ġein stein
c ar
d y
n ow
r um
Ġg ay
Ġbe e
ot ic
se mb
Ġhe ight
og en
Ġbl ow
Ġfin ish
Ġbus h
Ġsign s
Ġcontin u
Ġcontin ent
Ġadv anced
Ġrev iew
Ġlim it
Ġarr ived
Ġlay er
Ġneg ot
for ce
Ġmarr iage
Ġbrit ain
Ġclin ical
Ġmicrob es
Ġgrandm other
Ġfoss il
Ġconvin ced
m ak
n ew
et t
Ġhe y
Ġfor ced
Ġli ked
Ġk ore
ess ion
Ġev il
Ġcall ing
Ġad vert
Ġres c
ak ed
ak istan
Ġsur f
Ġsol id
Ġrec y
Ġhealth care
Ġcol on
Ġwa ke
Ġkill ing
Ġcut ting
Ġnorth ern
Ġpick ed
Ġess ential
Ġpen gu
Ġdam age
Ġgard en
Ġconsid ered
c ap
Ġw ars
Ġh ung
Ġd ots
Ġg ree
Ġst one
Ġli es
Ġse nding
Ġv an
ci pl
Ġexper ts
Ġmus cle
Ġconnect ions
Ġappro pr
Ġcollect ion
Ġhy per
Ġchem istry
Ġanal ysis
Ġsatell ite
Ġbatter y
g l
p an
z ing
nd ered
Ġh oles
it ness
ic y
Ġli ft
Ġex tend
od es
Ġman ip
Ġqu al
Ġpr ime
Ġunder ne
Ġfeel ings
Ġsl a
Ġmin ister
Ġposs ibilities
Ġopen ing
gg ed
Ġwa ves
Ġdeep er
Ġarm y
Ġdinos aurs
Ġcred it
Ġexch ange
Ġunderne ath
f ish
Ġm arch
en n
Ġp akistan
Ġl ic
Ġn av
st ream
Ġj an
Ġexp ression
Ġgra de
Ġcons ist
Ġmic ros
Ġconst ruction
ien cy
Ġill ustr
Ġill eg
Ġconv ention
Ġreact ion
Ġchemical s
Ġtrial s
r i
z ed
Ġs ources
Ġg rain
est ic
Ġv ote
ab et
ell ing
Ġinter p
Ġmem ber
Ġmess ages
Ġbro ke
Ġexpect ed
Ġconsum er
Ġest ab
Ġvari ety
Ġdyn amic
Ġrough ly
Ġempt y
m ber
v al
Ġw ik
Ġg al
Ġper ce
Ġun it
Ġsw ed
Ġkeep ing
Ġvide os
Ġhon or
Ġshark s
Ġharv ard
Ġentreprene urs
Ġexer cise
Ġfis her
a u
c ers
m in
Ġp ed
Ġto y
Ġe nds
Ġsh all
Ġat l
Ġr ates
Ġorgan ized
Ġprof it
Ġlaw y
Ġstat us
Ġcart oon
Ġrelative ly
hy th
Ġtum or
c a
re te
en g
Ġd ip
Ġin g
Ġch art
ul ating
est s
act ers
Ġ4 5
Ġchar acters
Ġloc ation
Ġrequ ires
Ġmal aria
Ġbud get
d on
s s
Ã ©
Ġw at
Ġg ain
Ġg ift
Ġus er
Ġsp in
ens ion
Ġdes k
Ġide al
Ġent ertain
Ġgener ally
Ġcult ures
Ġge orge
Ġdra g
Ġhor se
Ġemerg ing
pro f
Ġsoph istic
Ġp ure
le ment
Ġk itch
Ġsh if
Ġr ide
Ġpro ve
Ġma k
Ġte eth
Ġint r
os ition
Ġpl us
Ġthought s
Ġfew er
Ġcare fully
Ġaut h
Ġeffect ively
Ġtyp ically
Ġfac ing
Ġcapt ure
Ġencou rage
Ġhous es
Ġrapid ly
Ġcla im
Ġvalu able
Ġc ast
Ġm ira
Ġis ol
Ġj ack
Ġr u
Ġsu gar
Ġworld wide
Ġ2 000
Ġfl ies
Ġsm ile
Ġext ract
iqu es
Ġsym pt
Ġrepres ents
Ġtransform ation
Ġpriv ile
Ġconv ince
Ġproper ties
Ġchick en
Ġepid emic
a el
d p
m ers
Ġc ards
Ġb are
Ġm c
Ġp ian
Ġl u
Ġl ect
Ġli qu
Ġcan ada
Ġsu it
Ġcl ub
Ġbu bble
Ġbr an
Ġpre fer
Ġprodu cing
Ġmove ments
Ġgener ate
Ġbehav iors
Ġste el
Ġbott le
Ġrad ical
Ġcamer as
Ġprim ary
Ġisl am
Ġmathemat ical
Ġvict ims
Ġmolec ular
Ġsurve y
Ġgradu ate
Ġoffic ial
Ġdispl ay
Ġvulner able
Ġlibr ary
Ġpolitic ians
Ġlen gth
g ets
o es
r s
ci ence
Ġdis s
Ġcont ain
Ġhu nt
Ġpass word
Ġaut on
pect ed
Ġ9 9
Ġprotect ion
Ġsouth ern
Ġsitu ations
ony m
Ġvirus es
Ġdisapp ear
Ġfle x
Ġcrow d
Ġmort ality
Ġfranc isco
b ur
j ust
t ube
Ġc ub
Ġl es
it i
Ġe ld
Ġre ven
Ġch ic
Ġr ing
Ġem issions
con t
Ġrep rodu
Ġwin ter
Ġrele ase
Ġdepe nds
Ġdefin itely
Ġdetail s
Ġinstr ument
Ġhyd rogen
Ġniger ia
. '
d own
u ary
Ġd ed
Ġwe l
Ġn ur
ir ty
Ġas p
ul s
Ġex ec
os is
Ġstud io
Ġdec l
Ġgra vity
Ġreg ard
Ġadd ed
Ġris ks
Ġocc up
Ġdom in
Ġcarry ing
Ġswe et
Ġhyp oth
Ġs ight
Ġb ath
Ġh ill
Ġg dp
Ġst aff
Ġr it
qu ality
Ġun ex
Ġcomm and
Ġgr id
Ġcons ervation
Ġdef ine
Ġass ign
Ġterror ism
Ġine vit
Ġlifet ime
Ġchic ago
d a
Ġw itness
nd ed
Ġc ure
Ġyou tube
Ġma nd
el ine
Ġaf f
Ġbu ying
Ġac qu
Ġinterest s
Ġrele ased
Ġprom ise
Ġemploy ees
Ġpleas ure
Ġcircum st
l ation
s pe
Ġm art
Ġand erson
it als
it arian
Ġg ut
ot ing
st ic
ur b
Ġdo gs
Ġat oms
Ġtr illion
Ġcomp ar
Ġworld s
ab ilities
Ġgen et
Ġtechn iques
Ġrem o
Ġrem ain
Ġperson ally
Ġeng aged
Ġmin im
Ġform er
Ġprofess ion
Ġsam ple
Ġintrodu ce
Ġdiscuss ion
Ġprep ared
Ġmusl im
Ġcompon ents
Ġforg ot
Ġlapt op
Ġorg ans
Ġkitch en
Ġch a
Ġor ch
Ġag ing
Ġfact or
Ġser ve
old s
Ġreg ions
Ġenviron ments
Ġass ist
Ġpoll ution
Ġsell ing
Ġlad ies
Ġencou ra
Ġintrodu ced
bu ild
Ġrestaur ant
Ġnewsp aper
n es
Ġth in
Ġa th
Ġun us
Ġinv ention
Ġgl am
Ġdr iven
Ġ19 6
Ġmet al
Ġmar ine
Ġliter ature
Ġanal og
Ġmir ror
Ġestab lish
b ors
l og
Ġs ides
Ġm ile
Ġh ol
Ġp y
or gan
ic ip
Ġha m
ly ing
Ġsh ame
Ġsp here
Ġcl ock
Ġdis h
Ġchan nel
Ġfact ors
Ġcour t
ub lic
Ġcent ers
Ġnat urally
Ġless ons
Ġcra ck
Ġrad iation
Ġblock s
Ġadm inist
Ġappl ied
Ġabst ract
c al
k a
Ġo x
Ġo ct
Ġo ption
er ved
Ġl as
Ġn asa
se c
ir ing
Ġen s
Ġdis aster
Ġph r
Ġsc ared
Ġmed ium
Ġchar les
Ġsou l
Ġdi am
Ġadv ent
Ġrecord s
Ġrecord ed
Ġpsych ology
Ġpract ical
Ġpriv acy
Ġcomb ination
Ġrepl ic
por ary
Ġaffect ed
Ġforest s
Ġmist ake
Ġspect rum
Ġsport s
Ġopin ion
1 1
b ut
Ġi i
Ġb er
Ġp in
Ġp ra
Ġf ishing
ic ing
ch ild
Ġj ames
Ġun ion
Ġcl ip
Ġpo le
Ġafter no
Ġrun s
Ġelect ro
Ġref er
Ġ7 5
Ġsat is
Ġevolution ary
Ġisl ands
Ġseas on
Ġteles cope
Ġfal se
Ġilleg al
s a
Ġw ine
Ġto xic
Ġd iction
or ous
ig m
Ġcon ver
Ġper ception
Ġimp l
Ġgood s
Ġbr others
Ġsing ing
Ġreach ed
Ġrock et
Ġneigh bors
Ġest im
Ġlabor atory
Ġliqu id
d r
u el
Ġc ere
Ġc ortex
Ġb es
Ġb icy
ol ving
Ġnot es
Ġr ational
Ġma x
co nd
Ġsc ore
Ġapp arent
Ġwind ows
Ġincl ude
Ġtravel ing
Ġpull ed
Ġcrit ic
Ġparticip ate
Ġcollabor ation
Ġruss ia
Ġing red
Ġsophistic ated
u its
v an
v able
Ġo ught
ing u
Ġin put
ur ance
Ġse vere
am s
Ġact ions
Ġfe atures
Ġtechn ological
Ġcou rage
Ġphys ically
Ġkeep s
Ġ200 8
Ġrequ ired
Ġsil ence
Ġfundam entally
Ġrele vant
Ġaware ness
Ġeffic iency
Ġdro pped
Ġhop ing
Ġtransport ation
Ġveh icles
Ġharv est
Ġmich ael
Ġinterp ret
Ġunus ual
8 0
b re
g ment
Ġa lex
Ġc ord
Ġwas h
am ent
Ġcom ment
Ġr ig
Ġthem e
Ġact ing
Ġper man
Ġfe ature
Ġbi om
Ġsk ill
Ġmem ories
Ġequ ally
Ġlarge ly
tern al
Ġste ve
Ġdest ruction
Ġemp athy
Ġult imate
Ġactiv ities
Ġclin ic
Ġ201 0
Ġmanufact uring
Ġalgorith ms
y m
Ġc ave
Ġb arr
Ġh its
us ive
Ġre ci
Ġst orm
Ġu pper
um ps
qu e
ie nd
ab led
Ġcont em
Ġpre gn
Ġmon t
Ġmon key
Ġ19 4
Ġeas tern
arr ass
Ġincre ased
Ġsun light
Ġsens es
Ġemb arrass
Ġstrong er
Ġmeaning ful
Ġcomb ined
Ġhosp itals
Ġsustain ability
Ġegg s
Ġancest ors
l om
o le
Ġa ug
all ed
Ġse es
Ġne ither
um s
Ġsp ider
Ġtr ig
Ġqu arter
Ġpo ol
Ġunder water
Ġmus ical
Ġform ed
Ġintern al
Ġprocess ing
Ġtop ic
Ġtest s
Ġoper ate
Ġsil k
Ġhot el
Ġmechan ism
Ġ199 0
Ġbirth day
Ġauthor ity
Ġafterno on
l ands
Ġp itch
Ġto night
Ġf ert
Ġbut ton
Ġsol ved
ew ork
Ġfun ctions
Ġcle ver
Ġfall ing
Ġhor iz
Ġcook ing
Ġmist akes
Ġfram ework
Ġoccur red
Ġswim ming
Ġaccom pl
Ġpac ific
Ġt ape
Ġh ook
en ced
Ġp air
Ġbe ll
Ġfr ance
ul a
Ġde ce
Ġv en
Ġsome what
are n
Ġdis cipl
Ġcont rast
Ġpol ar
Ġcomput ing
Ġrep ublic
Ġjo ke
Ġamaz on
Ġmarket ing
Ġconst ant
Ġmathem atic
Ġburn ing
Ġprote ins
Ġdip lom
5 00
h an
m aking
Ġi p
Ġre ject
Ġre new
Ġma c
Ġdes per
be ing
Ġbo ston
Ġdr ives
Ġbi o
Ġprotect ed
Ġemp ower
Ġmechan ical
Ġrid ic
sc ale
Ġdoub t
cript ion
Ġf ake
Ġl ying
Ġg ulf
Ġha w
se m
Ġhe m
Ġse m
Ġex cell
Ġnow here
Ġco ord
Ġun c
ab ol
Ġover all
Ġmus h
Ġmil k
Ġadv ice
Ġcollect ed
Ġamount s
Ġpot entially
Ġocc asion
Ġpsych ological
Ġlink ed
Ġhous ing
Ġelectron ic
Ġdram atic
Ġpian o
m m
r ont
Ġb at
Ġh oney
Ġp ink
Ġd ot
Ġn a
Ġwh ales
Ġst an
ra d
Ġan x
Ġj er
Ġsp an
Ġpl ate
Ġco ck
Ġpo ly
Ġover wh
ber g
Ġsc ar
Ġcreat ure
Ġele ction
Ġla ke
Ġvis ible
Ġglob e
Ġfig ures
Ġmem or
Ġdire ctor
Ġvir gin
Ġoper ation
Ġphotograph s
Ġann oun
Ġinit i
Ġconcl usion
Ġconc rete
Ġantib iot
Ġoverwh el
p a
r om
Ġt ro
Ġs ets
Ġm ent
Ġf urn
Ġn urs
Ġwhere ver
ang ing
ang ers
Ġpercent age
Ġ19 60
Ġext inct
Ġeconom ists
Ġsub s
Ġpres ence
Ġconf ront
Ġroom s
Ġdef ined
Ġfall s
Ġstay ed
Ġcy ber
Ġcirc uit
Ġfram e
Ġspirit ual
Ġinspir ation
Ġappreci ate
fo ot
Ġrit ual
Ġth ick
Ġi phone
Ġc ents
Ġc up
Ġm ere
is ters
Ġn est
Ġch ose
ate ful
Ġint ense
os es
Ġres il
Ġob st
Ġstr ing
Ġbi ke
Ġconf idence
Ġpar is
Ġfil ms
Ġprov iding
Ġdep th
Ġsens itive
Ġexplain ed
Ġarchitect s
Ġroad s
Ġsong s
Ġtrack ing
Ġconvers ations
Ġsubject s
Ġattack s
Ġbreat he
Ġod d
Ġsurround ed
Ġaccur ate
Ġzo om
Ġcloth es
Ġexplan ation
o x
Ġs ir
in ction
Ġm all
Ġh i
Ġp ump
es h
ke ys
Ġv ag
Ġout come
Ġun known
Ġrem ains
Ġrem ove
te ch
Ġgra d
Ġrec om
Ġexpl oration
Ġcur ve
Ġstre t
Ġproduct ive
ane ously
Ġexist ing
Ġemb ed
Ġpresent ation
Ġmult i
Ġcomb ine
Ġfle w
Ġinfect ed
Ġcloud s
Ġinnov ative
lly wood
Ġdyn am
Ġwire less
Ġhorr ible
Ġtast e
Ġappropr iate
hyth m
Ġcircumst ances
e al
Ġs co
Ġp ill
Ġl ens
it ure
Ġre verse
ad s
est yle
Ġv oc
Ġshe ll
Ġdec line
Ġinst ruct
Ġdr ill
Ġjo ined
Ġeduc ational
Ġtest ed
Ġdef ense
Ġclose ly
Ġmeasure d
Ġang ry
Ġassum e
Ġ198 0
Ġcontroll ed
ios ity
Ġapplic ations
Ġque en
Ġeleph ant
Ġspl it
o v
t ail
v i
Ġth om
Ġb ones
es ome
Ġl oud
it a
Ġwh ist
Ġwh ale
Ġse pt
Ġj ail
Ġun com
Ġ2 3
Ġeven ing
Ġear s
Ġtrans pl
Ġcoll apse
Ġexpl os
Ġ200 7
Ġaut ism
Ġadv ance
Ġabs or
Ġsens ors
Ġdeath s
Ġer ror
Ġopt ions
Ġcapital ism
Ġdiv ide
Ġscr atch
Ġtherap y
Ġwik ip
Ġsympt oms
b ed
f ather
g r
i h
o int
v is
Ġc ash
Ġb oring
Ġp apers
ed ing
Ġn ic
Ġan onym
Ġr ic
Ġad am
Ġhum or
Ġfl ower
Ġcent uries
Ġdat ab
Ġhand le
hip s
gg ing
Ġallow ing
Ġstand ards
Ġstate ment
Ġchallen ging
Ġ6 00
Ġbehavior al
bo x
Ġflow ers
here nt
Ġencou n
Ġfing ers
Ġchrist mas
Ġscr ipt
Ġfrank ly
Ġrom antic
Ġgentle men
Ġange les
Ġembra ce
Ġmosqu it
Ġnav ig
g reg
h en
Ġa qu
Ġb g
Ġb ay
Ġh orm
it ers
it ors
Ġwe igh
Ġn ose
om ic
al d
us es
all el
ce nd
Ġj ul
Ġch ocol
Ġr ush
Ġ2 2
Ġrel ate
Ġz one
Ġtreat ing
Ġtre nd
Ġprov ided
Ġrock s
Ġvol ume
Ġvill ages
Ġpoll en
Ġsuff er
Ġsam ples
Ġnarr ative
Ġpassion ate
y eah
Ġ q
Ġa ster
in ations
Ġh at
Ġf iction
Ġd ut
Ġd ress
Ġg ps
Ġit em
ro g
st ers
Ġde ploy
Ġta ck
Ġimp lement
ath ers
Ġgr as
Ġgr ateful
Ġcons erv
Ġbus y
Ġcor n
cr im
Ġdist inct
Ġlab el
Ġconst it
Ġtransform ed
Ġfeed ing
Ġfoot print
Ġfac ed
Ġinstr uments
Ġapplic ation
Ġparad igm
Ġsept ember
Ġwikip edia
7 0
h our
u ce
Ġt ent
Ġa ck
Ġi con
Ġw ow
nd a
ou nce
Ġm ice
en ess
ow ered
Ġan ger
Ġout c
Ġta b
Ġag es
Ġph ase
Ġtechn ique
Ġgra b
Ġext ent
Ġcor res
ogra pher
Ġsure ly
Ġ[ "
cle ar
Ġgreen house
Ġrecord ing
Ġident ical
Ġconsum ers
Ġrobot ic
Ġpolic ies
Ġlog ic
Ġign or
Ġdeterm ine
Ġresist ance
Ġinfin ite
Ġmush room
c ence
h ol
n ger
o ver
Ġc ath
Ġb order
Ġyou nger
ly mp
Ġch ip
Ġpl ans
Ġact s
Ġexp on
Ġro ot
Ġtrans fer
Ġcor als
Ġbox es
Ġsuggest s
Ġadm it
ok ay
Ġfix ed
Ġcelebr ate
bel ie
Ġmyster y
Ġunex pected
b a
u ps
Ġo lymp
er ation
Ġp ushing
Ġd h
Ġg est
ct ic
ant a
Ġsp inal
Ġen able
Ġsu ic
Ġro bert
Ġlo op
Ġdown load
Ġgr ay
Ġown ers
Ġmon keys
Ġorgan ism
Ġinteresting ly
Ġearth qu
Ġequ ation
Ġlim its
end ed
Ġir r
Ġdan cing
Ġpuzz le
k ind
s ource
z a
Ġin ject
Ġst ro
Ġst ack
Ġli ver
Ġsh ar
il ed
os ing
Ġcl us
Ġar rest
Ġinter f
Ġra w
wh ile
Ġgl a
Ġbo om
Ġeconom ies
Ġwo ndered
Ġfu nding
Ġpar king
Ġref erence
Ġcontin ued
Ġant icip
Ġmeas uring
Ġcaus ing
Ġ25 0
Ġtele phone
Ġflo ating
Ġhig gs
Ġalgorith m
Ġvacc ine
connect ed
Ġagre ed
Ġimplic ations
Ġpoo rest
prof it
Ġorch est
o ons
p ass
Ġt ube
Ġs ed
Ġb orders
Ġm im
Ġf ib
Ġd ign
es ity
Ġl one
ar ant
Ġg ro
Ġg am
ot a
Ġst yle
Ġse lection
Ġj une
Ġsh ake
Ġfr ight
Ġour s
Ġun s
Ġpr ices
Ġdis orders
Ġph arm
Ġel im
Ġcare ful
Ġcol um
Ġclass es
Ġincre ases
Ġconst rain
Ġarg uments
Ġperform ing
Ġviol ent
Ġmain ly
Ġaw esome
Ġemerg ency
Ġbreat hing
Ġnarr ator
Ġdrink ing
Ġmamm als
Ġmusl ims
Ġtoile t
Ġpengu ins
Ġconvention al
a ult
h r
i ety
al u
ke ep
im eter
Ġr w
Ġex cl
Ġkn ock
Ġco in
Ġag ency
Ġfir m
Ġfl ood
Ġoff ered
Ġcar r
Ġcar ried
Ġinst inct
Ġpol io
Ġ19 50
Ġcur iosity
Ġ200 5
Ġ200 9
Ġsec ure
Ġdi abet
Ġexist ed
Ġdirect ions
Ġobs essed
Ġast on
Ġstru ck
Ġgold en
Ġautom atically
Ġlat in
Ġcorpor ate
Ġfab ric
Ġswed en
Ġthom as
b al
Ġt ill
re ts
it ory
et ch
Ġst ands
Ġdo zen
op ia
Ġpro port
Ġte a
Ġpl aced
Ġdis order
ph ones
Ġfl or
Ġtra ged
Ġob esity
Ġfin ance
Ġair port
Ġcol ony
io x
Ġinteract ions
Ġrepres ented
Ġproper ly
Ġjud ge
Ġdistrib uted
Ġdram atically
Ġconc ert
Ġacad emic
Ġsurge on
Ġlic ense
Ġentertain ment
l ock
r ors
y al
Ġc ens
Ġm ales
Ġd ense
Ġl ou
ut ing
Ġgo lf
am in
am eric
ill e
so ft
Ġover come
Ġimp ress
Ġlet s
ict ed
Ġgen ius
Ġrem em
Ġstory t
Ġeng aging
Ġsol ving
Ġclass ic
Ġteam s
Ġrecogn ition
Ġspread ing
Ġbom bs
Ġcompon ent
Ġgh ana
Ġax is
Ġfif th
Ġkore a
Ġchocol ate
Ġack now
Ġoutc omes
b age
g ers
w r
w ich
Ġt ight
Ġt ip
Ġs ar
Ġp our
Ġd er
Ġl ung
as m
as hing
Ġme g
ill ance
Ġsee k
Ġtr i
Ġen emy
are t
Ġtw e
Ġfl ash
Ġdec re
Ġob ama
Ġcoll aps
Ġmet abol
Ġgrow s
Ġpat ent
Ġpop ulations
Ġhouse hold
Ġris ing
Ġexpect ations
Ġill usion
Ġpract ices
Ġreach ing
Ġdepe nding
Ġrain forest
Ġlif estyle
Ġrece ive
Ġhero es
Ġsaving s
Ġsmo ke
Ġ197 0
Ġcontroll ing
Ġcooper ation
Ġprototy pe
Ġprecise ly
Ġjan uary
Ġstret ch
c alled
e k
l ines
w ar
Ġs ales
nd ay
Ġf an
Ġd ict
Ġl un
us ing
ot es
id ers
Ġab use
Ġmo ld
Ġch ief
Ġde lic
if orm
Ġpl enty
Ġpre m
Ġsc ary
Ġra ising
Ġstr i
Ġhard ware
Ġconnect ing
Ġpar allel
Ġbre aking
Ġpain ful
Ġfil ter
Ġinteract ive
Ġconcept s
Ġbud d
iven ess
Ġtit le
Ġentreprene ur
Ġsculpt ure
Ġmaint ain
Ġexhib ition
Ġfortun ately
Ġscen ar
Ġwel come
Ġphr ase
Ġunc ertain
Ġfurn iture
Ġobst ac
o st
r ary
v a
w alk
Ġw al
Ġb ob
Ġd u
Ġd ust
ll ar
ed y
Ġst ere
th ink
Ġas semb
Ġpro ced
Ġcon go
rou s
Ġtr ies
os h
Ġwork er
Ġno bel
Ġshe ep
Ġdesign s
Ġperson ality
Ġsl ides
Ġent ered
Ġpres ented
Ġleg acy
Ġtransl ate
Ġine quality
Ġprint ing
Ġsurve illance
Ġhabit at
Ġrout e
Ġphilosoph y
Ġdestroy ed
cons cious
Ġhun ger
Ġshad ow
Ġeld er
Ġantibiot ics
Ġdiabet es
9 0
b ra
c red
Ġc as
Ġc od
Ġp and
it z
ot ion
Ġne ut
Ġch amp
Ġor ange
Ġal ph
Ġv ibr
and on
Ġman h
Ġpo cket
Ġimp er
Ġdis g
de f
Ġgu arant
Ġapp eared
ac ing
Ġlove ly
Ġpartic le
Ġexpl o
Ġexpl oring
Ġanim ation
Ġwalk s
he im
Ġtravel ed
Ġimm une
Ġtas ks
Ġmagn etic
Ġfasc inated
Ġlaugh ing
Ġlat est
Ġrepe at
Ġcand id
Ġattach ed
Ġvessel s
Ġresc ue
Ġperman ent
e v
p ower
t es
Ġthe r
Ġd ensity
Ġd iox
Ġy ield
st ruct
th ere
th rough
un clear
Ġpl ot
ain t
og ue
Ġun its
Ġ2 7
olog ically
Ġbr on
Ġcomm itted
Ġsc ream
Ġshould er
Ġimag ined
Ġele v
Ġacc um
Ġge omet
Ġ6 5
Ġmill enn
Ġsil ic
Ġport ra
Ġvirt ually
Ġisl amic
Ġappear s
Ġking dom
Ġspo ken
Ġspect ac
Ġthr own
Ġfed eral
Ġcommit ment
Ġlect ure
Ġapparent ly
h app
o ll
r us
Ġt s
Ġh al
Ġg ig
Ġe ve
st and
Ġse ction
Ġas ide
Ġat e
Ġor bit
Ġsa cr
Ġta g
Ġun belie
ak s
Ġwr iter
Ġmus cles
Ġbeh ave
Ġhard ly
Ġsign ed
Ġheart s
Ġinteract ing
Ġmicro soft
Ġeth i
Ġdiv ided
Ġsand wich
Ġmanufact ure
Ġcustom ers
Ġshoot ing
Ġreco very
Ġtransp aren
Ġtransparen cy
g ic
k et
l ist
u ous
re ct
Ġc ab
Ġp ace
Ġto ler
Ġha iti
ra ction
Ġj es
Ġus ual
Ġwant ing
ag n
ud es
Ġad just
Ġpers u
Ġinv olves
Ġsch ol
Ġplay s
Ġins urance
Ġrep air
Ġproduct ivity
Ġmeet ings
Ġrecogn ized
Ġce iling
Ġball oon
Ġamong st
Ġest imate
Ġconcer n
Ġign ore
Ġpainting s
Ġsimpl icity
Ġug ly
Ġpow ers
Ġchap ter
Ġauth ent
Ġauton om
Ġpy ram
Ġbicy cle
Ġembed ded
Ġdign ity
Ġdiox ide
a a
p al
s um
v as
Ġt ank
Ġt ired
Ġt rop
Ġw ings
Ġd ere
Ġg on
Ġyou th
id a
Ġj im
ere nces
Ġch est
Ġsp r
Ġco ach
Ġle ap
Ġtra um
Ġgl ad
Ġmon itor
az z
Ġrep ut
Ġcontro vers
Ġdist rict
Ġopp osed
cl ass
Ġes cape
att an
Ġer ad
Ġlim b
Ġpur ch
Ġachie ved
Ġdom estic
Ġnarr ow
Ġconflict s
Ġstrateg ies
Ġaspect s
Ġincent ives
Ġneuros cience
Ġdolph ins
Ġmax im
Ġstan ford
Ġmanh attan
b ar
n ic
x as
Ġw ed
Ġw ound
Ġw ired
or g
Ġg ates
Ġbe er
Ġre build
im ent
Ġli kes
Ġab andon
Ġat tend
Ġv ital
Ġsu ck
Ġqu ad
ag ger
ell y
Ġbl ank
Ġra il
Ġfl ip
Ġinst ant
Ġfar mer
Ġsecond ly
Ġafric ans
Ġage nda
Ġche aper
Ġleg is
Ġunivers ities
Ġfoot ball
Ġreport ed
Ġdisapp eared
Ġcolleag ue
Ġcry ing
Ġvolunte ers
Ġcrim inal
Ġprivile ge
child ren
Ġdisg ust
Ġc ute
le te
id ay
Ġan throp
Ġpe er
Ġcon ven
Ġte xas
Ġyour s
Ġro ots
Ġback wards
Ġunder ground
Ġcomm od
Ġem ph
Ġgr anted
Ġgu ard
Ġ3 2
Ġla ughter
Ġprodu ces
Ġnat ive
Ġmet er
Ġgener ated
Ġorgan ize
Ġgovern ance
Ġglob ally
Ġdev ast
Ġadv oc
Ġleg it
Ġgrand father
Ġpsych iat
Ġdark ness
go ing
Ġver tical
Ġapart ment
Ġdro ve
ze es
Ġaccept ed
Ġheav en
Ġengage ment
Ġtit an
Ġneighborhood s
Ġtal ent
Ġfro zen
Ġtow er
Ġdiver se
Ġpun ish
Ġadop t
Ġlu x
Ġremo ved
Ġrecom mend
a it
f all
g un
h op
h ib
Ġa im
Ġthe ories
an zees
Ġn it
le ton
et ers
Ġst ations
ur ation
ill y
ter y
um an
Ġal ien
Ġte ch
Ġact or
Ġexp ans
Ġexp osed
Ġcl ar
Ġbu bb
cent ury
Ġsc ales
ang le
Ġinv ite
Ġchar ity
Ġpar aly
Ġequ ality
Ġcontin ues
Ġve ter
Ġsil ent
Ġredu ction
Ġsearch ing
Ġfunction al
Ġcapt ured
Ġterror ists
Ġsus pect
Ġsmo oth
Ġhistor ical
Ġsymmet ry
Ġpros per
Ġchimp anzees
Ġpil ot
Ġadvert ising
Ġded icated
Ġearthqu ake
n am
n els
t w
Ġt ears
Ġw ip
in als
Ġto ys
an throp
Ġn in
Ġas h
Ġch os
Ġfr uit
Ġkn ee
Ġint ent
Ġact ors
Ġres olution
Ġher self
Ġafter wards
arch y
Ġatt rib
Ġprob ability
Ġdist ant
Ġelse where
Ġpar as
less ly
Ġcollect ing
Ġmiss ed
Ġcommunic ations
Ġaccess ible
for ward
Ġcoun cil
Ġcontrib ute
Ġoptim istic
Ġelectron ics
Ġmotiv ation
Ġhung ry
Ġmicros cope
Ġsatis f
Ġencoun ter
Ġgla ci
Ġsilic on
Ġchos en
r is
s p
s on
v in
Ġa er
Ġp m
Ġf ulf
Ġd im
Ġd ump
Ġwe t
th al
Ġch am
Ġr h
Ġr ay
Ġex ternal
Ġun p
Ġev olve
Ġev alu
Ġ2 6
pt ions
Ġspe ll
Ġfind s
Ġmin or
Ġold est
Ġbi ologists
Ġsk ull
Ġadd ing
Ġtre nds
Ġprov ides
Ġspeak er
Ġdel ight
Ġextre m
Ġinsp ire
Ġtouch ed
Ġfa cial
Ġmechan ics
do llar
Ġban ks
Ġang le
Ġchrist ian
Ġeffort s
Ġinit ial
Ġweap on
Ġastron om
Ġtranspl ant
c ut
c ause
f ree
i ated
t alk
Ġ 0
Ġh ire
Ġh ub
Ġp ul
ar ters
Ġn ets
ic op
ve y
us ions
Ġdo z
Ġr ating
ck ets
Ġint ention
Ġcl iff
Ġlet ting
Ġob l
ont al
Ġ200 4
cl ing
Ġcontrol s
Ġret ire
Ġmar gin
Ġess ence
Ġphotograph y
Ġmechan isms
aw s
Ġflu id
Ġneur on
Ġfort une
Ġpal est
Ġinnov ations
Ġjournal ist
Ġug anda
Ġseed s
Ġbound aries
Ġtransp arent
Ġsynth etic
Ġlock ed
Ġatl antic
Ġbare ly
Ġath let
Ġdiction ary
Ġingred ients
Ġpregn ant
Ġhem is
Ġsuic ide
Ġtraged y
c ase
m al
u nder
u ff
v iew
Ġo oh
Ġb ible
Ġb oss
Ġb orrow
Ġd irty
or ter
Ġre b
Ġre ly
Ġab und
Ġr ice
ast roph
ard o
Ġwill i
Ġshe et
Ġpo ison
Ġro se
Ġlo b
Ġcont ains
Ġreal m
Ġgen oc
Ġele g
Ġlight ing
Ġair craft
Ġmusic ians
Ġview s
Ġvi et
Ġ12 0
Ġtext book
Ġparticip ants
Ġsal t
Ġmethod s
Ġut ter
Ġinteg r
Ġbelief s
Ġjew ish
Ġreef s
Ġsurf aces
Ġfert il
Ġexcell ent
i xt
l ies
Ġw ise
Ġs in
Ġh ier
Ġp ad
Ġd ive
om a
ow ing
Ġso ap
Ġst ages
ly n
Ġne ural
Ġde ar
Ġcon ce
Ġma il
ive red
ie l
Ġen h
Ġman if
Ġem er
Ġpoint ed
Ġvis ited
Ġacc idents
Ġelect ions
Ġoper ations
Ġball s
Ġult ra
Ġlay ers
Ġlink s
Ġvac u
Ġcat astroph
Ġsymbol s
Ġje ff
Ġwat ers
Ġdomin ant
Ġmart in
Ġlas er
Ġuncom fort
Ġanonym ous
Ġignor ance
t op
Ġth umb
Ġw id
at o
Ġb ars
en er
Ġp ale
Ġit aly
Ġst able
Ġse ats
ill ing
Ġpo ster
Ġgu ide
Ġear n
Ġhel icop
Ġbi as
Ġcap ita
Ġreg ret
Ġstop s
Ġchr om
Ġconsum e
Ġorig ami
Ġobs erv
Ġpull ing
Ġcirc les
Ġsuggest ing
po x
Ġdiag ram
Ġafford able
Ġcalcul ate
Ġhell o
Ġsmo king
Ġinteg rated
Ġagricult ural
Ġcru cial
Ġcopy right
Ġshr imp
Ġcro ps
Ġintu itive
Ġpassword s
Ġcha os
Ġridic ulous
Ġdynam ics
Ġdatab ase
Ġemph as
Ġdoz ens
a ust
t oc
v iet
w est
er a
Ġm ary
en ger
Ġin k
ion e
se ction
Ġj a
ind er
Ġout put
Ġper pet
Ġdis rupt
ph or
Ġcomm ission
Ġsm ith
Ġsch iz
Ġrel ax
Ġcons ult
Ġmon it
Ġ19 5
Ġstr ip
Ġstr angers
Ġrec ru
Ġcap ability
Ġset tle
Ġpass ing
Ġglobal ization
Ġrob ust
Ġdra wn
Ġdep ressed
Ġho llywood
Ġdel ivered
Ġeth ical
Ġpu pp
Ġoxy toc
Ġdemonstr ate
Ġtrib es
Ġisol ated
Ġox ford
Ġannoun ced
Ġric her
Ġspectac ular
Ġreput ation
Ġoxytoc in
h ar
t ure
u a
Ġw ing
Ġc ott
Ġb f
Ġb ol
Ġb os
Ġp ile
Ġbe et
Ġj elly
Ġne at
Ġup set
Ġhapp ier
Ġinc ident
chn ology
Ġpers ist
ub es
Ġed ges
Ġop ens
Ġsmall pox
Ġcap s
Ġresp o
Ġfig uring
Ġphot ographer
Ġtreat ments
Ġspeak ers
Ġbreak through
Ġinclud es
Ġreport s
Ġimprove ment
Ġtun a
Ġdepend ent
Ġteen agers
Ġinspir ing
Ġcateg ory
Ġbrief ly
Ġorigin ally
Ġuncomfort able
b ered
h al
o ids
p art
p arent
Ġa esth
Ġo l
Ġm ate
al ian
ig ation
Ġu b
Ġch ron
Ġal co
Ġsp ark
os ure
are s
Ġqu it
Ġar ctic
Ġpart ies
Ġbl ame
Ġtra ject
Ġfo ol
Ġla id
Ġbi od
Ġcam br
Ġaud io
Ġcra ft
Ġexperim ental
ming ly
Ġprotect ing
Ġpredict ions
Ġredu ced
Ġsold ier
Ġcharacter istics
Ġvari ation
Ġcross ing
Ġsepar ated
Ġreturn ed
Ġdeb t
Ġtrick s
Ġcry st
Ġconcl ude
Ġhack ers
Ġrare ly
Ġhang ing
Ġske pt
Ġasp ir
Ġnurs es
Ġrw anda
Ġlun gs
heim er
Ġhemis phere
Ġemer ge
Ġalco hol
f old
s ing
v est
Ġs s
Ġs ession
Ġm t
Ġp icking
Ġn u
Ġn aked
ut ical
Ġso viet
st ate
th ird
op her
Ġk iss
Ġr io
Ġsp ots
Ġag encies
Ġtw enty
Ġpart ly
Ġcar ol
Ġsim ult
Ġfu els
Ġ200 6
Ġpain ted
Ġdig it
Ġident ified
Ġimpact s
Ġinterv ention
Ġcitiz en
Ġautom ob
Ġdeterm ined
Ġphysic ist
Ġconsequ ence
Ġreco ver
Ġinj ury
Ġecosystem s
Ġunlike ly
Ġmyster ious
mark et
Ġlin ear
Ġwheel ch
Ġconstruct ed
Ġreven ue
Ġbath room
Ġanx iety
Ġflor ida
Ġethi opia
Ġautonom ous
Ġvacu um
Ġschiz oph
b orn
h alf
o e
r ich
r ia
Ġt ied
Ġthe ore
Ġb oo
Ġh ip
Ġp unch
Ġp eter
Ġf iber
Ġg and
Ġn g
Ġn ick
le vel
Ġst om
Ġst ores
op y
Ġse vent
Ġch im
Ġpro of
Ġsp a
Ġcomp rom
ace utical
Ġdis ag
Ġad ap
Ġunder lying
Ġbr ib
Ġatt itude
Ġopen ness
Ġted talk
Ġge ographic
Ġland ed
Ġbra ve
Ġvol can
Ġfac ility
Ġphil anthrop
Ġprim arily
Ġstick s
Ġdiscover ies
Ġpush ed
Ġremind ed
Ġdimens ion
Ġdinos aur
Ġrepe ated
Ġtruck s
Ġbran ch
Ġmanif est
b its
o ir
o ber
z heimer
Ġth rew
Ġs ink
Ġs isters
er ving
Ġp ione
Ġd ow
Ġin ches
Ġin herent
Ġre nt
ur a
Ġdo ors
Ġmo de
Ġal zheimer
un ction
Ġcl ay
Ġcl ients
Ġad oles
Ġpre tend
Ġcar ing
Ġwr iters
wh en
Ġcr ick
Ġfar ming
ught ers
Ġpos itions
Ġant ar
Ġprogram ming
Ġsens ory
Ġgrand children
Ġsent ences
Ġpredict ed
Ġindust ries
Ġstat ist
Ġarr ay
Ġtar gets
Ġjoh ns
Ġassum ptions
Ġarab ic
Ġexpand ing
Ġshop ping
Ġeleph ants
mak ers
Ġextend ed
Ġoct ober
Ġbes ides
Ġresil ience
Ġpyram id
Ġbubb les
Ġchrom os
Ġschizoph ren
d am
m od
r ix
v ille
w l
w ow
y ard
z ero
Ġth resh
Ġa in
Ġw ra
Ġs ulf
Ġs illy
Ġo s
Ġc able
Ġto ng
Ġf ract
Ġf ought
Ġd uck
Ġl it
Ġl amp
Ġg ases
Ġbe ij
Ġbe gun
op ard
am ine
Ġch airs
Ġal b
Ġsa cred
Ġexp ed
Ġag gress
ach e
Ġar row
Ġ2 8
ia c
ak er
Ġdr ivers
Ġart istic
Ġconf ir
Ġche ese
Ġ9 5
Ġobject ive
Ġ7 00
Ġfocus ing
Ġhold s
att ered
app ing
Ġsat urn
Ġobs ervation
Ġtransl ated
Ġwild life
Ġthrow ing
ffic ient
Ġinit ially
Ġliber al
Ġsurprising ly
Ġsatell ites
Ġenter pr
Ġshel ter
Ġreve al
Ġfrequ ency
rel ated
cap es
Ġinevit able
Ġoccasion ally
Ġsco res
Ġshar p
americ an
Ġelder ly
Ġunbelie vable
b ru
f in
h us
i ens
j a
r ant
r ian
Ġt u
Ġs its
er able
Ġc ats
Ġbe ars
am ing
ere r
Ġme al
il it
ment ed
iz ar
Ġper mission
Ġag ent
ign ed
Ġph os
Ġac id
Ġres on
Ġmay or
Ġsm arter
Ġinv olve
Ġown er
Ġeconom ist
Ġsub tle
Ġfood s
Ġjo int
Ġansw ered
Ġdist urb
Ġmeas ures
Ġsens or
Ġfail ing
Ġarchitect ural
Ġsleep ing
Ġemerg ed
Ġlif es
Ġprim itive
Ġbur st
Ġpan els
Ġparticip ation
Ġimmedi ate
Ġgraph ic
Ġcollabor ative
Ġdoc uments
Ġmr i
Ġtur key
Ġbase ball
Ġfro g
Ġneuro log
Ġsla very
Ġconsist ent
Ġforgot ten
Ġgrad ually
happ y
Ġgon na
Ġgenoc ide
i ance
r as
r ome
an i
it udes
ar i
Ġwh is
Ġab ilities
ul um
Ġpl ain
Ġpl ug
ap or
ag on
Ġneed le
Ġbr ut
Ġfl our
ath ered
Ġtrans m
Ġhelp ful
Ġimag ery
Ġhigh light
Ġser ved
Ġmet ric
Ġstu nt
Ġreg ime
Ġconf ident
Ġcur ren
Ġphys i
Ġpar li
Ġself ish
Ġass ess
Ġmag ical
Ġdev il
Ġdifficult y
Ġoper a
Ġsurv iv
Ġce o
Ġsimilar ly
Ġprom ote
Ġsuggest ed
Ġprop osed
Ġpan el
Ġdisapp oint
Ġstrugg ling
Ġaddition al
Ġanaly ze
Ġdiagn osed
Ġpurs ue
Ġprost h
Ġgather ing
Ġdial ogue
Ġcolon ies
Ġlawy er
Ġhunt ing
Ġflex ible
Ġadminist ration
Ġens ure
Ġaston ishing
Ġexpans ion
Ġbiod iversity
" ]
f our
r iger
v y
Ġt ear
Ġc ig
Ġb izar
Ġh itting
Ġn om
Ġn erve
as y
ot hing
Ġwhat so
Ġr hythm
est ed
os al
el a
em en
iz er
Ġbu cks
Ġreal izing
Ġgr at
Ġend ing
Ġsci ences
Ġfound ed
Ġ19 1
Ġel ite
Ġ200 3
Ġref riger
ins on
Ġgod s
Ġrad ically
Ġsupport ed
Ġrobot ics
Ġkey board
Ġphotograph ed
Ġimm ense
Ġbur ied
Ġjud gment
Ġvict im
Ġshap ed
Ġshock ed
ec d
Ġruss ian
Ġtrib e
Ġclimb ing
Ġfab ulous
Ġnutr ition
Ġrefuge e
Ġrefuge es
Ġnur se
Ġmere ly
Ġinstruct ions
Ġwheelch air
Ġbizar re
Ġwhatso ever
b ing
m ates
Ġt ut
Ġa ward
Ġc ert
Ġb in
Ġh ipp
Ġto ne
Ġf er
it ous
Ġg y
Ġst ab
st age
Ġbut t
Ġmo od
Ġne ck
Ġr ats
ill a
Ġcon vert
Ġtr ash
Ġcomp os
Ġle verage
Ġun cle
Ġfe bru
Ġar ist
ib an
pl ay
Ġfl ows
Ġbas ket
wh o
Ġimag ing
Ġent ering
Ġcomple ted
Ġwar ning
Ġinform ed
Ġpub l
Ġhome work
Ġconf used
Ġeduc ated
Ġ200 1
Ġsuccess fully
Ġ8 5
Ġexpect ancy
Ġda ughters
Ġdel iber
Ġexplain ing
Ġexcept ion
Ġarr ive
Ġdom ain
Ġtransl ation
Ġmeth ane
Ġluck ily
Ġfra ction
Ġtun nel
Ġprep are
Ġdemonstr ation
Ġrout ine
Ġvulner ability
fr iend
wor th
Ġgar age
esth es
Ġdolph in
Ġsen ior
Ġgree k
Ġlawy ers
eng ine
Ġmira cle
Ġhypoth esis
Ġgenet ically
Ġcontem porary
sem ble
Ġuncertain ty
Ġcambr idge
Ġparli ament
Ġfebru ary
1 00
r id
Ġt es
Ġa k
Ġw ider
at a
Ġc ous
Ġb ats
Ġb ored
Ġh en
an ia
ed a
ed ay
is y
ic ious
se y
ch e
Ġdo p
Ġse l
Ġsh ips
Ġsom eday
if ice
Ġup d
ag os
ound ing
Ġdes cription
int erest
Ġsc ott
Ġcount y
Ġown ed
Ġgra m
Ġcap abilities
Ġcur ric
Ġsec rets
Ġnor way
Ġinno cent
Ġinvest ed
Ġfund ed
Ġsqu ee
Ġstrong ly
Ġfast est
Ġsuff ered
Ġchoo sing
Ġrepresent ation
Ġcart oons
Ġthreat s
Ġauthor ities
Ġroll ing
Ġinfect ion
Ġattract ive
Ġske let
Ġske leton
cop es
Ġvolunte er
Ġfrag ile
Ġmat rix
Ġperce ive
Ġintr ig
Ġaccompl ish
Ġstro ke
Ġpharm aceutical
Ġproport ion
Ġjes us
Ġdere k
Ġerad ic
a id
o ying
r ical
t ake
u ity
Ġb ure
en cing
Ġd ys
Ġd umb
Ġl ap
Ġg ate
as ters
ro ad
Ġst ake
Ġse w
Ġor ph
Ġde cent
um es
ck ing
Ġle ather
Ġam y
Ġbu g
Ġchan ces
Ġind ex
Ġsim ulation
con f
Ġgra ce
Ġart icles
Ġstr anger
az e
Ġjo e
Ġelect ed
Ġdist ingu
Ġwee ke
Ġrest ore
Ġlab s
cl ock
Ġappro x
Ġ8 00
Ġexpect ing
Ġtem pt
Ġbreak s
Ġstay ing
Ġciv ic
Ġbene ath
Ġclos ing
Ġlea f
Ġterror ist
Ġphysic ian
Ġtum ors
Ġmix ed
wor ld
Ġinstitution al
Ġsynth es
Ġfortun ate
Ġadop ted
Ġintu ition
mak er
Ġdrag on
Ġadvent ure
Ġdece mber
Ġvag ina
parent s
hus i
Ġto oth
ar an
Ġre hab
st one
ce l
Ġgo re
op ath
Ġsh out
Ġsh ots
Ġcom edy
Ġr ivers
il ize
Ġor ient
Ġsp ray
Ġcomp elling
Ġle an
Ġun able
ud i
Ġar med
ick s
other ap
pl ed
Ġmem br
Ġrest rict
Ġkill er
Ġexc use
Ġdeg ra
Ġcompet itive
Ġaffect s
Ġexperien cing
Ġmagn itude
Ġhom o
Ġpal m
Ġcover ing
Ġmicrob ial
Ġpig s
Ġtal iban
wor king
Ġgar bage
Ġnegot i
Ġreplic ate
vi ol
Ġtack le
Ġremem bered
Ġscenar io
Ġparaly zed
Ġbeij ing
] .
b ul
f ast
g i
k ins
l im
o ch
s hip
t r
Ġb a
Ġh ind
Ġd ub
an n
Ġl oo
se e
ro l
ur able
Ġsh ore
Ġch ips
Ġsp ont
od ed
Ġtr iv
em ics
em ploy
Ġen ables
Ġpr ide
Ġbu ff
Ġdis m
Ġdes erve
Ġher it
Ġpre c
ang ible
Ġrem aining
Ġinst antly
Ġsch em
Ġins ist
Ġent rop
Ġent husi
Ġmin ing
Ġsub way
no stic
Ġca ke
Ġwo ke
Ġhead ed
Ġadd ict
Ġchar ges
Ġsix th
Ġmusic ian
Ġdef ic
Ġsou p
Ġbro ok
Ġmar ry
Ġdem ands
Ġdem ographic
Ġocc urs
Ġtrad itions
Ġimpro ved
Ġwin ning
Ġobs erve
Ġinclud ed
Ġemp ire
Ġassum ption
Ġhom eless
Ġjump ed
Ġoptim ism
Ġphysic ists
Ġod ds
Ġoffic er
Ġprofound ly
Ġcru el
Ġwide ly
Ġparad ox
fl ies
Ġshr ink
Ġdefe nd
Ġfrustr ated
Ġprofession als
Ġaug ust
Ġtrig ger
Ġexpon ential
Ġorchest ra
Ġpand emic
Ġtraject ory
Ġsimult aneously
Ġthresh old
Ġdop amine
b m
h uman
s ah
w ind
x ual
Ġp airs
on ic
Ġd ile
or a
or an
Ġg aps
et ics
Ġre cess
ct u
Ġfor b
Ġk b
Ġj et
Ġsh ipping
ol it
Ġcom ments
ad ing
ad ays
Ġde li
Ġpeop les
if er
Ġnow adays
Ġout er
Ġun pre
Ġun iform
Ġtw ist
rain ed
Ġbr un
Ġra bb
Ġinc or
Ġmean while
Ġdr one
ced ented
Ġform ing
Ġpres erve
Ġreg ener
Ġsoci ally
Ġdist ort
Ġprot o
Ġprot est
Ġval id
ott ed
Ġste al
Ġinvest ing
Ġer rors
Ġsurv ived
Ġsum m
Ġapproach es
Ġsil ver
Ġfoot age
Ġprin ter
Ġfac ilities
Ġtrack s
Ġreact ions
Ġport ion
Ġtend ency
Ġdetail ed
Ġstrateg ic
Ġburn ed
Ġinflu enced
Ġsus p
ls on
Ġpoem s
Ġgun s
Ġsubst ance
Ġcosm ic
Ġtick et
Ġqual ities
Ġcompar ison
Ġglam orous
Ġinterpret ation
Ġconserv ative
Ġbron x
Ġts un
Ġcott on
Ġcurric ulum
Ġunpre cedented
f ield
l ings
in i
in arily
Ġm ike
Ġh ors
Ġf ile
Ġd ies
Ġg i
Ġg athered
Ġbe nd
Ġcan opy
ad ed
Ġcon vey
um ble
Ġte nds
Ġsp ons
Ġle on
ag en
Ġag greg
Ġcl othing
Ġro s
Ġchan nels
Ġph ant
Ġcont rad
Ġcont rary
Ġind o
Ġbr ows
Ġfact ories
Ġask s
Ġ3 3
Ġeng ines
Ġhigh way
Ġext ension
Ġform al
Ġdist ract
Ġprof ile
Ġmor ality
Ġkill s
Ġhar bor
ien ces
Ġbott les
Ġexplain s
Ġimpro v
Ġur ge
Ġfear s
Ġir re
Ġredu cing
Ġcomb at
Ġflow ing
Ġfem ales
Ġminds et
Ġdetect ion
Ġsignific antly
Ġtrou b
gra de
Ġwealth y
look ing
Ġrestaur ants
Ġsubst ant
Ġinsight s
Ġexpert ise
Ġnutr ients
Ġrub ber
Ġconduct ed
min ute
Ġgenet ics
Ġiniti ative
Ġcorres po
Ġowners hip
Ġschol ars
Ġaggress ive
Ġdile m
a ving
i ogen
Ġ vel
Ġt ie
Ġc ree
Ġd ung
Ġl ions
Ġg ear
le ep
st ar
Ġj ar
Ġr ick
qu is
qu arters
Ġout s
Ġint im
and ering
act ive
Ġun employ
Ġexp ort
Ġar th
Ġimp ression
Ġdis ability
Ġgot ta
Ġac ou
Ġac cent
Ġsy nd
Ġind ig
Ġbl o
Ġrem ained
Ġcour ses
ail s
Ġdr ones
Ġ3 6
lic it
Ġstr ike
Ġser ving
Ġext inction
Ġcomput ation
Ġhealth ier
Ġcontin uing
Ġexc it
Ġstruct ural
Ġinvest ors
Ġsupport ing
Ġimpro ving
Ġmedic ation
Ġarr ange
Ġpark s
Ġflu ores
Ġaccount s
Ġpurp oses
Ġremind s
Ġbroad cast
Ġhall uc
Ġblog s
Ġairpl anes
Ġgentle man
Ġcateg ories
Ġped est
Ġanalog y
Ġalex ander
Ġdiscipl ine
Ġritual s
Ġexplos ion
Ġobstac les
Ġstere oty
Ġtong ue
Ġcig aret
otherap y
Ġdeli very
] ,
b ie
c led
f ram
Ġ eric
Ġs na
at i
at ar
Ġp ause
Ġf est
Ġin hab
Ġre cept
ch ron
Ġj ose
ol ic
Ġsp ain
og ram
Ġsa udi
Ġen light
ag ue
ud ed
Ġlo ves
Ġad s
co st
Ġinter rupt
Ġra pe
Ġgen u
Ġcount ing
ath an
per form
ren ce
Ġdr own
Ġsl ime
Ġpoint ing
Ġcre w
Ġsk etch
Ġsub ur
Ġcam ps
Ġchar l
Ġresearch er
the ast
Ġloc ated
Ġclass ical
Ġtrain s
Ġrev ol
Ġmot ors
Ġnon profit
Ġfriend ly
Ġvers ions
Ġpur ple
Ġdraw ings
Ġspread s
Ġpeace ful
Ġcompassion ate
Ġthreat ened
Ġdam n
Ġdesp air
Ġglass es
Ġsus pe
Ġprint ed
Ġwhe at
Ġassoci ation
Ġjournal ists
Ġcustom er
Ġclassroom s
Ġprevious ly
Ġrat io
Ġrein vent
Ġmak ers
Ġestablish ed
Ġip od
Ġdut ch
Ġcolum n
Ġimpress ive
Ġub iqu
Ġphos phor
Ġentrop y
sah aran
a ids
c or
c ain
d ig
g ence
k ward
l ers
o cr
p ers
p rodu
Ġw ires
Ġb ot
Ġp atch
Ġn er
Ġbe ating
Ġon going
Ġan no
Ġj am
Ġne oc
um in
Ġv it
Ġup side
Ġhow ard
ast y
Ġper cept
ab y
Ġnew ton
ip ts
Ġind ians
Ġbr id
Ġtra gic
Ġbo nd
Ġrel iable
Ġbelie ves
Ġplan es
ote chnology
Ġconnect s
Ġz eal
Ġsign ature
Ġbad ly
Ġprof its
Ġcontin ents
Ġnight s
Ġterr ibly
Ġterr ifying
Ġred es
Ġred wood
Ġhar ness
Ġda wn
Ġperform ed
Ġnear by
Ġapproach ing
Ġrelig ions
by e
Ġscre w
Ġaw kward
Ġclos est
Ġbur den
Ġmob ility
Ġgraph ics
Ġ201 1
Ġann ual
Ġachieve ment
Ġstraight forward
Ġgradu ated
Ġhonest ly
Ġaltern atives
Ġscan ner
Ġalt ru
Ġcorpor ations
Ġgall ery
Ġincent ive
anz ee
Ġveget ables
Ġchimp anzee
Ġrecon struct
.' "
Ġglam our
Ġbarr ier
Ġmathematic ians
Ġspan ish
Ġng os
Ġdow nt
Ġphant om
Ġexcit ement
b ow
g ood
l ong
l aw
m ade
u h
Ġth us
Ġc ows
Ġm ud
Ġp iz
on ing
Ġd ressed
ed s
Ġg erm
Ġit alian
Ġre think
Ġha bits
ct ica
Ġst ability
Ġas ian
Ġmo ore
Ġj ih
Ġj azz
Ġsh an
Ġch op
Ġex cess
Ġde ck
Ġv oy
Ġup load
Ġpl ast
gh ai
Ġman ager
Ġman agers
Ġam ate
Ġcl ient
Ġover l
Ġro yal
Ġlo an
Ġlo ving
Ġpre f
Ġpre cious
Ġinc om
Ġtra ce
Ġfo x
te nding
Ġend ang
Ġfar ms
Ġsub t
Ġpass enger
ne ys
Ġfree ly
he art
Ġspeak s
Ġdel hi
Ġgrand parents
Ġlow est
Ġeat en
Ġpen n
Ġmedic ines
Ġfa ult
Ġprop ag
Ġec ological
Ġeth nic
Ġdiv or
Ġearl iest
Ġmagn ific
Ġappear ance
Ġpack age
Ġphenomen a
Ġcatch ing
Ġphysic ians
Ġapply ing
Ġtiss ues
Ġphilos opher
Ġteen age
Ġprev al
cop ic
Ġstim ul
Ġprost ate
Ġshif ting
bur gh
Ġencoura ged
Ġitem s
Ġarrest ed
Ġsacr ifice
Ġlux ury
Ġviet nam
Ġmonit oring
Ġstom ach
Ġantar ctica
Ġgenu ine
Ġphosphor us
f i
g a
h ist
m ad
o ke
Ġt att
Ġt une
Ġt anz
Ġt ubes
er ies
Ġb ind
Ġb att
Ġh ob
Ġh iding
on ge
Ġf its
Ġf ancy
Ġin ex
Ġl ord
is ons
ic ial
Ġre def
ro ach
Ġst or
Ġst ones
ch ar
ch em
Ġk ar
Ġj ung
Ġj osh
Ġr b
il ty
um ines
Ġma pping
Ġkn ife
Ġsee mingly
Ġsa uce
Ġsu nday
Ġwork force
Ġun e
Ġun conscious
Ġam pl
Ġpo ckets
Ġinter ior
ang ed
Ġtra its
Ġins ul
Ġins ane
Ġrec all
Ġed itor
Ġ20 50
Ġsk i
Ġwar r
Ġadd iction
Ġvir al
Ġaud iences
ane ous
Ġwind s
Ġho ly
Ġtem porary
Ġsat ur
Ġpredict ion
Ġstra w
Ġcirc uits
Ġcompet e
Ġaffect ing
Ġprop ose
Ġmagn et
Ġlands capes
Ġ201 2
Ġprison ers
Ġwhe els
Ġinterview ed
Ġnut s
Ġteen ager
Ġshel f
Ġpurs uit
Ġperce ived
Ġbran ches
Ġencoura ging
Ġsubs id
Ġnavig ate
Ġaster oid
Ġcollaps ed
itz er
Ġguarant ee
Ġtrop ical
tw o
Ġhelicop ter
Ġcurren cy
esthes ia
Ġherit age
Ġjih ad
Ġendang ered
Ġtatt oo
a way
a uc
d is
g ent
m ony
p ress
Ġc rop
Ġf usion
Ġf bi
Ġd ating
Ġd iving
Ġd rew
Ġl g
Ġl ion
Ġl uc
ed ge
it ative
Ġg ained
ic ient
all ow
Ġst atic
ch anging
im ag
Ġk oran
Ġmo z
Ġsh it
Ġsh irt
Ġne lson
Ġr ib
Ġpe ers
Ġsee king
Ġyour selves
Ġsa fer
Ġle ver
are st
Ġman ual
Ġover night
Ġro pe
Ġ2 9
Ġres erve
Ġres olve
Ġind ones
Ġinter ven
pl ess
Ġoff ices
Ġoff ering
Ġtra il
Ġsmall est
Ġhard est
Ġgener ous
Ġsub m
Ġca ves
Ġform ula
Ġpass ive
Ġdist ances
Ġinf l
Ġamazing ly
Ġname ly
Ġcollect ively
he a
Ġrad i
Ġpsych ologists
Ġtransform ing
Ġrespons es
Ġcamp us
Ġrepl aced
Ġest ate
Ġec ology
Ġsyn chron
Ġdiscover ing
Ġvict or
Ġhyd ro
Ġindepend ence
Ġflag s
Ġprev ention
Ġdiagn osis
Ġrecy cling
Ġmak er
cont roll
Ġregard less
Ġassign ment
Ġmand ela
Ġassist ance
Ġestim ates
Ġhoriz on
Ġfib ers
Ġcoin c
Ġdecre ase
Ġproced ure
Ġcab in
Ġjelly fish
Ġjohns on
Ġschizophren ia
Ġtsun ami
Ġshan ghai
Ġstor age
1 0
2 00
a ves
g row
k er
p ie
t ra
y an
Ġt in
Ġt an
Ġs anta
Ġb ust
Ġb amb
Ġh ired
Ġto n
Ġto es
Ġd v
Ġd y
Ġd il
Ġg ir
Ġn ar
Ġn ap
le nd
Ġst y
Ġhe al
Ġfor d
Ġan at
Ġab ra
Ġj uly
Ġsh ine
Ġwor ms
Ġne ander
Ġat omic
ter ing
Ġpro ceed
Ġsp ill
Ġco at
Ġco ke
Ġco cain
iz ers
Ġun happy
ab ul
Ġag ents
Ġcl ue
Ġres idents
Ġcar pet
we ight
Ġbuild s
Ġbo ld
Ġrel ation
Ġgra ve
Ġke ys
Ġtrans cend
Ġdr um
Ġsl ums
Ġnum er
Ġ5 5
Ġhalf way
Ġ200 2
ash ed
Ġequ ations
Ġloc om
Ġche f
Ġret reat
Ġste pped
Ġmar vel
ush ed
Ġsens ation
Ġsuper market
Ġshort ly
Ġarg uing
Ġbreak fast
Ġspecial ized
Ġcy cles
Ġenc ry
Ġpredict able
Ġcivil izations
Ġmain stream
omet own
Ġbed room
Ġsafe ly
Ġimm ig
Ġclin ics
Ġconcer ns
Ġmis erable
Ġign ored
Ġsucceed ed
Ġbull et
col n
Ġdesper ately
Ġtro ops
Ġacknow ledge
Ġstri king
Ġportra it
Ġwed ding
Ġglaci er
Ġpalest in
Ġeleg ant
Ġhen ry
Ġloo se
Ġsynd rome
Ġubiqu itous
Ġdownt own
Ġcocain e
l ades
s ized
Ġt am
Ġa the
in ter
in ery
Ġh ometown
on ia
Ġf ires
Ġf athers
Ġd ent
Ġd rought
or al
Ġin ch
Ġg if
ut her
Ġre ct
Ġre nder
se ll
st ep
Ġan ten
out s
Ġj unk
Ġsh akes
Ġme lt
Ġch ains
Ġfr iday
Ġpro ph
Ġpro ven
Ġma h
Ġv ia
Ġint ended
Ġsp erm
ci p
em a
ment al
Ġdon or
Ġbl ess
Ġinter connected
Ġob t
Ġter rain
Ġread ers
Ġhead lines
Ġset t
Ġconf ig
Ġcol umb
Ġside walk
Ġreason able
lf r
Ġinf ant
Ġchallen ged
Ġterr itory
Ġabs ence
Ġyork er
Ġtem por
Ġrequ est
Ġdest iny
com put
Ġdescrib es
Ġemp owered
Ġextraord inarily
Ġactiv ist
Ġelectr ons
Ġbang lades
Ġhack ing
Ġcooper ate
Ġpartners hip
Ġpuzz les
Ġnewsp apers
Ġelement ary
Ġbag s
Ġscen es
Ġlimit ations
Ġfisher ies
Ġintr ins
Ġinevit ably
Ġminim um
Ġwhist le
Ġhorm one
Ġconstrain ts
Ġstoryt elling
Ġgeomet ry
Ġconven ient
Ġretire ment
Ġarist ot
Ġtriv ial
Ġbrook lyn
Ġproto cell
Ġpiz za
Ġplast ics
Ġinsul in
b od
c ity
c reat
h h
u ctor
Ġw ol
Ġw rap
at ivity
Ġp ir
on a
Ġf ate
Ġf allen
Ġd un
Ġl am
Ġy emen
Ġn erves
Ġe b
Ġe ch
Ġst ored
ra cy
Ġj on
Ġpro ved
Ġcon qu
Ġsa il
em ies
Ġen zy
Ġen force
Ġen abled
Ġexp osure
Ġshe ets
Ġimp ul
Ġdis crim
ell er
Ġbr ian
ick ed
Ġra ped
Ġoff ers
Ġhuman itarian
Ġob ese
Ġgl uc
Ġgra bb
Ġtrans mit
Ġtrans mission
Ġfound ations
Ġbelie ving
Ġstr ict
Ġcell ular
Ġbi ol
.. ."
Ġ4 2
Ġcol ored
Ġstop ping
Ġpar am
Ġamaz ed
Ġref lection
Ġloc ally
Ġloc ations
Ġass ets
Ġadv ances
Ġmarket place
Ġste am
Ġpred ator
Ġlisten ed
Ġfail ures
Ġpsych ologist
Ġstay s
Ġap olog
Ġemb ry
Ġcy l
Ġpersonal ized
Ġbill s
Ġprop osition
Ġattack ed
Ġ199 8
Ġimm un
Ġconscious ly
Ġinfect ions
Ġcalcul ations
Ġcontrib uted
Ġemail s
Ġworry ing
Ġprep aring
Ġben ch
Ġdemonstr ated
Ġtens ion
Ġsurround ing
Ġdoub led
Ġcrow ds
Ġshock ing
Ġhistor ically
Ġcla ims
cript ions
Ġexer c
Ġconcent rated
Ġlin coln
Ġmur der
Ġcompl ain
Ġcontinu ous
Ġmanip ulate
Ġspin ning
Ġreprodu ce
Ġexec ut
Ġelectro des
Ġgras p
Ġcarol ina
Ġcrick et
Ġleon ardo
Ġgluc ose
, '
f ive
g al
g ments
o en
Ġ .
Ġs ons
Ġb ru
Ġb other
Ġh ut
Ġp it
Ġp ills
Ġto ny
an cing
ar ians
Ġn odes
Ġso le
Ġst ad
Ġst air
ch er
ch ool
ir ts
Ġbut ter
Ġj h
Ġcom ic
Ġme me
ad o
Ġch ile
Ġr ings
Ġcon gest
Ġv oting
if act
Ġen emies
ap ed
Ġwork place
Ġman ner
Ġexp licit
Ġfe yn
Ġam bit
Ġro d
ens es
Ġunder gra
Ġuse less
ak en
Ġgu id
Ġgu ilty
Ġsch ed
Ġbo ats
Ġcr imes
Ġplan k
Ġart ifact
Ġmin es
Ġcor rupt
Ġsupp lies
Ġfu nds
Ġmem es
Ġge e
Ġbeautif ully
Ġterr ified
Ġdeep est
Ġfollow s
Ġhy br
Ġconsum ed
Ġsum mar
Ġapproach ed
Ġobs erved
Ġprom ised
Ġlog ical
ok ed
Ġvari ations
Ġsan itation
Ġremark ably
Ġblind ness
Ġhistor ic
Ġamb ig
Ġcorrect ly
Ġconcent ration
Ġlapt ops
Ġteles copes
Ġinstall ed
Ġinstall ation
forest ation
Ġtoile ts
Ġofficial s
bre ak
Ġembarrass ing
Ġrenew able
Ġgest ure
Ġlone ly
Ġlegit imate
Ġprosper ity
Ġcham ber
Ġexped ition
Ġorph an
Ġzeal and
Ġindones ia
Ġfeyn man
4 0
a eda
i as
m art
p y
p erson
p owered
r ance
Ġth read
nd ers
Ġc ass
Ġb ump
Ġh ans
Ġh ong
en ous
Ġp ants
Ġd read
Ġin her
Ġl anes
Ġy e
Ġg orge
Ġn am
om ics
ve mber
Ġst aring
st op
Ġk ir
Ġcan cers
Ġsh y
ol a
il ized
Ġor b
Ġv ice
Ġsp at
Ġsa v
Ġsa le
Ġle ban
ans as
Ġcl int
ip her
ell ed
ph ony
pe are
Ġtechn ically
Ġrem ix
Ġgl ue
Ġrel ief
Ġ3 50
Ġ19 00
Ġbi osphere
Ġbeh alf
cy cl
Ġhead ing
pr ing
Ġpass age
Ġz oo
Ġpar ach
Ġdet ro
Ġbre eding
Ġpolit ically
Ġtre as
Ġcal ories
li hood
Ġcommunic ating
Ġemb od
Ġorig ins
Ġpost ed
Ġsuff icient
Ġver b
Ġcapt ain
Ġrece iving
Ġdiv ision
Ġban king
Ġenj oying
Ġpack ed
Ġcorre l
Ġinterview s
Ġord ers
Ġdemocr at
Ġbeat en
Ġfat al
Ġju gg
Ġtherap ies
Ġacad emy
Ġharm ony
Ġvacc ines
Ġsurge ons
Ġselect ed
Ġcrim inals
Ġbow l
Ġillustr ate
Ġmc don
Ġestim ated
Ġhaw ai
Ġmosquit o
Ġgro cer
Ġdelic ious
Ġneut ral
Ġdevast ating
Ġpunish ment
Ġathlet es
Ġwilli am
Ġmagnific ent
Ġgir lfr
oen ix
Ġambit ious
g od
g reat
m ill
m un
n ut
r ating
u ction
Ġt iles
Ġi g
Ġi re
Ġw ard
Ġb inary
Ġm s
Ġh ills
en h
Ġto ss
Ġd irt
it able
Ġhe aling
Ġk at
Ġse al
Ġj ane
ol ine
ere y
Ġcom ics
Ġch oir
Ġr on
Ġde als
um ented
Ġlike lihood
Ġout do
Ġint ensive
Ġsa ke
Ġcomp re
Ġno vember
Ġdis abled
orm al
ass es
Ġcont am
Ġres erves
Ġhum il
Ġbl ah
Ġcomm ons
ire ct
Ġra p
Ġsm iling
Ġinst ruction
av a
Ġ20 30
Ġcare d
Ġbi ologist
Ġbus es
Ġgener ating
Ġcur ves
Ġconnect ivity
Ġtop ics
Ġcal m
Ġview er
Ġdel ay
Ġpsych opath
Ġpen cil
Ġice land
Ġworth y
Ġcompet ing
Ġbacter ial
Ġtas man
Ġactiv ists
Ġintrodu ction
Ġwebs ites
Ġsad ly
Ġexh aust
Ġrandom ly
Ġben j
Ġexpress ions
Ġpig e
Ġmotiv ated
Ġtax es
Ġjew el
Ġreve aled
Ġopin ions
Ġhun ter
Ġmur d
Ġagre ement
Ġneuros cient
Ġber lin
Ġimpl ant
Ġreci pe
Ġmont erey
Ġtwe et
Ġlegis lation
Ġnit rogen
Ġadap ted
Ġpubl ishing
Ġindig enous
Ġshakes peare
Ġbiol umines
b ot
i ro
j o
u k
y on
z es
Ġ ..."
Ġth or
Ġa pr
Ġw ats
re al
Ġb or
Ġb ite
Ġm ild
Ġm esh
Ġp ound
Ġp ix
Ġto x
Ġd um
Ġd ough
Ġl ists
is a
as semb
ow ers
Ġst ead
im a
th ree
Ġk h
Ġas leep
Ġat om
Ġme als
ad or
Ġpe ar
ess ions
Ġal bert
ap ore
Ġcomp aring
Ġco vers
Ġhapp ily
Ġph oenix
ber ry
Ġbl ink
pl us
ress ing
Ġcar p
ful ness
Ġke vin
Ġ3 7
Ġstr ings
Ġ20 20
Ġspace craft
Ġsing apore
Ġsw iss
Ġz e
Ġz ip
Ġz ones
the y
cl a
Ġdi arr
Ġappro ved
Ġmess y
Ġengine ered
Ġpred ators
Ġsex y
Ġsum mit
Ġwin ner
Ġtele com
Ġreact or
Ġdom inated
Ġport ug
Ġpan ic
Ġnarr atives
Ġdro ps
Ġtemper atures
Ġsecret ary
Ġalg ae
Ġenjoy ed
Ġsimpl er
Ġrespond ed
Ġscan ning
Ġresist ant
Ġisrael i
Ġfrequ ently
Ġfif ty
Ġbelong s
Ġbul b
Ġpros pect
ett i
uls ion
Ġcere mony
Ġbarr iers
Ġmim ic
keep ers
Ġassemb ly
Ġlob by
Ġhier archy
Ġchron ic
Ġautomob ile
Ġcomprom ise
Ġdisag ree
Ġrecess ion
Ġincor por
Ġtanz ania
Ġbamb oo
Ġbanglades h
Ġwats on
" ?
a ware
e u
m at
m om
n at
Ġs ne
re en
Ġd ivers
an as
or ious
Ġl ingu
ut an
et te
st orm
Ġli vest
th eless
ul es
Ġen cycl
Ġexp ressed
Ġover head
Ġro les
Ġkind ness
Ġgood bye
Ġsc ot
Ġra m
Ġgen omes
Ġtra pped
Ġdec or
igh th
Ġgra vit
Ġcr iter
Ġtrans it
Ġnever theless
Ġla wn
Ġart ic
Ġart work
Ġ19 30
Ġmin er
Ġmin us
Ġatt itudes
Ġel abor
Ġcap e
Ġcor ners
Ġcou ch
Ġsw itzer
Ġmoment um
ne g
Ġeduc ate
Ġmach inery
Ġfore cast
Ġche at
Ġleg o
Ġstep hen
Ġcut s
Ġtem ple
Ġsea f
Ġpick s
Ġmeasure ments
Ġsho e
Ġstra nds
Ġstat istic
Ġvisual ization
Ġhop eless
Ġcalcul ated
Ġden ial
Ġtur k
Ġwood s
Ġwood en
Ġsimpl est
Ġcoast al
Ġalt itude
Ġinj uries
Ġiron y
Ġep is
Ġaccom pan
Ġbatter ies
Ġregular ly
Ġaccur acy
Ġload s
Ġvent ure
Ġpengu in
dr iven
Ġcock roach
Ġconstit ution
Ġtab les
Ġanticip ate
Ġauthent ic
Ġtextbook s
Ġenh ance
Ġchim ps
Ġalb um
Ġbure auc
Ġbrun o
Ġdilem ma
Ġfluores cent
Ġbrid ges
Ġredes ign
Ġclint on
Ġire land
Ġapr il
Ġencycl op
Ġswitzer land
c s
c re
l if
l iness
m es
m ind
n et
r ane
Ġt ib
Ġi bm
re str
in ent
in come
Ġc age
Ġm entally
Ġh ated
ing ing
Ġand rew
Ġp or
Ġp ier
or ient
Ġin hib
it ate
Ġn ord
om agn
le ar
al i
Ġbe lly
Ġre vel
se en
ig ma
ra ine
Ġdo se
im b
Ġu k
op le
Ġse nds
Ġj f
Ġj ones
ol en
Ġwor m
Ġr ome
Ġde ception
Ġv ary
qu ate
Ġus age
Ġsp iders
Ġcomp ound
Ġcomp ounds
Ġco verage
Ġman kind
Ġtw in
Ġshe er
Ġback yard
ff ect
Ġcomm itt
pe nd
Ġcar l
Ġapp e
Ġfo ster
Ġgl imp
Ġhel pless
Ġbo ots
Ġ3 1
Ġent ry
Ġrec re
Ġbi of
Ġform ation
ale m
Ġcur t
Ġplanet ary
Ġmass es
Ġmar ath
Ġnorm s
Ġdep os
Ġprofess ors
Ġpen et
Ġunf old
Ġfavor ites
asc ular
Ġ199 9
Ġimm ers
Ġast h
Ġwish es
Ġann ounce
Ġhop es
Ġmam a
Ġmars h
Ġcontrib ution
Ġelectr omagn
Ġju ice
Ġbrazil ian
Ġund erest
Ġpow ered
Ġnan o
Ġcontinu ously
Ġadminist r
Ġdiam eter
Ġoverwhel ming
Ġvoc al
Ġhorm ones
Ġolymp ic
Ġclus ters
Ġalph a
Ġcandid ate
Ġtraum a
Ġmaxim um
Ġabund ance
Ġobserv ations
Ġaesth etic
third s
Ġtheore tical
Ġskelet al
Ġsuspe nded
Ġabra ham
Ġaristot le
Ġbenj amin
Ġglimp se
b ian
c in
f unction
k in
p ack
u gg
y our
Ġth irty
Ġi v
Ġo t
er r
Ġc attle
Ġm ant
Ġm ast
Ġm att
es ter
Ġl y
Ġg or
Ġwe lf
om ed
al t
Ġre vers
Ġre wards
Ġha mb
Ġso vere
Ġst olen
ur d
im eters
Ġk ong
Ġse ctors
Ġmo l
Ġne arest
Ġde af
Ġint act
Ġint ensity
Ġpl a
Ġen velop
Ġbu ck
Ġdis asters
ple ase
Ġbl ob
Ġreal ities
Ġreal ization
Ġra cing
Ġfl ick
Ġoff s
pe ople
Ġfind ings
Ġhel ium
Ġrel atives
Ġgra des
Ġdr if
Ġcons p
Ġunderstand s
Ġmod est
Ġcre am
Ġcou ples
Ġcam el
Ġcult iv
Ġpublic ly
Ġcra p
Ġland ing
Ġill um
Ġprogram mers
Ġnon eth
Ġtransform ative
Ġcool ing
Ġsoon er
Ġtext ure
Ġsuggest ion
Ġflu ctu
Ġdro pping
Ġsepar ation
Ġphenomen al
Ġswe at
Ġbroad er
Ġreflect ed
Ġexpand ed
Ġattract ed
Ġrecy cled
Ġlift ed
Ġwat ts
Ġclub s
Ġcontem pl
Ġaccompl ished
Ġmemor ial
Ġlabel ed
Ġfright ening
Ġscream ing
Ġcontrovers ial
Ġabandon ed
Ġcommod ity
Ġrespo nding
Ġgand hi
Ġphilanthrop y
Ġenterpr ise
Ġapprox imately
Ġstad ium
Ġgorge ous
Ġdetro it
Ġlivest ock
Ġnoneth eless
a ired
b ird
d ad
g ue
h ot
i ots
l an
o ly
p ond
v ia
Ġt k
Ġt ies
Ġt iger
Ġa de
Ġa unt
Ġs izes
in ity
Ġc in
Ġh ars
on ed
or ph
Ġin gen
it ar
Ġg ross
Ġe rect
Ġst rain
ke ley
ad ian
Ġch at
Ġch ew
Ġfr ied
Ġpe cul
Ġal arm
Ġtr ips
el ines
Ġsu pre
Ġcomp osition
Ġco ch
Ġta ct
Ġman eu
Ġdon ors
ud ge
Ġdis par
co ver
Ġbr ush
Ġreal istic
Ġinter section
Ġsc aling
Ġshow er
Ġra c
Ġfl ock
Ġfl avor
Ġgr an
Ġgr ant
Ġear ning
Ġend e
Ġcr ude
Ġtrans ist
Ġcons ens
Ġimag ining
Ġla ure
Ġkid ding
Ġfar ther
ps y
Ġteach es
Ġset i
Ġpat r
Ġpat ents
Ġdist inction
Ġprot ocol
Ġinf er
Ġdef ault
Ġanswer ing
Ġterr ific
Ġret ail
Ġliter acy
gen er
Ġsex ually
Ġsym p
Ġsea water
Ġreach es
crib e
Ġbar rel
Ġpull s
Ġhor ror
Ġscre ens
Ġdescrib ing
Ġexcept ions
Ġvisual ize
Ġtouch ing
Ġpark inson
Ġplant ed
Ġrid ing
Ġlog o
Ġcross ed
Ġactiv ate
Ġfill ing
Ġheav ily
Ġdiscuss ions
Ġchrist ians
Ġhur ric
Ġoccur ring
Ġ13 0
Ġlaugh ed
Ġdeterm ines
Ġmultip ly
Ġdestro ying
Ġclimb ed
Ġjew s
Ġbound ary
Ġindic ate
Ġprior ity
Ġexhib it
Ġprototy pes
Ġgree ce
Ġauth ors
Ġprivile ged
Ġber keley
Ġbiom ass
Ġna ive
Ġabsor b
Ġaster oids
Ġdeploy ed
Ġicon ic
Ġclus ter
stand ing
Ġpul se
Ġsevent h
Ġmembr ane
Ġhors es
Ġneoc ortex
Ġdiarr hea
Ġwelf are
Ġpecul iar
b ag
l or
n is
u ana
v ae
w ing
w om
Ã ¡
Ã Ń
Ġc ube
Ġm umb
Ġm ixt
Ġp itt
Ġf ence
Ġf da
Ġd are
or ic
Ġg ains
Ġn ich
Ġn ether
Ġe go
us alem
Ġst amp
Ġst icking
ch ing
ch ed
ir st
Ġk a
Ġk y
Ġsh ops
il a
Ġde forestation
Ġal as
if ies
Ġus a
Ġwho ever
ose xual
Ġun w
Ġsomet ime
Ġar bit
Ġimp r
Ġdis ney
Ġad vers
Ġsy ria
Ġbl ur
Ġpre y
Ġpre par
Ġsc ra
Ġcar ries
ang es
Ġwr ist
Ġapp eal
Ġshould ers
ian ces
Ġgl o
Ġend less
Ġcreat or
Ġdr unk
Ġsl ower
Ġ19 0
Ġmin i
Ġcomput ational
Ġcare g
Ġinform al
Ġhand ful
Ġpres um
Ġorgan izing
Ġret ro
Ġfree zing
Ġhar ry
Ġalong side
Ġunivers es
Ġrisk y
Ġfac ilit
Ġflo at
Ġprop osal
Ġreport ing
Ġfem in
Ġimm ort
Ġdemocra cies
Ġrid ge
Ġlad en
Ġaccount ability
Ġlos es
Ġsequ ences
Ġsequ encing
Ġdoc umented
Ġdiscuss ing
Ġcalcul us
fact ion
Ġthr illed
Ġsurger ies
Ġmut ations
Ġswitch ed
Ġcooper ative
Ġanaly zed
Ġmas k
Ġcorpor ation
Ġble w
Ġhost ile
Ġsculpt ures
Ġmig ration
Ġcand y
Ġemotion ally
ij uana
bur g
Ġmathematic ian
Ġjer usalem
Ġment or
Ġlou is
Ġexplo it
Ġlifes pan
Ġdistingu ish
dig it
onge vity
Ġmcdon ald
Ġcriter ia
Ġconsens us
Ġnether lands
d id
d ra
f ly
g as
i w
l ar
m atic
n ormal
p age
Ġ &
Ġt ide
Ġw oo
Ġw ins
Ġs ib
Ġh int
Ġp ic
Ġp ent
Ġp estic
Ġn asty
as ive
al og
Ġre ass
Ġha z
Ġst ew
Ġk in
Ġse als
Ġcan vas
Ġcan yon
Ġj un
Ġsh ed
Ġsh red
ol i
Ġr m
Ġde le
art en
Ġv ot
Ġv ib
Ġv oted
if ul
Ġint imate
Ġsp are
Ġun lock
ab eth
Ġev olving
Ġshe pher
Ġbu zz
Ġlot tery
Ġlet hal
Ġide ology
Ġinter vent
Ġpre ced
Ġsc al
Ġra ises
Ġapp s
Ġsystem atically
Ġbo ards
erg y
Ġ19 2
Ġ19 3
Ġmin istry
ruct ive
Ġhand ed
Ġvis ually
Ġ4 8
Ġmark s
Ġpass es
Ġhope ful
oc ation
Ġyoung est
Ġnight m
Ġinvest ments
Ġ7 2
Ġsens it
Ġfre ak
Ġnon viol
Ġarg ent
Ġarg ued
Ġpract ically
Ġmicro phone
Ġrecogn izing
Ġdest ination
Ġopt ical
Ġtext s
Ġpath ways
omet er
Ġlif el
Ġprinci pal
Ġlog ging
Ġgas oline
Ġrepresent ing
Ġfant asy
Ġvac ation
Ġsal mon
Ġang iogen
Ġcollabor ate
Ġsignific ance
Ġcard iac
Ġprison er
Ġswe ep
Ġjump ing
ira cy
Ġmatch ed
Ġarab ia
mon th
Ġju ven
Ġiran ian
Ġpleas ant
Ġremote ly
Ġniger ian
Ġconcent rate
Ġrot ate
Ġegypt ian
Ġacceler ate
Ġacceler ating
Ġastron omy
Ġbon ob
Ġbul bs
Ġkick ed
Ġshif ts
Ġauton omy
Ġvirgin ia
Ġoverwhel med
Ġmosquit os
Ġcorres pond
Ġcath olic
Ġolymp ics
Ġacknow led
Ġpour ing
Ġalph abet
Ġminor ity
Ġwra pped
Ġarth ur
Ġinhab it
Ġnar c
Ġanten na
Ġcyl inder
Ġcongest ion
Ġundergra du
Ġgrocer y
Ġgirlfr iend
Ġhamb ur
Ġintervent ions
1 2
b oy
f ing
r an
v ol
w ould
Ġa we
in ator
at oes
Ġc d
Ġb ern
en ance
Ġp ou
Ġp orn
Ġp osed
Ġin sec
Ġl t
Ġl ongevity
Ġy ards
it is
Ġe ll
et al
Ġso c
Ġst ressed
st ics
Ġdo od
Ġk os
Ġse attle
Ġj ord
Ġsh ining
Ġme ets
Ġch ess
Ġr um
Ġr ip
Ġall ies
Ġex otic
Ġex agger
Ġpro be
Ġde pr
um ber
est y
Ġal ign
Ġal ert
Ġv ivid
qu al
Ġout rage
un ks
Ġen ab
Ġkind erg
Ġres ur
Ġbl own
Ġinter pre
Ġsc ans
Ġtechn ic
Ġgu ards
Ġsur g
be es
Ġcr ows
Ġins ert
Ġsl ice
Ġplan ned
Ġkid ney
az a
Ġeconom ically
Ġcor rid
Ġvis iting
Ġreg ist
Ġbre ed
Ġge ography
Ġcra w
Ġgreen land
Ġste ven
Ġdig est
Ġtrad ing
Ġcy rus
sh aped
Ġcop ies
Ġcrit ically
Ġemp ath
Ġperiod s
Ġtrust ed
Ġrain s
Ġrepresent ative
Ġdam aged
Ġann ivers
Ġfram es
gra nd
Ġassoci ate
Ġtun is
Ġliber ty
Ġinvent or
Ġfold ing
Ġsmell s
Ġtarget ed
Ġmich el
Ġmexic an
Ġinj ured
fr ont
off s
Ġstream s
Ġprior it
Ġdocument ary
Ġinvestig ation
Ġpip e
Ġblow ing
Ġoccup y
Ġwitness ed
Ġacqu ire
Ġdish es
Ġdiplom acy
Ġdesper ate
Ġcock tail
Ġmushroom s
Ġirr ational
Ġelim inate
Ġtri ang
Ġcas ual
Ġcandid ates
Ġutter ly
Ġboo st
Ġadoles cent
Ġbasket ball
Ġsel ves
Ġjose ph
Ġmoz art
Ġlocom otion
Ġenforce ment
Ġhybr id
Ġelabor ate
restr ial
Ġoffs pring
Ġsupre me
Ġmumb ai
Ġprepar ation
c od
f ire
k i
p at
s he
t ically
Ġth yl
Ġc ope
Ġc ables
Ġm um
Ġm ater
Ġm ating
Ġh arr
Ġp c
Ġf id
Ġf ier
Ġd p
Ġd ick
an ch
Ġin n
Ġg ad
Ġn ons
et e
Ġre per
id al
Ġhe ating
Ġwas ted
Ġu h
ith m
Ġab ed
Ġsh aking
Ġsh orter
Ġme ad
Ġch ase
Ġpe el
Ġal iens
ist ine
Ġthem es
Ġpl ates
Ġact ively
ment ation
Ġco ca
iz abeth
ous es
Ġun st
Ġev apor
ag ra
Ġfir ing
ount ered
Ġac res
Ġac ute
Ġac ids
Ġdes erves
Ġind us
Ġsc aff
Ġcount s
Ġbel t
Ġser ver
Ġser ves
Ġform at
Ġpres cription
Ġreg ional
Ġadd s
Ġsw allow
ier ra
Ġreason ing
io let
Ġadv is
Ġhuge ly
Ġste ep
Ġbra nds
Ġsens ing
Ġple ased
Ġdig ging
Ġcy cl
Ġconv icted
Ġenc ountered
Ġpen al
Ġconcept ual
Ġsmart phone
Ġeth an
umb led
umb ling
Ġassum ed
Ġunfortun ate
pro of
Ġmut ation
Ġinteg rate
Ġdeliver ing
fr ontal
Ġgard ens
Ġmas ters
bu ilt
Ġdisp ers
Ġphilosoph ical
Ġplatform s
Ġembra cing
Ġinvestig ate
iat ric
Ġveget able
Ġresc ued
Ġatl anta
Ġaff airs
Ġacqu ired
Ġdiction aries
Ġingred ient
Ġhoriz ontal
Ġreject ed
Ġrenew ables
Ġsem i
Ġcoord ination
Ġimplement ed
Ġtri angle
Ġmillenn ium
Ġtoler ance
Ġadopt ion
Ġbos n
Ġprosth etic
Ġacou stic
Ġparach ute
Ġhars h
Ġkinderg arten
Ġthyl ac
g ram
m ass
o nds
r ist
r un
Ġ :
Ġth ro
Ġa ims
Ġw re
Ġw ore
Ġs ang
Ġo z
Ġb m
Ġb ip
Ġp iss
Ġto ky
Ġf ans
Ġe ighth
Ġbe ef
ut s
ot o
Ġre ck
Ġon stage
ra h
Ġan ecd
Ġse gment
Ġas semble
ol era
Ġch er
Ġch olera
ul ative
Ġex quis
Ġor th
Ġpe an
os ity
Ġen rich
Ġta gs
Ġman aging
Ġper m
Ġun int
Ġdis cl
Ġlo yal
Ġcont ained
Ġsy l
Ġpre ach
Ġpre cip
Ġgen eric
Ġcount ed
Ġcount less
Ġwr ight
per cent
Ġsystem atic
Ġsim ulate
be at
Ġlong est
ub a
Ġcons ent
Ġcoll ision
Ġmon ster
Ġmod er
Ġcomput e
Ġbeh old
Ġgener ates
Ġca f
Ġ4 4
Ġreg ulation
Ġprocess or
Ġprog ression
Ġhead quarters
Ġche ating
Ġnet working
Ġcond oms
Ġcal c
br ush
Ġpay s
Ġcra ig
Ġarch ive
Ġvar iable
Ġsqu id
Ġsym phony
Ġpsych o
Ġchem otherapy
Ġpract icing
Ġfeed s
Ġrich est
Ġpen is
Ġobs er
Ġcop enh
com ing
Ġtext ing
Ġachie ving
Ġemerg ence
Ġfem inist
Ġdefin ing
Ġeth ic
Ġdan iel
Ġmarr ow
Ġcheck ing
Ġtransl ator
Ġreturn s
Ġcoun sel
Ġdetect or
Ġauthor itarian
Ġhop ed
Ġinfect ious
Ġemploy ment
Ġcelebr ation
Ġsurve ys
Ġmamm al
Ġtor n
Ġtor t
Ġtal ented
Ġprevent ing
Ġfro gs
Ġhabit ats
Ġamb ul
Ġconsid ering
Ġmaster y
Ġphilosoph ers
Ġtow ers
Ġprior ities
Ġroof s
Ġmel ting
Ġreform s
Ġnegot iate
Ġgrain s
Ġfisher men
Ġreven ues
Ġconver ted
Ġdiscipl ines
Ġweigh s
Ġgest ures
Ġsar ah
Ġhousehold s
Ġdict ators
Ġchamp ions
Ġauthent icity
Ġsurviv ors
Ġdefic it
olit an
Ġcharl ie
Ġrevol utions
Ġjung le
Ġsatur day
Ġspat ial
Ġhawai i
Ġtib et
Ġnord en
ffect ive
Ġangiogen esis
Ġkos ov
Ġannivers ary
Ġtoky o
Ġcopenh agen
9 9
a ver
b us
e very
f are
h ah
l on
m ate
p os
p read
r in
s ur
t z
v iolet
Ġt ues
Ġt angible
Ġw ides
re y
Ġo w
Ġo ven
at ories
Ġc ul
Ġc ups
Ġm un
Ġm erg
Ġto d
Ġto ll
Ġf og
Ġd rain
or ters
Ġy og
it ated
Ġbe am
ot on
ct ive
Ġst er
Ġst un
ch a
Ġli by
ation ally
Ġj ur
Ġj up
Ġj aw
Ġch asing
il ation
Ġma pped
Ġsp ite
Ġthink ers
em ents
Ġen vision
our se
Ġle ague
Ġun le
Ġun ac
Ġun seen
ach es
Ġcont ag
Ġres ident
Ġhum ility
Ġfl esh
iver se
Ġgu err
Ġsim ul
Ġdec ides
Ġdec iding
Ġfo ie
Ġinv olving
te en
Ġrel ativity
Ġimag in
Ġprodu cers
Ġent it
Ġent ities
Ġfam ine
uc ed
ific ations
Ġcare s
Ġproject ion
Ġsub mit
Ġvis ions
Ġreg ulations
Ġgre et
Ġchar ged
Ġmodel ing
Ġref use
Ġref used
Ġequ als
ograph ical
Ġabs urd
Ġparent ing
Ġsuper no
Ġtravel s
Ġpredict ing
Ġcop ied
Ġunf air
Ġdead ly
Ġfa vel
Ġbacter ium
Ġspeed s
Ġprim ates
Ġsquare s
Ġscreen ing
Ġcat aly
Ġang les
Ġroll ed
Ġenorm ously
Ġtransport ed
Ġaddress ing
Ġcontrib uting
Ġinnov ate
Ġcelebr ity
Ġjournal ism
Ġod or
Ġinteg ration
Ġhack er
Ġiron ic
Ġep ip
Ġattempt s
Ġprost it
Ġastron aut
Ġcosm os
Ġlect ures
Ġdiam onds
Ġbes ide
Ġrig id
Ġembarrass ed
Ġconfront ed
Ġmillenn ia
Ġeve rest
Ġlegis l
Ġparas ite
Ġfulf ill
Ġintegr ity
Ġultra violet
Ġtedtalk s
Ġinherent ly
Ġstatist ical
Ġdisturb ing
Ġsquee ze
Ġintim acy
abul ary
Ġpalestin ian
comput er
Ġleban on
Ġcompre h
Ġpige on
Ġencyclop edia
Ġmarath on
Ġhurric ane
Ġtues day
Ġwides pread
Ġjup iter
b c
d ers
j e
r ie
s ize
Ġw i
Ġw rest
Ġs ierra
re ls
Ġb h
Ġb ent
Ġf ired
Ġd ens
Ġl ith
Ġg a
as on
al ia
Ġe u
Ġre h
Ġso y
Ġan th
th ood
Ġk it
Ġab road
Ġcan adian
ad el
il itation
Ġex ceed
um bs
est one
Ġkn ees
Ġal umin
Ġv in
Ġup stream
og ens
el f
Ġtim ing
ard ed
Ġman us
Ġper ipher
Ġno isy
Ġpr ince
Ġar du
Ġdis connect
Ġlo ans
Ġad h
Ġbl ast
pl ing
Ġhuman kind
Ġgu itar
Ġapp les
Ġbas ement
Ġbas eline
Ġtrans act
Ġcons ists
Ġsl ope
Ġ3 8
Ġent rance
Ġmet als
Ġexpl ored
Ġsub sequ
Ġsing ular
Ġ4 6
Ġreg ul
Ġcam bod
Ġair line
Ġinf ra
Ġaut istic
Ġmor ph
Ġequ ity
Ġfil ters
Ġcra cks
Ġfront ier
Ġpast e
uck s
he ld
Ġmill imeter
Ġfund ra
Ġdem ograph
Ġes cap
Ġes cal
Ġpot ent
Ġsuper her
Ġlim bs
Ġocc as
Ġap es
bo ards
Ġcop per
Ġrepl acing
ned y
Ġprom oting
Ġflo ors
Ġbenef icial
yn th
Ġpu ff
Ġparticip ating
ey ed
Ġimprove ments
Ġtom ato
Ġdisapp ears
Ġlau nd
Ġcook ie
Ġtown s
Ġcalcul ating
Ġsad ness
gra ph
Ġken nedy
Ġmut ual
Ġtor ture
Ġloss es
Ġmagaz ines
Ġamb ition
Ġgh ost
Ġque ens
Ġmaint enance
Ġegypt ians
Ġstim ulate
Ġsymmet ries
Ġsymmet rical
Ġkore an
Ġprofit able
Ġdesk top
Ġshif ted
Ġnur t
Ġoct op
Ġsatis faction
Ġempower ing
Ġvoc abulary
Ġcath ed
Ġinterf aces
Ġcolum ns
Ġmetabol ism
Ġintent ions
Ġcatastroph ic
Ġbeet le
Ġbeet les
Ġchromos ome
Ġbrut al
Ġweeke nd
Ġrehab ilitation
Ġprec ision
Ġschem e
Ġsubstant ial
Ġhalluc inations
Ġpedest rian
Ġfest ival
Ġjosh ua
Ġwarr ior
Ġdv d
Ġgrabb ed
Ġartifact s
Ġye ast
mind ed
Ġasth ma
Ġmaneu ver
Ġsyl via
3 00
? '
b ling
h ell
h ors
j an
l ah
n ik
p ound
r ants
s chool
t ent
w is
Ġ ]
Ġth ail
Ġa pe
Ġa ven
Ġo sc
in ished
Ġb j
Ġb id
en gth
Ġf ou
Ġd orm
an y
es es
Ġof fe
Ġl ately
Ġl uther
it ating
le ts
al ay
Ġe ternal
ro se
ro ots
Ġst are
Ġst agger
st airs
ig an
Ġhe ck
ce li
Ġmo nday
Ġj umps
Ġsh uff
Ġr ank
Ġr ays
Ġfr iction
Ġmy celi
Ġal ice
Ġv o
Ġup ward
Ġup right
og ether
Ġta le
Ġta gged
Ġle ge
gh etti
Ġpr icing
Ġar k
so lete
Ġdis k
Ġdis abilities
Ġdes ires
Ġbl essed
Ġgood ness
ict ions
pl ic
Ġgreat ly
Ġtra ces
be an
Ġgl ow
Ġhim alay
Ġsl og
Ġsl ip
Ġsl ave
Ġfam ously
Ġed itors
Ġel izabeth
Ġlar ry
Ġcare ers
Ġwar mer
Ġca lend
Ġvis cer
Ġmark er
Ġjo kes
Ġchar ter
Ġcol om
Ġmil ky
Ġequ ator
iter ate
Ġtreat y
Ġass ault
Ġfil med
Ġview ed
Ġris es
Ġbro cc
Ġill usions
Ġprogram med
ium ph
gen cy
Ġer u
Ġsud an
app ed
Ġsurv iving
Ġpress ing
Ġpress ures
Ġice berg
Ġnice ly
Ġmedic ations
Ġsle pt
Ġpath s
Ġhon ored
Ġneg lect
Ġfunction ing
Ġvirt ue
Ġdan cers
Ġapart ments
Ġlabor atories
Ġgraph s
Ġdetect ed
Ġcard board
Ġcorre lation
Ġstrugg led
Ġunique ly
Ġord ered
Ġoppos ition
Ġtal ents
Ġfold ed
Ġalt ered
Ġflight s
Ġchick ens
Ġshel ves
Ġindic ates
Ġfrequ encies
Ġchap ters
Ġstim ulation
Ġpip eline
Ġfrustr ation
Ġpray ing
Ġcontain er
spe ed
Ġmont ana
Ġrepublic ans
Ġempower ment
Ġtab oo
Ġexpon entially
Ġcens us
Ġmetabol ic
Ġstri kes
Ġproced ures
Ġelev ator
Ġadvoc ate
Ġclar ity
Ġastronom ers
Ġemphas ize
Ġspa ghetti
Ġphysi ology
engine ering
Ġcous in
Ġbrows er
Ġcorrespo nds
Ġsna ke
Ġconfig uration
Ġcolumb ia
Ġplank ton
Ġcommitt ee
Ġmixt ure
Ġalas ka
Ġstew art
Ġsensit ivity
Ġsoc cer
Ġsurg ical
Ġnons ense
Ġscaff old
Ġthail and
Ġmyceli um
Ġbrocc oli
e em
e lect
f lu
h ara
m illion
s m
s or
w id
Ġw are
Ġo y
Ġo we
in ational
at ers
Ġc um
Ġb ore
Ġb ert
en a
Ġp ap
Ġf ame
Ġf red
Ġf ont
Ġd ome
Ġd ivid
Ġl ane
Ġn az
Ġn ode
al ysis
Ġre na
se a
Ġst airs
id i
im ed
im ents
Ġli ps
th ank
Ġse am
am as
ol ar
Ġch ord
Ġthere by
ill as
il ated
Ġpro sec
Ġv ene
od ing
Ġco h
Ġle opard
iz z
Ġcl ues
Ġcl ips
Ġpr on
Ġar c
Ġpo nd
Ġbu gs
Ġcont est
Ġunder m
co nds
pl an
Ġgr im
Ġthank fully
Ġtra p
Ġapp oint
ac qu
Ġob solete
Ġbo nds
Ġcour ts
Ġplay ful
Ġins ult
Ġpower point
Ġfin ishing
iss ance
Ġlight er
Ġlight ning
Ġbi ases
Ġread er
Ġsing er
Ġreg ulate
Ġhead line
Ġfun gi
Ġz imb
ogra ms
Ġrese mb
Ġscient ifically
Ġwa ited
ash a
Ġass et
Ġass ure
Ġmass ively
Ġste aling
Ġste pping
Ġmar ijuana
Ġblue print
Ġconsum ing
Ġpersonal ities
Ġobs c
ustain able
Ġtradition ally
Ġsustain ed
Ġfur th
Ġsell s
head s
Ġ199 4
Ġ199 5
Ġcheck ed
Ġspir al
Ġsal ary
Ġreturn ing
Ġassum ing
Ġaccept ance
Ġbud gets
Ġjud gments
Ġ198 4
Ġmatch es
Ġmotiv ate
Ġsymbol ic
Ġreflect s
Ġappl ies
Ġanaly zing
Ġsexual ity
Ġfol k
Ġaccom mod
Ġforg ive
Ġancest or
Ġappreci ation
Ġfoss ils
Ġpolitic ian
Ġfrag ments
Ġreplace ment
Ġmanip ulation
Ġmicros copic
Ġwash ed
Ġstorm s
Ġven us
Ġtight ly
Ġportra its
Ġgig antic
vas ive
Ġwip ed
Ġskept ical
Ġstatist ically
Ġchromos omes
Ġsulf ide
Ġdisappoint ed
Ġdism iss
Ġrecept or
ocr atic
controll ed
pie ce
Ġtan ks
Ġsummar ize
Ġembod ied
Ġthor ough
Ġportug al
nat ural
Ġgravit ational
Ġminer als
Ġseaf ood
Ġshepher d
Ġpenal ty
Ġcalc ulation
Ġalumin um
Ġstagger ing
. ]
b ia
c am
e ing
f ight
h ave
l ow
r hythm
s u
w all
w ith
Ġ /
Ġc ort
Ġc ram
Ġm ature
Ġh an
Ġl h
Ġl em
is an
Ġy ard
Ġn y
ver ted
Ġare na
Ġgo at
th als
Ġk ansas
ere nt
Ġr ust
Ġr na
Ġbec k
pp ers
Ġal an
Ġal ter
Ġal ike
Ġv iable
Ġint ric
Ġtr iumph
iv a
Ġmore over
Ġsa van
Ġsu its
our cing
iz ational
Ġworld view
ab we
Ġpr imate
Ġpr isons
Ġar ise
Ġwell s
red ict
pt ed
de velop
ell e
Ġres erv
Ġbr ick
ph ia
ial s
int u
Ġinter sect
Ġinc ar
ak ers
Ġcar ib
be cause
Ġinv itation
Ġrel ates
Ġbit ter
Ġkid na
Ġrec ur
Ġed it
Ġmet rop
Ġsk illed
Ġsecond ary
Ġproject ed
Ġ5 2
Ġsub mar
Ġ4 3
Ġmark ers
Ġconf ined
Ġsw ing
Ġdet er
oc racy
Ġmil o
Ġref lex
Ġge org
Ġfriends hip
Ġindivid ually
Ġfront al
Ġbra d
Ġcir cul
gen esis
Ġsuper ior
Ġimpro b
Ġimpro vis
Ġbreak down
Ġspecial ist
Ġap oll
Ġmult inational
Ġdest ructive
Ġobs erving
Ġrespons ibilities
Ġcop ying
Ġsho ots
Ġfac ult
Ġcirc ular
Ġpoll ut
Ġsn akes
Ġphil adel
Ġ199 7
unt ing
Ġeth ics
Ġadm itted
Ġcharacter istic
Ġactiv ated
Ġcheck s
Ġdiag nostic
Ġcollabor ators
Ġperspect ives
Ġ201 5
Ġquant ities
Ġmuseum s
Ġmagic ian
Ġrespect ed
Ġhonest y
Ġut ility
Ġdram a
Ġinvent ions
Ġdispl ays
Ġmix ing
Ġamb ass
Ġtherap ist
Ġpartners hips
hand ed
Ġmouth s
Ġadapt ation
Ġgrass roots
Ġkilomet er
Ġange ls
Ġsubst it
Ġpow der
Ġmir rors
Ġshad ows
Ġpip es
Ġfrustr ating
Ġexplan ations
col a
Ġgree ks
Ġpure ly
Ġisol ation
Ġreprodu ction
Ġminim al
Ġdiam ond
Ġhook ed
Ġmac ro
Ġanx ious
Ġcyber crim
Ġresil ient
Ġq aeda
Ġfright ened
Ġcens ors
Ġentrepreneur ial
Ġobstac le
Ġaccum ulate
Ġpurch ase
Ġpsychiat ric
Ġunp redict
Ġjeff erson
Ġdisrupt ive
Ġconfir m
Ġbutt ons
Ġorient ation
Ġspont aneously
Ġpropag anda
Ġneander thals
Ġnumer ous
Ġimpul se
Ġexerc ises
Ġstair case
Ġnam ib
Ġstead y
orient ed
Ġsib lings
Ġenab ling
Ġambul ance
Ġzimb abwe
Ġphiladel phia
4 7
b bit
n i
o ven
o ster
u x
w ait
z zy
Ġt ips
Ġa rous
Ġw ives
Ġs iber
Ġo m
Ġo ak
Ġm i
Ġm m
ing er
Ġp ose
Ġp av
Ġto ast
Ġf aint
Ġd m
Ġd ur
Ġd ates
Ġl ind
Ġl ump
Ġl ama
Ġg el
Ġe co
Ġe ats
ro bi
ig g
Ġhe h
Ġan esthesia
Ġk le
il ibr
Ġfr uits
Ġde ple
Ġde br
um en
um ental
Ġal ar
Ġv on
Ġv otes
ort ion
Ġpl ut
Ġsu cks
ap agos
ast e
Ġfe ver
Ġtw ins
pt ic
Ġhum p
Ġhum ble
Ġbr ig
Ġsc roll
Ġinc on
Ġpers ons
we g
Ġear ned
Ġinst ances
Ġhel met
Ġbo oth
Ġplay ground
Ġke en
Ġins pect
Ġsol o
Ġmed itation
Ġrec la
Ġok lah
Ġrep et
conom ic
Ġwar fare
Ġresp ir
Ġpres erved
Ġmark ed
Ġprocess ed
Ġjo ining
Ġpat ience
Ġpass ions
Ġeas iest
Ġinf lation
Ġmid st
Ġremember ing
Ġnor weg
Ġaud itor
br al
Ġ9 8
Ġoper ates
gen eration
Ġsqu e
Ġchem ist
Ġsupport s
Ġsupport ive
Ġdream ed
Ġrecogn izes
crib ed
Ġobs ession
Ġdraw s
Ġpost ers
Ġrevolution ary
Ġplant ing
Ġadm ire
Ġlink ing
Ġdan ny
Ġvari ables
Ġcat alog
Ġban anas
Ġaccept able
Ġfinan cially
Ġfing ert
Ġ14 0
Ġpresident ial
Ġben ign
Ġmamm oth
Ġreflect ive
Ġvolunt ary
Ġefficient ly
Ġalt ogether
Ġvisit ors
Ġinj ust
Ġharm ful
cop y
Ġmig rate
Ġcand le
Ġreve als
Ġlibr aries
Ġdocument ing
Ġconvin cing
Ġcrash es
Ġweak ness
Ġbon us
Ġillness es
Ġpray er
Ġheight s
Ġgal apagos
Ġded ic
Ġcha otic
Ġassist ant
Ġdut y
Ġtent h
Ġbombs ight
Ġprem ise
Ġbudd ha
Ġbudd hist
Ġther mal
Ġcontrovers y
Ġwound ed
Ġrating s
Ġmargin al
Ġabund ant
Ġincident ally
Ġbrib e
Ġgram mar
Ġdys function
Ġforb id
Ġenlight en
Ġpercept ions
Ġamate ur
Ġpreval ence
Ġanat omy
nut r
Ġelectromagn etic
Ġcin ema
Ġvot ers
Ġjord an
Ġkosov o
Ġliby a
Ġinfra red
Ġrena issance
ilibr ium
1 9
c et
c ific
p ay
t im
v ance
Ġw k
Ġw andering
Ġs ands
Ġs ixt
Ġo v
in ch
in ates
Ġc av
Ġc ement
Ġb ib
Ġm es
Ġh ud
Ġh atch
Ġh eter
Ġp ess
Ġp iles
Ġp umps
Ġd well
Ġd ala
Ġl ak
is c
ar ium
Ġn ike
om p
al ore
Ġbe ast
Ġha y
se x
se cond
Ġst igma
Ġfor um
ir m
Ġgo li
Ġj en
Ġj ay
Ġj ill
Ġch unk
Ġr ud
Ġpro hib
Ġde ci
Ġcon j
ck ed
Ġal right
Ġout break
Ġsa p
Ġsa hara
Ġle e
Ġle ak
Ġle xic
act ic
Ġno ble
res ist
ag an
Ġneed ing
Ġfir ms
Ġro ss
Ġimp ressed
de pend
Ġspe nds
ult ure
Ġsc and
Ġsc aled
Ġfl aw
form ed
Ġsm ugg
Ġcar neg
Ġexam ine
Ġsl um
Ġprodu cer
Ġhu h
Ġstr at
Ġed ward
Ġext r
Ġbi ologically
Ġgener osity
Ġexpl ode
Ġsub mers
Ġ4 50
Ġfu zzy
Ġgre y
Ġconnect ome
Ġmid night
Ġresearch ing
Ġwonder fully
Ġwa vel
Ġmor ally
Ġequ ilibrium
Ġted x
Ġdev oted
Ġcra b
Ġmust ache
Ġmic r
Ġview ing
Ġarch ae
Ġhar ass
Ġho llow
Ġoper ated
Ġprotect ive
Ġexist ential
ster dam
Ġfail s
Ġsym b
Ġ12 5
Ġpract iced
Ġ18 0
Ġpresent ing
Ġviol in
Ġblood y
Ġcivil ian
Ġpath way
Ġprom ising
Ġprom ises
Ġtruth s
Ġtouch es
Ġemp ir
Ġlay ing
Ġsubject ive
Ġattack ing
Ġaw ake
Ġnucle us
Ġemerg es
Ġport ray
Ġblock ed
Ġconsider ation
Ġstick y
Ġintrodu cing
Ġban ned
Ġ16 0
Ġmis under
Ġlaunch ing
Ġjud ges
Ġroll s
Ġhur ts
Ġtrick y
Ġhero in
Ġtun ed
Ġcelebr ated
Ġden mark
ils on
Ġdepend ence
Ġbang alore
Ġpet ition
Ġdoub ling
Ġtrib al
kn ow
Ġstrength s
Ġaccur ately
Ġange l
Ġsnow den
hold ers
Ġgall eries
Ġcompl aining
Ġadvert is
Ġsla ves
Ġconsist ently
Ġcub a
spe cific
Ġhol iday
Ġcrack ed
Ġscar ce
Ġdepth s
Ġhat red
Ġrainforest s
Ġcod ing
Ġchamp ion
Ġmanufacture rs
Ġpersu ade
Ġash amed
Ġfertil izer
Ġrecru it
Ġbreakthrough s
Ġrepeated ly
opard y
Ġdeliber ately
Ġupd ate
Ġintrig uing
Ġdragon flies
Ġenthusi asm
Ġvel oc
Ġcigaret te
Ġsubur ban
Ġvit amin
Ġdivor ce
Ġinterven e
Ġcoinc idence
Ġdiscrim ination
Ġoutdo or
Ġtasman ian
Ġepis ode
Ġende avor
Ġarbit rary
Ġnightm are
Ġjuven ile
Ġethan ol
Ġunac cept
Ġoctop us
Ġoklah oma
Ġpess im
Ġdala i
Ġgoli ath
Ġcarneg ie
2 5
c ore
c up
d est
d les
e el
m ile
m eter
r ians
r ays
z er
z ler
Ġw ished
Ġs id
in burgh
Ġc n
Ġc ad
Ġc odes
Ġb aker
Ġh ence
on al
an o
Ġin mates
Ġl akes
Ġn ie
as ant
le thal
Ġe ase
ct ure
st ory
ch el
Ġgo sh
Ġgo ss
Ġk u
Ġse ctions
Ġr hyth
il izing
Ġde an
Ġde fect
Ġv ig
ist ically
un a
ci um
iv als
Ġtim ber
Ġcomp osed
Ġcomp ressed
Ġun re
Ġun ified
Ġdon ated
Ġexp ense
Ġany time
Ġnew born
so on
Ġneed les
Ġmu nd
ib ati
ff iti
Ġres id
Ġind irect
Ġday light
Ġher d
Ġpre frontal
ac re
ac le
be e
Ġinv asion
Ġbas king
av ors
Ġrel ie
Ġcr ust
Ġcr ushed
Ġcons cience
Ġproblem atic
Ġent ity
Ġdevelop ments
Ġed inburgh
Ġquestion ing
Ġsk ip
Ġcountry side
Ġpres ents
vers ion
Ġconf erences
Ġadd ressed
ne um
Ġeduc ators
Ġpar ap
man n
irl ing
ange lo
Ġstate ments
Ġnor theast
Ġret ina
Ġav atar
Ġleg ally
Ġexpect ation
Ġpot ato
Ġsqu ared
Ġblue fin
Ġcommon ly
Ġeight y
Ġincl usive
Ġident ities
Ġ18 5
app ro
Ġdream ing
Ġtransform ations
Ġslow ed
Ġur an
Ġur gent
Ġmult iverse
Ġfight s
Ġrock ets
Ġwin ners
Ġce os
Ġprin cet
Ġmeaning less
Ġcolor ful
Ġaffect ion
Ġbed s
Ġbal anced
Ġlad der
Ġdiv ine
Ġdan cer
Ġclean ing
Ġbank ers
Ġmathemat ically
Ġaccept ing
Ġfle et
Ġdad dy
Ġautom atic
Ġinterview er
Ġwilling ness
ira ble
Ġgradu ates
Ġindepend ently
Ġscan ned
Ġpet ro
Ġdemocr ats
Ġfold s
Ġaustral ian
Ġreco vered
Ġje an
Ġphotos ynth
ax is
Ġtow el
Ġcro cod
Ġorg asm
Ġinfin ity
Ġpil ots
Ġappropr i
Ġswed ish
Ġentrepreneurs hip
Ġmira cles
Ġdisappear ing
Ġhol oc
Ġcere bral
Ġjul ian
Ġlone liness
Ġexcl usive
Ġlou der
Ġstoryt eller
Ġcommod ities
Ġattrib utes
Ġwilli ams
Ġcryst al
Ġadoles cence
Ġwhis per
Ġtransm itted
Ġgrat itude
Ġrefriger ator
Ġroutine ly
friend ly
Ġtes zler
Ġcous ins
Ġeradic ation
Ġdegra ded
Ġaggreg ate
perform ing
Ġanno ying
Ġaltru ism
Ġtempor al
Ġeb ay
Ġapolog ize
Ġkir ibati
Ġenvelop e
Ġargent ina
Ġardu ino
Ġdemograph ics
wid th
Ġdebr is
Ġauditor ium
Ġinjust ice
Ġwavel ength
Ġrhyth ms
Ġprincet on
b one
d i
d og
e nding
e fficient
g ered
l ast
l ical
m ia
n on
r ine
v ascular
z uel
Ġt b
Ġs ms
Ġo be
Ġo ecd
in as
in ators
Ġc p
Ġh ood
Ġh orn
Ġp neum
Ġd j
Ġd ug
an ing
ll a
Ġin qu
Ġl agos
ar ial
Ġg aining
Ġg ait
Ġn ail
Ġn sa
Ġn athan
ct ar
Ġst ing
Ġst ir
ig ra
op ian
op oly
Ġab normal
Ġwor ship
Ġne pal
Ġne ctar
ad vant
Ġnot ions
Ġint el
Ġint end
Ġpl u
Ġby pass
em an
ine a
Ġtheir s
Ġcomp act
Ġle one
Ġle wis
ous y
Ġman g
Ġper u
Ġper se
ab a
Ġexp ose
Ġfe e
Ġam sterdam
ach ing
Ġnew ly
Ġhapp iest
Ġdiff er
Ġro ver
Ġimp aired
Ġdis advant
Ġback s
Ġcont ents
Ġdes ce
Ġdes cend
ber ty
Ġres ort
Ġcomm ands
Ġra ces
Ġra cial
Ġem ily
Ġgu ilt
Ġgu inea
Ġafter ward
Ġsim on
Ġbel o
Ġke ith
Ġcr ied
Ġsl am
Ġ3 4
Ġmon et
Ġstr ang
Ġnat asha
Ġatt raction
Ġmom a
Ġbi ased
cy cle
Ġexpl oded
Ġca fe
Ġ4 7
Ġconf usion
Ġsw ord
Ġmen u
Ġsound ed
Ġstand point
Ġenvironment ally
Ġequ ipped
Ġcertain ty
Ġche et
Ġted sters
Ġcond om
Ġtre k
Ġworks hop
Ġcal cium
Ġred isco
Ġbab bage
Ġsuccess es
Ġoper ator
Ġsuper cond
Ġer otic
Ġlim estone
Ġarg u
Ġtyp ing
Ġtem pl
Ġpoor ly
Ġsum s
sh ine
Ġslow ing
Ġbar b
Ġvol umes
Ġdie go
Ġfilm maker
Ġdevelopment al
Ġrele ases
Ġrele asing
Ġbaby lon
Ġphil ip
Ġphil ipp
Ġtrack ed
Ġ199 1
Ġrain fall
light s
Ġvari eties
Ġaccount able
Ġmal nutr
Ġsequ enced
Ġquant itative
Ġdiscuss ed
Ġstrange ly
Ġvict ory
Ġcelebr ating
Ġliber ia
Ġhall s
Ġoptim ize
Ġhair s
Ġcampaign s
Ġtremend ously
Ġspaces hip
Ġtax i
Ġdispl aced
Ġmich igan
Ġrom an
Ġdemand ing
fl ow
Ġble nd
Ġhorr ific
Ġrequire ment
Ġtour ist
Ġsynth esis
Ġnovel ty
Ġpurs uing
Ġcateg or
Ġinfin itely
Ġtick ets
Ġveget ation
Ġquiet ly
Ġmat th
Ġtall er
Ġreview s
eng ers
Ġflex ibility
Ġeld ers
Ġdecl ared
build ing
Ġham mer
Ġpra g
Ġharvest ing
bre aking
Ġpregn ancy
Ġhaw king
Ġconstit u
Ġfirm ly
Ġscenar ios
Ġassemb led
Ġimper ative
Ġsacr ific
Ġdisgust ing
Ġguard ian
Ġveter ans
Ġnin th
Ġsatisf ied
Ġevalu ate
Ġcatastroph e
Ġperpet r
Ġrespo nds
Ġtu ber
Ġmetric s
Ġtes la
Ġregener ate
Ġdistort ed
Ġimprov ise
Ġirre le
Ġunemploy ment
fram e
Ġhob by
Ġgif ts
Ġobt ained
Ġparam eters
mun ic
Ġjewel ry
assemb ly
Ġpear l
Ġimpr ison
Ġundergradu ate
Ġmichel angelo
Ġunst able
Ġobser ver
Ġlaund ry
Ġcathed ral
Ġvene zuel
Ġlh c
Ġunaccept able
Ġmalnutr ition
1 5
6 00
a ire
b et
b ro
b led
c ale
d led
e ys
f ig
f ur
f ound
g age
h el
l ove
n as
p ace
r h
r ations
t ic
t ell
Ġt ink
Ġt read
Ġt uring
Ġw ilson
Ġs b
re r
re nd
in er
Ġb un
Ġin ert
Ġl yn
ed uc
Ġy r
Ġg ag
Ġn go
Ġn ai
Ġe ager
Ġre n
ver b
st ick
Ġfor ty
Ġdo ses
Ġdo aa
im ony
th ese
Ġk ings
am ous
Ġcan al
Ġsh am
Ġsh ipped
Ġch ore
Ġnot icing
Ġr s
Ġr ides
ill es
ge bra
Ġcon gr
ect ed
Ġjust ify
Ġsp ouse
Ġsp ike
Ġwho a
Ġsa iling
em i
Ġco ined
Ġun in
ach ed
Ġpo op
Ġimp ose
Ġmu ham
Ġback pack
olog ies
Ġac umen
ple te
Ġide ological
pl er
Ġsc ope
Ġfl ed
Ġoff sh
Ġinc ons
Ġinc ub
ob ic
Ġsur plus
ac ities
Ġinv iting
te xt
Ġgl ory
Ġlast s
Ġbrain storm
Ġgra ffiti
Ġcr ank
Ġdr ift
Ġ3 60
Ġfound ing
Ġhu g
Ġmod ified
Ġfin land
Ġlearn s
Ġdevelop ers
Ġmom s
ger ia
Ġrep orter
Ġsk ys
Ġwar ren
Ġreg ister
Ġreg rets
ock s
Ġpass port
Ġsw amp
Ġsoci etal
Ġreason ably
Ġglobal ized
Ġlist ed
Ġlab els
less ness
Ġge o
Ġsec ular
Ġiss ued
Ġland f
Ġdeal t
Ġthird s
Ġthird ly
li ers
Ġsun shine
Ġve gas
Ġste er
Ġmiss ions
Ġ8 6
cul osis
Ġpot atoes
Ġer os
Ġdirect ors
Ġbar n
Ġcivil ians
Ġredu ces
Ġexperiment ing
Ġpost ure
Ġcirc ulation
Ġsearch es
Ġ199 3
Ġnucle i
Ġblock ing
Ġpu berty
for ced
Ġaccount ing
Ġfix ing
Ġban ana
Ġcollabor ator
Ġmis ery
Ġheav ens
uss ani
Ġdistrib ute
Ġterm inal
back s
Ġinnov ators
Ġtit les
Ġconcl usions
Ġcommer ce
Ġoffic ers
Ġvast ly
Ġrout es
Ġappl ause
Ġrom ance
Ġband width
Ġep ile
Ġadapt ive
Ġtast es
Ġmaint aining
Ġfranc is
Ġdefe at
Ġacceler ation
Ġgall on
Ġbattle field
Ġpeak s
Ġmyth ology
Ġmosqu e
Ġqual ified
Ġru ins
Ġsympt om
Ġreprodu ctive
Ġdecl ining
Ġcompar able
Ġsphere s
Ġphr ases
Ġrefer red
Ġimpl anted
cond ition
van ia
Ġreci p
Ġpool s
Ġrepublic an
Ġdiplom at
Ġcoord inate
Ġiniti atives
Ġnic ole
Ġconserv atives
Ġirr igation
Ġgam ma
Ġknock ed
Ġdelic ate
Ġimper fect
Ġlegit im
Ġnin ety
Ġparas ites
Ġglaci ers
Ġrh ino
Ġdelight ed
Ġobl ig
Ġbos on
Ġspa wn
Ġflour ish
Ġassess ment
Ġsurviv or
Ġweeke nds
Ġtempt ation
Ġsumm ary
Ġgi ussani
Ġcontrad iction
Ġunemploy ed
Ġcigaret tes
Ġredef ine
Ġsubm itted
Ġsett led
Ġintrins ic
rane an
Ġsovere ign
Ġpitt s
Ġfier ce
Ġreper to
Ġbosn ia
Ġwre ck
Ġcambod ia
Ġslog an
Ġcalend ar
intu itive
Ġincar cer
Ġcarib bean
Ġgeorg ia
Ġapoll o
Ġcensors hip
Ġnamib ia
Ġfingert ips
Ġmund ane
Ġtuber culosis
Ġnai robi
Ġmuham mad
8 00
b rain
c ur
f u
f it
j ud
k o
l vania
m ay
m ail
p hing
r ina
u ate
Ġt id
Ġth umbs
Ġa rose
Ġi q
Ġthe ft
at ts
Ġb ou
Ġb alk
Ġb ands
Ġm ash
Ġh ij
Ġp ity
Ġp iv
on ica
Ġd ave
Ġd ash
Ġd uration
or th
Ġin ade
Ġl ag
Ġg ym
ic an
ic ut
Ġis a
us et
ot al
Ġre pt
ent er
Ġfor cing
th s
Ġk ite
Ġmo ist
Ġsh er
Ġsh ield
ere rs
Ġch in
Ġr iots
ill ions
il age
ul ed
Ġsom alia
Ġor ang
Ġlike wise
Ġal gebra
Ġte nder
Ġus hah
Ġsp ades
Ġpl um
Ġsa bb
Ġsu e
ide press
Ġfe ared
Ġag ed
Ġag rees
ach uset
Ġbu cket
Ġdis connected
Ġlo be
ign ant
ens ed
Ġdes al
Ġad ul
Ġres olved
Ġunder p
Ġunder t
Ġbl ade
Ġbr ow
ish a
ict ional
int eg
Ġinter connect
Ġgen omics
Ġhuman ities
Ġgr ip
Ġwr ink
Ġwr ites
Ġsur re
te nds
Ġgl orious
Ġlast ed
Ġins ur
Ġmon soon
Ġent ers
Ġwater fall
Ġplace bo
Ġed i
Ġed iting
Ġel bow
Ġlar vae
Ġbi ote
Ġbi otechnology
Ġsk ies
Ġproject ions
Ġsing ers
air y
cr ipts
Ġgovern or
Ġfun eral
Ġcur ator
Ġconnect icut
Ġpop s
Ġopp on
Ġcult urally
oc amp
Ġshare s
Ġref ined
Ġtest oster
Ġpain ter
Ġsou theast
Ġcond uctor
Ġcal tech
Ġdra gged
Ġcra wl
Ġ9 00
uck y
sy lvania
Ġant idepress
Ġprov ince
Ġid iot
Ġmill ise
Ġprogram mer
Ġliter al
Ġsens ible
Ġshort cut
Ġbeginning s
Ġnorth west
Ġspecial ists
Ġcool er
Ġfight ers
Ġphotograph ers
Ġrele vance
Ġsn aps
Ġreact ors
Ġemerg ent
Ġrece iver
Ġcris pr
Ġsky pe
Ġcart ilage
Ġclean ed
Ġsan ct
Ġburn s
Ġinflu ences
aur us
Ġine fficient
Ġclim bers
Ġexplore r
Ġhero ic
Ġemploy ee
Ġthr ust
Ġthr ive
Ġten nis
Ġmatch ing
Ġcitizens hip
Ġrandom ness
Ġmultip l
sc reen
Ġshap ing
Ġcondition ing
Ġjohn ny
Ġmamm ography
Ġ197 5
Ġblog ging
Ġprevent able
cell ular
Ġcrow ded
Ġdesert s
Ġfrank lin
Ġruss ians
Ġtrip le
Ġiron ically
Ġmyster ies
Ġble eding
Ġprev ail
Ġacad em
Ġattempt ed
Ġdiver gence
Ġnan otechnology
Ġmer it
Ġacceler ated
Ġneuro genesis
Ġselect ive
Ġfal con
Ġmyth s
car bon
ogen ic
Ġnegot iation
Ġrecy cle
Ġped iatric
Ġles ter
Ġexec uted
Ġbicy cles
Ġ194 5
Ġreject ion
Ġhoney bees
Ġjer ry
Ġguarant eed
Ġrh et
Ġhub ble
Ġpalest ine
Ġcraft s
Ġaspir ations
Ġsulf ur
Ġarrow s
Ġreson ance
Ġcert ific
Ġhipp ocamp
Ġdecent ral
Ġshout ing
Ġnegoti ations
Ġspont aneous
Ġsusp icious
Ġstereoty pes
Ġreinvent ing
produ ct
Ġvoy age
Ġincom plete
Ġpenn sylvania
Ġinex p
Ġcabin et
Ġmarvel ous
Ġenzy mes
Ġexplicit ly
Ġgee ks
Ġinher ited
Ġscot land
Ġaccompan ied
Ġpestic ides
Ġhambur ger
Ġpou red
Ġcorrid ors
Ġcontag ious
Ġentit led
Ġbh utan
Ġaven ue
Ġlege nd
Ġviscer al
Ġfacult y
Ġpollut ants
Ġcybercrim inals
Ġunpredict able
Ġenlighten ment
Ġsap iens
Ġveloc ity
Ġappropri ately
Ġreperto ire
achuset ts
Ġtestoster one
b ons
b ility
d in
f ashion
g ive
m ble
m aster
n ie
n ames
o is
p res
s im
s qu
s ens
t om
u an
Ã §
Ġth under
Ġw att
Ġs aint
Ġs essions
at in
Ġc er
Ġc ues
Ġb unk
Ġb ounce
Ġh oo
or se
Ġl ol
Ġl ure
Ġy ale
Ġg aze
as king
Ġe g
Ġbe eth
ot ive
ro c
Ġst ap
Ġst umbled
id ental
ur t
ra z
op ed
Ġk r
Ġk am
Ġse b
Ġsh a
Ġsh ir
Ġsh ack
Ġch alk
Ġall en
Ġall iance
il i
ul u
Ġex it
Ġex cer
Ġex cus
ck o
ind ing
Ġsp ut
Ġsp ine
Ġcomp r
Ġcomp ens
Ġta iw
iz a
iz ona
are r
Ġman ages
Ġun ity
Ġno ises
Ġfe es
Ġag ile
Ġam ph
Ġcl ich
Ġpr iest
Ġpr izes
Ġar ter
Ġar rog
Ġar izona
Ġover se
Ġro o
Ġro ger
Ġdis ruption
Ġfirst hand
ens ively
Ġph d
cent ric
king s
Ġunder w
Ġhum ming
Ġbl ows
Ġide als
Ġgu ate
Ġsim ulated
wh eel
Ġlast ly
Ġrel uct
Ġke pler
Ġschool ing
atter ing
ros pect
Ġhigh ways
Ġmed iter
Ġfin ite
Ġser ge
Ġed ited
Ġcell phone
Ġever gl
Ġanim ations
no stics
Ġorgan izational
Ġwo nders
Ġconf using
ont o
Ġchar ities
Ġsw ar
Ġsw ap
Ġhist ories
Ġdist ress
Ġpar alysis
Ġaut o
Ġwa x
Ġwa king
aps es
Ġpublic ation
Ġsou ght
Ġge ological
Ġfree ze
uck ed
Ġmass achusetts
he alth
Ġste wards
Ġdep ressing
Ġrad ar
Ġrad ius
Ġoper ational
Ġsouth west
Ġdig its
ex p
Ġbar rels
Ġobs ess
Ġmeasure ment
Ġstra nd
Ġhot ter
Ġdeg rad
Ġstat ue
Ġworth while
go vern
Ġsn ap
Ġult ras
Ġver ge
Ġsam uel
Ġpan creat
Ġbal con
Ġkil ograms
Ġurban ization
Ġcontrib utions
Ġbroad ly
Ġdrink s
Ġtur bul
Ġliber als
Ġstress ful
Ġtor onto
Ġpet als
Ġcru ise
Ġappl iances
Ġseas ons
Ġparad ise
Ġjoy ful
Ġdepart ments
Ġprev ents
Ġappreci ated
Ġstream ing
oun ced
Ġembra ced
Ġdiagn ose
Ġprototy ping
Ġgall ons
Ġhun ters
Ġload ed
Ġfisher y
Ġprefer red
Ġnur ture
Ġhypoth et
Ġassign ed
organ ized
Ġpra ise
Ġ194 0
Ġment ors
Ġaqu atic
Ġdistinct ive
bal ance
Ġvibr ating
Ġgeomet ric
list en
Ġrail way
Ġveter in
Ġsatisf y
Ġsatisf ying
Ġastronom ical
Ġathlet ic
Ġrelax ed
Ġpupp et
Ġautomob iles
Ġneurolog ical
conf lict
Ġnegoti ating
Ġinsist ed
Ġaddict s
Ġindo or
Ġsubur bs
Ġner d
chem ical
Ġstrict ly
Ġexecut ive
Ġbru ce
Ġsched ule
Ġjugg ling
Ġerect us
Ġky oto
Ġnonviol ent
Ġpriorit ize
Ġoz one
Ġunint ended
Ġepip han
Ġlith ium
Ġfundra ising
Ġnurt uring
Ġmetrop olitan
Ġambass ador
Ġrecla im
Ġnorweg ian
Ġholoc aust
Ġcongr at
Ġpitts burgh
Ġushah idi
Ġbeeth oven
Ġmediter ranean
Ġpancreat ic
4 00
b ands
e ur
f irst
h s
h ops
l ord
l ined
m ala
p ot
p ol
s ight
s ome
t les
w as
w ire
w ired
y o
Ġt ou
Ġt ig
Ġt ect
Ġt ilt
Ġa o
Ġa ur
Ġi cons
Ġw age
Ġw ages
Ġw ounds
re ction
Ġo ve
er os
Ġb ach
Ġb ac
Ġb ah
Ġb umps
Ġb umble
Ġm oth
Ġh ers
Ġh itch
Ġh mm
en ergy
Ġp ist
Ġp up
Ġf g
Ġf ictional
Ġd all
Ġd ian
Ġd yl
Ġl ined
Ġg ur
Ġg ord
Ġwe ts
Ġwh it
Ġwh ip
le ans
ut en
ot ent
et ches
Ġre ar
st yle
ch s
Ġwas ting
Ġdo d
Ġu mb
Ġu cla
Ġgo ats
th em
Ġwith dra
Ġab u
Ġj c
ol ith
ere n
Ġcom ed
Ġr ou
Ġr anging
Ġor leans
Ġde er
Ġpe ps
pp y
est eem
Ġint angible
Ġsp ong
ie val
Ġpl un
Ġcomp at
Ġcomp li
ack s
Ġper vasive
Ġun imag
Ġqu o
Ġqu otes
res pect
Ġfe as
Ġtw ent
Ġpart ial
Ġlo ops
ater al
Ġad ja
Ġinter rog
Ġsc are
Ġra mp
Ġoff ensive
ob s
Ġwr it
Ġapp et
Ġinst ability
Ġinv aded
wh ite
Ġlast ing
Ġmean ings
Ġgra bs
Ġcr ashing
Ġtrans f
Ġcoll ider
Ġimag inary
Ġkid neys
ween ey
Ġmin isters
Ġext ensive
Ġbi kes
Ġsk etches
Ġ5 3
Ġ5 4
Ġ5 7
Ġcam els
Ġadd icted
Ġsw am
Ġprot ests
Ġval ued
oc ated
Ġdef ines
Ġcontin ually
Ġcost a
Ġsec re
Ġlaw rence
Ġappro val
Ġpos es
Ġfre es
Ġfre ud
Ġwall et
Ġident ifying
Ġ18 7
Ġweek ly
Ġsurpr ises
sh ould
Ġpen ic
Ġrespons ive
Ġcop ern
Ġsimilar ities
bor ne
Ġcomb inations
Ġhot els
Ġcurrent s
Ġrepl ied
Ġtext ile
Ġsuggest ions
Ġcompet itors
Ġdou g
Ġprop ulsion
str ong
Ġ199 6
Ġclos et
Ġver bal
Ġport able
Ġsyn apses
Ġmarr i
Ġcontext s
Ġcheck list
Ġmeant ime
Ġthreat en
Ġwild er
Ġappear ing
Ġ201 3
Ġcard io
Ġquant ity
Ġmist aken
Ġkil os
Ġhom osexual
Ġsus an
Ġscr ipts
Ġexplore rs
Ġden y
Ġden ied
Ġexh ilar
Ġdar fur
Ġexpress ing
Ġaustr ia
iot ic
Ġsurround ings
Ġinvent ors
Ġfat ty
iber a
Ġiraq i
Ġmetap hors
Ġbackground s
Ġcontact s
Ġcogn ition
Ġnote book
Ġavoid ing
Ġepid emics
Ġepid emi
Ġmig raine
Ġrequire ments
Ġtour ism
Ġindic ation
Ġclick s
Ġattach ment
Ġmel ody
Ġcontract s
Ġbeach es
Ġdarwin ian
Ġimplic it
Ġbul k
Ġshut tle
Ġsetting s
Ġillustr ation
Ġillustr ates
Ġshall ow
Ġcourage ous
Ġperman ently
Ġtrig gered
Ġven ice
Ġexcell ence
Ġdrill ing
Ġwhist ling
Ġuns ustainable
keep ing
Ġinstinct s
Ġremem bers
wr iting
Ġmeg a
Ġneut r
Ġschol ar
Ġtrop ics
Ġattrib ute
Ġmargin s
Ġaesth etics
Ġvolcan o
Ġvolcan ic
Ġconfir med
Ġcompos er
Ġintrig ued
Ġeradic ate
Ġrabb i
Ġcorrespo nding
Ġanno y
aby tes
Ġoverl ap
Ġbatt les
grow ing
Ġencry ption
Ġrect angle
Ġrender ing
Ġwol fram
Ġech o
Ġexecut ives
Ġambig uity
Ġtreas ure
Ġkat rina
Ġtox ins
Ġbureauc r
Ġunderest imate
Ġconsp iracy
wom en
Ġpent agon
Ġlifel ong
Ġregist ered
Ġtunis ia
Ġtriang les
ithm etic
mass ive
Ġbm w
Ġexquis ite
Ġcompreh ensive
Ġimprob able
Ġsiber ia
resist ant
Ġpneum onia
Ġbelo ved
Ġirrele vant
Ġvenezuel a
Ġincons ist
Ġeros ion
Ġhippocamp us
Ġexcus es
Ġtaiw an
Ġdyl an
Ġunimag in
Ġadja cent
b as
f und
g iving
g aret
h ome
h igh
h mm
h ouses
j u
k ers
m ach
p it
s en
s is
s ix
t ion
v ana
w a
w andering
z o
Ġ +
Ġa us
Ġw il
Ġw ander
Ġw olves
Ġs i
Ġs r
Ġo reg
at us
at ical
Ġc c
Ġc ue
Ġm cc
Ġm erm
Ġh g
Ġh ats
ing o
Ġp ine
Ġp ets
ll er
ar in
Ġg ru
Ġg ira
Ġn ud
Ġn ba
om on
as er
Ġe ag
Ġre agan
ver bal
all ing
Ġst ated
id ity
Ġhe b
Ġhe ct
Ġan ch
Ġdo ct
im ic
th en
Ġk ibera
Ġab used
Ġwor ries
ul ates
Ġmy st
Ġpro l
Ġpe e
Ġv apor
Ġsp ra
Ġtr ump
Ġsa ves
Ġen vy
Ġsu g
our ced
Ġcomp uls
ast ian
Ġun ne
Ġdon ation
Ġqu iz
Ġev ident
Ġam put
Ġam ino
Ġcl icking
Ġar ises
Ġpo ets
Ġneed less
Ġover t
Ġover look
Ġbu nd
Ġro oted
Ġback ward
de g
Ġsy d
Ġbl ad
Ġlet t
Ġinter medi
Ġinter depend
Ġpre jud
Ġsc uba
Ġfl own
ress es
Ġsm iles
Ġgr ief
Ġtra it
Ġtra ff
Ġdec omp
Ġown s
Ġbo iling
ty pe
Ġcreat ors
Ġrel i
Ġcoll ar
Ġmon opoly
Ġla zy
Ġpol and
Ġnum b
Ġmed ieval
Ġcent r
Ġcent imeter
Ġdevelop er
Ġlight weight
Ġel ites
Ġbook st
Ġca iro
Ġhand y
Ġintern ationally
Ġpass engers
Ġpop ped
Ġeas ter
Ġeduc ating
Ġfore ground
ott o
Ġsou ls
Ġge ese
Ġfil es
Ġmust ard
Ġ6 4
Ġret rie
Ġ9 6
Ġ9 7
Ġmess aging
Ġris d
Ġve nding
Ġmar garet
Ġfocus es
Ġdel ta
Ġlim itation
Ġimpro ves
Ġ18 00
Ġground ed
Ġtransform s
sh ot
sh irt
Ġur ine
Ġrequ ests
Ġbar ack
Ġarm or
erm ore
Ġball oons
Ġprom otion
omet ers
Ġperiod ic
Ġvari ability
Ġcross es
Ġstar vation
Ġrepresent atives
Ġspir its
Ġthreat ening
Ġbank er
Ġban jo
Ġmagn ets
Ġ11 0
Ġdetect ors
Ġpack aging
Ġger ms
Ġcook ed
Ġthrow s
Ġfra ud
Ġachieve ments
Ġcalcul ator
Ġhom in
Ġ198 9
Ġinterview ing
Ġemploy ed
Ġtur b
Ġliber ation
Ġenjoy able
Ġhall way
bel ief
Ġindustrial ized
Ġoptim al
Ġken yan
Ġswitch es
Ġreflect ing
Ġje ans
Ġprev ented
Ġacad emics
Ġadvant ages
Ġancest ry
Ġcounter part
Ġcounter intuitive
Ġlin ux
lin ear
Ġax es
Ġmer ch
amb ia
Ġinvestig ating
Ġstock s
Ġpaul o
Ġantib odies
Ġsla ughter
Ġcartoon ist
Ġmira cul
Ġring ing
Ġexec ution
Ġoccup ied
Ġacqu is
Ġ196 8
Ġadvent ures
Ġpin point
Ġcritic ism
Ġip ad
Ġjer sey
Ġlens es
Ġshell s
Ġaqu arium
Ġweigh ed
Ġinject ion
Ġelim inated
Ġcarr ot
Ġtwe ets
Ġmanufacture r
Ġrecru ited
Ġsettle ment
Ġol ive
Ġcryst all
Ġmanifest ation
Ġtut or
Ġcert ified
Ġscott ish
Ġsynthes ize
Ġrestrict ed
Ġshrink ing
Ġrabb its
Ġindo ors
Ġscholars hip
Ġarrange ment
Ġdrown ing
Ġgerm ans
Ġamate urs
Ġtrail er
Ġintrins ically
Ġpir ate
Ġenzy me
Ġorphan age
Ġorb iting
Ġexhaust ed
Ġneuroscient ists
Ġbiolumines cence
Ġcurt ain
Ġcultiv ate
Ġingen uity
Ġpresum ably
Ġcraw ling
Ġmead ow
Ġswallow ed
Ġthylac ine
Ġthro at
Ġtort ured
Ġster ile
Ġimagin ative
je opardy
Ġreh ears
Ġvin ci
hell o
Ġhimalay as
Ġimprovis ation
Ġrespir atory
appro pr
Ġuran ium
Ġoffsh ore
Ġinade quate
Ġexcer pt
Ġsput nik
Ġroo ft
Ġguate mala
Ġevergl ades
Ġcardio vascular
Ġoreg on
Ġunne cess
- '
a ic
b en
b ucks
g on
h ill
m ob
p op
Ã ³
Ġt ad
Ġt ales
Ġt ipping
Ġa ar
Ġa ust
Ġi ke
Ġw iz
Ġw iring
Ġs j
Ġs ank
Ġs ony
Ġs ri
Ġc asc
Ġb og
Ġb ass
Ġb ak
Ġm ite
Ġm ism
Ġp ope
Ġto ps
on ly
Ġf m
Ġf t
Ġf use
Ġf ade
Ġf ission
Ġg um
ve t
Ġbe ep
Ġre connect
Ġon c
st al
ig ate
Ġhe el
im ated
Ġu ber
Ġli vel
op sy
Ġk im
Ġk itt
Ġse iz
Ġse aled
Ġcan e
Ġas ym
Ġj ury
Ġj acqu
ol s
ol is
Ġcom a
Ġr l
Ġr us
ill in
ant ing
il ia
Ġma gg
Ġal f
if lu
ind ustrial
Ġint est
Ġsp ear
Ġsp ills
od s
Ġtr unk
Ġup s
Ġup wards
Ġpl acing
iv able
Ġco herent
Ġta ils
Ġta gging
Ġle aks
iz able
Ġun ve
Ġdon ations
Ġqu ar
ab ad
Ġexp ands
Ġag nes
Ġcl ap
Ġright ly
Ġpr ies
Ġar ithmetic
Ġpo etic
Ġbu ys
own ed
ass y
Ġph thal
Ġdes criptions
Ġres h
co al
Ġind ul
ph al
Ġdifferent iate
Ġreal izes
ark s
Ġfl op
Ġcar cin
Ġhuman e
Ġapp ar
Ġapp rent
Ġinv ade
Ġinv asive
ft s
te br
av en
Ġperson nel
Ġke lly
Ġexam s
Ġmon ument
Ġstory cor
Ġpol es
Ġcent imeters
Ġlearn er
Ġdevelop s
Ġmin eral
Ġ5 8
Ġ5 9
Ġsub urb
Ġacc idental
Ġreg imes
pr ot
Ġchar coal
Ġsw ear
Ġmonth ly
Ġpop ping
Ġsign ing
ogra phing
Ġrese mble
Ġpar agra
oc ate
ash es
Ġunt ouch
Ġcost ly
Ġge cko
Ġdev ised
Ġfriends hips
Ġaud itory
Ġmic row
Ġfollow ers
Ġret ired
Ġve il
Ġste in
Ġmar x
Ġmar cus
Ġ8 2
Ġliter ary
Ġvar ied
ret t
Ġpresent ations
Ġrich ness
Ġstrong est
Ġvers a
osp her
Ġtele phones
Ġpoll s
Ġest rogen
Ġpolic ing
Ġreact ing
Ġec st
Ġfair y
Ġdin ing
Ġtrust ing
Ġtrust worth
Ġfunction ality
Ġast ounding
Ġtable t
Ġsyn c
Ġstar bucks
Ġprogress ive
Ġtransl ates
Ġrespect s
Ġsecret ly
Ġsus cept
Ġremind er
Ġautom ated
Ġautom otive
Ġtun as
Ġmethod ology
Ġdar pa
Ġsimpl istic
Ġ197 3
Ġdesert ification
Ġhistor ian
Ġmos es
cons um
Ġnovel s
Ġfrequ ent
Ġmur ray
Ġstock p
Ġimplic ation
Ġcompl ained
Ġpoo rer
Ġsen ate
Ġjan itor
Ġjack et
Ġcub ic
Ġles bian
Ġunex pl
Ġcommand ments
Ġminim ize
Ġath lete
organ izing
sa ving
Ġinput s
Ġaug mented
Ġabsor bed
Ġdatab ases
Ġjul ia
Ġrush ed
Ġignor ant
Ġtransfer red
Ġanticip ated
Ġconstrain ed
Ġflood ing
Ġstere o
Ġbron ze
Ġelev ated
Ġmaxim ize
Ġconven ience
Ġaer ial
Ġfulf illing
Ġdump ed
Ġextrem es
Ġchristian ity
Ġcliff s
Ġintegr ating
Ġhier arch
Ġskept ic
Ġaspir ation
Ġnick n
Ġpione er
Ġfract al
Ġstunt s
Ġhind u
Ġtroub led
Ġdrown ed
Ġupload ed
Ġpref erences
Ġstimul us
dis cipl
Ġtam iflu
Ġdun es
Ġguid ance
Ġhumil iation
Ġbiolumines cent
Ġzip car
Ġincorpor ate
Ġappe aling
Ġfluctu ations
Ġsymp athy
Ġjun ior
Ġacknowled ged
Ġinsec ure
Ġoutrage ous
pos itive
Ġmun icip
Ġtod d
Ġfavel as
Ġsuperher o
Ġfou nder
Ġfurth ermore
Ġlem on
Ġhud son
Ġgoss ip
igra de
munic ations
Ġskys cra
Ġbiote ch
Ġdecentral ized
Ġoverse as
Ġultras ound
Ġhypothet ical
Ġdall as
Ġpenic illin
Ġmarri ages
imic ry
deg ree
Ġsyd ney
Ġstorycor ps
Ġparagra ph
1 8
b ear
b ound
b ell
f re
f if
f ting
g her
h ou
h ire
i kes
i hood
j i
k ill
p ical
p able
p ons
r ust
u ci
w atch
w estern
Ã £
Ġt ense
Ġa le
Ġa uction
Ġi van
at ized
nd or
Ġc el
Ġc ia
Ġc ern
Ġb c
Ġb il
Ġh unch
Ġp ads
Ġf ount
Ġd angers
es ters
Ġin h
Ġl ent
Ġl ava
ar ity
Ġg ib
Ġn ik
Ġn ests
Ġn ih
om in
al ities
us ively
ot r
et ically
Ġre un
Ġre bel
Ġre ndered
ver ing
Ġso ber
ro ve
ro vir
Ġst akes
st s
ch et
Ġhe ated
ke l
Ġfor aging
Ġdo do
im ental
Ġli ed
op ing
Ġab usive
Ġmo la
Ġj l
Ġne ph
Ġme ll
Ġch uck
Ġnot ation
Ġr ipp
Ġr ift
Ġr ipped
Ġex x
Ġv iv
Ġv icious
Ġout ward
Ġtr illions
Ġby product
og ene
Ġim f
el ing
el ve
Ġhad ron
Ġtim eline
Ġen cl
ast ically
Ġun ple
Ġun think
Ġun aware
ab e
res olution
Ġexp end
Ġtw elve
Ġcl ut
Ġcl aws
Ġcl apping
iff erent
Ġpr istine
ip er
so cial
Ġro de
Ġimp at
olog ic
Ġsy ring
Ġunder way
co ck
Ġide o
Ġra v
Ġfl ame
Ġinc omes
Ġgen ital
ob i
Ġcar n
ious ly
Ġbas in
Ġins ign
Ġsl ot
Ġsl ices
Ġfound ers
Ġpol ite
Ġcommun ist
Ġquestion ed
Ġbi ode
Ġbeh aving
Ġread s
Ġrep ly
Ġcap acities
Ġwar n
Ġgener ator
Ġcor p
Ġpres ervation
Ġacc used
Ġfun g
Ġfu ck
Ġcur ved
Ġval ve
oc ative
Ġmil it
Ġpay ment
Ġpay load
Ġview ers
Ġret ain
Ġret rospect
Ġarch ives
Ġprov iders
Ġste ak
Ġste ering
Ġmiss ile
Ġmar ia
Ġnorm an
Ġbra kes
Ġpred atory
Ġdifficult ies
Ġes p
Ġpot ter
Ġsuper computer
Ġextra ction
Ġshort age
Ġer ase
Ġeurope ans
Ġgrand ma
Ġperfect ion
Ġap oc
Ġemb assy
Ġcy n
sh aring
Ġbill board
Ġvol at
Ġce ase
Ġcrit ics
Ġredu nd
Ġcomb ining
Ġcolor ado
Ġmount ed
Ġpost c
Ġpoll inators
Ġexcept ional
Ġavail ability
Ġconcept ion
Ġpark ed
aw a
Ġfair ness
Ġled s
Ġsmart est
Ġver onica
Ġport land
Ġprim al
Ġhit ler
Ġvirt ues
Ġrece ives
Ġbal d
Ġbal ancing
Ġsupposed ly
Ġdro ple
Ġdiag nostics
Ġmis con
Ġcentral ized
Ġ198 5
Ġ198 6
Ġara bs
Ġemail ed
Ġtur tle
Ġmut ually
Ġod ys
Ġdepend ed
Ġoffic ially
Ġtens ions
Ġ197 6
Ġswitch ing
Ġinvent ing
Ġhack ed
Ġbreast s
Ġcommercial s
Ġep ic
Ġmotor cycle
Ġdisp osal
Ġreve aling
verse ly
Ġrot ating
Ġcrash ed
Ġmer c
Ġfinger print
Ġfellow s
Ġbelong ing
Ġbon o
Ġrub ble
Ġrecon st
Ġbee keepers
Ġcolon ial
Ġpakistan i
Ġnav y
Ġchart s
Ġclaim ed
Ġcast le
Ġru in
Ġextract ed
Ġles ters
Ġhypoth eses
Ġaff irm
Ġestablish ment
sa fe
Ġcritic ized
Ġreci pes
Ġfert ility
Ġencoun ters
Ġfootprint s
Ġstro kes
Ġinterf ere
Ġsed iment
Ġelim inating
hr an
Ġflood s
Ġairport s
Ġder iv
Ġtoler ate
Ġsuck ed
Ġtitan ic
Ġwip e
Ġaer ody
Ġevalu ation
Ġviet names
Ġemphas is
Ġol iver
Ġdisag re
Ġinvolve ment
Ġjoint s
Ġstab ilize
Ġdeliber ate
Ġsew age
Ġbrows ing
Ġdistract ed
Ġblo om
Ġbroadcast ing
Ġenlight ened
Ġpreval ent
char ge
Ġvictor ian
grow th
Ġgif ted
Ġbless ing
Ġguid elines
Ġmurd ered
Ġneuroscient ist
Ġartic ulate
Ġpenet rate
Ġannounce ment
Ġflick r
Ġstrain s
Ġrac ism
Ġtransist ors
Ġcareg ivers
Ġimmort ality
Ġdele g
Ġscal able
Ġbonob os
Ġadolescent s
Ġcaf eter
Ġsuperno va
Ġperipher y
Ġescap ed
Ġware house
Ġoy ster
Ġfont s
Ġpav il
Ġcn n
may be
Ġdesal ination
Ġbrow se
Ġinexp ensive
fashion ed
Ġseb astian
Ġdegrad ation
Ġepiphan y
Ġpeps i
Ġmerm aid
Ġike a
Ġlivel ihood
ospher ic
Ġunple asant
Ġvietnames e
_ _
a cious
c ils
g ath
h ir
i ary
l ived
m ies
r r
r ise
s ky
t an
t ar
t un
y er
Ã ¨
Ġt il
Ġt ire
Ġa i
Ġa y
Ġa wards
Ġthe sis
Ġs ars
ou b
Ġb p
Ġm p
Ġm ong
Ġm ites
Ġh ull
ing ly
Ġand y
Ġp s
Ġp ension
Ġd d
Ġd ude
Ġd enom
an or
Ġl ur
Ġl ank
ar se
Ġg room
Ġwe ep
Ġn ancy
Ġbe ans
Ġbe ats
Ġre ver
Ġre use
Ġre imag
Ġha unt
ro id
Ġst ink
Ġst ain
Ġst ole
Ġst agn
st ra
st art
st ood
ur i
ur p
Ġhe ars
ra pe
Ġan om
Ġdo ve
Ġu m
Ġli b
Ġli p
th a
op lan
Ġk han
am ation
am il
am ents
Ġj r
ol ia
Ġwor n
Ġne v
Ġat raz
Ġme mo
Ġr g
Ġr ows
ge l
Ġex oplan
Ġpro ves
Ġde lete
Ġpe pper
Ġcon form
art ic
Ġma id
Ġv as
Ġv ents
Ġte hran
Ġsp am
Ġup grade
Ġpl ural
Ġpl otted
ci le
Ġle v
act ed
Ġun cover
Ġun health
Ġqu arters
Ġag nostic
Ġmake up
Ġdiff usion
Ġar tery
Ġover d
Ġover weight
Ġpart ially
Ġdis com
Ġdis sem
Ġdis belief
ia lect
vel ing
Ġind ef
other mal
Ġdown stairs
Ġide ally
Ġinter cept
Ġpre con
pl aces
Ġsc rib
Ġsc rap
Ġra g
Ġem an
Ġem ma
Ġfl ap
Ġfl ipped
ress ive
Ġcar ve
Ġcar ved
ile o
Ġbo il
Ġcr ush
Ġdr ank
Ġsl ate
Ġsl ipp
Ġbit es
Ġpol ish
Ġcommun al
Ġstr ipped
Ġmod ular
Ġser oton
Ġcell ul
Ġmove mber
ative ly
Ġanim ated
Ġpres cribe
Ġreg ain
Ġwalk er
Ġhead ache
Ġhead aches
Ġjo el
Ġsw ell
Ġpop ulated
Ġphot ographing
Ġref ers
Ġref erences
Ġrest oration
Ġwatch es
Ġted ster
Ġge or
Ġge ek
Ġcond em
aterial s
Ġresult ed
Ġexc av
Ġfree way
Ġsun ny
Ġprov in
Ġleg os
rop ortion
Ġ7 3
Ġdep ict
Ġmeas urable
Ġill iterate
Ġsuper power
Ġextra cellular
Ġhands ome
Ġtrad ed
Ġident ification
Ġperform ers
Ġperform ances
Ġground s
Ġmult im
Ġbar ry
Ġpredict s
Ġcamer on
Ġprin cess
Ġunf inished
Ġunf amil
Ġball et
Ġpost s
Ġvisual izing
ban isha
Ġarr anged
aw att
Ġsyn esthesia
Ġcapt uring
Ġvision ary
Ġpan banisha
Ġstar ving
Ġactiv ism
Ġmal d
Ġneighbor ing
Ġclean er
ey e
Ġtransl ating
Ġfreed oms
Ġwaste water
Ġpack aged
Ġign oring
Ġpal ace
Ġatm ospheric
Ġtur tles
Ġdeterm ination
Ġten nes
Ġstandard ized
Ġsimpl ify
Ġradio active
Ġconcl uded
Ġhus bands
Ġiran ians
Ġphotos hop
mark ets
Ġhost s
af ric
Ġindic ators
Ġfis cal
Ġcro chet
Ġdefe nding
Ġtap est
Ġdisc ou
Ġcosm ology
Ġrein force
Ġgang s
Ġconduct ing
Ġcontinu um
Ġcontinu ity
Ġgal ileo
Ġtoy ota
Ġbare foot
Ġsuit able
Ġcontain ers
Ġcub an
Ġdecl ined
Ġoccup ation
Ġdomin ance
Ġmand ate
Ġox ide
Ġsevere ly
Ġrig orous
Ġtrig gers
Ġdece ased
Ġmemor able
Ġment ality
Ġnurs ing
Ġexplos ions
Ġinterf erence
Ġpharm ac
Ġinstinct ively
Ġder ived
Ġstretch ed
Ġdict ator
Ġprem ature
Ġbudd h
Ġdu ke
Ġvibr ant
Ġexplo itation
Ġyield s
Ġspr ings
Ġerad icated
Ġquad r
Ġrail road
Ġdim in
Ġwet lands
Ġcham bers
Ġintention al
Ġobl iv
Ġobl igation
Ġpale ont
Ġhelicop ters
Ġcommission ed
Ġpersist ent
Ġvolcan oes
Ġimmense ly
Ġgy rus
Ġrestrict ions
Ġsubstant ially
Ġpercept ual
Ġgenuine ly
Ġune qual
Ġtattoo s
Ġtin iest
Ġathe ist
Ġsidewalk s
Ġconqu er
Ġembry onic
Ġcass ini
Ġtelecom munications
Ġlingu istic
Ġrecre ate
Ġiv ory
Ġmant ra
Ġade quate
Ġcoch lear
Ġtransist or
gener ated
bag s
Ġsweep ing
Ġinhabit ants
Ġdood ling
Ġcasual ties
Ġinn ate
Ġresident ial
Ġsimul ator
Ġmanus cript
Ġsubsequ ently
Ġshuff le
Ġcum ulative
Ġbore al
Ġthorough ly
Ġsubmar ine
Ġdeter ior
Ġincon ven
Ġlak ota
rend ip
Ġlandf ill
Ġisa ac
Ġcertific ate
Ġgord on
Ġwilder ness
Ġheb rew
appropr iate
Ġmism atch
Ã£ o
Ġexx on
Ġfung us
Ġatraz ine
Ġunfamil iar
Ġtennes see
b urn
c ro
c ke
c atch
e or
e ffective
h o
h ed
h uh
i eth
l ene
m r
m us
n amic
o ys
r it
u ay
v oc
w right
Ã ¶
Ġt ang
Ġa is
Ġa ce
Ġa ph
Ġw ag
Ġthe at
Ġthe rape
Ġs ie
Ġs weeney
re ally
at ics
at ma
Ġb oun
Ġm ou
Ġm itch
Ġm ba
Ġm otto
Ġh es
Ġh ive
Ġh oc
Ġh ives
en z
en za
Ġp ly
Ġp am
Ġp ies
Ġto b
Ġto aster
Ġd une
Ġd war
Ġd urable
Ġd airy
or ig
Ġl atter
Ġl ining
ed e
is ive
Ġy o
Ġy ves
ar os
Ġg ently
Ġg aza
Ġn ash
as so
Ġwh irl
ic us
le um
Ġe uros
Ġre ed
Ġso b
Ġso ils
ro ck
ig ent
ch ange
Ġfor age
Ġan esth
ir y
Ġli king
Ġk er
Ġk ay
Ġk ap
Ġse rendip
Ġab ys
Ġcan t
Ġas yl
Ġmo ons
Ġsh ook
Ġsh ade
Ġsh attered
ol as
ad d
ad us
Ġr ng
Ġall e
ter ior
Ġfr an
ul ously
Ġor al
Ġpro ving
Ġpe l
Ġma ze
Ġal ab
Ġv od
Ġte ap
os cope
ci a
og y
Ġim itate
el and
Ġen cel
Ġle vers
iz zy
act ivity
Ġper f
Ġper me
Ġun ite
Ġqu ot
Ġqu oted
ab s
Ġexp osing
Ġfe athers
ip e
Ġback ed
Ġback up
Ġcont aining
ber to
Ġbl ues
Ġbr ute
Ġdown s
Ġpre st
Ġsc ru
Ġsc ram
Ġra ge
Ġra bbit
Ġfl ames
ob al
ath e
we ek
Ġapp end
ac ci
ac ulture
Ġrem ed
Ġbo ot
Ġend uring
Ġend lessly
Ġcr an
Ġunderstand able
Ġ3 9
Ġbelie ver
ros h
Ġter restrial
Ġmod ify
Ġlearn ers
Ġed en
Ġed ible
Ġel astic
Ġsk ate
ah s
Ġenerg etic
Ġconf ession
Ġgre ed
vir us
Ġty r
Ġprot on
Ġprot ons
oc cup
Ġeffect iveness
Ġfore ns
Ġfore head
Ġche er
âĢ Ķ
âĢ Ŀ
Ġadv ancing
Ġworks hops
Ġcra ving
Ġcra bs
Ġincre mental
Ġ6 8
Ġview point
Ġav iation
Ġ9 3
Ġcollect ions
Ġ7 8
Ġprogram m
Ġdem ol
Ġmot ions
Ġprotect s
Ġeuro pa
Ġsqu ir
ĠâĢ ľ
Ġtem p
ipp er
Ġess ay
Ġ18 8
Ġemb ark
Ġsurv ives
Ġconv ent
Ġprofess ions
Ġenc oded
Ġur gency
Ġmult it
Ġdest ined
Ġarm strong
Ġsho res
Ġpa w
Ġir ish
Ġfilm makers
Ġexperiment er
Ġach illes
Ġguess ing
Ġcompet ent
Ġrul ed
Ġmechan ically
Ġeye br
Ġrain water
Ġver tically
Ġdefin itions
Ġprim ord
Ġcapital ist
Ġbur nt
Ġcharacter ized
Ġpan the
Ġcris es
Ġparticip atory
Ġmob ilize
Ġx l
Ġtom b
Ġhur ry
Ġswe pt
Ġprint s
Ġwestern ers
Ġcontrib ut
Ġdeterm ining
Ġtit us
Ġexpress ive
ches ter
Ġpet ri
Ġtax pay
Ġdispl ace
Ġje al
Ġanaly tical
Ġcontact ed
Ġmad ness
Ġmort gage
Ġcred ible
Ġrepe ating
af ter
Ġdisp roportion
Ġnan ot
Ġweak er
Ġdefe ated
Ġfrag mented
Ġaccident ally
Ġreward ed
Ġfif teen
Ġstim ulated
Ġdisc rete
Ġdisc ourse
Ġbul gar
Ġpray ers
Ġrecon cil
Ġsurf ing
gl obal
Ġmanip ulated
Ġremo ving
Ġseason al
Ġconver gence
dr iving
Ġcomment ary
ym ph
Ġembarrass ment
Ġaug ment
Ġscar city
Ġcircuit ry
Ġq atar
Ġmim ics
Ġconcert s
wr ite
Ġcollaps es
Ġther m
Ġtraum atic
Ġrebuild ing
Ġblank et
Ġdevast ated
Ġreb ell
Ġfertil izers
Ġmonit ored
part y
Ġcryst als
Ġduck s
Ġenterpr ises
Ġnom ad
che ck
Ġlap aros
conf idence
Ġspons or
Ġcree py
Ġintim id
Ġbot an
heart ed
Ġsubsid ies
Ġneander thal
Ġmah atma
Ġprotocell s
Ġcontam inated
Ġturk ish
Ġmarsh all
Ġdrif ted
Ġchew ing
Ġfried man
Ġdispar ate
psy ch
Ġinfer ior
Ġglo ves
Ġretro f
Ġimmort al
Ġnarc iss
Ġporn ography
Ġorth od
Ġjur is
Ġguerr illas
Ġastronaut s
Ġcolom bia
Ġaccommod ate
Ġintric ate
Ġalar ming
tim ore
Ġsubmers ible
Ġempir ical
Ġphotosynth esis
Ġargu ably
Ġprag matic
Ġadul thood
Ġantidepress ants
Ġlester land
Ġrhet oric
Ġarter ies
Ġtou gher
Ġtig ers
Ġcompat ible
Ġunimagin able
fund ed
Ġrus sell
Ġinsign ific
Ġnev ada
Ġunhealth y
Ġdiscom fort
Ġseroton in
Ġmald ives
Ġtherape ut
Ġencel adus
a is
a ism
c ult
c ular
d iv
d em
d iving
e ve
f at
g ression
g reen
h ear
l it
l apse
m ap
m ud
m ath
m ake
m oud
n ote
o qu
o king
p ool
r idge
s l
t ension
u ces
w orm
w ash
w ashing
Ġ =
Ġt m
Ġt ay
Ġt ires
Ġt roll
Ġs erg
at is
at able
ou ver
Ġc s
Ġc ured
Ġb ion
Ġb bc
Ġm op
Ġm attered
Ġh id
Ġh ann
Ġp ave
on ics
on acci
Ġf itting
Ġf ences
Ġd ual
Ġd ialect
Ġof tent
ll i
Ġl amb
Ġl ymph
it ious
ar the
Ġg ab
Ġg ears
Ġn od
om er
as k
as is
Ġwh il
ic er
le m
le gged
le gic
al o
al one
Ġbe nding
ow ed
Ġre arr
Ġre ception
Ġon set
ent h
Ġso f
ro cket
Ġst all
Ġst am
Ġst iff
Ġst ub
Ġst arch
Ġst irling
ig e
ur ge
Ġfor agers
ra ged
Ġdo o
ir th
Ġgo ose
op es
Ġk s
Ġk al
Ġk ur
Ġcan s
Ġmo ck
Ġj ets
Ġj ama
Ġj enn
Ġj aws
Ġsh ru
Ġch unks
Ġr sw
Ġall eg
ge nder
Ġfr ing
Ġex tending
Ġex tends
Ġpro xy
Ġpro lif
Ġ" ]
art s
Ġv anc
ist rib
Ġte ens
od d
Ġim itation
Ġim balance
Ġen roll
Ġsu nd
Ġcomp art
Ġco con
Ġta hr
act ion
reat ing
ose vel
Ġman s
Ġun ch
Ġun ra
Ġdon ate
Ġev olves
Ġcl ash
Ġcl oned
ip otent
Ġro y
Ġro osevel
Ġimp osed
Ġmu ll
de c
Ġcont ra
Ġdes irable
ell ers
Ġsy rian
Ġunder cover
Ġbr icks
Ġdifferent ial
ish es
Ġpre tending
Ġsc our
Ġsc iss
Ġra chel
Ġem ission
Ġfl ush
pe er
Ġgr ie
Ġgu ests
we ed
Ġfo nd
Ġbas ics
Ġgl or
Ġgl enn
Ġbo ils
Ġcour ty
Ġthought ful
Ġcreat ively
Ġgra ves
Ġgra ham
Ġke l
Ġcr own
Ġdr ied
Ġmon sters
Ġpower fully
Ġsol itary
Ġcommun ism
Ġmed al
Ġstr ips
Ġter ra
Ġmod es
Ġmod ules
Ġcent igrade
Ġfin est
Ġser ial
Ġmet ast
ger y
Ġameric as
cept ions
Ġsupp l
Ġsupp ress
Ġsub conscious
Ġpres idents
Ġpres erving
Ġcompan ion
Ġfut ures
Ġconf use
Ġchar ism
Ġchar iot
Ġsw arm
Ġsoci oe
Ġside ways
Ġval ent
Ġmid west
Ġaut obi
Ġprof iles
Ġnothing ness
Ġfore most
Ġrest ing
Ġtest imony
ins p
Ġpain s
Ġdev ote
Ġdra ft
Ġdra gging
Ġpay off
Ġfil ed
Ġfil ming
Ġresult ing
Ġfront iers
Ġav ian
Ġmess ed
Ġpos it
Ġhar lem
Ġprov ider
Ġhy gi
Ġunivers ally
Ġmar io
Ġ8 4
Ġpred omin
Ġda unting
Ġoil ed
Ġshort est
Ġtyp ed
Ġperform er
Ġserv ant
bo at
Ġsum med
Ġdirect ed
Ġbar g
Ġbar bar
Ġstructure d
Ġir reg
Ġstra pped
Ġvill agers
Ġexperiment ation
Ġrepl icated
Ġpath ogens
Ġgeneral ize
Ġpoll ination
Ġprop osing
Ġarr iving
asc ar
aw atts
Ġboy friend
Ġdom inate
Ġcarbon ate
Ġver bs
Ġeth n
Ġcapt ures
Ġvirt uous
Ġbal timore
Ġeffic acy
Ġrepresent ations
Ġfundamental ism
Ġdam aging
Ġclin ically
Ġcollabor ating
Ġassum es
Ġpassion ately
Ġdetect ing
Ġpack ing
Ġjud aism
Ġfram ing
Ġsus pected
Ġ198 2
Ġcontrib utes
Ġbroad band
Ġstrugg les
Ġfit ness
Ġmut ant
Ġinstr umental
Ġut il
Ġmamm ogram
Ġatmosphere s
Ġ197 4
Ġspeech es
Ġtrib ute
Ġlack ing
Ġbomb ing
Ġrom o
Ġble ed
mark s
Ġhost ility
Ġconcent rations
Ġpuzz ling
Ġattempt ing
Ġtough est
Ġrot ten
Ġgrandm others
Ġnan os
Ġchap el
Ġconstruct ive
Ġmer ge
Ġinstall ations
des igned
Ġcoal ition
Ġmel ted
bl ood
Ġbull ets
Ġlifet imes
Ġabst raction
Ġrecon cile
Ġreview ed
Ġgal van
Ġjack son
Ġru pe
Ġsuit case
Ġdisplay ed
Ġlength s
onym ous
Ġassign ments
Ġcircumst ance
Ġhol istic
Ġrefer ring
Ġconver ting
Ġcere al
Ġbiom imicry
Ġdesper ation
Ġbio chem
Ġsem inal
Ġcoord inated
Ġna ught
Ġpoly mer
Ġannoun cing
Ġantibiot ic
Ġvag ue
Ġdownload ed
Ġfib onacci
Ġexcl usively
Ġimper ial
Ġjes se
Ġcoach es
Ġdistrict s
Ġattend ed
Ġattend ance
Ġquad ru
Ġclar ify
sp ace
Ġfulf illed
Ġdump ing
Ġpul ses
Ġconce ive
Ġenh anced
Ġpupp y
Ġbol t
Ġcaps ule
Ġdigit ally
Ġdigit ize
Ġrent ed
Ġflour ishing
Ġtear ing
Ġnutrition al
Ġskelet ons
aze era
Ġtooth brush
Ġdub ai
Ġenthusi astic
Ġgi ants
Ġros ling
Ġtroub ling
Ġarrange ments
Ġpedest rians
Ġinterrupt ed
aby te
Ġvoy ager
Ġdivor ced
Ġlever aging
Ġencry pted
Ġimmig rants
Ġathe ists
Ġinher it
Ġcorrel ated
Ġpix els
Ġsne ak
Ġrevel ation
Ġmant is
Ġpla us
Ġadvers ity
Ġbonob o
Ġantenna e
Ġtechnic ians
Ġmater nal
Ġpiss ed
Ġpean uts
Ġcataly st
Ġprostit ution
Ġoccas ions
flu id
Ġdivid ing
Ġsavan na
Ġsubstit ute
Ġoak land
Ġmi ami
Ġdysfunction al
Ġcrocod ile
Ġobe y
Ġphilipp ines
Ġmatth ew
Ġperpetr ators
Ġhij ack
Ġmillise conds
Ġhumming bird
Ġexhilar ating
Ġprejud ice
Ġacquis ition
Ġbak ery
Ġasym met
Ġmicrow ave
Ġsuscept ible
Ġunthink able
Ġasyl um
Ġalab ama
Ġprimord ial
Ġserg io
Ġoftent imes
arthe id
Ġwhil st
Ġprolif eration
Ġvanc ouver
Ġtahr ir
Ġroosevel t
Ġsocioe conomic
Ġhygi ene
Ġirreg ular
. -
9 6
b ury
c ount
c ode
d ire
d oc
d ream
e at
f ed
f ar
f ishing
g ol
g ill
g ically
h ole
i ologist
l ink
m ic
n ity
n acle
r ists
s ook
u els
v ag
x im
y ll
Ġ #
Ġt ucked
Ġth urs
Ġa ld
Ġa ura
Ġi on
Ġw and
Ġw ool
Ġw igg
re f
Ġb um
Ġb art
Ġb ail
Ġh p
Ġh iring
en et
Ġp est
Ġp arr
Ġto fu
on ies
Ġf ilt
Ġd ated
Ġd ances
an cies
es ian
or ative
Ġl s
Ġl ousy
is p
is ure
is her
it re
it ters
Ġn ag
Ġit er
Ġe tern
Ġe po
Ġre lying
Ġso cks
ro cess
Ġst oring
st ru
st icks
ke e
Ġan k
Ġu v
th an
Ġk t
Ġk ent
Ġse ize
Ġab alone
Ġ-- "
Ġj ason
Ġj azeera
Ġsh iny
Ġne il
Ġr ut
Ġr ang
Ġr uth
Ġr iot
Ġr hy
Ġall ey
ter ror
Ġde em
Ġde ment
Ġcon e
Ġcon ve
ess or
Ġkn ight
Ġal i
Ġv ic
Ġv est
Ġv ien
Ġv enom
qu est
Ġsp oo
Ġsp ines
ie u
Ġup gra
iv ation
iv ate
iv ated
el ed
our i
Ġcomp ose
Ġle isure
Ġun m
Ġev an
Ġev ange
ag ne
ag ascar
ud a
ud ing
Ġam p
Ġcl og
ach er
Ġdiff use
Ġstart ling
fe ld
Ġimp osing
Ġlo ver
Ġkind ly
ib o
ib les
Ġac ron
ple x
Ġsy ll
Ġunder lies
Ġbr ink
ph em
int o
Ġdown stream
Ġcomm ander
Ġpre hist
Ġpre occup
Ġfl aws
Ġinc idents
ang iogen
Ġtra gically
Ġapp la
ac les
Ġbas sem
te chnology
Ġgl owing
Ġbo oms
Ġrel ational
Ġgra pp
Ġdr ip
Ġdr ums
Ġcons ol
Ġcoll ide
Ġsl ing
Ġsl ick
Ġ19 20
mo nd
Ġcent ered
Ġdat as
Ġ10 1
Ġatt or
iss ipp
Ġbi ography
Ġread ily
Ġrep orters
Ġposs ess
Ġproject ing
ah a
ah ren
Ġopen ly
Ġcou pled
Ġhand ling
ract able
gg y
Ġreg ulating
Ġgovern ed
Ġjo king
Ġchar ging
Ġz oning
Ġz eros
Ġdist ill
Ġdist raction
Ġmodel ed
Ġwa ving
Ġmor gan
Ġref ram
Ġboth ered
Ġche ated
Ġtreat ies
Ġheart beat
Ġass ured
Ġted dy
Ġdi y
Ġsince re
Ġconst ell
Ġquick er
Ġmess ing
Ġarch imed
Ġdeal er
uck er
he x
Ġant id
Ġhy un
icult ural
Ġmiss ouri
Ġmiss issipp
Ġ7 4
Ġmill s
Ġmill er
Ġfund ers
not hing
Ġsens ations
Ġrecord ings
Ġsuper star
Ġsuper massive
Ġsuper markets
Ġdel usion
Ġfish es
Ġ18 6
Ġdark er
year s
Ġspecial ize
Ġconv iction
sh ell
Ġpen ny
Ġsat an
Ġtechnolog ists
com ed
Ġcaus al
Ġsimilar ity
Ġmain frame
Ġball ot
Ġguess ed
Ġsn iff
Ġsn ail
omet ric
Ġfire fight
Ġreact ed
Ġast rol
Ġspeed ing
Ġtend ed
Ġadm in
Ġadm ir
Ġbal i
Ġdan ish
Ġparticip ant
Ġcomplic ations
Ġprogress ively
Ġsan itary
Ġsal ad
Ġsequ el
cuss ion
Ġx en
Ġsepar ating
Ġdiag rams
Ġpush es
Ġthanks giving
Ġpublish ers
Ġcook ies
Ġhop kins
Ġ17 0
Ġfram ed
Ġkil ogram
Ġroll er
Ġine ffective
Ġfasc ination
Ġdad s
Ġswe ating
Ġrespect ful
Ġ198 3
Ġsor row
bol ic
Ġlaugh s
Ġliber ating
Ġriver side
Ġtit led
unk y
Ġsimpl ified
uct ive
Ġblog gers
Ġsurround s
Ġmotiv ates
rench ed
Ġbrill iance
Ġbomb ed
Ġdemand ed
Ġmad agascar
Ġforg iveness
ha ired
Ġshel ters
hold er
Ġlock ing
Ġdefe c
Ġcognitive ly
Ġpun cture
Ġreward ing
Ġartific ially
Ġdisc ount
Ġstock hol
Ġbull do
Ġselect ively
Ġflat ten
Ġvent er
Ġdial s
Ġsen ator
Ġsen iors
Ġrecy cl
Ġmanip ulating
Ġqual itative
Ġgal ois
Ġextract ing
Ġreven ge
cont in
Ġwel comed
Ġregard ed
Ġlas ers
Ġimpl ants
Ġreci pro
Ġdiplom atic
Ġintense ly
Ġpump ing
Ġpill ar
Ġwhist les
Ġaqu aculture
rog ram
Ġdeploy ment
Ġ[" '
Ġorchest ras
Ġgam ble
Ġaston ished
wr iter
Ġwal ter
Ġwal mart
Ġchamp agne
Ġaccum ulation
Ġsandwich es
Ġanthrop ology
Ġanthrop ologists
Ġanthrop ologist
Ġpsychiat ry
Ġpsychiat rist
Ġaim ed
Ġveter an
Ġborrow ed
Ġlob es
Ġintuitive ly
Ġperpet ual
Ġ195 7
Ġpersist ence
Ġsevent y
Ġadap ting
Ġlit igation
Ġexped itions
Ġphysi ological
Ġ191 8
Ġtut oring
Ġpubl isher
Ġtunnel ing
Ġlean ing
Ġmembr anes
tr ans
Ġshore line
Ġtwist ed
Ġregener ative
Ġspons ored
Ġipod s
Ġexcess ive
Ġfox o
Ġkar l
Ġdy e
Ġproph et
Ġmah moud
Ġjon as
Ġimpul ses
Ġembry o
Ġambig uous
Ġdread ful
Ġbureauc racy
Ġbiof uels
Ġly ric
Ġblob s
Ġillum ination
Ġingen ious
Ġgran ny
Ġvib rate
Ġresur rect
Ġtechnic ian
Ġanecd ote
Ġpean ut
Ġloyal ty
Ġstun ning
Ġdens er
Ġosc ar
Ġbert ie
Ġnaz i
Ġunderm ine
Ġreserv oir
Ġrepet itive
Ġdeci pher
Ġscand al
Ġstrat osphere
Ġpessim istic
Ġindirect ly
Ġinqu iry
Ġperse ver
Ġtread mill
educ ated
Ġincub ator
Ġepile psy
Ġlegitim acy
Ġrept iles
Ġmoist ure
Ġsanct uary
Ġacadem ia
squ are
Ġcompr ised
Ġamph ib
Ġreluct ant
Ġaur ora
Ġbah amas
Ġdian a
Ġannoy ed
Ġbookst ore
Ġmiracul ous
Ġaar on
Ġalf red
Ġphthal ates
Ġappar atus
prot ected
Ġnickn ame
Ġapoc aly
Ġreconst ruction
Ġaerody namic
Ġpavil ion
Ġrever ber
Ġply wood
Ġconvent ions
Ġpanthe on
Ġreconcil iation
Ġtay lor
Ġjenn ifer
Ġsciss ors
Ġthurs day
Ġacron ym
angiogen ic
Ġmississipp i
Ġstockhol m
- ,
2 4
9 5
b illion
c orn
c ats
d et
d ies
d ling
d rop
d ala
e en
e enth
f ro
g rou
g dala
l ance
l av
l iving
m id
n als
n ational
p owers
r ates
s er
s olving
t own
t ered
t rovir
u z
u ke
u ation
v ention
w w
w ill
w ild
Ġt us
Ġt ub
Ġt icking
Ġt roph
Ġa ver
Ġa pt
Ġw ob
Ġthe or
Ġs Ã£o
re ach
Ġo min
in ition
nd rous
Ġc ough
Ġb ark
Ġm ck
Ġm our
Ġp ard
Ġp ots
Ġp uls
Ġf ills
Ġd g
Ġd or
Ġd ice
an imate
Ġin ability
Ġy ah
it ories
Ġg n
Ġg le
Ġg ill
Ġwe ars
Ġn m
Ġn un
as ma
Ġit eration
ic ion
ic ular
ic ides
al in
al an
Ġbe ver
Ġbe ard
ot ics
et ine
Ġon ion
Ġha ul
Ġso cket
se ud
ro ads
Ġst ance
id ays
ig ible
ch i
Ġhe f
Ġhe x
Ġfor wards
Ġan as
im m
im ps
Ġli z
Ġk ang
am y
Ġsh ah
Ġat tending
Ġnot orious
Ġr ally
Ġr ica
il er
Ġfr anch
Ġpe ll
Ġcon gol
Ġma o
Ġkn ives
Ġal be
if iable
Ġus able
Ġus da
Ġint ol
Ġint ractable
and an
Ġact ed
iv ores
Ġen list
Ġsu ed
Ġsu ey
Ġco co
Ġco hen
Ġman ure
Ġper t
Ġun lim
ans hip
Ġwhere by
Ġag on
Ġar sen
Ġpo nds
Ġimp air
Ġdis in
Ġdis integ
Ġmu ff
Ġmu bar
de ath
ater restrial
Ġph ases
sel s
Ġbl unt
Ġbl aming
ph il
Ġher b
int end
ire trovir
Ġsc ars
Ġem itted
Ġfl ipping
Ġfl ashing
ak i
ob ia
ath etic
pe ech
Ġgu est
Ġgu iding
ac co
Ġsystem ic
Ġbuild er
Ġsim ulations
Ġdec oration
Ġfo st
Ġcr unch
Ġcr ipp
Ġtrans ce
Ġexam ining
Ġmight y
Ġmon ks
Ġmon itors
Ġplan ner
Ġplan ners
Ġstr ive
Ġrec l
Ġquestion na
Ġmet a
Ġop rah
Ġatt en
Ġel usive
Ġsk im
Ġsk ins
Ġsupp lement
Ġanim ate
ps on
ps hire
Ġsub set
no v
Ġvis its
Ġ4 1
Ġspec imens
Ġwalk able
Ġenerg ies
Ġwo ndrous
Ġpat ron
Ġelect oral
Ġchar ming
Ġbad ge
Ġinf amous
Ġpar an
Ġphot ons
Ġwa ist
Ġmor oc
Ġref ine
Ġrest ored
Ġche e
Ġass ass
Ġass ert
Ġdi ary
Ġkill ers
Ġcal ib
Ġclass ified
Ġclass mates
Ġmic rop
Ġ6 1
Ġ6 6
Ġabs ent
Ġpast or
Ġpast ed
Ġland m
Ġarch ie
he it
Ġant iretrovir
Ġve t
Ġve ins
Ġve ctor
Ġmar ries
Ġ7 7
Ġblack berry
Ġ8 3
Ġsens ual
Ġsuper man
Ġsqu atter
Ġjour neys
Ġsent ient
Ġtem b
Ġchem ists
Ġcy cling
Ġpersonal ization
Ġtransform ational
Ġviol ation
Ġenc ode
sh elf
Ġcool ed
Ġbar bie
Ġbill y
Ġevolution arily
Ġopt ics
Ġfac ade
Ġserious ness
Ġweb cam
Ġrevolution ize
Ġtype face
Ġpath ology
lu x
Ġsustain ing
Ġsuff ers
Ġemp ires
Ġprop os
Ġsearch ed
do or
Ġaw ak
Ġsmart phones
Ġrain y
Ġrain bow
Ġast ro
Ġport al
Ġlif ting
Ġsam pled
Ġsam pling
Ġlog istics
ok o
Ġparticip ated
Ġsal am
Ġbom bers
Ġbud dy
Ġfle e
Ġinflu ential
Ġspo res
Ġchrist opher
Ġpolicy makers
Ġaddress es
Ġmr s
Ġautom ation
Ġcatch es
Ġthr iving
Ġliber ated
Ġforget ting
Ġfuel ed
Ġmultip lic
Ġben ki
Ġdemonstr ations
Ġdemonstr ating
Ġcampaign ing
Ġcontroll er
Ġhistor ians
Ġcustom ization
hy d
Ġju an
Ġplat o
Ġje ep
Ġmort al
Ġmas low
Ġpleas ures
Ġcheap ly
Ġdisp ute
Ġadapt able
Ġgrass es
Ġproud ly
Ġrot ates
Ġmaint ained
Ġsucceed ing
Ġvolunte ered
Ġmetaphor ical
Ġexhib itions
Ġpaint brush
Ġfrag ment
Ġinvestig ative
Ġtap es
Ġtap ed
Ġincent iv
Ġneuro bi
bl owing
Ġanti angiogenic
Ġcommit ments
Ġwarm th
Ġveget arian
Ġcongress ional
Ġhyper tension
Ġped al
Ġasp ire
uls ive
Ġaff lu
organ ic
organ ization
organ isms
Ġreplic ator
Ġelectro de
Ġcritic ize
Ġcord s
Ġbiom ed
Ġpitch es
Ġpolar ization
Ġsem ester
Ġstan ley
Ġcock pit
Ġmemor ize
Ġoverwhel mingly
Ġextinct ions
Ġconfront ation
Ġspiritual ity
Ġpill ars
Ġadvance ment
gr own
Ġnavig ation
Ġjul ie
Ġanticip ation
Ġgam ing
Ġflood ed
Ġcarr ier
americ ans
Ġcollaps ing
Ġtoler ant
Ġspr int
Ġpurch asing
Ġadvoc acy
uman n
Ġdim it
Ġextrem ism
Ġborrow ing
Ġwid th
Ġstrip es
Ġsettle ments
Ġfool ed
Ġrecover ing
Ġtheore tically
Ġpione ers
Ġos ama
Ġdisturb ed
Ġgrat ification
Ġaward ed
Ġaccomplish ment
Ġgate way
Ġamy gdala
Ġouts k
Ġfest ivals
perform ance
Ġreconstruct ed
Ġhob b
Ġampl ify
Ġski ing
Ġsty les
Ġimmig rant
Ġdrought s
Ġimmun ity
Ġsole ly
Ġcarp enter
Ġcockroach es
Ġunfold ing
Ġdrif ting
Ġtact ics
Ġprotocol s
wom an
Ġfacilit ate
Ġfemin ine
Ġpic asso
Ġvib ration
Ġgad gets
Ġdispers ed
Ġdictators hip
Ġstun ned
Ġguerr illa
Ġoccas ional
Ġobsc ure
Ġintersect ions
Ġkidna pped
Ġsixt y
Ġbib lical
Ġheter osexual
Ġlexic on
Ġextr aterrestrial
Ġpetro leum
Ġmonet ary
Ġredisco ver
Ġsupercond uctor
Ġbarb ara
Ġrecip ient
Ġsnaps hot
sens itive
Ġveterin arians
Ġcongrat ulations
Ġwets uit
Ġrou ge
Ġsecre cy
mach ine
Ġspra wl
Ġsug ars
Ġblad der
Ġintermedi ate
Ġunnecess ary
otr ans
Ġneph ew
Ġmell on
Ġpostc ards
Ġcafeter ia
Ġmong olia
Ġindef in
Ġobliv ious
Ġtob acco
Ġsob ule
Ġteap ot
Ġjuris d
hear d
Ġdement ia
ahren heit
Ġarchimed es
Ġcongol ese
Ġalbe it
Ġunlim ited
Ġmubar ak
" .
" :
9 2
a que
b ly
b ad
b our
b ish
b ott
c u
c it
c ir
c ould
c art
d ut
e ight
g ame
g irl
i ology
k il
l ishing
m l
m or
n ell
o ce
q aeda
s it
s ol
t t
t ouch
u ble
u ated
v ably
z s
Ġt ile
Ġa aa
Ġw ield
Ġs ans
Ġs ane
Ġs ush
re m
re plic
Ġo pe
Ġo ops
in ology
at ization
er k
ou x
Ġc ush
Ġc ds
Ġb od
Ġb ree
Ġb atch
Ġm ala
Ġh ike
en berg
Ġp ud
Ġp ork
Ġp its
Ġp isa
on te
Ġf ahrenheit
Ġd l
Ġd ull
es ive
or able
Ġin gest
Ġin appropriate
Ġin organic
Ġl ud
Ġl ick
Ġl iters
ed ron
Ġg ast
om pass
le ments
le xic
al ie
Ġe ames
Ġe bol
Ġis ab
Ġbe an
Ġre x
Ġso ck
Ġst ark
Ġst itch
ig nt
ig ms
ig ious
Ġfor ged
ra nd
Ġdo ha
im en
im ation
im port
Ġu l
ir vana
Ġk az
Ġk abul
Ġse ren
am m
am ics
Ġab c
Ġab dom
Ġab orig
Ġcan n
Ġmo sc
Ġmo cking
Ġj og
ol unt
Ġcom et
Ġch and
Ġch urn
Ġch lor
Ġr ider
Ġr ude
Ġr yan
Ġall ev
Ġfr idge
Ġpro pr
Ġpro xim
Ġpe ek
Ġcon versely
Ġma u
Ġma ize
est ial
Ġal igned
Ġv ascular
qu ot
Ġte l
Ġout we
Ġsp it
Ġsp ik
Ġsp otted
Ġsp ikes
un al
Ġwho lly
Ġthink er
Ġup lif
os oph
Ġpl ur
Ġyear ning
Ġcomp ress
Ġco er
Ġco ins
Ġper il
Ġun ic
Ġun cont
Ġqu arks
Ġno ah
Ġno llywood
Ġno stal
Ġexp o
Ġfe cal
Ġam anda
Ġtw ists
Ġcl o
nder ing
ach ers
Ġpr one
Ġover load
Ġover fishing
Ġro cke
fe ller
Ġdis eng
ry pt
olog ues
Ġcont ing
Ġdes ks
ber y
Ġbet ting
Ġad ren
Ġhum idity
Ġbl u
Ġbr ist
Ġcomm ute
Ġra z
Ġra ft
Ġra ging
Ġem body
ors he
Ġsm ash
Ġinc ap
Ġgreat ness
ob e
pe ace
Ġcar c
Ġgu ides
Ġapp alling
Ġstud ios
Ġdec on
Ġdec ay
Ġdec ode
Ġfo am
Ġinv olunt
Ġbas es
wh ich
Ġsch war
Ġrel ent
Ġrel ies
Ġgra pe
Ġgra pes
Ġcr ay
Ġsl iced
Ġimag inations
Ġele ven
Ġele vation
ert r
Ġmed io
Ġcomple ment
Ġfin s
Ġrec ap
Ġser vers
Ġmin nes
Ġnat o
Ġrep os
Ġgener ators
Ġless er
Ġexpl oding
Ġproject or
Ġhand ic
Ġpres criptions
Ġspec ulation
Ġreg ulated
Ġhead phones
sw ana
Ġset up
Ġjo an
Ġjo ins
Ġfu cking
Ġcur a
Ġchar itable
Ġpass ively
Ġroom mate
Ġmoment ous
Ġz en
Ġz ambia
me er
Ġinf ants
Ġpar ade
Ġpar abol
man uel
Ġdet r
Ġdet erg
Ġrob in
Ġlang ley
ograph ically
ime e
Ġge ologists
Ġge ographical
Ġdi ets
