{"<PAD>":0,"<SOS>":1,"<EOS>":2,"<UNK>":3,"<CLS>":4,"<SEP>":5,"<MASK>":6,"!":7,"\"":8,"#":9,"$":10,"%":11,"&":12,"'":13,"(":14,")":15,"*":16,"+":17,",":18,"-":19,".":20,"/":21,"0":22,"1":23,"2":24,"3":25,"4":26,"5":27,"6":28,"7":29,"8":30,"9":31,":":32,";":33,"<":34,"=":35,">":36,"?":37,"@":38,"A":39,"B":40,"C":41,"D":42,"E":43,"F":44,"G":45,"H":46,"I":47,"J":48,"K":49,"L":50,"M":51,"N":52,"O":53,"P":54,"Q":55,"R":56,"S":57,"T":58,"U":59,"V":60,"W":61,"X":62,"Y":63,"Z":64,"[":65,"\\":66,"]":67,"^":68,"_":69,"`":70,"a":71,"b":72,"c":73,"d":74,"e":75,"f":76,"g":77,"h":78,"i":79,"j":80,"k":81,"l":82,"m":83,"n":84,"o":85,"p":86,"q":87,"r":88,"s":89,"t":90,"u":91,"v":92,"w":93,"x":94,"y":95,"z":96,"{":97,"|":98,"}":99,"~":100,"¡":101,"¢":102,"£":103,"¤":104,"¥":105,"¦":106,"§":107,"¨":108,"©":109,"ª":110,"«":111,"¬":112,"®":113,"¯":114,"°":115,"±":116,"²":117,"³":118,"´":119,"µ":120,"¶":121,"·":122,"¸":123,"¹":124,"º":125,"»":126,"¼":127,"½":128,"¾":129,"¿":130,"À":131,"Á":132,"Â":133,"Ã":134,"Ä":135,"Å":136,"Æ":137,"Ç":138,"È":139,"É":140,"Ê":141,"Ë":142,"Ì":143,"Í":144,"Î":145,"Ï":146,"Ð":147,"Ñ":148,"Ò":149,"Ó":150,"Ô":151,"Õ":152,"Ö":153,"×":154,"Ø":155,"Ù":156,"Ú":157,"Û":158,"Ü":159,"Ý":160,"Þ":161,"ß":162,"à":163,"á":164,"â":165,"ã":166,"ä":167,"å":168,"æ":169,"ç":170,"è":171,"é":172,"ê":173,"ë":174,"ì":175,"í":176,"î":177,"ï":178,"ð":179,"ñ":180,"ò":181,"ó":182,"ô":183,"õ":184,"ö":185,"÷":186,"ø":187,"ù":188,"ú":189,"û":190,"ü":191,"ý":192,"þ":193,"ÿ":194,"Ā":195,"ā":196,"Ă":197,"ă":198,"Ą":199,"ą":200,"Ć":201,"ć":202,"Ĉ":203,"ĉ":204,"Ċ":205,"ċ":206,"Č":207,"č":208,"Ď":209,"ď":210,"Đ":211,"đ":212,"Ē":213,"ē":214,"Ĕ":215,"ĕ":216,"Ė":217,"ė":218,"Ę":219,"ę":220,"Ě":221,"ě":222,"Ĝ":223,"ĝ":224,"Ğ":225,"ğ":226,"Ġ":227,"ġ":228,"Ģ":229,"ģ":230,"Ĥ":231,"ĥ":232,"Ħ":233,"ħ":234,"Ĩ":235,"ĩ":236,"Ī":237,"ī":238,"Ĭ":239,"ĭ":240,"Į":241,"į":242,"İ":243,"ı":244,"Ĳ":245,"ĳ":246,"Ĵ":247,"ĵ":248,"Ķ":249,"ķ":250,"ĸ":251,"Ĺ":252,"ĺ":253,"Ļ":254,"ļ":255,"Ľ":256,"ľ":257,"Ŀ":258,"ŀ":259,"Ł":260,"ł":261,"Ń":262,"Ġt":263,"Ġth":264,"Ġa":265,"Ġi":266,"Ġw":267,"Ġthe":268,"Ġs":269,"re":270,"Ġo":271,"in":272,"at":273,"nd":274,"er":275,"ou":276,"Ġc":277,"Ġb":278,"Ġm":279,"Ġh":280,"ing":281,"Ġand":282,"en":283,"Ġp":284,"Ġto":285,"on":286,"Ġf":287,"Ġd":288,"an":289,"es":290,"Ġof":291,"or":292,"ll":293,"Ġin":294,"Ġl":295,"ed":296,"is":297,"Ġy":298,"it":299,"ar":300,"Ġthat":301,"Ġg":302,"Ġwe":303,"Ġn":304,"Ġyou":305,"om":306,"as":307,"Ġwh":308,"Ġit":309,"ic":310,"le":311,"ve":312,"al":313,"Ġe":314,"Ġis":315,"Ġbe":316,"ow":317,"us":318,"ut":319,"ion":320,"ot":321,"'s":322,"et":323,"Ġre":324,"Ġon":325,"Ġha":326,"ent":327,"ct":328,"Ġthis":329,"ld":330,"ver":331,"Ġso":332,"ay":333,"se":334,"all":335,"ro":336,"Ġst":337,"st":338,"id":339,"ig":340,"ur":341,"ly":342,"ch":343,"Ġhe":344,"ke":345,"Ġfor":346,"ce":347,"Ġthey":348,"ra":349,"Ġan":350,"Ġwas":351,"Ġdo":352,"im":353,"Ġare":354,"Ġu":355,"ir":356,"Ġgo":357,"Ġli":358,"th":359,"ith":360,"op":361,"ally":362,"Ġk":363,"Ġwith":364,"Ġse":365,"am":366,"Ġhave":367,"Ġab":368,"Ġwhat":369,"Ġbut":370,"Ġcan":371,"Ġas":372,"Ġmo":373,"Ġ-":374,"Ġ--":375,"ation":376,"out":377,"Ġj":378,"ht":379,"Ġsh":380,"ol":381,"ere":382,"Ġwor":383,"Ġne":384,"Ġcom":385,"Ġat":386,"very":387,"Ġme":388,"'t":389,"ad":390,"Ġch":391,"Ġthere":392,"ould":393,"Ġnot":394,"Ġabout":395,"Ġr":396,"Ġall":397,"ill":398,"ant":399,"ter":400,"ge":401,"il":402,"Ġfr":403,"ul":404,"Ġsom":405,"ust":406,"oo":407,"Ġex":408,"Ġmy":409,"Ġor":410,"ers":411,"Ġpro":412,"Ġde":413,"use":414,"ight":415,"Ġpe":416,"Ġone":417,"Ġ\"":418,"Ġcon":419,"'re":420,"um":421,"art":422,"Ġpeop":423,"Ġlike":424,"Ġpeople":425,"ear":426,"Ġbec":427,"pp":428,"ck":429,"ess":430,"Ġma":431,"ure":432,"ate":433,"ies":434,"Ġif":435,"Ġfrom":436,"ity":437,"ive":438,"est":439,"Ġkn":440,"Ġal":441,"Ġv":442,"if":443,"ect":444,"ist":445,"nt":446,"ble":447,"Ġnow":448,"qu":449,"Ġour":450,"ind":451,"Ġjust":452,"Ġte":453,"Ġus":454,"ink":455,"Ġthese":456,"Ġout":457,"Ġint":458,"Ġknow":459,"Ġsp":460,"ause":461,"rou":462,"ook":463,"un":464,"od":465,"Ġthing":466,"Ġwhen":467,"Ġbecause":468,"Ġsee":469,"Ġtr":470,"Ġthem":471,"Ġvery":472,"Ġwho":473,"and":474,"Ġthink":475,"ie":476,"Ġup":477,"os":478,"ort":479,"her":480,"Ġget":481,"Ġpl":482,"Ġby":483,"Ġsome":484,"ich":485,"Ġhow":486,"Ġgoing":487,"ci":488,"Ġact":489,"iv":490,"ain":491,"Ġ1":492,"Ġyour":493,"one":494,"Ġmore":495,"og":496,"Ġim":497,"Ġsa":498,"el":499,"Ġhad":500,"Ġyear":501,"Ġtim":502,"Ġwhich":503,"Ġwould":504,"em":505,"Ġen":506,"Ġlook":507,"Ġhere":508,"Ġwere":509,"Ġsu":510,"ap":511,"00":512,"ine":513,"our":514,"Ġtheir":515,"Ġcomp":516,"Ġreally":517,"ame":518,"Ġwant":519,"ast":520,"ment":521,"Ġco":522,"Ġta":523,"ually":524,"Ġwork":525,"Ġle":526,".\"":527,"Ġthan":528,"ard":529,"iz":530,"ous":531,"'ve":532,"Ġthen":533,"act":534,"gh":535,"Ġworld":536,"reat":537,"ack":538,"Ġway":539,"Ġevery":540,"are":541,"hing":542,"ose":543,"'m":544,"Ġtime":545,"Ġman":546,"Ġhas":547,"Ġper":548,"Ġun":549,"Ġoth":550,"Ġdon":551,"ans":552,"Ġqu":553,"ab":554,"Ġev":555,"Ġno":556,"res":557,"ag":558,"Ġactually":559,"Ġwill":560,"Ġexp":561,"ide":562,"Ġinto":563,"Ġwhere":564,"Ġfe":565,"Ġcould":566,"Ġsay":567,"Ġag":568,"ace":569,"ong":570,"ions":571,"ild":572,"ore":573,"Ġthings":574,"ence":575,"itt":576,"ud":577,"Ġother":578,"Ġyears":579,"age":580,"Ġdid":581,"Ġsomet":582,"Ġam":583,"alk":584,"Ġtw":585,"Ġany":586,"Ġaf":587,"Ġcl":588,"iff":589,"nder":590,"Ġright":591,"ical":592,"ach":593,"Ġnew":594,"Ġbeen":595,"Ġmake":596,"Ġpr":597,"Ġhapp":598,"Ġdiff":599,"Ġar":600,"Ġwell":601,"Ġshe":602,"ip":603,"Ġpo":604,"so":605,"Ġneed":606,"Ġover":607,"Ġbu":608,"Ġsaid":609,"Ġpart":610,"Ġfir":611,"Ġstart":612,"Ġro":613,"Ġâ":614,"fe":615,"Ġsomething":616,"red":617,"Ġtwo":618,"Ġ2":619,"Ġimp":620,"Ġdis":621,"Ġfirst":622,"ree":623,"own":624,"ia":625,"Ġthose":626,"Ġmu":627,"ice":628,"ry":629,"Ġback":630,"ory":631,"Ġlo":632,"ite":633,"pt":634,"Ġgot":635,"orm":636,"Ġmuch":637,"round":638,"ount":639,"olog":640,"Ġkind":641,"Ġcall":642,"ign":643,"ens":644,"ass":645,"Ġchan":646,"Ġdiffere":647,"de":648,"Ġalso":649,"ittle":650,"ater":651,"Ġlittle":652,"Ġph":653,"ound":654,"ib":655,"ff":656,"sel":657,"ĠâĻ":658,"cent":659,"Ġlot":660,"Ġmost":661,"Ġspe":662,"Ġac":663,"ue":664,"Ġcont":665,"ple":666,"ces":667,"ght":668,"ult":669,"Ġtalk":670,"Ġdes":671,"way":672,"ber":673,"Ġbet":674,"ell":675,"ves":676,"Ġeven":677,"Ġonly":678,"Ġad":679,"Ġres":680,"ving":681,"Ġlife":682,"king":683,"rain":684,"Ġsy":685,"Ġhis":686,"vel":687,"ome":688,"Ġunder":689,"ody":690,"co":691,"ru":692,"ated":693,"Ġind":694,"Ġday":695,"able":696,"Ġhum":697,"Ġmany":698,"ep":699,"ations":700,"Ġbl":701,"Ġtake":702,"Ġgood":703,"ĠâĻ«":704,"Ġbr":705,"Ġlet":706,"ph":707,"ms":708,"Ġdoes":709,"Ġdifferent":710,"Ġher":711,"ish":712,"ick":713,"ict":714,"ial":715,"rough":716,"other":717,"Ġreal":718,"ood":719,"int":720,"Ġdown":721,"Ġide":722,"Ġthrough":723,"Ġaround":724,"Ġcomm":725,"Ġinter":726,"Ġput":727,"du":728,"ire":729,"ase":730,"Ġmay":731,"Ġpre":732,"pl":733,"ents":734,"'ll":735,"Ġsc":736,"Ġshow":737,"Ġwhy":738,"Ġuse":739,"ark":740,"urn":741,"Ġtell":742,"Ġbeing":743,"Ġra":744,"cess":745,"day":746,"Ġem":747,"Ġfl":748,"Ġoff":749,"form":750,"ible":751,"ors":752,"ress":753,"ade":754,"Ġsame":755,"Ġsm":756,"Ġinc":757,"Ġthou":758,"Ġhappen":759,"Ġtry":760,"Ġtoo":761,"Ġcome":762,"Ġgreat":763,"Ġproble":764,"ak":765,"ether":766,"Ġgen":767,"ob":768,"ance":769,"Ġcount":770,"chn":771,"ary":772,"wn":773,"Ġfact":774,"ath":775,"Ġbig":776,"pe":777,"ject":778,"Ġthree":779,"Ġcar":780,"ys":781,"iver":782,"stem":783,"ang":784,"Ġdoing":785,"xt":786,"ful":787,"Ġtechn":788,"Ġhuman":789,"Ġgr":790,"ual":791,"ning":792,"Ġfind":793,"Ġwr":794,"ically":795,"ting":796,"Ġgu":797,"ord":798,"Ġpers":799,"Ġsur":800,"we":801,"ile":802,"Ġthank":803,"Ġtra":804,"ved":805,"Ġagain":806,"per":807,"ric":808,"Ġapp":809,"ac":810,"Ġafter":811,"Ġsystem":812,"Ġstud":813,"Ġpercent":814,"ology":815,"Ġbuild":816,"Ġsim":817,"Ġdec":818,"ied":819,"Ġchild":820,"ower":821,"nds":822,"fore":823,"ren":824,"thing":825,"body":826,"Ġcalled":827,"illion":828,"self":829,"'d":830,"be":831,"Ġear":832,"ons":833,"Ġrem":834,"igh":835,"Ġtoday":836,"Ġinst":837,"Ġwom":838,"Ġfo":839,"Ġinv":840,"Ġlong":841,"Ġquest":842,"Ġbel":843,"ics":844,"Ġmade":845,"ition":846,"cial":847,"ious":848,"ating":849,"Ġexper":850,"Ġshould":851,"Ġob":852,"Ġown":853,"Ġlear":854,"Ġimport":855,"ities":856,"ft":857,"ize":858,"Ġbas":859,"les":860,"ian":861,"Ġturn":862,"oss":863,"te":864,"wh":865,"Ġsch":866,"ars":867,"Ġgl":868,"Ġdesign":869,"Ġlast":870,"Ġunderst":871,"con":872,"erest":873,"Ġhel":874,"av":875,"Ġbo":876,"Ġcour":877,"ates":878,"Ġmean":879,"ty":880,"Ġanother":881,"Ġchange":882,"Ġend":883,"Ġsci":884,"ub":885,"Ġbrain":886,"Ġplay":887,"Ġdidn":888,"Ġask":889,"000":890,"Ġfeel":891,"Ġthought":892,"Ġimportant":893,"ction":894,"Ġcreat":895,"Ġperson":896,"Ġidea":897,"Ġinterest":898,"Ġrel":899,"Ġgra":900,"Ġke":901,"Ġits":902,"als":903,"?\"":904,"Ġhim":905,"Ġstarted":906,"Ġbefore":907,"Ġcr":908,"Ġtrans":909,"Ġexam":910,"ail":911,"Ġdr":912,"Ġcons":913,"Ġgive":914,"Ġins":915,"ull":916,"ool":917,"Ġwent":918,"Ġunderstand":919,"Ġnever":920,"Ġmight":921,"ough":922,"ise":923,"gan":924,"Ġhelp":925,"Ġcoll":926,"Ġcourse":927,"Ġsl":928,"Ġbetter":929,"Ġbit":930,"Ġimag":931,"ution":932,"Ġ3":933,"Ġele":934,"Ġpoint":935,"Ġmon":936,"ility":937,"ists":938,"Ġla":939,"Ġproblem":940,"ular":941,"Ġprodu":942,"Ġfound":943,"Ġstory":944,"Ġbelie":945,"ily":946,"Ġpol":947,"Ġnum":948,"Ġschool":949,"atter":950,"Ġplan":951,"Ġstill":952,"Ġable":953,"lic":954,"Ġkid":955,"ert":956,"Ġnext":957,"Ġfew":958,"kes":959,"ros":960,"Ġpower":961,"Ġeng":962,"Ġent":963,"Ġtog":964,"Ġsort":965,"Ġtogether":966,"ix":967,"Ġsol":968,"Ġago":969,"Ġeach":970,"Ġwater":971,"erg":972,"Ġhigh":973,"Ġfam":974,"uc":975,"Ġart":976,"Ġhu":977,"oth":978,"Ġplace":979,"Ġcame":980,"Ġ19":981,"Ġcommun":982,"eric":983,"Ġmed":984,"Ġstr":985,"velop":986,"Ġter":987,"Ġmod":988,"mo":989,"alth":990,"ave":991,"Ġcomple":992,"ense":993,"Ġcent":994,"ited":995,"ward":996,"atch":997,"Ġseco":998,"ween":999,"Ġtechnology":1000,"Ġfin":1001,"Ġfour":1002,"ience":1003,"Ġrec":1004,"Ġdat":1005,"ather":1006,"Ġlearn":1007,"read":1008,"Ġdevelop":1009,"Ġbetween":1010,"Ġser":1011,"Ġmin":1012,"Ġed":1013,"Ġused":1014,"Ġnat":1015,"ness":1016,"Ġ10":1017,"Ġext":1018,"ized":1019,"Ġ20":1020,"arch":1021,"Ġquestion":1022,"Ġmet":1023,"Ġlove":1024,"Ġok":1025,"Ġop":1026,"old":1027,"Ġsmall":1028,"Ġwomen":1029,"Ġatt":1030,",\"":1031,"iss":1032,"Ġcre":1033,"Ġlooking":1034,"ures":1035,"Ġmom":1036,"Ġmaybe":1037,"Ġexample":1038,"Ġold":1039,"Ġmus":1040,"ific":1041,"ger":1042,"ven":1043,"ways":1044,"Ġdata":1045,"Ġpartic":1046,"Ġdone":1047,"Ġlight":1048,"ines":1049,"Ġel":1050,"Ġdoesn":1051,"Ġameric":1052,"Ġcomput":1053,"ork":1054,"ram":1055,"iness":1056,"Ġgrow":1057,"Ġword":1058,"Ġeff":1059,"Ġfar":1060,"ets":1061,"ably":1062,"Ġcell":1063,"Ġlar":1064,"az":1065,"Ġmove":1066,"Ġcare":1067,"ered":1068,"ced":1069,"Ġbi":1070,"Ġbeh":1071,"cept":1072,"ute":1073,"Ġread":1074,"Ġbus":1075,"Ġhard":1076,"Ġstu":1077,"Ġwanted":1078,"cy":1079,"Ġrep":1080,"Ġcap":1081,"Ġwhole":1082,"conom":1083,"Ġever":1084,"Ġlive":1085,"Ġposs":1086,"Ġreas":1087,"Ġchildren":1088,"Ġsk":1089,"Ġtrying":1090,"Ġsecond":1091,"Ġhealth":1092,"Ġwar":1093,"Ġinform":1094,"Ġeconom":1095,"Ġworking":1096,"Ġgiv":1097,"Ġmillion":1098,"ands":1099,"Ġchang":1100,"ings":1101,"Ġgener":1102,"ross":1103,"ative":1104,"Ġless":1105,"Ġexpl":1106,"ational":1107,"Ġalways":1108,"ote":1109,"selves":1110,"Ġcor":1111,"Ġaway":1112,"Ġuniver":1113,"Ġbelieve":1114,"ope":1115,"ird":1116,"Ġproject":1117,"cer":1118,"oney":1119,"Ġbook":1120,"ah":1121,"Ġsupp":1122,"Ġ5":1123,"Ġcountry":1124,"Ġfive":1125,"Ġeverything":1126,"Ġanim":1127,"ps":1128,"ural":1129,"Ġspace":1130,"Ġafric":1131,"ism":1132,"..":1133,"ments":1134,"Ġresp":1135,"Ġpict":1136,"Ġopen":1137,"Ġsub":1138,"Ġnumber":1139,"Ġrun":1140,"Ġfrie":1141,"Ġusing":1142,"Ġcou":1143,"no":1144,"Ġprob":1145,"ries":1146,"Ġca":1147,"Ġform":1148,"gin":1149,"ruct":1150,"Ġkids":1151,"Ġhand":1152,"nect":1153,"ract":1154,"Ġpres":1155,"Ġsing":1156,"fect":1157,"Ġmeans":1158,"Ġvis":1159,"hip":1160,"Ġinformation":1161,"Ġorgan":1162,"Ġthinking":1163,"Ġtook":1164,"Ġpub":1165,"ew":1166,"vers":1167,"Ġcompan":1168,"Ġlead":1169,"Ġcreate":1170,"led":1171,"Ġ4":1172,"Ġtimes":1173,"Ġintern":1174,"ead":1175,"aces":1176,"Ġhome":1177,"Ġspec":1178,"Ġmoney":1179,"Ġdoll":1180,"Ġmind":1181,"gg":1182,"ks":1183,"Ġacc":1184,"Ġreg":1185,"Ġwalk":1186,"alf":1187,"Ġteach":1188,"vern":1189,"air":1190,"Ġmark":1191,"Ġbecome":1192,"Ġleft":1193,"cr":1194,"Ġprocess":1195,"Ġfood":1196,"Ġinteresting":1197,"its":1198,"ten":1199,"Ġenerg":1200,"Ġquite":1201,"ues":1202,"Ġprog":1203,"Ġbest":1204,"ale":1205,"Ġwo":1206,"Ġhead":1207,"iew":1208,"Ġgetting":1209,"Ġenough":1210,"sw":1211,"ock":1212,"Ġfut":1213,"ention":1214,"Ġgovern":1215,"Ġsocial":1216,"Ġprobably":1217,"pr":1218,"Ġset":1219,"Ġjo":1220,"aut":1221,"Ġfun":1222,"Ġcle":1223,"Ġcomes":1224,"Ġconf":1225,"Ġpat":1226,"Ġglob":1227,"ories":1228,"Ġfu":1229,"Ġsense":1230,"Ġcur":1231,"Ġenergy":1232,"Ġelect":1233,"Ġfuture":1234,"ouse":1235,"Ġcam":1236,"ital":1237,"iting":1238,"Ġansw":1239,"Ġadd":1240,"ont":1241,"Ġgrou":1242,"Ġhappened":1243,"Ġearth":1244,"Ġcity":1245,"Ġgre":1246,"ever":1247,"Ġconnect":1248,"Ġwithout":1249,"Ġchar":1250,"Ġpass":1251,"ertain":1252,"Ġpret":1253,"Ġbuilding":1254,"Ġsw":1255,"Ġtalking":1256,"Ġmonth":1257,"Ġcontro":1258,"vir":1259,"Ġpop":1260,"Ġmaking":1261,"Ġbegin":1262,"ety":1263,"ier":1264,"Ġroom":1265,"Ġstuff":1266,"Ġhalf":1267,"ts":1268,"Ġphys":1269,"Ġpretty":1270,"Ġair":1271,"Ġeas":1272,"Ġmoment":1273,"Ġz":1274,"ne":1275,"Ġbody":1276,"Ġhist":1277,"Ġsign":1278,"Ġbusiness":1279,"ient":1280,"Ġsoci":1281,"Ġdist":1282,"Ġkeep":1283,"Ġcol":1284,"Ġscience":1285,"Ġtold":1286,"nce":1287,"Ġside":1288,"Ġsuch":1289,"Ġbeaut":1290,"Ġwee":1291,"Ġjob":1292,"ately":1293,"Ġmodel":1294,"Ġelse":1295,"cus":1296,"Ġanything":1297,"Ġbad":1298,"Ġcoming":1299,"Ġcountries":1300,"Ġtop":1301,"ner":1302,"ying":1303,"ices":1304,"Ġdollars":1305,"Ġreason":1306,"viron":1307,"Ġpie":1308,"Ġlives":1309,"Ġmen":1310,"Ġenviron":1311,"ogra":1312,"Ġty":1313,"Ġopp":1314,"me":1315,"lf":1316,"gs":1317,"Ġallow":1318,"ior":1319,"Ġstop":1320,"Ġsound":1321,"Ġimagine":1322,"ng":1323,"Ġrese":1324,"Ġacross":1325,"Ġhope":1326,"where":1327,"arr":1328,"Ġonce":1329,"Ġprot":1330,"Ġstand":1331,"Ġval":1332,"ember":1333,"Ġinf":1334,"der":1335,"Ġbring":1336,"Ġeduc":1337,"Ġlater":1338,"Ġpar":1339,"Ġmakes":1340,"Ġliving":1341,"Ġsays":1342,"uring":1343,"ince":1344,"Ġscient":1345,"Ġafrica":1346,"Ġamaz":1347,"Ġmatter":1348,"Ġmid":1349,"Ġsimple":1350,"man":1351,"Ġ200":1352,"Ġdet":1353,"Ġcult":1354,"Ġseen":1355,"Ġsaw":1356,"Ġglobal":1357,"Ġsix":1358,"olution":1359,"Ġhaving":1360,"Ġaut":1361,"Ġbre":1362,"Ġbasically":1363,"Ġyet":1364,"most":1365,"Ġfig":1366,"Ġprof":1367,"Ġgoes":1368,"Ġhour":1369,"Ġphot":1370,"Ġey":1371,"Ġresearch":1372,"Ġasked":1373,"Ġexperience":1374,"io":1375,"Ġparticular":1376,"Ġwonder":1377,"Ġwa":1378,"ortun":1379,"Ġsit":1380,"ided":1381,"Ġmor":1382,"Ġwhile":1383,"Ġhappens":1384,"Ġlist":1385,"ken":1386,"Ġface":1387,"Ġrob":1388,"Ġpicture":1389,"llow":1390,"ality":1391,"the":1392,"oc":1393,"Ġeffect":1394,"Ġstre":1395,"Ġthous":1396,"Ġlang":1397,"Ġways":1398,"Ġcomplete":1399,"Ġmem":1400,"Ġmil":1401,"Ġyoung":1402,"Ġmach":1403,"ash":1404,"Ġfamily":1405,"Ġenvironment":1406,"ught":1407,"aps":1408,"Ġnothing":1409,"Ġvide":1410,"ization":1411,"Ġshare":1412,"Ġref":1413,"ilt":1414,"Ġcomputer":1415,"Ġfore":1416,"Ġwhether":1417,"Ġequ":1418,"Ġsure":1419,"Ġalmost":1420,"Ġlangu":1421,"ina":1422,"Ġcase":1423,"Ġboth":1424,"Ġproblems":1425,"Ġrest":1426,"Ġdays":1427,"Ġplanet":1428,"Ġwatch":1429,"ott":1430,"Ġlevel":1431,"Ġmusic":1432,"imes":1433,"Ġloc":1434,"Ġsingle":1435,"Ġremember":1436,"Ġcertain":1437,"Ġstates":1438,"iter":1439,"Ġinside":1440,"Ġpublic":1441,"ots":1442,"Ġtest":1443,"Ġage":1444,"Ġpolit":1445,"ograph":1446,"irl":1447,"arent":1448,"Ġwithin":1449,"Ġche":1450,"Ġlab":1451,"Ġdef":1452,"na":1453,"ins":1454,"ready":1455,"Ġunt":1456,"ulation":1457,"Ġsomeone":1458,"Ġpossible":1459,"med":1460,"cl":1461,"Ġsaying":1462,"Ġeverybody":1463,"orn":1464,"Ġhear":1465,"ime":1466,"Ġguy":1467,"Ġanswer":1468,"Ġokay":1469,"Ġalready":1470,"Ġdisco":1471,"Ġpain":1472,"ank":1473,"less":1474,"Ġincred":1475,"Ġexact":1476,"itive":1477,"allen":1478,"Ġself":1479,"Ġtreat":1480,"unch":1481,"Ġcontin":1482,"Ġhistory":1483,"Ġsuc":1484,"ants":1485,"Ġdise":1486,"Ġideas":1487,"Ġsou":1488,"Ġheart":1489,"Ġwrong":1490,"osed":1491,"ange":1492,"Ġbillion":1493,"Ġlooked":1494,"ury":1495,"Ġass":1496,"Ġlarge":1497,"Ġmag":1498,"ivid":1499,"Ġcost":1500,"dle":1501,"lish":1502,"Ġstate":1503,"Ġlooks":1504,"Ġoften":1505,"Ġcontrol":1506,"Ġted":1507,"Ġge":1508,"Ġdev":1509,"Ġproduct":1510,"oice":1511,"Ġcommunity":1512,"Ġamazing":1513,"Ġdire":1514,"Ġtrue":1515,"âĢ":1516,"Ġbeautif":1517,"ern":1518,"Ġnews":1519,"Ġmyself":1520,"Ġvir":1521,"ield":1522,"Ġyes":1523,"ware":1524,"Ġgirl":1525,"ases":1526,"Ġnet":1527,"Ġsec":1528,"ron":1529,"Ġiss":1530,"Ġcells":1531,"Ġcond":1532,"Ġdi":1533,"Ġchallen":1534,"Ġheard":1535,"ndred":1536,"Ġnor":1537,"Ġadv":1538,"side":1539,"Ġsince":1540,"Ġwords":1541,"Ġhundred":1542,"utes":1543,"Ġunited":1544,"Ġinstead":1545,"Ġ[":1546,"Ġkill":1547,"imate":1548,"work":1549,"Ġisn":1550,"Ġvideo":1551,"uro":1552,"Ġnight":1553,"Ġgod":1554,"Ġsometimes":1555,"Ġfigure":1556,"Ġcancer":1557,"Ġtre":1558,"cle":1559,"ape":1560,"Ġworks":1561,"ians":1562,"Ġbuilt":1563,"ages":1564,"pect":1565,"nding":1566,"Ġfull":1567,"aterial":1568,"vious":1569,"Ġcal":1570,"Ġclass":1571,"âĢĻ":1572,"Ġ15":1573,"ivity":1574,"ters":1575,"Ġlaw":1576,"Ġterr":1577,"Ġgovernment":1578,"Ġuntil":1579,"Ġbeautiful":1580,"Ġfriends":1581,"ering":1582,"Ġmonths":1583,"Ġaud":1584,"land":1585,"oy":1586,"Ġcouple":1587,"br":1588,"Ġdra":1589,"Ġorder":1590,"Ġlanguage":1591,"Ġpay":1592,"Ġ100":1593,"Ġfil":1594,"Ġindivid":1595,"Ġentire":1596,"Ġgroup":1597,"get":1598,"Ġnature":1599,"Ġmarket":1600,"den":1601,"Ġ30":1602,"bers":1603,"Ġcra":1604,"Ġmust":1605,"Ġincre":1606,"Ġmic":1607,"Ġ6":1608,"Ġresult":1609,"Ġoce":1610,"Ġexc":1611,"Ġdeep":1612,"Ġhouse":1613,"Ġwoman":1614,"Ġinternet":1615,"Ġconst":1616,"aper":1617,"Ġfollow":1618,"Ġspecies":1619,"Ġ50":1620,"Ġeducation":1621,"Ġmiddle":1622,"ives":1623,"Ġline":1624,"Ġpiece":1625,"bs":1626,"Ġfront":1627,"Ġsomebody":1628,"ream":1629,"to":1630,"tern":1631,"Ġview":1632,"Ġplaces":1633,"Ġmaterial":1634,"Ġindividual":1635,"line":1636,"Ġabs":1637,"ene":1638,"Ġpast":1639,"Ġwasn":1640,"Ġappro":1641,"Ġ'":1642,"Ġcompletely":1643,"ustr":1644,"Ġuniverse":1645,"Ġexactly":1646,"Ġquick":1647,"atic":1648,"up":1649,"Ġdecided":1650,"ental":1651,"ired":1652,"ator":1653,"Ġbehav":1654,"Ġstories":1655,"Ġret":1656,"Ġtrain":1657,"Ġthough":1658,"Ġstudents":1659,"Ġstudy":1660,"Ġfree":1661,"Ġav":1662,"Ġsociety":1663,"Ġ9":1664,"Ġland":1665,"Ġname":1666,"ibly":1667,"Ġobject":1668,"Ġtaking":1669,"eah":1670,"Ġmess":1671,"Ġred":1672,"cing":1673,"Ġris":1674,"Ġarch":1675,"Ġhuge":1676,"omes":1677,"Ġdeal":1678,"Ġbecame":1679,"ined":1680,"ane":1681,"Ġinno":1682,"Ġcollect":1683,"Ġengine":1684,"ling":1685,"Ġthird":1686,"Ġanimals":1687,"uck":1688,"Ġmass":1689,"Ġturns":1690,"Ġpos":1691,"Ġexperim":1692,"Ġrather":1693,"Ġbab":1694,"Ġtool":1695,"ared":1696,"Ġhappening":1697,"Ġgreen":1698,"gest":1699,"Ġdru":1700,"Ġeveryone":1701,"Ġknew":1702,"Ġkinds":1703,"he":1704,"Ġitself":1705,"li":1706,"Ġcompany":1707,"Ġclose":1708,"ond":1709,"Ġhar":1710,"acter":1711,"Ġsuccess":1712,"Ġsun":1713,"Ġindia":1714,"Ġlearned":1715,"Ġbro":1716,"Ġstruct":1717,"Ġourselves":1718,"Ġmother":1719,"ats":1720,"ional":1721,"ien":1722,"Ġalong":1723,"Ġminutes":1724,"ients":1725,"Ġgets":1726,"ogn":1727,"Ġrev":1728,"Ġwind":1729,"sy":1730,"Ġant":1731,"Ġclear":1732,"Ġfly":1733,"etic":1734,"Ġagainst":1735,"Ġcomplex":1736,"Ġmeet":1737,"Ġquestions":1738,"Ġgame":1739,"Ġamerica":1740,"haps":1741,"aster":1742,"row":1743,"Ġprov":1744,"Ġperhaps":1745,"Ġleg":1746,"Ġhy":1747,"Ġthemselves":1748,"Ġve":1749,"ision":1750,"icult":1751,"Ġrelations":1752,"Ġste":1753,"Ġunivers":1754,"Ġopportun":1755,"Ġinvest":1756,"Ġbott":1757,"Ġmiss":1758,"itting":1759,"Ġmar":1760,"rop":1761,"ability":1762,"Ġhours":1763,"Ġnorm":1764,"ames":1765,"Ġ7":1766,"vation":1767,"Ġones":1768,"Ġblack":1769,"Ġcreated":1770,"Ġparent":1771,"Ġothers":1772,"Ġdep":1773,"Ġcouldn":1774,"Ġid":1775,"Ġbra":1776,"Ġmill":1777,"Ġmath":1778,"Ġ8":1779,"cc":1780,"face":1781,"Ġwon":1782,"urs":1783,"Ġguys":1784,"...":1785,"Ġfocus":1786,"Ġstep":1787,"Ġexpect":1788,"Ġmeas":1789,"Ġleast":1790,"Ġill":1791,"Ġhold":1792,"ctor":1793,"Ġrad":1794,"Ġfund":1795,"Ġworked":1796,"Ġprogram":1797,"Ġpred":1798,"ident":1799,"Ġthousands":1800,"ake":1801,"not":1802,"Ġearly":1803,"wards":1804,"Ġdem":1805,"Ġliter":1806,"ush":1807,"Ġhappy":1808,"Ġdifficult":1809,"Ġdisease":1810,"Ġes":1811,"Ġlots":1812,"rib":1813,"ming":1814,"ones":1815,"att":1816,"Ġvar":1817,"Ġfield":1818,"Ġnatural":1819,"Ġfinally":1820,"Ġmot":1821,"Ġda":1822,"Ġspeak":1823,"Ġlisten":1824,"Ġgave":1825,"Ġvi":1826,"Ġseven":1827,"Ġho":1828,"Ġchina":1829,"Ġyeah":1830,"Ġsystems":1831,"Ġteam":1832,"Ġrecent":1833,"istic":1834,"ples":1835,"ium":1836,"Ġamount":1837,"Ġoper":1838,"Ġcir":1839,"olved":1840,"Ġprotect":1841,"Ġsouth":1842,"Ġoil":1843,"Ġchr":1844,"Ġobvious":1845,"Ġsens":1846,"Ġple":1847,"Ġeuro":1848,"Ġlearning":1849,"cul":1850,"Ġbehavior":1851,"Ġcut":1852,"Ġrecord":1853,"Ġmachine":1854,"Ġfre":1855,"ider":1856,"ented":1857,"Ġexist":1858,"Ġdeath":1859,"gen":1860,"Ġcolle":1861,"Ġpot":1862,"ither":1863,"well":1864,"Ġoutside":1865,"Ġamerican":1866,"Ġinteract":1867,"Ġsuper":1868,"Ġtaken":1869,"Ġrelationship":1870,"ination":1871,"ster":1872,"Ġocean":1873,"Ġsex":1874,"ological":1875,"Ġextra":1876,"ially":1877,"Ġsqu":1878,"Ġdifference":1879,"Ġfail":1880,"Ġarea":1881,"ns":1882,"iqu":1883,"Ġnetwork":1884,"Ġdemo":1885,"vered":1886,"Ġdel":1887,"Ġchanged":1888,"Ġshort":1889,"Ġcentury":1890,"ature":1891,"Ġyork":1892,"Ġgiven":1893,"Ġblue":1894,"Ġwall":1895,"Ġjour":1896,"Ġcommon":1897,"Ġmoving":1898,"Ġeight":1899,"ential":1900,"Ġhands":1901,"Ġer":1902,"Ġsym":1903,"Ġeurope":1904,"Ġduring":1905,"Ġgrand":1906,"Ġeasy":1907,"aking":1908,"Ġ...":1909,"Ġcities":1910,"ĠâĻª":1911,"Ġpatter":1912,"Ġnon":1913,"Ġbeginning":1914,"what":1915,"Ġlim":1916,"ides":1917,"ully":1918,"Ġfish":1919,"Ġyourself":1920,"Ġdig":1921,"Ġleave":1922,"Ġarg":1923,"Ġwhatever":1924,"Ġeyes":1925,"sych":1926,"Ġlow":1927,"Ġtyp":1928,"Ġintell":1929,"Ġturned":1930,"Ġbehind":1931,"ĠâĢ":1932,"utions":1933,"Ġnorth":1934,"Ġocc":1935,"verage":1936,"Ġtakes":1937,"ted":1938,"Ġpsych":1939,"Ġincl":1940,"Ġculture":1941,"Ġmaj":1942,"Ġpopulation":1943,"Ġexplain":1944,"Ġsent":1945,"Ġterms":1946,"Ġtem":1947,"ased":1948,"Ġchem":1949,"Ġneeds":1950,"Ġsupport":1951,"Ġwonderful":1952,"Ġaudience":1953,"Ġseeing":1954,"Ġcommunic":1955,"itions":1956,"olute":1957,"Ġ12":1958,"Ġevent":1959,"Ġinstit":1960,"Ġlocal":1961,"Ġsea":1962,"Ġperfect":1963,"Ġtrad":1964,"Ġimpro":1965,"Ġident":1966,"Ġcompanies":1967,"Ġpaper":1968,"ption":1969,"Ġmedia":1970,"ump":1971,"ude":1972,"Ġpick":1973,"Ġfall":1974,"Ġextre":1975,"Ġbreak":1976,"ipp":1977,"inary":1978,"Ġpract":1979,"ply":1980,"astic":1981,"Ġperform":1982,"Ġtot":1983,"Ġbegan":1984,"Ġabsolute":1985,"Ġreach":1986,"Ġsud":1987,"Ġcannot":1988,"Ġfriend":1989,"Ġess":1990,"Ġparts":1991,"Ġserv":1992,"Ġstay":1993,"idence":1994,"Ġsimply":1995,"ret":1996,"Ġimage":1997,"Ġmicro":1998,"Ġ18":1999,"aring":2000,"Ġdark":2001,"year":2002,"Ġmajor":2003,"itch":2004,"app":2005,"Ġdream":2006,"ĠâĢĶ":2007,"cra":2008,"Ġlonger":2009,"Ġeconomic":2010,"elt":2011,"Ġaccess":2012,"Ġconsum":2013,"Ġpowerful":2014,"ges":2015,"ton":2016,"Ġpoor":2017,"Ġweek":2018,"Ġrealized":2019,"itect":2020,"Ġneeded":2021,"Ġspecial":2022,"how":2023,"fully":2024,"Ġap":2025,"cious":2026,"ource":2027,"Ġparents":2028,"Ġnational":2029,"Ġemb":2030,"Ġsize":2031,"Ġcy":2032,"Ġbuy":2033,"Ġrepres":2034,"Ġarchitect":2035,"Ġfamil":2036,"Ġemot":2037,"Ġpersonal":2038,"Ġground":2039,"Ġtried":2040,"Ġcenter":2041,"bo":2042,"pid":2043,"Ġoh":2044,"iving":2045,"Ġtransform":2046,"Ġ40":2047,"Ġsurpr":2048,"Ġciv":2049,"Ġhumans":2050,"Ġreality":2051,"Ġsurv":2052,"port":2053,"Ġfeed":2054,"ources":2055,"Ġpresent":2056,"Ġrobot":2057,"Ġinterested":2058,"Ġviol":2059,"Ġpress":2060,"Ġeat":2061,"Ġpriv":2062,"Ġfelt":2063,"Ġgone":2064,"Ġconv":2065,"Ġfather":2066,"you":2067,"Ġrich":2068,"Ġsum":2069,"Ġeither":2070,"ivers":2071,"Ġgrowth":2072,"Ġsitu":2073,"Ġscale":2074,"Ġquickly":2075,"ising":2076,"Ġkey":2077,"Ġstrong":2078,"ison":2079,"rought":2080,"ledge":2081,"Ġprofess":2082,"mer":2083,"Ġwhite":2084,"Ġenc":2085,"ised":2086,"ilar":2087,"Ġrecogn":2088,"Ġnear":2089,"ibility":2090,"Ġspend":2091,"sh":2092,"Ġpen":2093,"rodu":2094,"hood":2095,"els":2096,"Ġcool":2097,"crib":2098,"Ġsudden":2099,"Ġslow":2100,"Ġur":2101,"Ġability":2102,"Ġspent":2103,"avor":2104,"Ġapproach":2105,"xy":2106,"Ġanimal":2107,"Ġvalue":2108,"ged":2109,"Ġrequ":2110,"Ġdirect":2111,"Ġsitting":2112,"Ġdna":2113,"Ġopportunity":2114,"ex":2115,"inal":2116,"Ġmult":2117,"Ġfear":2118,"Ġfeet":2119,"Ġshows":2120,"Ġweeks":2121,"Ġfight":2122,"Ġphone":2123,"ney":2124,"Ġsil":2125,"ived":2126,"Ġpolitical":2127,"Ġincredible":2128,"rent":2129,"Ġorig":2130,"Ġvers":2131,"ife":2132,"Ġwouldn":2133,"Ġrock":2134,"Ġtravel":2135,"Ġice":2136,"room":2137,"Ġwin":2138,"ators":2139,"Ġknown":2140,"osp":2141,"Ġmorning":2142,"Ġlost":2143,"Ġleaders":2144,"oh":2145,"Ġpur":2146,"Ġeconomy":2147,"Ġstreet":2148,"ument":2149,"Ġextreme":2150,"Ġbar":2151,"Ġfast":2152,"Ġsat":2153,"Ġdest":2154,"izing":2155,"Ġtechnolog":2156,"Ġsurface":2157,"Ġobs":2158,"Ġnice":2159,"Ġmedic":2160,"Ġrespons":2161,"Ġpredict":2162,"Ġmeasure":2163,"Ġcop":2164,"Ġpatients":2165,"Ġdraw":2166,"Ġbottom":2167,"Ġareas":2168,"ards":2169,"Ġwrite":2170,"Ġbased":2171,"Ġcamer":2172,"Ġblood":2173,"ows":2174,"Ġforce":2175,"ode":2176,"com":2177,"Ġbill":2178,"Ġsoft":2179,"Ġevolution":2180,"Ġattention":2181,"Ġphotograph":2182,"Ġstructure":2183,"Ġpull":2184,"ony":2185,"Ġvol":2186,"ains":2187,"Ġfoot":2188,"of":2189,"end":2190,"Ġanyone":2191,"Ġcaus":2192,"Ġce":2193,"Ġdie":2194,"hor":2195,"ule":2196,"Ġchanges":2197,"Ġprin":2198,"Ġmole":2199,"Ġarm":2200,"Ġ25":2201,"ral":2202,"Ġchallenge":2203,"Ġindust":2204,"ression":2205,"Ġsimilar":2206,"Ġaverage":2207,"iny":2208,"ouch":2209,"ales":2210,"Ġcrit":2211,"ala":2212,"ively":2213,"Ġnumbers":2214,"Ġsho":2215,"cially":2216,"Ġbox":2217,"zy":2218,"Ġunf":2219,"lect":2220,"Ġimpact":2221,"ler":2222,"Ġrealize":2223,"ny":2224,"Ġvoice":2225,"Ġcivil":2226,"Ġpa":2227,"uth":2228,"Ġphysical":2229,"Ġir":2230,"Ġbrought":2231,"ustain":2232,"Ġmeaning":2233,"entially":2234,"Ġgrowing":2235,"Ġclimate":2236,"Ġrelig":2237,"ids":2238,"ateg":2239,"acy":2240,"Ġfeeling":2241,"bor":2242,"lt":2243,"Ġhor":2244,"Ġredu":2245,"Ġbooks":2246,"Ġcamp":2247,"Ġhundreds":2248,"ford":2249,"Ġborn":2250,"Ġbene":2251,"Ġcomb":2252,"anger":2253,"Ġinsp":2254,"Ġcolor":2255,"Ġscientists":2256,"Ġstra":2257,"Ġvill":2258,"Ġstage":2259,"Ġmap":2260,"Ġmain":2261,"Ġtele":2262,"Ġdeveloped":2263,"Ġfilm":2264,"Ġrisk":2265,"Ġanal":2266,"Ġknowledge":2267,"Ġhosp":2268,"Ġgiving":2269,"Ġliterally":2270,"ove":2271,"Ġhot":2272,"Ġexperiment":2273,"Ġrunning":2274,"Ġopt":2275,"Ġfac":2276,"bon":2277,"Ġforward":2278,"Ġseems":2279,"Ġtechnologies":2280,"eg":2281,"Ġtheory":2282,"Ġsoon":2283,"Ġmov":2284,"by":2285,"erm":2286,"Ġdeg":2287,"Ġdevelopment":2288,"Ġspread":2289,"Ġwrote":2290,"Ġfundam":2291,"Ġach":2292,"Ġserious":2293,"Ġball":2294,"Ġcars":2295,"Ġsle":2296,"Ġmount":2297,"Ġrele":2298,"Ġunderstanding":2299,"Ġcurrent":2300,"par":2301,"ified":2302,"Ġpost":2303,"Ġstarting":2304,"Ġenglish":2305,"Ġmillions":2306,"Ġrepl":2307,"Ġweb":2308,"ored":2309,"Ġstat":2310,"Ġdead":2311,"Ġdepe":2312,"Ġguess":2313,"Ġelectric":2314,"ned":2315,"Ġneigh":2316,"Ġtext":2317,"Ġtradition":2318,"Ġabsolutely":2319,"Ġfavor":2320,"Ġmiles":2321,"Ġimages":2322,"Ġrevolution":2323,"Ġworth":2324,"ills":2325,"Ġtype":2326,"chan":2327,"Ġnobody":2328,"Ġmovement":2329,"go":2330,"Ġpath":2331,"Ġamong":2332,"Ġcirc":2333,"aged":2334,"Ġgeneral":2335,"Ġprom":2336,"Ġrecently":2337,"lu":2338,"Ġmodern":2339,"Ġgives":2340,"ggest":2341,"Ġalone":2342,"Ġsuggest":2343,"Ġpoll":2344,"Ġnormal":2345,"ging":2346,"Ġtelling":2347,"Ġtools":2348,"amp":2349,"Ġcompet":2350,"Ġcompass":2351,"Ġflo":2352,"Ġsustain":2353,"Ġhon":2354,"Ġscre":2355,"Ġdou":2356,"Ġproper":2357,"Ġfur":2358,"Ġroad":2359,"Ġdescrib":2360,"por":2361,"Ġest":2362,"Ġsn":2363,"Ġexcept":2364,"Ġpolic":2365,"Ġvisual":2366,"Ġhig":2367,"Ġintellig":2368,"ades":2369,"Ġbaby":2370,"Ġinclud":2371,"Ġonline":2372,"Ġrul":2373,"bit":2374,"vent":2375,"omet":2376,"Ġissue":2377,"Ġavail":2378,"Ġmathem":2379,"ilities":2380,"Ġtruth":2381,"po":2382,"ensive":2383,"Ġcreating":2384,"ency":2385,"Ġsuff":2386,"Ġplaying":2387,"ites":2388,"ploy":2389,"ift":2390,"ung":2391,"Ġdiscovered":2392,"Ġaffect":2393,"Ġfire":2394,"Ġseem":2395,"Ġshowed":2396,"Ġdeveloping":2397,"Ġtouch":2398,"amed":2399,"Ġconcept":2400,"Ġsell":2401,"Ġemp":2402,"ban":2403,"ero":2404,"Ġindustry":2405,"Ġsong":2406,"Ġfa":2407,"Ġpatient":2408,"eed":2409,"Ġpeace":2410,"Ġsold":2411,"Ġinnovation":2412,"Ġobviously":2413,"Ġprop":2414,"pecially":2415,"head":2416,"asing":2417,"imens":2418,"Ġsave":2419,"Ġphil":2420,"Ġuniversity":2421,"Ġult":2422,"Ġtrack":2423,"Ġmedical":2424,"Ġespecially":2425,"oud":2426,"Ġmechan":2427,"Ġarr":2428,"Ġcompassion":2429,"Ġasking":2430,"Ġchance":2431,"Ġresources":2432,"Ġachie":2433,"iant":2434,"ther":2435,"Ġincredibly":2436,"Ġtalked":2437,"Ġlay":2438,"urity":2439,"Ġperi":2440,"Ġanybody":2441,"Ġshape":2442,"Ġconvers":2443,"Ġissues":2444,"asc":2445,"Ġreact":2446,"Ġsubject":2447,"Ġperiod":2448,"Ġhaven":2449,"Ġreasons":2450,"like":2451,"Ġpark":2452,"inese":2453,"ique":2454,"Ġbenef":2455,"aw":2456,"ished":2457,"Ġflu":2458,"Ġexperien":2459,"Ġproduce":2460,"erence":2461,"Ġchoice":2462,"Ġbird":2463,"ival":2464,"Ġboy":2465,"ucle":2466,"Ġeye":2467,"Ġavailable":2468,"Ġec":2469,"str":2470,"Ġaren":2471,"Ġknows":2472,"Ġflow":2473,"Ġsolution":2474,"Ġfair":2475,"Ġneg":2476,"Ġevidence":2477,"Ġattack":2478,"Ġmessage":2479,"ances":2480,"Ġsever":2481,"Ġrate":2482,"phere":2483,"Ġchanging":2484,"Ġpictures":2485,"Ġtiny":2486,"Ġdin":2487,"Ġinvolved":2488,"Ġdesigned":2489,"Ġcomputers":2490,"Ġsearch":2491,"Ġsituation":2492,"Ġled":2493,"Ġtrust":2494,"Ġsolar":2495,"gn":2496,"Ġdom":2497,"Ġchinese":2498,"Ġcarbon":2499,"Ġgirls":2500,"ug":2501,"erv":2502,"ese":2503,"Ġforest":2504,"iction":2505,"Ġ199":2506,"do":2507,"Ġaw":2508,"Ġnine":2509,"Ġneur":2510,"Ġsolve":2511,"ister":2512,"Ġgoog":2513,"Ġbed":2514,"Ġsmart":2515,"yond":2516,"Ġbecomes":2517,"Ġsleep":2518,"ences":2519,"Ġnucle":2520,"Ġemerg":2521,"Ġoffice":2522,"Ġbigger":2523,"Ġreport":2524,"xic":2525,"Ġchoo":2526,"ify":2527,"Ġputting":2528,"Ġbeyond":2529,"Ġindeed":2530,"Ġwriting":2531,"Ġsounds":2532,"Ġseveral":2533,"here":2534,"Ġrain":2535,"Ġclos":2536,"let":2537,"Ġsafe":2538,"Ġgeneration":2539,"yn":2540,"Ġfem":2541,"apt":2542,"Ġgroups":2543,"ped":2544,"Ġimm":2545,"Ġdrive":2546,"Ġfunction":2547,"Ġver":2548,"50":2549,"ma":2550,"Ġast":2551,"Ġlived":2552,"Ġsoftware":2553,"light":2554,"unt":2555,"istan":2556,"Ġtable":2557,"Ġ60":2558,"Ġdrugs":2559,"come":2560,"lict":2561,"oices":2562,"Ġlikely":2563,"Ġbacter":2564,"arily":2565,"Ġdemocra":2566,"Ġport":2567,"Ġdied":2568,"Ġlif":2569,"Ġlea":2570,"Ġdefin":2571,"ee":2572,"une":2573,"Ġspeed":2574,"oph":2575,"Ġcertainly":2576,"Ġrules":2577,"Ġtowards":2578,"Ġdanger":2579,"ishing":2580,"Ġprim":2581,"Ġcapital":2582,"Ġtas":2583,"Ġwest":2584,"Ġnecess":2585,"Ġplant":2586,"Ġsecurity":2587,"ik":2588,"Ġwish":2589,"Ġhit":2590,"Ġsend":2591,"ips":2592,"Ġdevice":2593,"ires":2594,"pped":2595,"oring":2596,"Ġtend":2597,"abor":2598,"Ġblock":2599,"Ġdrug":2600,"Ġsyn":2601,"Ġinternational":2602,"fort":2603,"lo":2604,"Ġbreat":2605,"Ġeth":2606,"Ġadm":2607,"Ġconscious":2608,"Ġparticularly":2609,"Ġsam":2610,"Ġnotice":2611,"umb":2612,"ressed":2613,"usion":2614,"ctors":2615,"Ġaction":2616,"ously":2617,"Ġplease":2618,"oms":2619,"Ġgoogle":2620,"Ġlink":2621,"Ġinterv":2622,"ief":2623,"Ġcapt":2624,"Ġscientific":2625,"Ġsuddenly":2626,"Ġprinci":2627,"Ġpu":2628,"Ġtar":2629,"Ġbur":2630,"Ġgames":2631,"Ġmoved":2632,"Ġrid":2633,"Ġquality":2634,"Ġanyway":2635,"Ġbasic":2636,"Ġschools":2637,"Ġcharacter":2638,"Ġextraord":2639,"ext":2640,"Ġvision":2641,"book":2642,"Ġlog":2643,"Ġonto":2644,"Ġvirt":2645,"Ġvirus":2646,"gth":2647,"Ġrece":2648,"Ġwalking":2649,"Ġeventually":2650,"ok":2651,"Ġpan":2652,"Ġstru":2653,"Ġeverywhere":2654,"Ġdigital":2655,"Ġbal":2656,"Ġlad":2657,"Ġeast":2658,"medi":2659,"Ġpotential":2660,"ground":2661,"Ġdiv":2662,"Ġcris":2663,"Ġconsider":2664,"for":2665,"rast":2666,"Ġdan":2667,"Ġfarm":2668,"Ġvari":2669,"Ġparticip":2670,"Ġjobs":2671,"Ġcross":2672,"Ġmarr":2673,"Ġshowing":2674,"Ġprojects":2675,"uly":2676,"Ġson":2677,"Ġbir":2678,"Ġmob":2679,"Ġexamples":2680,"Ġmaterials":2681,"Ġtotally":2682,"Ġgas":2683,"Ġnarr":2684,"Ġstudent":2685,"Ġteachers":2686,"Ġjourney":2687,"Ġencou":2688,"Ġstar":2689,"Ġextremely":2690,"Ġchemical":2691,"iar":2692,"Ġaware":2693,"Ġsand":2694,"Ġcit":2695,"Ġeffic":2696,"Ġsky":2697,"Ġsquare":2698,"eter":2699,"Ġcontext":2700,"Ġaccount":2701,"Ġhospital":2702,"Ġscreen":2703,"Ġactiv":2704,"Ġwants":2705,"Ġstarts":2706,"Ġbiggest":2707,"Ġmemory":2708,"Ġexciting":2709,"Ġmal":2710,"Ġdoor":2711,"Ġlargest":2712,"Ġcheck":2713,"Ġresults":2714,"Ġrepresent":2715,"Ġfundamental":2716,"ners":2717,"Ġfix":2718,"Ġhappiness":2719,"Ġdetail":2720,"Ġfurther":2721,"Ġhigher":2722,"Ġready":2723,"Ġapart":2724,"verty":2725,"Ġessentially":2726,"onse":2727,"Ġskin":2728,"Ġneighbor":2729,"Ġdemocracy":2730,"ims":2731,"Ġcarry":2732,"Ġviolence":2733,"Ġcamera":2734,"Ġcart":2735,"Ġfant":2736,"Ġmeant":2737,"Ġclean":2738,"itary":2739,"Ġspir":2740,"Ġvillage":2741,"enom":2742,"Ġcomplic":2743,"Ġterror":2744,"Ġpositive":2745,"Ġstick":2746,"antly":2747,"Ġvac":2748,"Ġpoverty":2749,"Ġadult":2750,"Ġprogress":2751,"Ġcollege":2752,"Ġpattern":2753,"Ġrole":2754,"Ġearl":2755,"Ġtrial":2756,"Ġ80":2757,"Ġsan":2758,"Ġsal":2759,"icle":2760,"Ġisl":2761,"Ġintrodu":2762,"apan":2763,"Ġsupposed":2764,"Ġthousand":2765,"Ġcontinue":2766,"Ġmedicine":2767,"Ġthreat":2768,"osphere":2769,"Ġlabor":2770,"Ġtrees":2771,"Ġbirth":2772,"uit":2773,"Ġcat":2774,"Ġbom":2775,"Ġlos":2776,"Ġsequ":2777,"Ġimposs":2778,"Ġbrit":2779,"Ġcreative":2780,"Ġresponse":2781,"Ġjoh":2782,"Ġconflict":2783,"cuss":2784,"Ġbank":2785,"Ġgala":2786,"itten":2787,"Ġfavorite":2788,"ey":2789,"Ġmodels":2790,"Ġcrazy":2791,"Ġx":2792,"Ġfill":2793,"Ġnamed":2794,"Ġimmedi":2795,"Ġtransl":2796,"Ġimprove":2797,"ring":2798,"Ġban":2799,"Ġdro":2800,"Ġdam":2801,"Ġsepar":2802,"Ġjapan":2803,"Ġgraph":2804,"Ġmeth":2805,"Ġdiscover":2806,"Ġindividuals":2807,"Ġcitiz":2808,"ery":2809,"isions":2810,"Ġclin":2811,"Ġmathemat":2812,"Ġusually":2813,"Ġplants":2814,"Ġconnected":2815,"Ġcause":2816,"Ġdoctor":2817,"ruction":2818,"ughter":2819,"Ġdiag":2820,"Ġreturn":2821,"oid":2822,"Ġbunch":2823,"Ġluck":2824,"Ġang":2825,"imp":2826,"Ġcollabor":2827,"Ġorganization":2828,"Ġminds":2829,"Ġwatching":2830,"Ġmagn":2831,"Ġnuclear":2832,"Ġmine":2833,"Ġtom":2834,"Ġfaster":2835,"Ġcold":2836,"Ġbuildings":2837,"nces":2838,"Ġpush":2839,"oming":2840,"ulate":2841,"Ġactivity":2842,"Ġwait":2843,"Ġassum":2844,"Ġlose":2845,"Ġsomewhere":2846,"Ġperspect":2847,"ze":2848,"iger":2849,"Ġ16":2850,"Ġenj":2851,"Ġaccept":2852,"Ġtells":2853,"Ġteacher":2854,"Ġgoal":2855,"Ġworse":2856,"Ġdeb":2857,"phone":2858,"Ġfreed":2859,".,":2860,"Ġwebs":2861,"Ġwaste":2862,"Ġconcer":2863,"odies":2864,"Ġthanks":2865,"Ġstrateg":2866,"Ġpassion":2867,"Ġconditions":2868,"Ġunfortun":2869,"Ġimpossible":2870,"Ġwild":2871,"Ġbud":2872,"Ġhiv":2873,"Ġlate":2874,"Ġremark":2875,"Ġbrains":2876,"Ġgrew":2877,"Ġmovie":2878,"Ġdisapp":2879,"Ġfinding":2880,"Ġcommunities":2881,"eth":2882,"ops":2883,"Ġshown":2884,"Ġchoose":2885,"Ġsource":2886,"erve":2887,"Ġobjects":2888,"rest":2889,"Ġmis":2890,"Ġlands":2891,"Ġcentral":2892,"idge":2893,"Ġ11":2894,"Ġblind":2895,"Ġappear":2896,"Ġlaunch":2897,"Ġ201":2898,"Ġextraordinary":2899,"fer":2900,"ought":2901,"Ġann":2902,"ipt":2903,"Ġlau":2904,"Ġsorts":2905,"Ġlarger":2906,"Ġafrican":2907,"Ġcolleag":2908,"Ġabove":2909,"Ġrights":2910,"Ġcoun":2911,"Ġpublish":2912,"mend":2913,"more":2914,"Ġsite":2915,"Ġfine":2916,"Ġmanage":2917,"Ġfinan":2918,"Ġfing":2919,"Ġsomehow":2920,"Ġ14":2921,"Ġdetect":2922,"atory":2923,"Ġpack":2924,"Ġheav":2925,"Ġrand":2926,"Ġstudies":2927,"cape":2928,"inct":2929,"Ġburn":2930,"akes":2931,"Ġminute":2932,"Ġincluding":2933,"cise":2934,"ana":2935,"Ġsignific":2936,"Ġcode":2937,"Ġfle":2938,"uss":2939,"Ġstars":2940,"Ġforms":2941,"Ġhowever":2942,"Ġtaught":2943,"Ġauthor":2944,"Ġkilled":2945,"Ġtraditional":2946,"nal":2947,"ued":2948,"Ġwife":2949,"Ġoxy":2950,"Ġcard":2951,"Ġger":2952,"Ġjud":2953,"Ġallowed":2954,"Ġinflu":2955,"Ġproducts":2956,"Ġcook":2957,"Ġlower":2958,"Ġdoc":2959,"Ġprote":2960,"Ġdesp":2961,"others":2962,"Ġcomplicated":2963,"ai":2964,"Ġhop":2965,"Ġended":2966,"Ġmoral":2967,"Ġtemper":2968,"Ġtown":2969,"estern":2970,"sect":2971,"rage":2972,"Ġ17":2973,"Ġtraining":2974,"Ġcases":2975,"though":2976,"Ġtherefore":2977,"izations":2978,"Ġzero":2979,"Ġposition":2980,"ror":2981,"Ġtree":2982,"Ġmuse":2983,"ured":2984,"Ġtruly":2985,"Ġquant":2986,"ounds":2987,"Ġolder":2988,"Ġpresident":2989,"Ġclearly":2990,"Ġmist":2991,"Ġking":2992,"Ġalthough":2993,"Ġafford":2994,"Ġdiscuss":2995,"Ġallows":2996,"Ġincrease":2997,"Ġchris":2998,"enomen":2999,"Ġpage":3000,"Ġdoctors":3001,"Ġgold":3002,"Ġupon":3003,"Ġprison":3004,"Ġphenomen":3005,"Ġstanding":3006,"Ġfamilies":3007,"Ġfram":3008,"Ġkil":3009,"Ġalive":3010,"Ġspo":3011,"emic":3012,"Ġroll":3013,"Ġpoints":3014,"Ġreading":3015,"Ġsuccessful":3016,"Ġchrist":3017,"Ġpurp":3018,"Ġbacteria":3019,"ining":3020,"Ġdecision":3021,"Ġexcited":3022,"Ġcrisis":3023,"!\"":3024,"Ġthrow":3025,"Ġbeings":3026,"Ġdistrib":3027,"Ġservice":3028,"Ġcritical":3029,"Ġelectricity":3030,"aur":3031,"Ġhur":3032,"Ġprice":3033,"tend":3034,"Ġurban":3035,"put":3036,"Ġmam":3037,"Ġboard":3038,"Ġseries":3039,"Ġregion":3040,"men":3041,"Ġmention":3042,"Ġfra":3043,"Ġine":3044,"Ġbiology":3045,"Ġcorre":3046,"Ġlines":3047,"Ġterm":3048,"Ġhealthy":3049,"Ġphysics":3050,"Ġincreasing":3051,"Ġpolicy":3052,"Ġachieve":3053,"Ġmuseum":3054,"Ġfasc":3055,"Ġinfect":3056,"Ġthroughout":3057,"Ġglass":3058,"Ġmagic":3059,"Ġcalcul":3060,"Ġtrou":3061,"Ġhom":3062,"Ġdad":3063,"Ġfort":3064,"Ġanywhere":3065,"Ġengage":3066,"Ġstrange":3067,"Ġpieces":3068,"Ġrobots":3069,"Ġmilitary":3070,"Ġpatterns":3071,"Ġarchitecture":3072,"Ġconversation":3073,"Ġperspective":3074,"iers":3075,"Ġswe":3076,"isms":3077,"iced":3078,"Ġsmaller":3079,"Ġrespect":3080,"Ġsecret":3081,"Ġstraight":3082,"dom":3083,"inated":3084,"Ġtreatment":3085,"Ġprovide":3086,"Ġfreedom":3087,"ration":3088,"Ġsus":3089,"Ġsad":3090,"Ġvict":3091,"Ġenorm":3092,"Ġprint":3093,"Ġcontent":3094,"Ġwritten":3095,"Ġpolice":3096,"Ġspecific":3097,"fact":3098,"soci":3099,"Ġseconds":3100,"Ġtv":3101,"Ġwhe":3102,"Ġkept":3103,"Ġhimself":3104,"Ġslight":3105,"Ġ198":3106,"iet":3107,"Ġoccur":3108,"Ġneurons":3109,"bb":3110,"Ġign":3111,"Ġweight":3112,"rap":3113,"Ġclim":3114,"ission":3115,"Ġrecognize":3116,"Ġmolec":3117,"met":3118,"vision":3119,"cient":3120,"Ġversion":3121,"Ġwestern":3122,"Ġunfortunately":3123,"ech":3124,"Ġspect":3125,"Ġactual":3126,"ologists":3127,"Ġgenes":3128,"Ġtransport":3129,"Ġmars":3130,"Ġdog":3131,"Ġanymore":3132,"Ġcloud":3133,"ffic":3134,"Ġearlier":3135,"ently":3136,"Ġgreater":3137,"Ġaddress":3138,"ustrial":3139,"Ġsor":3140,"rep":3141,"Ġtrick":3142,"Ġtrade":3143,"Ġamericans":3144,"Ġeffort":3145,"Ġmachines":3146,"Ġveh":3147,"iversity":3148,"ube":3149,"zz":3150,"Ġara":3151,"Ġbodies":3152,"Ġmental":3153,"Ġpal":3154,"Ġbecoming":3155,"Ġscr":3156,"Ġlistening":3157,"Ġfantastic":3158,"bol":3159,"back":3160,"gra":3161,"Ġmr":3162,"Ġinit":3163,"Ġran":3164,"iling":3165,"uments":3166,"Ġafgh":3167,"Ġcontrib":3168,"Ġexplore":3169,"Ġjump":3170,"Ġcomfort":3171,"Ġhero":3172,"Ġremind":3173,"Ġenvironmental":3174,"Ġprivate":3175,"Ġintelligence":3176,"ulf":3177,"Ġ13":3178,"Ġloved":3179,"Ġautom":3180,"Ġpainting":3181,"Ġinterview":3182,"Ġcatch":3183,"Ġalg":3184,"Ġweren":3185,"Ġlegs":3186,"Ġwilling":3187,"Ġbroad":3188,"Ġlaugh":3189,"ira":3190,"iest":3191,"aging":3192,"Ġ21":3193,"Ġemail":3194,"Ġdecisions":3195,"Ġskills":3196,"Ġstore":3197,"Ġassoci":3198,"Ġshot":3199,"Ġatm":3200,"iven":3201,"Ġfamous":3202,"oon":3203,"Ġnone":3204,"Ġexpensive":3205,"Ġemploy":3206,"Ġgenetic":3207,"Ġproduction":3208,"Ġinnov":3209,"Ġfamiliar":3210,"mb":3211,"Ġtun":3212,"lly":3213,"Ġyell":3214,"lebr":3215,"eties":3216,"Ġfinal":3217,"Ġcosts":3218,"Ġcelebr":3219,"Ġdangerous":3220,"Ġstrugg":3221,"ried":3222,"Ġthr":3223,"Ġden":3224,"itation":3225,"Ġworry":3226,"Ġexh":3227,"Ġcover":3228,"Ġdrink":3229,"Ġsolutions":3230,"Ġ90":3231,"Ġtur":3232,"itude":3233,"sequ":3234,"Ġliber":3235,"Ġunique":3236,"acity":3237,"Ġgovernments":3238,"Ġwaiting":3239,"Ġpractice":3240,"ike":3241,"time":3242,"oles":3243,"Ġrise":3244,"Ġspirit":3245,"Ġenjoy":3246,"inating":3247,"Ġshark":3248,"Ġsurger":3249,"Ġelectr":3250,"Ġbeauty":3251,"Ġimmediately":3252,"Ġafghan":3253,"cies":3254,"Ġhall":3255,"Ġforth":3256,"amic":3257,"Ġsurve":3258,"Ġdeterm":3259,"Ġlevels":3260,"Ġperformance":3261,"Ġwebsite":3262,"Ġten":3263,"Ġcry":3264,"ceed":3265,"rams":3266,"Ġrange":3267,"Ġhumanity":3268,"ndon":3269,"Ġsaving":3270,"water":3271,"Ġmatch":3272,"aries":3273,"aly":3274,"Ġriver":3275,"ained":3276,"resh":3277,"Ġgreatest":3278,"Ġdirection":3279,"Ġlaws":3280,"Ġwood":3281,"Ġwealth":3282,"Ġnation":3283,"Ġwalked":3284,"Ġvalues":3285,"Ġinstitutions":3286,"Ġcitizens":3287,"Ġtit":3288,"atives":3289,"Ġweap":3290,"ays":3291,"Ġhell":3292,"Ġforget":3293,"eless":3294,"Ġraise":3295,"Ġservices":3296,"Ġrandom":3297,"bel":3298,"imately":3299,"Ġord":3300,"ables":3301,"Ġdriving":3302,"Ġteaching":3303,"Ġlat":3304,"uted":3305,"Ġplastic":3306,"Ġdecade":3307,"Ġfuel":3308,"Ġeffective":3309,"Ġbabies":3310,"Ġmultip":3311,"iation":3312,"iding":3313,"Ġindustrial":3314,"Ġsmo":3315,"rene":3316,"Ġharv":3317,"Ġmeeting":3318,"pro":3319,"Ġfit":3320,"ils":3321,"Ġgradu":3322,"Ġmassive":3323,"Ġvarious":3324,"Ġjournal":3325,"Ġoptim":3326,"Ġfinancial":3327,"atically":3328,"istics":3329,"unk":3330,"Ġincome":3331,"Ġpopular":3332,"Ġdemon":3333,"oty":3334,"Ġrule":3335,"Ġdecades":3336,"Ġinvented":3337,"Ġfloor":3338,"ball":3339,"ping":3340,"Ġhous":3341,"ises":3342,"Ġprep":3343,"Ġelectron":3344,"Ġstandard":3345,"Ġtypes":3346,"Ġmethod":3347,"Ġgerman":3348,"Ġahead":3349,"Ġben":3350,"Ġdar":3351,"Ġinsect":3352,"Ġken":3353,"Ġsimpl":3354,"Ġphysic":3355,"iate":3356,"itor":3357,"vert":3358,"airs":3359,"Ġeffects":3360,"Ġfollowing":3361,"attle":3362,"sc":3363,"Ġshap":3364,"Ġlondon":3365,"Ġapply":3366,"Ġconnection":3367,"Ġradio":3368,"Ġneighborhood":3369,"rees":3370,"Ġmut":3371,"Ġdyn":3372,"Ġdecide":3373,"Ġinstr":3374,"Ġcareer":3375,"Ġoppos":3376,"Ġcultural":3377,"Ġcondition":3378,"Ġmountain":3379,"Ġhonest":3380,"Ġod":3381,"Ġet":3382,"Ġinfrast":3383,"Ġpolitics":3384,"Ġflying":3385,"Ġjohn":3386,"Ġinfrastruct":3387,"antic":3388,"Ġexpress":3389,"Ġrace":3390,"Ġrelative":3391,"Ġut":3392,"Ġaustr":3393,"Ġcust":3394,"Ġhair":3395,"key":3396,"Ġconcl":3397,"Ġuses":3398,"Ġuseful":3399,"Ġinstance":3400,"Ġpossibly":3401,"Ġterrible":3402,"Ġremarkable":3403,"Ġenormous":3404,"ches":3405,"Ġchoices":3406,"iles":3407,"Ġinteg":3408,"Ġmostly":3409,"Ġdepend":3410,"iot":3411,"ologist":3412,"ricult":3413,"Ġengineering":3414,"Ġnut":3415,"Ġstress":3416,"Ġagricult":3417,"epend":3418,"Ġcommer":3419,"uct":3420,"Ġdram":3421,"erson":3422,"Ġoffic":3423,"why":3424,"Ġboys":3425,"Ġ70":3426,"board":3427,"Ġdemonstr":3428,"aign":3429,"wise":3430,"Ġbase":3431,"Ġchallenges":3432,"Ġmicrob":3433,"Ġmamm":3434,"Ġsorry":3435,"Ġatmosphere":3436,"Ġtens":3437,"Ġaid":3438,"oper":3439,"Ġ24":3440,"Ġbelow":3441,"Ġ197":3442,"Ġsocieties":3443,"Ġcampaign":3444,"Ġfemale":3445,"Ġpurpose":3446,"Ġslightly":3447,"yle":3448,"Ġaltern":3449,"Ġspeech":3450,"Ġdiseases":3451,"Ġpressure":3452,"60":3453,"ervation":3454,"Ġpig":3455,"Ġworst":3456,"Ġwhose":3457,"Ġblog":3458,"Ġslide":3459,"Ġsupply":3460,"Ġhyd":3461,"nel":3462,"Ġdrop":3463,"orrow":3464,"iforn":3465,"Ġindepend":3466,"Ġgene":3467,"Ġsurround":3468,"Ġcreativity":3469,"Ġhelped":3470,"Ġrespond":3471,"Ġcaliforn":3472,"Ġmotiv":3473,"Ġsymbol":3474,"my":3475,"Ġtiss":3476,"ancy":3477,"Ġcoast":3478,"Ġpoet":3479,"Ġspeaking":3480,"Ġscan":3481,"Ġunderstood":3482,"Ġcapacity":3483,"Ġ500":3484,"Ġsummer":3485,"Ġtelevision":3486,"Ġphilos":3487,"Ġtask":3488,"reprene":3489,"ffe":3490,"itted":3491,"Ġswim":3492,"Ġswitch":3493,"Ġshared":3494,"Ġdirectly":3495,"Ġbang":3496,"Ġhus":3497,"Ġtor":3498,"Ġisland":3499,"cks":3500,"Ġmale":3501,"Ġreligion":3502,"Ġcolleagues":3503,"ls":3504,"win":3505,"Ġtal":3506,"Ġira":3507,"Ġpet":3508,"Ġforces":3509,"Ġindian":3510,"Ġinvent":3511,"Ġartist":3512,"Ġtremend":3513,"Ġrelationships":3514,"Ġdemocr":3515,"Ġsurvive":3516,"Ġdestro":3517,"Ġpaid":3518,"Ġdoub":3519,"Ġmobile":3520,"Ġtemperature":3521,"Ġarab":3522,"Ġinfrastructure":3523,"Ġcalifornia":3524,"ef":3525,"la":3526,"Ġconsequ":3527,"cles":3528,"ufact":3529,"ama":3530,"Ġknowing":3531,"Ġprevent":3532,"Ġbelief":3533,"Ġprograms":3534,"Ġanswers":3535,"Ġtotal":3536,"Ġentreprene":3537,"Ġhole":3538,"Ġoxygen":3539,"cell":3540,"Ġspaces":3541,"Ġtwice":3542,"Ġdifferences":3543,"Ġcrow":3544,"Ġcontroll":3545,"Ġbirds":3546,"Ġdimens":3547,"Ġheat":3548,"Ġmeters":3549,"Ġorganizations":3550,"Ġfunny":3551,"Ġlegal":3552,"Ġcauses":3553,"Ġpublished":3554,"cope":3555,"ding":3556,"ios":3557,"anc":3558,"Ġwashing":3559,"olve":3560,"Ġbiological":3561,"Ġprofound":3562,"Ġdespite":3563,"wood":3564,"Ġcru":3565,"Ġdance":3566,"Ġdav":3567,"Ġloss":3568,"Ġbeat":3569,"ste":3570,"Ġnoticed":3571,"Ġmanufact":3572,"Ġ300":3573,"Ġconference":3574,"Ġreflect":3575,"load":3576,"Ġyellow":3577,"Ġsurgery":3578,"Ġafghanistan":3579,"anced":3580,"arian":3581,"Ġconc":3582,"Ġexpand":3583,"Ġhighly":3584,"Ġmarkets":3585,"Ġnetworks":3586,"Ġfat":3587,"Ġshock":3588,"Ġworkers":3589,"izes":3590,"Ġgenome":3591,"cules":3592,"Ġsustainable":3593,"Ġcloser":3594,"gress":3595,"used":3596,"raid":3597,"ement":3598,"Ġdesert":3599,"Ġmusl":3600,"Ġhistor":3601,"Ġstreets":3602,"Ġoriginal":3603,"Ġtrouble":3604,"gy":3605,"right":3606,"Ġwide":3607,"inate":3608,"Ġafraid":3609,"Ġparty":3610,"rupt":3611,"rench":3612,"Ġstopped":3613,"Ġresponsibility":3614,"Ġcustom":3615,"ec":3616,"hy":3617,"ray":3618,"Ġhack":3619,"Ġfrank":3620,"Ġtax":3621,"iber":3622,"Ġapplic":3623,"Ġdesigners":3624,"Ġplayed":3625,"Ġproduced":3626,"gu":3627,"Ġrough":3628,"anda":3629,"Ġactive":3630,"Ġcooper":3631,"Ġevolved":3632,"Ġdispl":3633,"Ġgotten":3634,"Ġfold":3635,"Ġcommunicate":3636,"Ġcopy":3637,"Ġiraq":3638,"uing":3639,"Ġbought":3640,"ened":3641,"aling":3642,"Ġruss":3643,"Ġcompon":3644,"Ġmissing":3645,"Ġcommunication":3646,"Ġemotional":3647,"Ġsurprising":3648,"band":3649,"look":3650,"Ġtum":3651,"Ġfro":3652,"Ġseemed":3653,"Ġexperiments":3654,"ds":3655,"Ġsick":3656,"Ġmix":3657,"Ġdying":3658,"Ġstem":3659,"rael":3660,"Ġmos":3661,"pping":3662,"Ġtrib":3663,"Ġrapid":3664,"Ġsmell":3665,"Ġfeels":3666,"Ġnearly":3667,"Ġshoot":3668,"Ġlack":3669,"icles":3670,"Ġvul":3671,"Ġvast":3672,"ander":3673,"Ġcla":3674,"Ġcorner":3675,"Ġeasily":3676,"Ġphoto":3677,"Ġvolunt":3678,"Ġmolecules":3679,"kn":3680,"Ġwire":3681,"rew":3682,"esis":3683,"Ġeating":3684,"atell":3685,"Ġbrill":3686,"ception":3687,"ashion":3688,"mon":3689,"orith":3690,"Ġju":3691,"Ġteen":3692,"Ġplat":3693,"order":3694,"Ġmembers":3695,"Ġmagaz":3696,"Ġclassroom":3697,"Ġwindow":3698,"Ġiran":3699,"Ġreduce":3700,"Ġtarget":3701,"Ġalgorith":3702,"Ġaustral":3703,"zil":3704,"Ġmich":3705,"Ġnations":3706,"Ġhabit":3707,"Ġmoon":3708,"empt":3709,"Ġdifferently":3710,"Ġbasis":3711,"Ġhelping":3712,"Ġdegrees":3713,"Ġexperiences":3714,"Ġdinos":3715,"night":3716,"outh":3717,"Ġdiversity":3718,"Ġweird":3719,"Ġamb":3720,"Ġrare":3721,"Ġcreates":3722,"Ġplanets":3723,"Ġmetap":3724,"Ġscientist":3725,"Ġmission":3726,"Ġdeliver":3727,"Ġefficient":3728,"Ġbomb":3729,"Ġsignificant":3730,"Ġsatell":3731,"Ġhang":3732,"Ġrout":3733,"Ġalt":3734,"Ġflight":3735,"Ġattract":3736,"Ġbrazil":3737,"Ġclimb":3738,"aff":3739,"Ġmexic":3740,"Ġtrip":3741,"Ġresist":3742,"Ġappl":3743,"Ġbringing":3744,"Ġbroken":3745,"Ġdaughter":3746,"Ġecos":3747,"Ġconsciousness":3748,"Ġske":3749,"Ġgh":3750,"Ġbees":3751,"term":3752,"Ġcore":3753,"Ġaccord":3754,"Ġcomplexity":3755,"Ġetc":3756,"Ġwis":3757,"Ġseas":3758,"Ġshift":3759,"Ġrom":3760,"istry":3761,"Ġbackground":3762,"Ġflag":3763,"Ġenter":3764,"Ġvisit":3765,"Ġ$":3766,"itter":3767,"Ġgent":3768,"icking":3769,"Ġreco":3770,"Ġancient":3771,"Ġje":3772,"Ġspending":3773,"Ġlights":3774,"Ġaddition":3775,"Ġairpl":3776,"Ġbreast":3777,"Ġhearing":3778,"Ġdemand":3779,"ystem":3780,"Ġagree":3781,"Ġstudying":3782,"Ġparad":3783,"Ġdevices":3784,"Ġvulner":3785,"tle":3786,"vit":3787,"Ġstren":3788,"Ġjoin":3789,"Ġphotos":3790,"Ġfacebook":3791,"Ġanaly":3792,"ening":3793,"Ġinj":3794,"Ġcoffe":3795,"Ġcontact":3796,"Ġopportunities":3797,"Ġlandscape":3798,"Ġcommercial":3799,"Ġtremendous":3800,"Ġmad":3801,"Ġbrother":3802,"aced":3803,"Ġimagination":3804,"Ġfoundation":3805,"Ġjoy":3806,"Ġforeign":3807,"Ġdepart":3808,"Ġidentity":3809,"fr":3810,"rate":3811,"Ġmort":3812,"arter":3813,"Ġgard":3814,"Ġisrael":3815,"aining":3816,"Ġpoem":3817,"Ġbridge":3818,"Ġboat":3819,"Ġcorrect":3820,"Ġecosystem":3821,"Ġstrength":3822,"ores":3823,"Ġbread":3824,"Ġmas":3825,"rogen":3826,"Ġshop":3827,"cript":3828,"Ġfocused":3829,"Ġinspir":3830,"Ġultimately":3831,"Ġdavid":3832,"fl":3833,"arm":3834,"Ġgiant":3835,"Ġunlike":3836,"Ġartists":3837,"Ġcorpor":3838,"Ġforever":3839,"Ġfully":3840,"Ġfairly":3841,"Ġiron":3842,"Ġgun":3843,"Ġmyster":3844,"Ġpassed":3845,"Ġsexual":3846,"Ġvirtual":3847,"bu":3848,"ded":3849,"house":3850,"Ġtherap":3851,"reci":3852,"Ġble":3853,"Ġpartners":3854,"Ġpleas":3855,"Ġfarmers":3856,"Ġcoffee":3857,"off":3858,"Ġcred":3859,"Ġcogn":3860,"ica":3861,"Ġprev":3862,"Ġscul":3863,"Ġreligious":3864,"Ġinspired":3865,"Ġlucky":3866,"bert":3867,"Ġbright":3868,"Ġcheap":3869,"mark":3870,"Ġband":3871,"Ġfol":3872,"Ġchick":3873,"Ġacad":3874,"Ġconsid":3875,"Ġfailure":3876,"Ġbrilliant":3877,"based":3878,"can":3879,"hand":3880,"ius":3881,"rated":3882,"ya":3883,"Ġaspect":3884,"Ġsharing":3885,"Ġnote":3886,"Ġturning":3887,"Ġcreatures":3888,"Ġprofessor":3889,"Ġphenomenon":3890,"Ġopposite":3891,"wor":3892,"Ġfed":3893,"Ġgar":3894,"Ġep":3895,"Ġship":3896,"Ġsport":3897,"Ġevents":3898,"orders":3899,"Ġpossibility":3900,"Ġaccom":3901,"Ġhost":3902,"Ġargument":3903,"ties":3904,"Ġrepe":3905,"Ġparticles":3906,"Ġdreams":3907,"Ġdescribe":3908,"Ġgentle":3909,"ees":3910,"Ġmouth":3911,"Ġforg":3912,"ifying":3913,"Ġotherwise":3914,"Ġtraffic":3915,"Ġimportantly":3916,"Ġeasier":3917,"Ġadvant":3918,"Ġharm":3919,"Ġleadership":3920,"cest":3921,"atures":3922,"orge":3923,"this":3924,"Ġnotion":3925,"Ġexer":3926,"Ġque":3927,"itely":3928,"Ġraised":3929,"Ġinvis":3930,"Ġmoments":3931,"Ġleads":3932,"Ġfigured":3933,"Ġentirely":3934,"Ġavoid":3935,"Ġbrand":3936,"Ġvacc":3937,"Ġaccording":3938,"Ġsculpt":3939,"30":3940,"zen":3941,"Ġbatter":3942,"Ġegg":3943,"Ġremote":3944,"ification":3945,"Ġstructures":3946,"Ġdepression":3947,"ipped":3948,"Ġbillions":3949,"af":3950,"cop":3951,"Ġheld":3952,"Ġjew":3953,"Ġregular":3954,"Ġmotor":3955,"Ġbenefits":3956,"ha":3957,"Ġfashion":3958,"Ġniger":3959,"vere":3960,"Ġancest":3961,"Ġjustice":3962,"Ġdisp":3963,"Ġappreci":3964,"Ġelements":3965,"reg":3966,"Ġmit":3967,"Ġprou":3968,"Ġepid":3969,"Ġasia":3970,"ulations":3971,"Ġcalls":3972,"Ġbrings":3973,"Ġprevious":3974,"connect":3975,"print":3976,"Ġhorr":3977,"Ġsuffering":3978,"Ġnegative":3979,"Ġmig":3980,"Ġmouse":3981,"Ġug":3982,"Ġconcent":3983,"ager":3984,"Ġadapt":3985,"Ġgrass":3986,"Ġshouldn":3987,"Ġedge":3988,"Ġcharge":3989,"ography":3990,"Ġdiscovery":3991,"Ġresponsible":3992,"Ġnecessarily":3993,"Ġpuzz":3994,"Ġfrench":3995,"Ġseed":3996,"Ġattempt":3997,"Ġaccur":3998,"Ġrestaur":3999,"Ġoceans":4000,"Ġrequire":4001,"Ġcounter":4002,"ky":4003,"vity":4004,"Ġtough":4005,"Ġcand":4006,"Ġbound":4007,"Ġmaster":4008,"isco":4009,"ley":4010,"ada":4011,"Ġquote":4012,"Ġstream":4013,"Ġeuropean":4014,"Ġcompetition":4015,"Ġkilomet":4016,"ax":4017,"dimens":4018,"oun":4019,"Ġfab":4020,"Ġlunch":4021,"Ġshel":4022,"ears":4023,"Ġstudied":4024,"Ġhelps":4025,"Ġopened":4026,"Ġdistance":4027,"Ġmatters":4028,"Ġholding":4029,"Ġintellect":4030,"Ġemotion":4031,"Ġdouble":4032,"Ġadults":4033,"Ġproud":4034,"gar":4035,"ked":4036,"Ġpounds":4037,"Ġreve":4038,"Ġlibr":4039,"Ġnoise":4040,"Ġprize":4041,"Ġtransp":4042,"Ġleading":4043,"Ġ400":4044,"Ġdollar":4045,"Ġdefinition":4046,"Ġquantum":4047,"Ġweapons":4048,"Ġinsects":4049,"Ġtissue":4050,"Ġphilosoph":4051,"Ġhusband":4052,"stein":4053,"ses":4054,"Ġtour":4055,"Ġtow":4056,"verse":4057,"roll":4058,"celer":4059,"Ġange":4060,"Ġsector":4061,"Ġchur":4062,"ulated":4063,"ifically":4064,"Ġtalks":4065,"ruption":4066,"Ġindic":4067,"Ġinstitution":4068,"Ġfaith":4069,"Ġnecessary":4070,"Ġbalance":4071,"eared":4072,"set":4073,"Ġtast":4074,"Ġfis":4075,"Ġlin":4076,"idents":4077,"ami":4078,"Ġrot":4079,"Ġexch":4080,"Ġprior":4081,"ibilities":4082,"ysis":4083,"Ġchildhood":4084,"Ġinvestment":4085,"Ġfailed":4086,"Ġdocument":4087,"care":4088,"mar":4089,"pre":4090,"Ġdiver":4091,"idden":4092,"Ġund":4093,"Ġsaf":4094,"Ġrelated":4095,"Ġbelieved":4096,"Ġstuck":4097,"Ġsubst":4098,"Ġhopefully":4099,"Ġgrandm":4100,"Ġslowly":4101,"lin":4102,"Ġfoss":4103,"Ġegy":4104,"Ġmaint":4105,"Ġvall":4106,"Ġtruck":4107,"Ġcompared":4108,"Ġoffer":4109,"Ġeleph":4110,"Ġconvin":4111,"Ġsnow":4112,"Ġwheel":4113,"Ġdestroy":4114,"Ġplatform":4115,"Ġmagazine":4116,"Ġegypt":4117,"cons":4118,"vant":4119,"Ġpow":4120,"Ġnan":4121,"Ġshr":4122,"pper":4123,"Ġfourth":4124,"Ġsignal":4125,"Ġcolors":4126,"Ġsucceed":4127,"Ġnewsp":4128,"Ġembra":4129,"Ġleaving":4130,"Ġsynth":4131,"Ġvolunte":4132,"Ġmetaphor":4133,"hold":4134,"iors":4135,"uros":4136,"word":4137,"Ġlapt":4138,"Ġclick":4139,"iable":4140,"Ġexhib":4141,"dimensional":4142,"iage":4143,"Ġants":4144,"Ġwhenever":4145,"Ġcompare":4146,"Ġnovel":4147,"Ġlock":4148,"Ġelement":4149,"Ġcreation":4150,"Ġcoral":4151,"Ġfrequ":4152,"Ġcurrently":4153,"Ġconcerned":4154,"Ġsister":4155,"inist":4156,"Ġbag":4157,"Ġhate":4158,"ctions":4159,"Ġchap":4160,"Ġletter":4161,"Ġcrash":4162,"Ġlesson":4163,"Ġpolitic":4164,"ographic":4165,"Ġconstruct":4166,"Ġcollective":4167,"Ġtypical":4168,"Ġsequence":4169,"Ġinfluence":4170,"hi":4171,"mit":4172,"Ġcos":4173,"Ġmir":4174,"Ġweak":4175,"Ġmoves":4176,"Ġchair":4177,"Ġfranc":4178,"Ġspot":4179,"agers":4180,"Ġdeeply":4181,"Ġprofessional":4182,"Ġfighting":4183,"Ġdegree":4184,"Ġmathematics":4185,"Ġinvisible":4186,"uge":4187,"Ġcro":4188,"Ġfresh":4189,"Ġstation":4190,"terday":4191,"Ġdefe":4192,"Ġteles":4193,"Ġunless":4194,"Ġcaught":4195,"Ġpaint":4196,"Ġ150":4197,"Ġconstantly":4198,"Ġtrained":4199,"Ġengineers":4200,"Ġnormally":4201,"Ġdiagn":4202,"Ġfrag":4203,"xies":4204,"Ġax":4205,"Ġmer":4206,"Ġpurs":4207,"Ġacceler":4208,"Ġfactory":4209,"Ġinstall":4210,"Ġbegins":4211,"Ġprototy":4212,"Ġhyp":4213,"Ġoperating":4214,"Ġprotein":4215,"Ġfascinating":4216,"ino":4217,"Ġbone":4218,"Ġfaces":4219,"Ġgall":4220,"Ġnames":4221,"illed":4222,"Ġclosed":4223,"Ġinsight":4224,"Ġfinished":4225,"Ġopin":4226,"Ġorganisms":4227,"Ġequal":4228,"Ġinteraction":4229,"Ġwalls":4230,"Ġargue":4231,"Ġgalaxy":4232,"Ġfortun":4233,"Ġcognitive":4234,"wide":4235,"Ġpun":4236,"oted":4237,"enty":4238,"amb":4239,"Ġattach":4240,"Ġcapable":4241,"Ġaccident":4242,"Ġcircle":4243,"Ġera":4244,"ipping":4245,"Ġmajority":4246,"Ġemotions":4247,"Ġsurprise":4248,"Ġbritish":4249,"Ġfinger":4250,"rel":4251,"Ġdue":4252,"Ġlen":4253,"lex":4254,"lection":4255,"Ġreward":4256,"throp":4257,"Ġmeat":4258,"ortex":4259,"Ġmanaged":4260,"Ġfellow":4261,"Ġphones":4262,"athy":4263,"Ġdescribed":4264,"Ġseparate":4265,"Ġstrategy":4266,"yes":4267,"Ġah":4268,"Ġhun":4269,"Ġfif":4270,"esth":4271,"essed":4272,"Ġroof":4273,"Ġadop":4274,"Ġartific":4275,"Ġequival":4276,"Ġpaying":4277,"Ġinvestig":4278,"Ġseriously":4279,"Ġsoldiers":4280,"Ġgalaxies":4281,"Ġagriculture":4282,"Ġchurch":4283,"des":4284,"mp":4285,"pher":4286,"omy":4287,"that":4288,"Ġseat":4289,"Ġcoal":4290,"Ġheads":4291,"Ġyesterday":4292,"Ġfollowed":4293,"Ġperfectly":4294,"Ġconsumption":4295,"Ġprinciples":4296,"Ġadvantage":4297,"fo":4298,"eral":4299,"urally":4300,"Ġorg":4301,"Ġbusinesses":4302,"Ġcivilization":4303,"Ġbreath":4304,"ij":4305,"Ġaids":4306,"Ġmur":4307,"Ġmothers":4308,"Ġdry":4309,"edia":4310,"Ġsoil":4311,"Ġstim":4312,"uries":4313,"irt":4314,"Ġmel":4315,"Ġhasn":4316,"Ġgrown":4317,"Ġapple":4318,"Ġdiet":4319,"Ġlimited":4320,"Ġbenefit":4321,"und":4322,"Ġwave":4323,"Ġcateg":4324,"anes":4325,"Ġwhom":4326,"entally":4327,"Ġrow":4328,"cket":4329,"Ġspring":4330,"apers":4331,"Ġbrief":4332,"Ġempt":4333,"Ġleader":4334,"Ġsurprised":4335,"Ġorigin":4336,"Ġreplace":4337,"Ġmentioned":4338,"hab":4339,"Ġtap":4340,"Ġhomes":4341,"Ġincent":4342,"Ġweather":4343,"asion":4344,"Ġreform":4345,"Ġdol":4346,"Ġneuro":4347,"ulous":4348,"Ġdisc":4349,"Ġprecise":4350,"Ġsurge":4351,"Ġinfin":4352,"Ġequip":4353,"Ġlanguages":4354,"Ġfeedback":4355,"Ġmexico":4356,"Ġwisdom":4357,"bl":4358,"Ġbattle":4359,"oration":4360,"Ġwear":4361,"Ġreef":4362,"Ġworried":4363,"Ġprost":4364,"Ġeveryday":4365,"Ġfell":4366,"Ġdesire":4367,"Ġharder":4368,"Ġtreated":4369,"Ġvehicle":4370,"Ġdepartment":4371,"Ġgap":4372,"Ġwearing":4373,"Ġbear":4374,"Ġstock":4375,"Ġengland":4376,"Ġeconomics":4377,"Ġorganic":4378,"Ġsymmet":4379,"Ġinstitute":4380,"Ġpaul":4381,"Ġastron":4382,"Ġreceived":4383,"Ġincreasingly":4384,"Ġwashington":4385,"known":4386,"Ġaustralia":4387,"Ġequivalent":4388,"Ġnerv":4389,"Ġsoph":4390,"Ġgoals":4391,"Ġagre":4392,"Ġcontract":4393,"Ġbelong":4394,"Ġplanning":4395,"Ġcycle":4396,"Ġvalley":4397,"Ġcosm":4398,"Ġbon":4399,"aria":4400,"Ġbeach":4401,"Ġspl":4402,"apse":4403,"Ġtwitter":4404,"Ġarms":4405,"Ġinvited":4406,"Ġ35":4407,"Ġmarried":4408,"Ġdebate":4409,"Ġdarwin":4410,"Ġalternative":4411,"Ġpoetry":4412,"rict":4413,"Ġhidden":4414,"ston":4415,"Ġround":4416,"Ġpeak":4417,"Ġintu":4418,"emy":4419,"Ġbull":4420,"Ġimplic":4421,"Ġdesigner":4422,"Ġresearchers":4423,"Ġwatched":4424,"Ġanti":4425,"Ġfields":4426,"Ġrichard":4427,"Ġlaunched":4428,"Ġmolecule":4429,"Ġordinary":4430,"20":4431,"cil":4432,"Ġtheater":4433,"Ġbul":4434,"Ġpages":4435,"Ġkick":4436,"Ġselect":4437,"issions":4438,"Ġcurious":4439,"Ġdaily":4440,"Ġsurvival":4441,"Ġfolks":4442,"Ġequipment":4443,"pet":4444,"yl":4445,"ara":4446,"asa":4447,"Ġexists":4448,"Ġpros":4449,"Ġload":4450,"ensity":4451,"Ġcommit":4452,"Ġexpert":4453,"Ġhighest":4454,"Ġstupid":4455,"Ġmotion":4456,"craft":4457,"Ġstatistics":4458,"Ġdinner":4459,"Ġmultiple":4460,"iat":4461,"tical":4462,"Ġfal":4463,"anz":4464,"icity":4465,"roph":4466,"Ġshad":4467,"Ġneuros":4468,"Ġrat":4469,"ume":4470,"Ġusers":4471,"Ġcompl":4472,"Ġputs":4473,"Ġplayer":4474,"Ġsteps":4475,"Ġdrawing":4476,"Ġprinciple":4477,"Ġlady":4478,"Ġnutr":4479,"Ġsafety":4480,"bi":4481,"ta":4482,"Ġtick":4483,"Ġtoward":4484,"Ġrein":4485,"Ġshut":4486,"Ġrural":4487,"Ġthinks":4488,"ago":4489,"Ġcrime":4490,"Ġwarm":4491,"Ġgender":4492,"Ġveget":4493,"Ġuniversal":4494,"Ġversus":4495,"Ġtomorrow":4496,"Ġmanagement":4497,"Ġassociated":4498,"Ġgermany":4499,"Ġshapes":4500,"Ġnervous":4501,"bble":4502,"life":4503,"Ġchimp":4504,"Ġmyth":4505,"Ġquiet":4506,"Ġbrown":4507,"Ġtechnical":4508,"Ġplayers":4509,"Ġtesting":4510,"Ġidentify":4511,"Ġproperty":4512,"Ġdistribution":4513,"Ġindependent":4514,"Ġdolph":4515,"Ġdate":4516,"Ġgather":4517,"icated":4518,"Ġflat":4519,"Ġarticle":4520,"Ġsignals":4521,"point":4522,"Ġawful":4523,"Ġleaves":4524,"Ġstruggle":4525,"Ġkilometers":4526,"ae":4527,"ham":4528,"pes":4529,"Ġein":4530,"ushing":4531,"Ġchain":4532,"Ġrub":4533,"Ġves":4534,"Ġvent":4535,"Ġresource":4536,"forest":4537,"Ġplane":4538,"Ġprocesses":4539,"Ġzo":4540,"Ġexistence":4541,"Ġsentence":4542,"Ġintelligent":4543,"cast":4544,"mas":4545,"mission":4546,"Ġcow":4547,"Ġmat":4548,"encies":4549,"Ġpoo":4550,"Ġdial":4551,"Ġgang":4552,"anted":4553,"Ġmaps":4554,"Ġsaved":4555,"Ġtail":4556,"Ġscen":4557,"Ġtransition":4558,"Ġdriver":4559,"Ġwarming":4560,"Ġgenerations":4561,"Ġsuppose":4562,"Ġsites":4563,"Ġillness":4564,"Ġcaused":4565,"Ġlosing":4566,"Ġdemocratic":4567,"Ġairplane":4568,"Ġintellectual":4569,"Ġtall":4570,"Ġsen":4571,"Ġpil":4572,"Ġpip":4573,"Ġtoile":4574,"Ġstood":4575,"Ġfrustr":4576,"Ġcongress":4577,"Ġpray":4578,"ibr":4579,"place":4580,"Ġdesigning":4581,"Ġarts":4582,"Ġwondering":4583,"ocol":4584,"Ġantib":4585,"Ġshoes":4586,"Ġcircum":4587,"Ġfilled":4588,"Ġcomfortable":4589,"Ġelectrical":4590,"Ġartificial":4591,"Ġpac":4592,"Ġinner":4593,"Ġfacts":4594,"Ġcrim":4595,"Ġvalu":4596,"Ġconduct":4597,"Ġdealing":4598,"hey":4599,"Ġlifet":4600,"Ġspoke":4601,"Ġhurt":4602,"Ġdimensions":4603,"Ġbow":4604,"Ġhide":4605,"Ġtons":4606,"aled":4607,"Ġlie":4608,"Ġabst":4609,"olves":4610,"Ġhadn":4611,"Ġcloth":4612,"Ġinterface":4613,"Ġimportance":4614,"Ġexplan":4615,"Ġsetting":4616,"Ġrefuge":4617,"Ġengineer":4618,"Ġmountains":4619,"Ġexperienced":4620,"Ġjapanese":4621,"Ġheavy":4622,"Ġkenya":4623,"Ġconsequences":4624,"Ġmosqu":4625,"Ġvessel":4626,"aurs":4627,"col":4628,"erves":4629,"Ġrecon":4630,"Ġvoices":4631,"Ġcovered":4632,"Ġwhereas":4633,"Ġpartner":4634,"Ġletters":4635,"Ġscene":4636,"Ġbits":4637,"Ġcorruption":4638,"Ġspecifically":4639,"Ġmovies":4640,"Ġeinstein":4641,"car":4642,"dy":4643,"now":4644,"rum":4645,"Ġgay":4646,"Ġbee":4647,"otic":4648,"semb":4649,"Ġheight":4650,"ogen":4651,"Ġblow":4652,"Ġfinish":4653,"Ġbush":4654,"Ġsigns":4655,"Ġcontinu":4656,"Ġcontinent":4657,"Ġadvanced":4658,"Ġreview":4659,"Ġlimit":4660,"Ġarrived":4661,"Ġlayer":4662,"Ġnegot":4663,"force":4664,"Ġmarriage":4665,"Ġbritain":4666,"Ġclinical":4667,"Ġmicrobes":4668,"Ġgrandmother":4669,"Ġfossil":4670,"Ġconvinced":4671,"mak":4672,"new":4673,"ett":4674,"Ġhey":4675,"Ġforced":4676,"Ġliked":4677,"Ġkore":4678,"ession":4679,"Ġevil":4680,"Ġcalling":4681,"Ġadvert":4682,"Ġresc":4683,"aked":4684,"akistan":4685,"Ġsurf":4686,"Ġsolid":4687,"Ġrecy":4688,"Ġhealthcare":4689,"Ġcolon":4690,"Ġwake":4691,"Ġkilling":4692,"Ġcutting":4693,"Ġnorthern":4694,"Ġpicked":4695,"Ġessential":4696,"Ġpengu":4697,"Ġdamage":4698,"Ġgarden":4699,"Ġconsidered":4700,"cap":4701,"Ġwars":4702,"Ġhung":4703,"Ġdots":4704,"Ġgree":4705,"Ġstone":4706,"Ġlies":4707,"Ġsending":4708,"Ġvan":4709,"cipl":4710,"Ġexperts":4711,"Ġmuscle":4712,"Ġconnections":4713,"Ġappropr":4714,"Ġcollection":4715,"Ġhyper":4716,"Ġchemistry":4717,"Ġanalysis":4718,"Ġsatellite":4719,"Ġbattery":4720,"gl":4721,"pan":4722,"zing":4723,"ndered":4724,"Ġholes":4725,"itness":4726,"icy":4727,"Ġlift":4728,"Ġextend":4729,"odes":4730,"Ġmanip":4731,"Ġqual":4732,"Ġprime":4733,"Ġunderne":4734,"Ġfeelings":4735,"Ġsla":4736,"Ġminister":4737,"Ġpossibilities":4738,"Ġopening":4739,"gged":4740,"Ġwaves":4741,"Ġdeeper":4742,"Ġarmy":4743,"Ġdinosaurs":4744,"Ġcredit":4745,"Ġexchange":4746,"Ġunderneath":4747,"fish":4748,"Ġmarch":4749,"enn":4750,"Ġpakistan":4751,"Ġlic":4752,"Ġnav":4753,"stream":4754,"Ġjan":4755,"Ġexpression":4756,"Ġgrade":4757,"Ġconsist":4758,"Ġmicros":4759,"Ġconstruction":4760,"iency":4761,"Ġillustr":4762,"Ġilleg":4763,"Ġconvention":4764,"Ġreaction":4765,"Ġchemicals":4766,"Ġtrials":4767,"ri":4768,"zed":4769,"Ġsources":4770,"Ġgrain":4771,"estic":4772,"Ġvote":4773,"abet":4774,"elling":4775,"Ġinterp":4776,"Ġmember":4777,"Ġmessages":4778,"Ġbroke":4779,"Ġexpected":4780,"Ġconsumer":4781,"Ġestab":4782,"Ġvariety":4783,"Ġdynamic":4784,"Ġroughly":4785,"Ġempty":4786,"mber":4787,"val":4788,"Ġwik":4789,"Ġgal":4790,"Ġperce":4791,"Ġunit":4792,"Ġswed":4793,"Ġkeeping":4794,"Ġvideos":4795,"Ġhonor":4796,"Ġsharks":4797,"Ġharvard":4798,"Ġentrepreneurs":4799,"Ġexercise":4800,"Ġfisher":4801,"au":4802,"cers":4803,"min":4804,"Ġped":4805,"Ġtoy":4806,"Ġends":4807,"Ġshall":4808,"Ġatl":4809,"Ġrates":4810,"Ġorganized":4811,"Ġprofit":4812,"Ġlawy":4813,"Ġstatus":4814,"Ġcartoon":4815,"Ġrelatively":4816,"hyth":4817,"Ġtumor":4818,"ca":4819,"rete":4820,"eng":4821,"Ġdip":4822,"Ġing":4823,"Ġchart":4824,"ulating":4825,"ests":4826,"acters":4827,"Ġ45":4828,"Ġcharacters":4829,"Ġlocation":4830,"Ġrequires":4831,"Ġmalaria":4832,"Ġbudget":4833,"don":4834,"ss":4835,"Ã©":4836,"Ġwat":4837,"Ġgain":4838,"Ġgift":4839,"Ġuser":4840,"Ġspin":4841,"ension":4842,"Ġdesk":4843,"Ġideal":4844,"Ġentertain":4845,"Ġgenerally":4846,"Ġcultures":4847,"Ġgeorge":4848,"Ġdrag":4849,"Ġhorse":4850,"Ġemerging":4851,"prof":4852,"Ġsophistic":4853,"Ġpure":4854,"lement":4855,"Ġkitch":4856,"Ġshif":4857,"Ġride":4858,"Ġprove":4859,"Ġmak":4860,"Ġteeth":4861,"Ġintr":4862,"osition":4863,"Ġplus":4864,"Ġthoughts":4865,"Ġfewer":4866,"Ġcarefully":4867,"Ġauth":4868,"Ġeffectively":4869,"Ġtypically":4870,"Ġfacing":4871,"Ġcapture":4872,"Ġencourage":4873,"Ġhouses":4874,"Ġrapidly":4875,"Ġclaim":4876,"Ġvaluable":4877,"Ġcast":4878,"Ġmira":4879,"Ġisol":4880,"Ġjack":4881,"Ġru":4882,"Ġsugar":4883,"Ġworldwide":4884,"Ġ2000":4885,"Ġflies":4886,"Ġsmile":4887,"Ġextract":4888,"iques":4889,"Ġsympt":4890,"Ġrepresents":4891,"Ġtransformation":4892,"Ġprivile":4893,"Ġconvince":4894,"Ġproperties":4895,"Ġchicken":4896,"Ġepidemic":4897,"ael":4898,"dp":4899,"mers":4900,"Ġcards":4901,"Ġbare":4902,"Ġmc":4903,"Ġpian":4904,"Ġlu":4905,"Ġlect":4906,"Ġliqu":4907,"Ġcanada":4908,"Ġsuit":4909,"Ġclub":4910,"Ġbubble":4911,"Ġbran":4912,"Ġprefer":4913,"Ġproducing":4914,"Ġmovements":4915,"Ġgenerate":4916,"Ġbehaviors":4917,"Ġsteel":4918,"Ġbottle":4919,"Ġradical":4920,"Ġcameras":4921,"Ġprimary":4922,"Ġislam":4923,"Ġmathematical":4924,"Ġvictims":4925,"Ġmolecular":4926,"Ġsurvey":4927,"Ġgraduate":4928,"Ġofficial":4929,"Ġdisplay":4930,"Ġvulnerable":4931,"Ġlibrary":4932,"Ġpoliticians":4933,"Ġlength":4934,"gets":4935,"oes":4936,"rs":4937,"cience":4938,"Ġdiss":4939,"Ġcontain":4940,"Ġhunt":4941,"Ġpassword":4942,"Ġauton":4943,"pected":4944,"Ġ99":4945,"Ġprotection":4946,"Ġsouthern":4947,"Ġsituations":4948,"onym":4949,"Ġviruses":4950,"Ġdisappear":4951,"Ġflex":4952,"Ġcrowd":4953,"Ġmortality":4954,"Ġfrancisco":4955,"bur":4956,"just":4957,"tube":4958,"Ġcub":4959,"Ġles":4960,"iti":4961,"Ġeld":4962,"Ġreven":4963,"Ġchic":4964,"Ġring":4965,"Ġemissions":4966,"cont":4967,"Ġreprodu":4968,"Ġwinter":4969,"Ġrelease":4970,"Ġdepends":4971,"Ġdefinitely":4972,"Ġdetails":4973,"Ġinstrument":4974,"Ġhydrogen":4975,"Ġnigeria":4976,".'":4977,"down":4978,"uary":4979,"Ġded":4980,"Ġwel":4981,"Ġnur":4982,"irty":4983,"Ġasp":4984,"uls":4985,"Ġexec":4986,"osis":4987,"Ġstudio":4988,"Ġdecl":4989,"Ġgravity":4990,"Ġregard":4991,"Ġadded":4992,"Ġrisks":4993,"Ġoccup":4994,"Ġdomin":4995,"Ġcarrying":4996,"Ġsweet":4997,"Ġhypoth":4998,"Ġsight":4999,"Ġbath":5000,"Ġhill":5001,"Ġgdp":5002,"Ġstaff":5003,"Ġrit":5004,"quality":5005,"Ġunex":5006,"Ġcommand":5007,"Ġgrid":5008,"Ġconservation":5009,"Ġdefine":5010,"Ġassign":5011,"Ġterrorism":5012,"Ġinevit":5013,"Ġlifetime":5014,"Ġchicago":5015,"da":5016,"Ġwitness":5017,"nded":5018,"Ġcure":5019,"Ġyoutube":5020,"Ġmand":5021,"eline":5022,"Ġaff":5023,"Ġbuying":5024,"Ġacqu":5025,"Ġinterests":5026,"Ġreleased":5027,"Ġpromise":5028,"Ġemployees":5029,"Ġpleasure":5030,"Ġcircumst":5031,"lation":5032,"spe":5033,"Ġmart":5034,"Ġanderson":5035,"itals":5036,"itarian":5037,"Ġgut":5038,"oting":5039,"stic":5040,"urb":5041,"Ġdogs":5042,"Ġatoms":5043,"Ġtrillion":5044,"Ġcompar":5045,"Ġworlds":5046,"abilities":5047,"Ġgenet":5048,"Ġtechniques":5049,"Ġremo":5050,"Ġremain":5051,"Ġpersonally":5052,"Ġengaged":5053,"Ġminim":5054,"Ġformer":5055,"Ġprofession":5056,"Ġsample":5057,"Ġintroduce":5058,"Ġdiscussion":5059,"Ġprepared":5060,"Ġmuslim":5061,"Ġcomponents":5062,"Ġforgot":5063,"Ġlaptop":5064,"Ġorgans":5065,"Ġkitchen":5066,"Ġcha":5067,"Ġorch":5068,"Ġaging":5069,"Ġfactor":5070,"Ġserve":5071,"olds":5072,"Ġregions":5073,"Ġenvironments":5074,"Ġassist":5075,"Ġpollution":5076,"Ġselling":5077,"Ġladies":5078,"Ġencoura":5079,"Ġintroduced":5080,"build":5081,"Ġrestaurant":5082,"Ġnewspaper":5083,"nes":5084,"Ġthin":5085,"Ġath":5086,"Ġunus":5087,"Ġinvention":5088,"Ġglam":5089,"Ġdriven":5090,"Ġ196":5091,"Ġmetal":5092,"Ġmarine":5093,"Ġliterature":5094,"Ġanalog":5095,"Ġmirror":5096,"Ġestablish":5097,"bors":5098,"log":5099,"Ġsides":5100,"Ġmile":5101,"Ġhol":5102,"Ġpy":5103,"organ":5104,"icip":5105,"Ġham":5106,"lying":5107,"Ġshame":5108,"Ġsphere":5109,"Ġclock":5110,"Ġdish":5111,"Ġchannel":5112,"Ġfactors":5113,"Ġcourt":5114,"ublic":5115,"Ġcenters":5116,"Ġnaturally":5117,"Ġlessons":5118,"Ġcrack":5119,"Ġradiation":5120,"Ġblocks":5121,"Ġadminist":5122,"Ġapplied":5123,"Ġabstract":5124,"cal":5125,"ka":5126,"Ġox":5127,"Ġoct":5128,"Ġoption":5129,"erved":5130,"Ġlas":5131,"Ġnasa":5132,"sec":5133,"iring":5134,"Ġens":5135,"Ġdisaster":5136,"Ġphr":5137,"Ġscared":5138,"Ġmedium":5139,"Ġcharles":5140,"Ġsoul":5141,"Ġdiam":5142,"Ġadvent":5143,"Ġrecords":5144,"Ġrecorded":5145,"Ġpsychology":5146,"Ġpractical":5147,"Ġprivacy":5148,"Ġcombination":5149,"Ġreplic":5150,"porary":5151,"Ġaffected":5152,"Ġforests":5153,"Ġmistake":5154,"Ġspectrum":5155,"Ġsports":5156,"Ġopinion":5157,"11":5158,"but":5159,"Ġii":5160,"Ġber":5161,"Ġpin":5162,"Ġpra":5163,"Ġfishing":5164,"icing":5165,"child":5166,"Ġjames":5167,"Ġunion":5168,"Ġclip":5169,"Ġpole":5170,"Ġafterno":5171,"Ġruns":5172,"Ġelectro":5173,"Ġrefer":5174,"Ġ75":5175,"Ġsatis":5176,"Ġevolutionary":5177,"Ġislands":5178,"Ġseason":5179,"Ġtelescope":5180,"Ġfalse":5181,"Ġillegal":5182,"sa":5183,"Ġwine":5184,"Ġtoxic":5185,"Ġdiction":5186,"orous":5187,"igm":5188,"Ġconver":5189,"Ġperception":5190,"Ġimpl":5191,"Ġgoods":5192,"Ġbrothers":5193,"Ġsinging":5194,"Ġreached":5195,"Ġrocket":5196,"Ġneighbors":5197,"Ġestim":5198,"Ġlaboratory":5199,"Ġliquid":5200,"dr":5201,"uel":5202,"Ġcere":5203,"Ġcortex":5204,"Ġbes":5205,"Ġbicy":5206,"olving":5207,"Ġnotes":5208,"Ġrational":5209,"Ġmax":5210,"cond":5211,"Ġscore":5212,"Ġapparent":5213,"Ġwindows":5214,"Ġinclude":5215,"Ġtraveling":5216,"Ġpulled":5217,"Ġcritic":5218,"Ġparticipate":5219,"Ġcollaboration":5220,"Ġrussia":5221,"Ġingred":5222,"Ġsophisticated":5223,"uits":5224,"van":5225,"vable":5226,"Ġought":5227,"ingu":5228,"Ġinput":5229,"urance":5230,"Ġsevere":5231,"ams":5232,"Ġactions":5233,"Ġfeatures":5234,"Ġtechnological":5235,"Ġcourage":5236,"Ġphysically":5237,"Ġkeeps":5238,"Ġ2008":5239,"Ġrequired":5240,"Ġsilence":5241,"Ġfundamentally":5242,"Ġrelevant":5243,"Ġawareness":5244,"Ġefficiency":5245,"Ġdropped":5246,"Ġhoping":5247,"Ġtransportation":5248,"Ġvehicles":5249,"Ġharvest":5250,"Ġmichael":5251,"Ġinterpret":5252,"Ġunusual":5253,"80":5254,"bre":5255,"gment":5256,"Ġalex":5257,"Ġcord":5258,"Ġwash":5259,"ament":5260,"Ġcomment":5261,"Ġrig":5262,"Ġtheme":5263,"Ġacting":5264,"Ġperman":5265,"Ġfeature":5266,"Ġbiom":5267,"Ġskill":5268,"Ġmemories":5269,"Ġequally":5270,"Ġlargely":5271,"ternal":5272,"Ġsteve":5273,"Ġdestruction":5274,"Ġempathy":5275,"Ġultimate":5276,"Ġactivities":5277,"Ġclinic":5278,"Ġ2010":5279,"Ġmanufacturing":5280,"Ġalgorithms":5281,"ym":5282,"Ġcave":5283,"Ġbarr":5284,"Ġhits":5285,"usive":5286,"Ġreci":5287,"Ġstorm":5288,"Ġupper":5289,"umps":5290,"que":5291,"iend":5292,"abled":5293,"Ġcontem":5294,"Ġpregn":5295,"Ġmont":5296,"Ġmonkey":5297,"Ġ194":5298,"Ġeastern":5299,"arrass":5300,"Ġincreased":5301,"Ġsunlight":5302,"Ġsenses":5303,"Ġembarrass":5304,"Ġstronger":5305,"Ġmeaningful":5306,"Ġcombined":5307,"Ġhospitals":5308,"Ġsustainability":5309,"Ġeggs":5310,"Ġancestors":5311,"lom":5312,"ole":5313,"Ġaug":5314,"alled":5315,"Ġsees":5316,"Ġneither":5317,"ums":5318,"Ġspider":5319,"Ġtrig":5320,"Ġquarter":5321,"Ġpool":5322,"Ġunderwater":5323,"Ġmusical":5324,"Ġformed":5325,"Ġinternal":5326,"Ġprocessing":5327,"Ġtopic":5328,"Ġtests":5329,"Ġoperate":5330,"Ġsilk":5331,"Ġhotel":5332,"Ġmechanism":5333,"Ġ1990":5334,"Ġbirthday":5335,"Ġauthority":5336,"Ġafternoon":5337,"lands":5338,"Ġpitch":5339,"Ġtonight":5340,"Ġfert":5341,"Ġbutton":5342,"Ġsolved":5343,"ework":5344,"Ġfunctions":5345,"Ġclever":5346,"Ġfalling":5347,"Ġhoriz":5348,"Ġcooking":5349,"Ġmistakes":5350,"Ġframework":5351,"Ġoccurred":5352,"Ġswimming":5353,"Ġaccompl":5354,"Ġpacific":5355,"Ġtape":5356,"Ġhook":5357,"enced":5358,"Ġpair":5359,"Ġbell":5360,"Ġfrance":5361,"ula":5362,"Ġdece":5363,"Ġven":5364,"Ġsomewhat":5365,"aren":5366,"Ġdiscipl":5367,"Ġcontrast":5368,"Ġpolar":5369,"Ġcomputing":5370,"Ġrepublic":5371,"Ġjoke":5372,"Ġamazon":5373,"Ġmarketing":5374,"Ġconstant":5375,"Ġmathematic":5376,"Ġburning":5377,"Ġproteins":5378,"Ġdiplom":5379,"500":5380,"han":5381,"making":5382,"Ġip":5383,"Ġreject":5384,"Ġrenew":5385,"Ġmac":5386,"Ġdesper":5387,"being":5388,"Ġboston":5389,"Ġdrives":5390,"Ġbio":5391,"Ġprotected":5392,"Ġempower":5393,"Ġmechanical":5394,"Ġridic":5395,"scale":5396,"Ġdoubt":5397,"cription":5398,"Ġfake":5399,"Ġlying":5400,"Ġgulf":5401,"Ġhaw":5402,"sem":5403,"Ġhem":5404,"Ġsem":5405,"Ġexcell":5406,"Ġnowhere":5407,"Ġcoord":5408,"Ġunc":5409,"abol":5410,"Ġoverall":5411,"Ġmush":5412,"Ġmilk":5413,"Ġadvice":5414,"Ġcollected":5415,"Ġamounts":5416,"Ġpotentially":5417,"Ġoccasion":5418,"Ġpsychological":5419,"Ġlinked":5420,"Ġhousing":5421,"Ġelectronic":5422,"Ġdramatic":5423,"Ġpiano":5424,"mm":5425,"ront":5426,"Ġbat":5427,"Ġhoney":5428,"Ġpink":5429,"Ġdot":5430,"Ġna":5431,"Ġwhales":5432,"Ġstan":5433,"rad":5434,"Ġanx":5435,"Ġjer":5436,"Ġspan":5437,"Ġplate":5438,"Ġcock":5439,"Ġpoly":5440,"Ġoverwh":5441,"berg":5442,"Ġscar":5443,"Ġcreature":5444,"Ġelection":5445,"Ġlake":5446,"Ġvisible":5447,"Ġglobe":5448,"Ġfigures":5449,"Ġmemor":5450,"Ġdirector":5451,"Ġvirgin":5452,"Ġoperation":5453,"Ġphotographs":5454,"Ġannoun":5455,"Ġiniti":5456,"Ġconclusion":5457,"Ġconcrete":5458,"Ġantibiot":5459,"Ġoverwhel":5460,"pa":5461,"rom":5462,"Ġtro":5463,"Ġsets":5464,"Ġment":5465,"Ġfurn":5466,"Ġnurs":5467,"Ġwherever":5468,"anging":5469,"angers":5470,"Ġpercentage":5471,"Ġ1960":5472,"Ġextinct":5473,"Ġeconomists":5474,"Ġsubs":5475,"Ġpresence":5476,"Ġconfront":5477,"Ġrooms":5478,"Ġdefined":5479,"Ġfalls":5480,"Ġstayed":5481,"Ġcyber":5482,"Ġcircuit":5483,"Ġframe":5484,"Ġspiritual":5485,"Ġinspiration":5486,"Ġappreciate":5487,"foot":5488,"Ġritual":5489,"Ġthick":5490,"Ġiphone":5491,"Ġcents":5492,"Ġcup":5493,"Ġmere":5494,"isters":5495,"Ġnest":5496,"Ġchose":5497,"ateful":5498,"Ġintense":5499,"oses":5500,"Ġresil":5501,"Ġobst":5502,"Ġstring":5503,"Ġbike":5504,"Ġconfidence":5505,"Ġparis":5506,"Ġfilms":5507,"Ġproviding":5508,"Ġdepth":5509,"Ġsensitive":5510,"Ġexplained":5511,"Ġarchitects":5512,"Ġroads":5513,"Ġsongs":5514,"Ġtracking":5515,"Ġconversations":5516,"Ġsubjects":5517,"Ġattacks":5518,"Ġbreathe":5519,"Ġodd":5520,"Ġsurrounded":5521,"Ġaccurate":5522,"Ġzoom":5523,"Ġclothes":5524,"Ġexplanation":5525,"ox":5526,"Ġsir":5527,"inction":5528,"Ġmall":5529,"Ġhi":5530,"Ġpump":5531,"esh":5532,"keys":5533,"Ġvag":5534,"Ġoutcome":5535,"Ġunknown":5536,"Ġremains":5537,"Ġremove":5538,"tech":5539,"Ġgrad":5540,"Ġrecom":5541,"Ġexploration":5542,"Ġcurve":5543,"Ġstret":5544,"Ġproductive":5545,"aneously":5546,"Ġexisting":5547,"Ġembed":5548,"Ġpresentation":5549,"Ġmulti":5550,"Ġcombine":5551,"Ġflew":5552,"Ġinfected":5553,"Ġclouds":5554,"Ġinnovative":5555,"llywood":5556,"Ġdynam":5557,"Ġwireless":5558,"Ġhorrible":5559,"Ġtaste":5560,"Ġappropriate":5561,"hythm":5562,"Ġcircumstances":5563,"eal":5564,"Ġsco":5565,"Ġpill":5566,"Ġlens":5567,"iture":5568,"Ġreverse":5569,"ads":5570,"estyle":5571,"Ġvoc":5572,"Ġshell":5573,"Ġdecline":5574,"Ġinstruct":5575,"Ġdrill":5576,"Ġjoined":5577,"Ġeducational":5578,"Ġtested":5579,"Ġdefense":5580,"Ġclosely":5581,"Ġmeasured":5582,"Ġangry":5583,"Ġassume":5584,"Ġ1980":5585,"Ġcontrolled":5586,"iosity":5587,"Ġapplications":5588,"Ġqueen":5589,"Ġelephant":5590,"Ġsplit":5591,"ov":5592,"tail":5593,"vi":5594,"Ġthom":5595,"Ġbones":5596,"esome":5597,"Ġloud":5598,"ita":5599,"Ġwhist":5600,"Ġwhale":5601,"Ġsept":5602,"Ġjail":5603,"Ġuncom":5604,"Ġ23":5605,"Ġevening":5606,"Ġears":5607,"Ġtranspl":5608,"Ġcollapse":5609,"Ġexplos":5610,"Ġ2007":5611,"Ġautism":5612,"Ġadvance":5613,"Ġabsor":5614,"Ġsensors":5615,"Ġdeaths":5616,"Ġerror":5617,"Ġoptions":5618,"Ġcapitalism":5619,"Ġdivide":5620,"Ġscratch":5621,"Ġtherapy":5622,"Ġwikip":5623,"Ġsymptoms":5624,"bed":5625,"father":5626,"gr":5627,"ih":5628,"oint":5629,"vis":5630,"Ġcash":5631,"Ġboring":5632,"Ġpapers":5633,"eding":5634,"Ġnic":5635,"Ġanonym":5636,"Ġric":5637,"Ġadam":5638,"Ġhumor":5639,"Ġflower":5640,"Ġcenturies":5641,"Ġdatab":5642,"Ġhandle":5643,"hips":5644,"gging":5645,"Ġallowing":5646,"Ġstandards":5647,"Ġstatement":5648,"Ġchallenging":5649,"Ġ600":5650,"Ġbehavioral":5651,"box":5652,"Ġflowers":5653,"herent":5654,"Ġencoun":5655,"Ġfingers":5656,"Ġchristmas":5657,"Ġscript":5658,"Ġfrankly":5659,"Ġromantic":5660,"Ġgentlemen":5661,"Ġangeles":5662,"Ġembrace":5663,"Ġmosquit":5664,"Ġnavig":5665,"greg":5666,"hen":5667,"Ġaqu":5668,"Ġbg":5669,"Ġbay":5670,"Ġhorm":5671,"iters":5672,"itors":5673,"Ġweigh":5674,"Ġnose":5675,"omic":5676,"ald":5677,"uses":5678,"allel":5679,"cend":5680,"Ġjul":5681,"Ġchocol":5682,"Ġrush":5683,"Ġ22":5684,"Ġrelate":5685,"Ġzone":5686,"Ġtreating":5687,"Ġtrend":5688,"Ġprovided":5689,"Ġrocks":5690,"Ġvolume":5691,"Ġvillages":5692,"Ġpollen":5693,"Ġsuffer":5694,"Ġsamples":5695,"Ġnarrative":5696,"Ġpassionate":5697,"yeah":5698,"Ġq":5699,"Ġaster":5700,"inations":5701,"Ġhat":5702,"Ġfiction":5703,"Ġdut":5704,"Ġdress":5705,"Ġgps":5706,"Ġitem":5707,"rog":5708,"sters":5709,"Ġdeploy":5710,"Ġtack":5711,"Ġimplement":5712,"athers":5713,"Ġgras":5714,"Ġgrateful":5715,"Ġconserv":5716,"Ġbusy":5717,"Ġcorn":5718,"crim":5719,"Ġdistinct":5720,"Ġlabel":5721,"Ġconstit":5722,"Ġtransformed":5723,"Ġfeeding":5724,"Ġfootprint":5725,"Ġfaced":5726,"Ġinstruments":5727,"Ġapplication":5728,"Ġparadigm":5729,"Ġseptember":5730,"Ġwikipedia":5731,"70":5732,"hour":5733,"uce":5734,"Ġtent":5735,"Ġack":5736,"Ġicon":5737,"Ġwow":5738,"nda":5739,"ounce":5740,"Ġmice":5741,"eness":5742,"owered":5743,"Ġanger":5744,"Ġoutc":5745,"Ġtab":5746,"Ġages":5747,"Ġphase":5748,"Ġtechnique":5749,"Ġgrab":5750,"Ġextent":5751,"Ġcorres":5752,"ographer":5753,"Ġsurely":5754,"Ġ[\"":5755,"clear":5756,"Ġgreenhouse":5757,"Ġrecording":5758,"Ġidentical":5759,"Ġconsumers":5760,"Ġrobotic":5761,"Ġpolicies":5762,"Ġlogic":5763,"Ġignor":5764,"Ġdetermine":5765,"Ġresistance":5766,"Ġinfinite":5767,"Ġmushroom":5768,"cence":5769,"hol":5770,"nger":5771,"over":5772,"Ġcath":5773,"Ġborder":5774,"Ġyounger":5775,"lymp":5776,"Ġchip":5777,"Ġplans":5778,"Ġacts":5779,"Ġexpon":5780,"Ġroot":5781,"Ġtransfer":5782,"Ġcorals":5783,"Ġboxes":5784,"Ġsuggests":5785,"Ġadmit":5786,"okay":5787,"Ġfixed":5788,"Ġcelebrate":5789,"belie":5790,"Ġmystery":5791,"Ġunexpected":5792,"ba":5793,"ups":5794,"Ġolymp":5795,"eration":5796,"Ġpushing":5797,"Ġdh":5798,"Ġgest":5799,"ctic":5800,"anta":5801,"Ġspinal":5802,"Ġenable":5803,"Ġsuic":5804,"Ġrobert":5805,"Ġloop":5806,"Ġdownload":5807,"Ġgray":5808,"Ġowners":5809,"Ġmonkeys":5810,"Ġorganism":5811,"Ġinterestingly":5812,"Ġearthqu":5813,"Ġequation":5814,"Ġlimits":5815,"ended":5816,"Ġirr":5817,"Ġdancing":5818,"Ġpuzzle":5819,"kind":5820,"source":5821,"za":5822,"Ġinject":5823,"Ġstro":5824,"Ġstack":5825,"Ġliver":5826,"Ġshar":5827,"iled":5828,"osing":5829,"Ġclus":5830,"Ġarrest":5831,"Ġinterf":5832,"Ġraw":5833,"while":5834,"Ġgla":5835,"Ġboom":5836,"Ġeconomies":5837,"Ġwondered":5838,"Ġfunding":5839,"Ġparking":5840,"Ġreference":5841,"Ġcontinued":5842,"Ġanticip":5843,"Ġmeasuring":5844,"Ġcausing":5845,"Ġ250":5846,"Ġtelephone":5847,"Ġfloating":5848,"Ġhiggs":5849,"Ġalgorithm":5850,"Ġvaccine":5851,"connected":5852,"Ġagreed":5853,"Ġimplications":5854,"Ġpoorest":5855,"profit":5856,"Ġorchest":5857,"oons":5858,"pass":5859,"Ġtube":5860,"Ġsed":5861,"Ġborders":5862,"Ġmim":5863,"Ġfib":5864,"Ġdign":5865,"esity":5866,"Ġlone":5867,"arant":5868,"Ġgro":5869,"Ġgam":5870,"ota":5871,"Ġstyle":5872,"Ġselection":5873,"Ġjune":5874,"Ġshake":5875,"Ġfright":5876,"Ġours":5877,"Ġuns":5878,"Ġprices":5879,"Ġdisorders":5880,"Ġpharm":5881,"Ġelim":5882,"Ġcareful":5883,"Ġcolum":5884,"Ġclasses":5885,"Ġincreases":5886,"Ġconstrain":5887,"Ġarguments":5888,"Ġperforming":5889,"Ġviolent":5890,"Ġmainly":5891,"Ġawesome":5892,"Ġemergency":5893,"Ġbreathing":5894,"Ġnarrator":5895,"Ġdrinking":5896,"Ġmammals":5897,"Ġmuslims":5898,"Ġtoilet":5899,"Ġpenguins":5900,"Ġconventional":5901,"ault":5902,"hr":5903,"iety":5904,"alu":5905,"keep":5906,"imeter":5907,"Ġrw":5908,"Ġexcl":5909,"Ġknock":5910,"Ġcoin":5911,"Ġagency":5912,"Ġfirm":5913,"Ġflood":5914,"Ġoffered":5915,"Ġcarr":5916,"Ġcarried":5917,"Ġinstinct":5918,"Ġpolio":5919,"Ġ1950":5920,"Ġcuriosity":5921,"Ġ2005":5922,"Ġ2009":5923,"Ġsecure":5924,"Ġdiabet":5925,"Ġexisted":5926,"Ġdirections":5927,"Ġobsessed":5928,"Ġaston":5929,"Ġstruck":5930,"Ġgolden":5931,"Ġautomatically":5932,"Ġlatin":5933,"Ġcorporate":5934,"Ġfabric":5935,"Ġsweden":5936,"Ġthomas":5937,"bal":5938,"Ġtill":5939,"rets":5940,"itory":5941,"etch":5942,"Ġstands":5943,"Ġdozen":5944,"opia":5945,"Ġproport":5946,"Ġtea":5947,"Ġplaced":5948,"Ġdisorder":5949,"phones":5950,"Ġflor":5951,"Ġtraged":5952,"Ġobesity":5953,"Ġfinance":5954,"Ġairport":5955,"Ġcolony":5956,"iox":5957,"Ġinteractions":5958,"Ġrepresented":5959,"Ġproperly":5960,"Ġjudge":5961,"Ġdistributed":5962,"Ġdramatically":5963,"Ġconcert":5964,"Ġacademic":5965,"Ġsurgeon":5966,"Ġlicense":5967,"Ġentertainment":5968,"lock":5969,"rors":5970,"yal":5971,"Ġcens":5972,"Ġmales":5973,"Ġdense":5974,"Ġlou":5975,"uting":5976,"Ġgolf":5977,"amin":5978,"americ":5979,"ille":5980,"soft":5981,"Ġovercome":5982,"Ġimpress":5983,"Ġlets":5984,"icted":5985,"Ġgenius":5986,"Ġremem":5987,"Ġstoryt":5988,"Ġengaging":5989,"Ġsolving":5990,"Ġclassic":5991,"Ġteams":5992,"Ġrecognition":5993,"Ġspreading":5994,"Ġbombs":5995,"Ġcomponent":5996,"Ġghana":5997,"Ġaxis":5998,"Ġfifth":5999,"Ġkorea":6000,"Ġchocolate":6001,"Ġacknow":6002,"Ġoutcomes":6003,"bage":6004,"gers":6005,"wr":6006,"wich":6007,"Ġtight":6008,"Ġtip":6009,"Ġsar":6010,"Ġpour":6011,"Ġder":6012,"Ġlung":6013,"asm":6014,"ashing":6015,"Ġmeg":6016,"illance":6017,"Ġseek":6018,"Ġtri":6019,"Ġenemy":6020,"aret":6021,"Ġtwe":6022,"Ġflash":6023,"Ġdecre":6024,"Ġobama":6025,"Ġcollaps":6026,"Ġmetabol":6027,"Ġgrows":6028,"Ġpatent":6029,"Ġpopulations":6030,"Ġhousehold":6031,"Ġrising":6032,"Ġexpectations":6033,"Ġillusion":6034,"Ġpractices":6035,"Ġreaching":6036,"Ġdepending":6037,"Ġrainforest":6038,"Ġlifestyle":6039,"Ġreceive":6040,"Ġheroes":6041,"Ġsavings":6042,"Ġsmoke":6043,"Ġ1970":6044,"Ġcontrolling":6045,"Ġcooperation":6046,"Ġprototype":6047,"Ġprecisely":6048,"Ġjanuary":6049,"Ġstretch":6050,"called":6051,"ek":6052,"lines":6053,"war":6054,"Ġsales":6055,"nday":6056,"Ġfan":6057,"Ġdict":6058,"Ġlun":6059,"using":6060,"otes":6061,"iders":6062,"Ġabuse":6063,"Ġmold":6064,"Ġchief":6065,"Ġdelic":6066,"iform":6067,"Ġplenty":6068,"Ġprem":6069,"Ġscary":6070,"Ġraising":6071,"Ġstri":6072,"Ġhardware":6073,"Ġconnecting":6074,"Ġparallel":6075,"Ġbreaking":6076,"Ġpainful":6077,"Ġfilter":6078,"Ġinteractive":6079,"Ġconcepts":6080,"Ġbudd":6081,"iveness":6082,"Ġtitle":6083,"Ġentrepreneur":6084,"Ġsculpture":6085,"Ġmaintain":6086,"Ġexhibition":6087,"Ġfortunately":6088,"Ġscenar":6089,"Ġwelcome":6090,"Ġphrase":6091,"Ġuncertain":6092,"Ġfurniture":6093,"Ġobstac":6094,"ost":6095,"rary":6096,"va":6097,"walk":6098,"Ġwal":6099,"Ġbob":6100,"Ġdu":6101,"Ġdust":6102,"llar":6103,"edy":6104,"Ġstere":6105,"think":6106,"Ġassemb":6107,"Ġproced":6108,"Ġcongo":6109,"rous":6110,"Ġtries":6111,"osh":6112,"Ġworker":6113,"Ġnobel":6114,"Ġsheep":6115,"Ġdesigns":6116,"Ġpersonality":6117,"Ġslides":6118,"Ġentered":6119,"Ġpresented":6120,"Ġlegacy":6121,"Ġtranslate":6122,"Ġinequality":6123,"Ġprinting":6124,"Ġsurveillance":6125,"Ġhabitat":6126,"Ġroute":6127,"Ġphilosophy":6128,"Ġdestroyed":6129,"conscious":6130,"Ġhunger":6131,"Ġshadow":6132,"Ġelder":6133,"Ġantibiotics":6134,"Ġdiabetes":6135,"90":6136,"bra":6137,"cred":6138,"Ġcas":6139,"Ġcod":6140,"Ġpand":6141,"itz":6142,"otion":6143,"Ġneut":6144,"Ġchamp":6145,"Ġorange":6146,"Ġalph":6147,"Ġvibr":6148,"andon":6149,"Ġmanh":6150,"Ġpocket":6151,"Ġimper":6152,"Ġdisg":6153,"def":6154,"Ġguarant":6155,"Ġappeared":6156,"acing":6157,"Ġlovely":6158,"Ġparticle":6159,"Ġexplo":6160,"Ġexploring":6161,"Ġanimation":6162,"Ġwalks":6163,"heim":6164,"Ġtraveled":6165,"Ġimmune":6166,"Ġtasks":6167,"Ġmagnetic":6168,"Ġfascinated":6169,"Ġlaughing":6170,"Ġlatest":6171,"Ġrepeat":6172,"Ġcandid":6173,"Ġattached":6174,"Ġvessels":6175,"Ġrescue":6176,"Ġpermanent":6177,"ev":6178,"power":6179,"tes":6180,"Ġther":6181,"Ġdensity":6182,"Ġdiox":6183,"Ġyield":6184,"struct":6185,"there":6186,"through":6187,"unclear":6188,"Ġplot":6189,"aint":6190,"ogue":6191,"Ġunits":6192,"Ġ27":6193,"ologically":6194,"Ġbron":6195,"Ġcommitted":6196,"Ġscream":6197,"Ġshoulder":6198,"Ġimagined":6199,"Ġelev":6200,"Ġaccum":6201,"Ġgeomet":6202,"Ġ65":6203,"Ġmillenn":6204,"Ġsilic":6205,"Ġportra":6206,"Ġvirtually":6207,"Ġislamic":6208,"Ġappears":6209,"Ġkingdom":6210,"Ġspoken":6211,"Ġspectac":6212,"Ġthrown":6213,"Ġfederal":6214,"Ġcommitment":6215,"Ġlecture":6216,"Ġapparently":6217,"happ":6218,"oll":6219,"rus":6220,"Ġts":6221,"Ġhal":6222,"Ġgig":6223,"Ġeve":6224,"stand":6225,"Ġsection":6226,"Ġaside":6227,"Ġate":6228,"Ġorbit":6229,"Ġsacr":6230,"Ġtag":6231,"Ġunbelie":6232,"aks":6233,"Ġwriter":6234,"Ġmuscles":6235,"Ġbehave":6236,"Ġhardly":6237,"Ġsigned":6238,"Ġhearts":6239,"Ġinteracting":6240,"Ġmicrosoft":6241,"Ġethi":6242,"Ġdivided":6243,"Ġsandwich":6244,"Ġmanufacture":6245,"Ġcustomers":6246,"Ġshooting":6247,"Ġrecovery":6248,"Ġtransparen":6249,"Ġtransparency":6250,"gic":6251,"ket":6252,"list":6253,"uous":6254,"rect":6255,"Ġcab":6256,"Ġpace":6257,"Ġtoler":6258,"Ġhaiti":6259,"raction":6260,"Ġjes":6261,"Ġusual":6262,"Ġwanting":6263,"agn":6264,"udes":6265,"Ġadjust":6266,"Ġpersu":6267,"Ġinvolves":6268,"Ġschol":6269,"Ġplays":6270,"Ġinsurance":6271,"Ġrepair":6272,"Ġproductivity":6273,"Ġmeetings":6274,"Ġrecognized":6275,"Ġceiling":6276,"Ġballoon":6277,"Ġamongst":6278,"Ġestimate":6279,"Ġconcern":6280,"Ġignore":6281,"Ġpaintings":6282,"Ġsimplicity":6283,"Ġugly":6284,"Ġpowers":6285,"Ġchapter":6286,"Ġauthent":6287,"Ġautonom":6288,"Ġpyram":6289,"Ġbicycle":6290,"Ġembedded":6291,"Ġdignity":6292,"Ġdioxide":6293,"aa":6294,"pal":6295,"sum":6296,"vas":6297,"Ġtank":6298,"Ġtired":6299,"Ġtrop":6300,"Ġwings":6301,"Ġdere":6302,"Ġgon":6303,"Ġyouth":6304,"ida":6305,"Ġjim":6306,"erences":6307,"Ġchest":6308,"Ġspr":6309,"Ġcoach":6310,"Ġleap":6311,"Ġtraum":6312,"Ġglad":6313,"Ġmonitor":6314,"azz":6315,"Ġreput":6316,"Ġcontrovers":6317,"Ġdistrict":6318,"Ġopposed":6319,"class":6320,"Ġescape":6321,"attan":6322,"Ġerad":6323,"Ġlimb":6324,"Ġpurch":6325,"Ġachieved":6326,"Ġdomestic":6327,"Ġnarrow":6328,"Ġconflicts":6329,"Ġstrategies":6330,"Ġaspects":6331,"Ġincentives":6332,"Ġneuroscience":6333,"Ġdolphins":6334,"Ġmaxim":6335,"Ġstanford":6336,"Ġmanhattan":6337,"bar":6338,"nic":6339,"xas":6340,"Ġwed":6341,"Ġwound":6342,"Ġwired":6343,"org":6344,"Ġgates":6345,"Ġbeer":6346,"Ġrebuild":6347,"iment":6348,"Ġlikes":6349,"Ġabandon":6350,"Ġattend":6351,"Ġvital":6352,"Ġsuck":6353,"Ġquad":6354,"agger":6355,"elly":6356,"Ġblank":6357,"Ġrail":6358,"Ġflip":6359,"Ġinstant":6360,"Ġfarmer":6361,"Ġsecondly":6362,"Ġafricans":6363,"Ġagenda":6364,"Ġcheaper":6365,"Ġlegis":6366,"Ġuniversities":6367,"Ġfootball":6368,"Ġreported":6369,"Ġdisappeared":6370,"Ġcolleague":6371,"Ġcrying":6372,"Ġvolunteers":6373,"Ġcriminal":6374,"Ġprivilege":6375,"children":6376,"Ġdisgust":6377,"Ġcute":6378,"lete":6379,"iday":6380,"Ġanthrop":6381,"Ġpeer":6382,"Ġconven":6383,"Ġtexas":6384,"Ġyours":6385,"Ġroots":6386,"Ġbackwards":6387,"Ġunderground":6388,"Ġcommod":6389,"Ġemph":6390,"Ġgranted":6391,"Ġguard":6392,"Ġ32":6393,"Ġlaughter":6394,"Ġproduces":6395,"Ġnative":6396,"Ġmeter":6397,"Ġgenerated":6398,"Ġorganize":6399,"Ġgovernance":6400,"Ġglobally":6401,"Ġdevast":6402,"Ġadvoc":6403,"Ġlegit":6404,"Ġgrandfather":6405,"Ġpsychiat":6406,"Ġdarkness":6407,"going":6408,"Ġvertical":6409,"Ġapartment":6410,"Ġdrove":6411,"zees":6412,"Ġaccepted":6413,"Ġheaven":6414,"Ġengagement":6415,"Ġtitan":6416,"Ġneighborhoods":6417,"Ġtalent":6418,"Ġfrozen":6419,"Ġtower":6420,"Ġdiverse":6421,"Ġpunish":6422,"Ġadopt":6423,"Ġlux":6424,"Ġremoved":6425,"Ġrecommend":6426,"ait":6427,"fall":6428,"gun":6429,"hop":6430,"hib":6431,"Ġaim":6432,"Ġtheories":6433,"anzees":6434,"Ġnit":6435,"leton":6436,"eters":6437,"Ġstations":6438,"uration":6439,"illy":6440,"tery":6441,"uman":6442,"Ġalien":6443,"Ġtech":6444,"Ġactor":6445,"Ġexpans":6446,"Ġexposed":6447,"Ġclar":6448,"Ġbubb":6449,"century":6450,"Ġscales":6451,"angle":6452,"Ġinvite":6453,"Ġcharity":6454,"Ġparaly":6455,"Ġequality":6456,"Ġcontinues":6457,"Ġveter":6458,"Ġsilent":6459,"Ġreduction":6460,"Ġsearching":6461,"Ġfunctional":6462,"Ġcaptured":6463,"Ġterrorists":6464,"Ġsuspect":6465,"Ġsmooth":6466,"Ġhistorical":6467,"Ġsymmetry":6468,"Ġprosper":6469,"Ġchimpanzees":6470,"Ġpilot":6471,"Ġadvertising":6472,"Ġdedicated":6473,"Ġearthquake":6474,"nam":6475,"nels":6476,"tw":6477,"Ġtears":6478,"Ġwip":6479,"inals":6480,"Ġtoys":6481,"anthrop":6482,"Ġnin":6483,"Ġash":6484,"Ġchos":6485,"Ġfruit":6486,"Ġknee":6487,"Ġintent":6488,"Ġactors":6489,"Ġresolution":6490,"Ġherself":6491,"Ġafterwards":6492,"archy":6493,"Ġattrib":6494,"Ġprobability":6495,"Ġdistant":6496,"Ġelsewhere":6497,"Ġparas":6498,"lessly":6499,"Ġcollecting":6500,"Ġmissed":6501,"Ġcommunications":6502,"Ġaccessible":6503,"forward":6504,"Ġcouncil":6505,"Ġcontribute":6506,"Ġoptimistic":6507,"Ġelectronics":6508,"Ġmotivation":6509,"Ġhungry":6510,"Ġmicroscope":6511,"Ġsatisf":6512,"Ġencounter":6513,"Ġglaci":6514,"Ġsilicon":6515,"Ġchosen":6516,"ris":6517,"sp":6518,"son":6519,"vin":6520,"Ġaer":6521,"Ġpm":6522,"Ġfulf":6523,"Ġdim":6524,"Ġdump":6525,"Ġwet":6526,"thal":6527,"Ġcham":6528,"Ġrh":6529,"Ġray":6530,"Ġexternal":6531,"Ġunp":6532,"Ġevolve":6533,"Ġevalu":6534,"Ġ26":6535,"ptions":6536,"Ġspell":6537,"Ġfinds":6538,"Ġminor":6539,"Ġoldest":6540,"Ġbiologists":6541,"Ġskull":6542,"Ġadding":6543,"Ġtrends":6544,"Ġprovides":6545,"Ġspeaker":6546,"Ġdelight":6547,"Ġextrem":6548,"Ġinspire":6549,"Ġtouched":6550,"Ġfacial":6551,"Ġmechanics":6552,"dollar":6553,"Ġbanks":6554,"Ġangle":6555,"Ġchristian":6556,"Ġefforts":6557,"Ġinitial":6558,"Ġweapon":6559,"Ġastronom":6560,"Ġtransplant":6561,"cut":6562,"cause":6563,"free":6564,"iated":6565,"talk":6566,"Ġ0":6567,"Ġhire":6568,"Ġhub":6569,"Ġpul":6570,"arters":6571,"Ġnets":6572,"icop":6573,"vey":6574,"usions":6575,"Ġdoz":6576,"Ġrating":6577,"ckets":6578,"Ġintention":6579,"Ġcliff":6580,"Ġletting":6581,"Ġobl":6582,"ontal":6583,"Ġ2004":6584,"cling":6585,"Ġcontrols":6586,"Ġretire":6587,"Ġmargin":6588,"Ġessence":6589,"Ġphotography":6590,"Ġmechanisms":6591,"aws":6592,"Ġfluid":6593,"Ġneuron":6594,"Ġfortune":6595,"Ġpalest":6596,"Ġinnovations":6597,"Ġjournalist":6598,"Ġuganda":6599,"Ġseeds":6600,"Ġboundaries":6601,"Ġtransparent":6602,"Ġsynthetic":6603,"Ġlocked":6604,"Ġatlantic":6605,"Ġbarely":6606,"Ġathlet":6607,"Ġdictionary":6608,"Ġingredients":6609,"Ġpregnant":6610,"Ġhemis":6611,"Ġsuicide":6612,"Ġtragedy":6613,"case":6614,"mal":6615,"under":6616,"uff":6617,"view":6618,"Ġooh":6619,"Ġbible":6620,"Ġboss":6621,"Ġborrow":6622,"Ġdirty":6623,"orter":6624,"Ġreb":6625,"Ġrely":6626,"Ġabund":6627,"Ġrice":6628,"astroph":6629,"ardo":6630,"Ġwilli":6631,"Ġsheet":6632,"Ġpoison":6633,"Ġrose":6634,"Ġlob":6635,"Ġcontains":6636,"Ġrealm":6637,"Ġgenoc":6638,"Ġeleg":6639,"Ġlighting":6640,"Ġaircraft":6641,"Ġmusicians":6642,"Ġviews":6643,"Ġviet":6644,"Ġ120":6645,"Ġtextbook":6646,"Ġparticipants":6647,"Ġsalt":6648,"Ġmethods":6649,"Ġutter":6650,"Ġintegr":6651,"Ġbeliefs":6652,"Ġjewish":6653,"Ġreefs":6654,"Ġsurfaces":6655,"Ġfertil":6656,"Ġexcellent":6657,"ixt":6658,"lies":6659,"Ġwise":6660,"Ġsin":6661,"Ġhier":6662,"Ġpad":6663,"Ġdive":6664,"oma":6665,"owing":6666,"Ġsoap":6667,"Ġstages":6668,"lyn":6669,"Ġneural":6670,"Ġdear":6671,"Ġconce":6672,"Ġmail":6673,"ivered":6674,"iel":6675,"Ġenh":6676,"Ġmanif":6677,"Ġemer":6678,"Ġpointed":6679,"Ġvisited":6680,"Ġaccidents":6681,"Ġelections":6682,"Ġoperations":6683,"Ġballs":6684,"Ġultra":6685,"Ġlayers":6686,"Ġlinks":6687,"Ġvacu":6688,"Ġcatastroph":6689,"Ġsymbols":6690,"Ġjeff":6691,"Ġwaters":6692,"Ġdominant":6693,"Ġmartin":6694,"Ġlaser":6695,"Ġuncomfort":6696,"Ġanonymous":6697,"Ġignorance":6698,"top":6699,"Ġthumb":6700,"Ġwid":6701,"ato":6702,"Ġbars":6703,"ener":6704,"Ġpale":6705,"Ġitaly":6706,"Ġstable":6707,"Ġseats":6708,"illing":6709,"Ġposter":6710,"Ġguide":6711,"Ġearn":6712,"Ġhelicop":6713,"Ġbias":6714,"Ġcapita":6715,"Ġregret":6716,"Ġstops":6717,"Ġchrom":6718,"Ġconsume":6719,"Ġorigami":6720,"Ġobserv":6721,"Ġpulling":6722,"Ġcircles":6723,"Ġsuggesting":6724,"pox":6725,"Ġdiagram":6726,"Ġaffordable":6727,"Ġcalculate":6728,"Ġhello":6729,"Ġsmoking":6730,"Ġintegrated":6731,"Ġagricultural":6732,"Ġcrucial":6733,"Ġcopyright":6734,"Ġshrimp":6735,"Ġcrops":6736,"Ġintuitive":6737,"Ġpasswords":6738,"Ġchaos":6739,"Ġridiculous":6740,"Ġdynamics":6741,"Ġdatabase":6742,"Ġemphas":6743,"Ġdozens":6744,"aust":6745,"toc":6746,"viet":6747,"west":6748,"era":6749,"Ġmary":6750,"enger":6751,"Ġink":6752,"ione":6753,"section":6754,"Ġja":6755,"inder":6756,"Ġoutput":6757,"Ġperpet":6758,"Ġdisrupt":6759,"phor":6760,"Ġcommission":6761,"Ġsmith":6762,"Ġschiz":6763,"Ġrelax":6764,"Ġconsult":6765,"Ġmonit":6766,"Ġ195":6767,"Ġstrip":6768,"Ġstrangers":6769,"Ġrecru":6770,"Ġcapability":6771,"Ġsettle":6772,"Ġpassing":6773,"Ġglobalization":6774,"Ġrobust":6775,"Ġdrawn":6776,"Ġdepressed":6777,"Ġhollywood":6778,"Ġdelivered":6779,"Ġethical":6780,"Ġpupp":6781,"Ġoxytoc":6782,"Ġdemonstrate":6783,"Ġtribes":6784,"Ġisolated":6785,"Ġoxford":6786,"Ġannounced":6787,"Ġricher":6788,"Ġspectacular":6789,"Ġreputation":6790,"Ġoxytocin":6791,"har":6792,"ture":6793,"ua":6794,"Ġwing":6795,"Ġcott":6796,"Ġbf":6797,"Ġbol":6798,"Ġbos":6799,"Ġpile":6800,"Ġbeet":6801,"Ġjelly":6802,"Ġneat":6803,"Ġupset":6804,"Ġhappier":6805,"Ġincident":6806,"chnology":6807,"Ġpersist":6808,"ubes":6809,"Ġedges":6810,"Ġopens":6811,"Ġsmallpox":6812,"Ġcaps":6813,"Ġrespo":6814,"Ġfiguring":6815,"Ġphotographer":6816,"Ġtreatments":6817,"Ġspeakers":6818,"Ġbreakthrough":6819,"Ġincludes":6820,"Ġreports":6821,"Ġimprovement":6822,"Ġtuna":6823,"Ġdependent":6824,"Ġteenagers":6825,"Ġinspiring":6826,"Ġcategory":6827,"Ġbriefly":6828,"Ġoriginally":6829,"Ġuncomfortable":6830,"bered":6831,"hal":6832,"oids":6833,"part":6834,"parent":6835,"Ġaesth":6836,"Ġol":6837,"Ġmate":6838,"alian":6839,"igation":6840,"Ġub":6841,"Ġchron":6842,"Ġalco":6843,"Ġspark":6844,"osure":6845,"ares":6846,"Ġquit":6847,"Ġarctic":6848,"Ġparties":6849,"Ġblame":6850,"Ġtraject":6851,"Ġfool":6852,"Ġlaid":6853,"Ġbiod":6854,"Ġcambr":6855,"Ġaudio":6856,"Ġcraft":6857,"Ġexperimental":6858,"mingly":6859,"Ġprotecting":6860,"Ġpredictions":6861,"Ġreduced":6862,"Ġsoldier":6863,"Ġcharacteristics":6864,"Ġvariation":6865,"Ġcrossing":6866,"Ġseparated":6867,"Ġreturned":6868,"Ġdebt":6869,"Ġtricks":6870,"Ġcryst":6871,"Ġconclude":6872,"Ġhackers":6873,"Ġrarely":6874,"Ġhanging":6875,"Ġskept":6876,"Ġaspir":6877,"Ġnurses":6878,"Ġrwanda":6879,"Ġlungs":6880,"heimer":6881,"Ġhemisphere":6882,"Ġemerge":6883,"Ġalcohol":6884,"fold":6885,"sing":6886,"vest":6887,"Ġss":6888,"Ġsession":6889,"Ġmt":6890,"Ġpicking":6891,"Ġnu":6892,"Ġnaked":6893,"utical":6894,"Ġsoviet":6895,"state":6896,"third":6897,"opher":6898,"Ġkiss":6899,"Ġrio":6900,"Ġspots":6901,"Ġagencies":6902,"Ġtwenty":6903,"Ġpartly":6904,"Ġcarol":6905,"Ġsimult":6906,"Ġfuels":6907,"Ġ2006":6908,"Ġpainted":6909,"Ġdigit":6910,"Ġidentified":6911,"Ġimpacts":6912,"Ġintervention":6913,"Ġcitizen":6914,"Ġautomob":6915,"Ġdetermined":6916,"Ġphysicist":6917,"Ġconsequence":6918,"Ġrecover":6919,"Ġinjury":6920,"Ġecosystems":6921,"Ġunlikely":6922,"Ġmysterious":6923,"market":6924,"Ġlinear":6925,"Ġwheelch":6926,"Ġconstructed":6927,"Ġrevenue":6928,"Ġbathroom":6929,"Ġanxiety":6930,"Ġflorida":6931,"Ġethiopia":6932,"Ġautonomous":6933,"Ġvacuum":6934,"Ġschizoph":6935,"born":6936,"half":6937,"oe":6938,"rich":6939,"ria":6940,"Ġtied":6941,"Ġtheore":6942,"Ġboo":6943,"Ġhip":6944,"Ġpunch":6945,"Ġpeter":6946,"Ġfiber":6947,"Ġgand":6948,"Ġng":6949,"Ġnick":6950,"level":6951,"Ġstom":6952,"Ġstores":6953,"opy":6954,"Ġsevent":6955,"Ġchim":6956,"Ġproof":6957,"Ġspa":6958,"Ġcomprom":6959,"aceutical":6960,"Ġdisag":6961,"Ġadap":6962,"Ġunderlying":6963,"Ġbrib":6964,"Ġattitude":6965,"Ġopenness":6966,"Ġtedtalk":6967,"Ġgeographic":6968,"Ġlanded":6969,"Ġbrave":6970,"Ġvolcan":6971,"Ġfacility":6972,"Ġphilanthrop":6973,"Ġprimarily":6974,"Ġsticks":6975,"Ġdiscoveries":6976,"Ġpushed":6977,"Ġreminded":6978,"Ġdimension":6979,"Ġdinosaur":6980,"Ġrepeated":6981,"Ġtrucks":6982,"Ġbranch":6983,"Ġmanifest":6984,"bits":6985,"oir":6986,"ober":6987,"zheimer":6988,"Ġthrew":6989,"Ġsink":6990,"Ġsisters":6991,"erving":6992,"Ġpione":6993,"Ġdow":6994,"Ġinches":6995,"Ġinherent":6996,"Ġrent":6997,"ura":6998,"Ġdoors":6999,"Ġmode":7000,"Ġalzheimer":7001,"unction":7002,"Ġclay":7003,"Ġclients":7004,"Ġadoles":7005,"Ġpretend":7006,"Ġcaring":7007,"Ġwriters":7008,"when":7009,"Ġcrick":7010,"Ġfarming":7011,"ughters":7012,"Ġpositions":7013,"Ġantar":7014,"Ġprogramming":7015,"Ġsensory":7016,"Ġgrandchildren":7017,"Ġsentences":7018,"Ġpredicted":7019,"Ġindustries":7020,"Ġstatist":7021,"Ġarray":7022,"Ġtargets":7023,"Ġjohns":7024,"Ġassumptions":7025,"Ġarabic":7026,"Ġexpanding":7027,"Ġshopping":7028,"Ġelephants":7029,"makers":7030,"Ġextended":7031,"Ġoctober":7032,"Ġbesides":7033,"Ġresilience":7034,"Ġpyramid":7035,"Ġbubbles":7036,"Ġchromos":7037,"Ġschizophren":7038,"dam":7039,"mod":7040,"rix":7041,"ville":7042,"wl":7043,"wow":7044,"yard":7045,"zero":7046,"Ġthresh":7047,"Ġain":7048,"Ġwra":7049,"Ġsulf":7050,"Ġsilly":7051,"Ġos":7052,"Ġcable":7053,"Ġtong":7054,"Ġfract":7055,"Ġfought":7056,"Ġduck":7057,"Ġlit":7058,"Ġlamp":7059,"Ġgases":7060,"Ġbeij":7061,"Ġbegun":7062,"opard":7063,"amine":7064,"Ġchairs":7065,"Ġalb":7066,"Ġsacred":7067,"Ġexped":7068,"Ġaggress":7069,"ache":7070,"Ġarrow":7071,"Ġ28":7072,"iac":7073,"aker":7074,"Ġdrivers":7075,"Ġartistic":7076,"Ġconfir":7077,"Ġcheese":7078,"Ġ95":7079,"Ġobjective":7080,"Ġ700":7081,"Ġfocusing":7082,"Ġholds":7083,"attered":7084,"apping":7085,"Ġsaturn":7086,"Ġobservation":7087,"Ġtranslated":7088,"Ġwildlife":7089,"Ġthrowing":7090,"fficient":7091,"Ġinitially":7092,"Ġliberal":7093,"Ġsurprisingly":7094,"Ġsatellites":7095,"Ġenterpr":7096,"Ġshelter":7097,"Ġreveal":7098,"Ġfrequency":7099,"related":7100,"capes":7101,"Ġinevitable":7102,"Ġoccasionally":7103,"Ġscores":7104,"Ġsharp":7105,"american":7106,"Ġelderly":7107,"Ġunbelievable":7108,"bru":7109,"fin":7110,"hus":7111,"iens":7112,"ja":7113,"rant":7114,"rian":7115,"Ġtu":7116,"Ġsits":7117,"erable":7118,"Ġcats":7119,"Ġbears":7120,"aming":7121,"erer":7122,"Ġmeal":7123,"ilit":7124,"mented":7125,"izar":7126,"Ġpermission":7127,"Ġagent":7128,"igned":7129,"Ġphos":7130,"Ġacid":7131,"Ġreson":7132,"Ġmayor":7133,"Ġsmarter":7134,"Ġinvolve":7135,"Ġowner":7136,"Ġeconomist":7137,"Ġsubtle":7138,"Ġfoods":7139,"Ġjoint":7140,"Ġanswered":7141,"Ġdisturb":7142,"Ġmeasures":7143,"Ġsensor":7144,"Ġfailing":7145,"Ġarchitectural":7146,"Ġsleeping":7147,"Ġemerged":7148,"Ġlifes":7149,"Ġprimitive":7150,"Ġburst":7151,"Ġpanels":7152,"Ġparticipation":7153,"Ġimmediate":7154,"Ġgraphic":7155,"Ġcollaborative":7156,"Ġdocuments":7157,"Ġmri":7158,"Ġturkey":7159,"Ġbaseball":7160,"Ġfrog":7161,"Ġneurolog":7162,"Ġslavery":7163,"Ġconsistent":7164,"Ġforgotten":7165,"Ġgradually":7166,"happy":7167,"Ġgonna":7168,"Ġgenocide":7169,"iance":7170,"ras":7171,"rome":7172,"ani":7173,"itudes":7174,"ari":7175,"Ġwhis":7176,"Ġabilities":7177,"ulum":7178,"Ġplain":7179,"Ġplug":7180,"apor":7181,"agon":7182,"Ġneedle":7183,"Ġbrut":7184,"Ġflour":7185,"athered":7186,"Ġtransm":7187,"Ġhelpful":7188,"Ġimagery":7189,"Ġhighlight":7190,"Ġserved":7191,"Ġmetric":7192,"Ġstunt":7193,"Ġregime":7194,"Ġconfident":7195,"Ġcurren":7196,"Ġphysi":7197,"Ġparli":7198,"Ġselfish":7199,"Ġassess":7200,"Ġmagical":7201,"Ġdevil":7202,"Ġdifficulty":7203,"Ġopera":7204,"Ġsurviv":7205,"Ġceo":7206,"Ġsimilarly":7207,"Ġpromote":7208,"Ġsuggested":7209,"Ġproposed":7210,"Ġpanel":7211,"Ġdisappoint":7212,"Ġstruggling":7213,"Ġadditional":7214,"Ġanalyze":7215,"Ġdiagnosed":7216,"Ġpursue":7217,"Ġprosth":7218,"Ġgathering":7219,"Ġdialogue":7220,"Ġcolonies":7221,"Ġlawyer":7222,"Ġhunting":7223,"Ġflexible":7224,"Ġadministration":7225,"Ġensure":7226,"Ġastonishing":7227,"Ġexpansion":7228,"Ġbiodiversity":7229,"\"]":7230,"four":7231,"riger":7232,"vy":7233,"Ġtear":7234,"Ġcig":7235,"Ġbizar":7236,"Ġhitting":7237,"Ġnom":7238,"Ġnerve":7239,"asy":7240,"othing":7241,"Ġwhatso":7242,"Ġrhythm":7243,"ested":7244,"osal":7245,"ela":7246,"emen":7247,"izer":7248,"Ġbucks":7249,"Ġrealizing":7250,"Ġgrat":7251,"Ġending":7252,"Ġsciences":7253,"Ġfounded":7254,"Ġ191":7255,"Ġelite":7256,"Ġ2003":7257,"Ġrefriger":7258,"inson":7259,"Ġgods":7260,"Ġradically":7261,"Ġsupported":7262,"Ġrobotics":7263,"Ġkeyboard":7264,"Ġphotographed":7265,"Ġimmense":7266,"Ġburied":7267,"Ġjudgment":7268,"Ġvictim":7269,"Ġshaped":7270,"Ġshocked":7271,"ecd":7272,"Ġrussian":7273,"Ġtribe":7274,"Ġclimbing":7275,"Ġfabulous":7276,"Ġnutrition":7277,"Ġrefugee":7278,"Ġrefugees":7279,"Ġnurse":7280,"Ġmerely":7281,"Ġinstructions":7282,"Ġwheelchair":7283,"Ġbizarre":7284,"Ġwhatsoever":7285,"bing":7286,"mates":7287,"Ġtut":7288,"Ġaward":7289,"Ġcert":7290,"Ġbin":7291,"Ġhipp":7292,"Ġtone":7293,"Ġfer":7294,"itous":7295,"Ġgy":7296,"Ġstab":7297,"stage":7298,"Ġbutt":7299,"Ġmood":7300,"Ġneck":7301,"Ġrats":7302,"illa":7303,"Ġconvert":7304,"Ġtrash":7305,"Ġcompos":7306,"Ġleverage":7307,"Ġuncle":7308,"Ġfebru":7309,"Ġarist":7310,"iban":7311,"play":7312,"Ġflows":7313,"Ġbasket":7314,"who":7315,"Ġimaging":7316,"Ġentering":7317,"Ġcompleted":7318,"Ġwarning":7319,"Ġinformed":7320,"Ġpubl":7321,"Ġhomework":7322,"Ġconfused":7323,"Ġeducated":7324,"Ġ2001":7325,"Ġsuccessfully":7326,"Ġ85":7327,"Ġexpectancy":7328,"Ġdaughters":7329,"Ġdeliber":7330,"Ġexplaining":7331,"Ġexception":7332,"Ġarrive":7333,"Ġdomain":7334,"Ġtranslation":7335,"Ġmethane":7336,"Ġluckily":7337,"Ġfraction":7338,"Ġtunnel":7339,"Ġprepare":7340,"Ġdemonstration":7341,"Ġroutine":7342,"Ġvulnerability":7343,"friend":7344,"worth":7345,"Ġgarage":7346,"esthes":7347,"Ġdolphin":7348,"Ġsenior":7349,"Ġgreek":7350,"Ġlawyers":7351,"engine":7352,"Ġmiracle":7353,"Ġhypothesis":7354,"Ġgenetically":7355,"Ġcontemporary":7356,"semble":7357,"Ġuncertainty":7358,"Ġcambridge":7359,"Ġparliament":7360,"Ġfebruary":7361,"100":7362,"rid":7363,"Ġtes":7364,"Ġak":7365,"Ġwider":7366,"ata":7367,"Ġcous":7368,"Ġbats":7369,"Ġbored":7370,"Ġhen":7371,"ania":7372,"eda":7373,"eday":7374,"isy":7375,"icious":7376,"sey":7377,"che":7378,"Ġdop":7379,"Ġsel":7380,"Ġships":7381,"Ġsomeday":7382,"ifice":7383,"Ġupd":7384,"agos":7385,"ounding":7386,"Ġdescription":7387,"interest":7388,"Ġscott":7389,"Ġcounty":7390,"Ġowned":7391,"Ġgram":7392,"Ġcapabilities":7393,"Ġcurric":7394,"Ġsecrets":7395,"Ġnorway":7396,"Ġinnocent":7397,"Ġinvested":7398,"Ġfunded":7399,"Ġsquee":7400,"Ġstrongly":7401,"Ġfastest":7402,"Ġsuffered":7403,"Ġchoosing":7404,"Ġrepresentation":7405,"Ġcartoons":7406,"Ġthreats":7407,"Ġauthorities":7408,"Ġrolling":7409,"Ġinfection":7410,"Ġattractive":7411,"Ġskelet":7412,"Ġskeleton":7413,"copes":7414,"Ġvolunteer":7415,"Ġfragile":7416,"Ġmatrix":7417,"Ġperceive":7418,"Ġintrig":7419,"Ġaccomplish":7420,"Ġstroke":7421,"Ġpharmaceutical":7422,"Ġproportion":7423,"Ġjesus":7424,"Ġderek":7425,"Ġeradic":7426,"aid":7427,"oying":7428,"rical":7429,"take":7430,"uity":7431,"Ġbure":7432,"encing":7433,"Ġdys":7434,"Ġdumb":7435,"Ġlap":7436,"Ġgate":7437,"asters":7438,"road":7439,"Ġstake":7440,"Ġsew":7441,"Ġorph":7442,"Ġdecent":7443,"umes":7444,"cking":7445,"Ġleather":7446,"Ġamy":7447,"Ġbug":7448,"Ġchances":7449,"Ġindex":7450,"Ġsimulation":7451,"conf":7452,"Ġgrace":7453,"Ġarticles":7454,"Ġstranger":7455,"aze":7456,"Ġjoe":7457,"Ġelected":7458,"Ġdistingu":7459,"Ġweeke":7460,"Ġrestore":7461,"Ġlabs":7462,"clock":7463,"Ġapprox":7464,"Ġ800":7465,"Ġexpecting":7466,"Ġtempt":7467,"Ġbreaks":7468,"Ġstaying":7469,"Ġcivic":7470,"Ġbeneath":7471,"Ġclosing":7472,"Ġleaf":7473,"Ġterrorist":7474,"Ġphysician":7475,"Ġtumors":7476,"Ġmixed":7477,"world":7478,"Ġinstitutional":7479,"Ġsynthes":7480,"Ġfortunate":7481,"Ġadopted":7482,"Ġintuition":7483,"maker":7484,"Ġdragon":7485,"Ġadventure":7486,"Ġdecember":7487,"Ġvagina":7488,"parents":7489,"husi":7490,"Ġtooth":7491,"aran":7492,"Ġrehab":7493,"stone":7494,"cel":7495,"Ġgore":7496,"opath":7497,"Ġshout":7498,"Ġshots":7499,"Ġcomedy":7500,"Ġrivers":7501,"ilize":7502,"Ġorient":7503,"Ġspray":7504,"Ġcompelling":7505,"Ġlean":7506,"Ġunable":7507,"udi":7508,"Ġarmed":7509,"icks":7510,"otherap":7511,"pled":7512,"Ġmembr":7513,"Ġrestrict":7514,"Ġkiller":7515,"Ġexcuse":7516,"Ġdegra":7517,"Ġcompetitive":7518,"Ġaffects":7519,"Ġexperiencing":7520,"Ġmagnitude":7521,"Ġhomo":7522,"Ġpalm":7523,"Ġcovering":7524,"Ġmicrobial":7525,"Ġpigs":7526,"Ġtaliban":7527,"working":7528,"Ġgarbage":7529,"Ġnegoti":7530,"Ġreplicate":7531,"viol":7532,"Ġtackle":7533,"Ġremembered":7534,"Ġscenario":7535,"Ġparalyzed":7536,"Ġbeijing":7537,"].":7538,"bul":7539,"fast":7540,"gi":7541,"kins":7542,"lim":7543,"och":7544,"ship":7545,"tr":7546,"Ġba":7547,"Ġhind":7548,"Ġdub":7549,"ann":7550,"Ġloo":7551,"see":7552,"rol":7553,"urable":7554,"Ġshore":7555,"Ġchips":7556,"Ġspont":7557,"oded":7558,"Ġtriv":7559,"emics":7560,"employ":7561,"Ġenables":7562,"Ġpride":7563,"Ġbuff":7564,"Ġdism":7565,"Ġdeserve":7566,"Ġherit":7567,"Ġprec":7568,"angible":7569,"Ġremaining":7570,"Ġinstantly":7571,"Ġschem":7572,"Ġinsist":7573,"Ġentrop":7574,"Ġenthusi":7575,"Ġmining":7576,"Ġsubway":7577,"nostic":7578,"Ġcake":7579,"Ġwoke":7580,"Ġheaded":7581,"Ġaddict":7582,"Ġcharges":7583,"Ġsixth":7584,"Ġmusician":7585,"Ġdefic":7586,"Ġsoup":7587,"Ġbrook":7588,"Ġmarry":7589,"Ġdemands":7590,"Ġdemographic":7591,"Ġoccurs":7592,"Ġtraditions":7593,"Ġimproved":7594,"Ġwinning":7595,"Ġobserve":7596,"Ġincluded":7597,"Ġempire":7598,"Ġassumption":7599,"Ġhomeless":7600,"Ġjumped":7601,"Ġoptimism":7602,"Ġphysicists":7603,"Ġodds":7604,"Ġofficer":7605,"Ġprofoundly":7606,"Ġcruel":7607,"Ġwidely":7608,"Ġparadox":7609,"flies":7610,"Ġshrink":7611,"Ġdefend":7612,"Ġfrustrated":7613,"Ġprofessionals":7614,"Ġaugust":7615,"Ġtrigger":7616,"Ġexponential":7617,"Ġorchestra":7618,"Ġpandemic":7619,"Ġtrajectory":7620,"Ġsimultaneously":7621,"Ġthreshold":7622,"Ġdopamine":7623,"bm":7624,"human":7625,"sah":7626,"wind":7627,"xual":7628,"Ġpairs":7629,"onic":7630,"Ġdile":7631,"ora":7632,"oran":7633,"Ġgaps":7634,"etics":7635,"Ġrecess":7636,"ctu":7637,"Ġforb":7638,"Ġkb":7639,"Ġjet":7640,"Ġshipping":7641,"olit":7642,"Ġcomments":7643,"ading":7644,"adays":7645,"Ġdeli":7646,"Ġpeoples":7647,"ifer":7648,"Ġnowadays":7649,"Ġouter":7650,"Ġunpre":7651,"Ġuniform":7652,"Ġtwist":7653,"rained":7654,"Ġbrun":7655,"Ġrabb":7656,"Ġincor":7657,"Ġmeanwhile":7658,"Ġdrone":7659,"cedented":7660,"Ġforming":7661,"Ġpreserve":7662,"Ġregener":7663,"Ġsocially":7664,"Ġdistort":7665,"Ġproto":7666,"Ġprotest":7667,"Ġvalid":7668,"otted":7669,"Ġsteal":7670,"Ġinvesting":7671,"Ġerrors":7672,"Ġsurvived":7673,"Ġsumm":7674,"Ġapproaches":7675,"Ġsilver":7676,"Ġfootage":7677,"Ġprinter":7678,"Ġfacilities":7679,"Ġtracks":7680,"Ġreactions":7681,"Ġportion":7682,"Ġtendency":7683,"Ġdetailed":7684,"Ġstrategic":7685,"Ġburned":7686,"Ġinfluenced":7687,"Ġsusp":7688,"lson":7689,"Ġpoems":7690,"Ġguns":7691,"Ġsubstance":7692,"Ġcosmic":7693,"Ġticket":7694,"Ġqualities":7695,"Ġcomparison":7696,"Ġglamorous":7697,"Ġinterpretation":7698,"Ġconservative":7699,"Ġbronx":7700,"Ġtsun":7701,"Ġcotton":7702,"Ġcurriculum":7703,"Ġunprecedented":7704,"field":7705,"lings":7706,"ini":7707,"inarily":7708,"Ġmike":7709,"Ġhors":7710,"Ġfile":7711,"Ġdies":7712,"Ġgi":7713,"Ġgathered":7714,"Ġbend":7715,"Ġcanopy":7716,"aded":7717,"Ġconvey":7718,"umble":7719,"Ġtends":7720,"Ġspons":7721,"Ġleon":7722,"agen":7723,"Ġaggreg":7724,"Ġclothing":7725,"Ġros":7726,"Ġchannels":7727,"Ġphant":7728,"Ġcontrad":7729,"Ġcontrary":7730,"Ġindo":7731,"Ġbrows":7732,"Ġfactories":7733,"Ġasks":7734,"Ġ33":7735,"Ġengines":7736,"Ġhighway":7737,"Ġextension":7738,"Ġformal":7739,"Ġdistract":7740,"Ġprofile":7741,"Ġmorality":7742,"Ġkills":7743,"Ġharbor":7744,"iences":7745,"Ġbottles":7746,"Ġexplains":7747,"Ġimprov":7748,"Ġurge":7749,"Ġfears":7750,"Ġirre":7751,"Ġreducing":7752,"Ġcombat":7753,"Ġflowing":7754,"Ġfemales":7755,"Ġmindset":7756,"Ġdetection":7757,"Ġsignificantly":7758,"Ġtroub":7759,"grade":7760,"Ġwealthy":7761,"looking":7762,"Ġrestaurants":7763,"Ġsubstant":7764,"Ġinsights":7765,"Ġexpertise":7766,"Ġnutrients":7767,"Ġrubber":7768,"Ġconducted":7769,"minute":7770,"Ġgenetics":7771,"Ġinitiative":7772,"Ġcorrespo":7773,"Ġownership":7774,"Ġscholars":7775,"Ġaggressive":7776,"Ġdilem":7777,"aving":7778,"iogen":7779,"Ġvel":7780,"Ġtie":7781,"Ġcree":7782,"Ġdung":7783,"Ġlions":7784,"Ġgear":7785,"leep":7786,"star":7787,"Ġjar":7788,"Ġrick":7789,"quis":7790,"quarters":7791,"Ġouts":7792,"Ġintim":7793,"andering":7794,"active":7795,"Ġunemploy":7796,"Ġexport":7797,"Ġarth":7798,"Ġimpression":7799,"Ġdisability":7800,"Ġgotta":7801,"Ġacou":7802,"Ġaccent":7803,"Ġsynd":7804,"Ġindig":7805,"Ġblo":7806,"Ġremained":7807,"Ġcourses":7808,"ails":7809,"Ġdrones":7810,"Ġ36":7811,"licit":7812,"Ġstrike":7813,"Ġserving":7814,"Ġextinction":7815,"Ġcomputation":7816,"Ġhealthier":7817,"Ġcontinuing":7818,"Ġexcit":7819,"Ġstructural":7820,"Ġinvestors":7821,"Ġsupporting":7822,"Ġimproving":7823,"Ġmedication":7824,"Ġarrange":7825,"Ġparks":7826,"Ġfluores":7827,"Ġaccounts":7828,"Ġpurposes":7829,"Ġreminds":7830,"Ġbroadcast":7831,"Ġhalluc":7832,"Ġblogs":7833,"Ġairplanes":7834,"Ġgentleman":7835,"Ġcategories":7836,"Ġpedest":7837,"Ġanalogy":7838,"Ġalexander":7839,"Ġdiscipline":7840,"Ġrituals":7841,"Ġexplosion":7842,"Ġobstacles":7843,"Ġstereoty":7844,"Ġtongue":7845,"Ġcigaret":7846,"otherapy":7847,"Ġdelivery":7848,"],":7849,"bie":7850,"cled":7851,"fram":7852,"Ġeric":7853,"Ġsna":7854,"ati":7855,"atar":7856,"Ġpause":7857,"Ġfest":7858,"Ġinhab":7859,"Ġrecept":7860,"chron":7861,"Ġjose":7862,"olic":7863,"Ġspain":7864,"ogram":7865,"Ġsaudi":7866,"Ġenlight":7867,"ague":7868,"uded":7869,"Ġloves":7870,"Ġads":7871,"cost":7872,"Ġinterrupt":7873,"Ġrape":7874,"Ġgenu":7875,"Ġcounting":7876,"athan":7877,"perform":7878,"rence":7879,"Ġdrown":7880,"Ġslime":7881,"Ġpointing":7882,"Ġcrew":7883,"Ġsketch":7884,"Ġsubur":7885,"Ġcamps":7886,"Ġcharl":7887,"Ġresearcher":7888,"theast":7889,"Ġlocated":7890,"Ġclassical":7891,"Ġtrains":7892,"Ġrevol":7893,"Ġmotors":7894,"Ġnonprofit":7895,"Ġfriendly":7896,"Ġversions":7897,"Ġpurple":7898,"Ġdrawings":7899,"Ġspreads":7900,"Ġpeaceful":7901,"Ġcompassionate":7902,"Ġthreatened":7903,"Ġdamn":7904,"Ġdespair":7905,"Ġglasses":7906,"Ġsuspe":7907,"Ġprinted":7908,"Ġwheat":7909,"Ġassociation":7910,"Ġjournalists":7911,"Ġcustomer":7912,"Ġclassrooms":7913,"Ġpreviously":7914,"Ġratio":7915,"Ġreinvent":7916,"Ġmakers":7917,"Ġestablished":7918,"Ġipod":7919,"Ġdutch":7920,"Ġcolumn":7921,"Ġimpressive":7922,"Ġubiqu":7923,"Ġphosphor":7924,"Ġentropy":7925,"saharan":7926,"aids":7927,"cor":7928,"cain":7929,"dig":7930,"gence":7931,"kward":7932,"lers":7933,"ocr":7934,"pers":7935,"produ":7936,"Ġwires":7937,"Ġbot":7938,"Ġpatch":7939,"Ġner":7940,"Ġbeating":7941,"Ġongoing":7942,"Ġanno":7943,"Ġjam":7944,"Ġneoc":7945,"umin":7946,"Ġvit":7947,"Ġupside":7948,"Ġhoward":7949,"asty":7950,"Ġpercept":7951,"aby":7952,"Ġnewton":7953,"ipts":7954,"Ġindians":7955,"Ġbrid":7956,"Ġtragic":7957,"Ġbond":7958,"Ġreliable":7959,"Ġbelieves":7960,"Ġplanes":7961,"otechnology":7962,"Ġconnects":7963,"Ġzeal":7964,"Ġsignature":7965,"Ġbadly":7966,"Ġprofits":7967,"Ġcontinents":7968,"Ġnights":7969,"Ġterribly":7970,"Ġterrifying":7971,"Ġredes":7972,"Ġredwood":7973,"Ġharness":7974,"Ġdawn":7975,"Ġperformed":7976,"Ġnearby":7977,"Ġapproaching":7978,"Ġreligions":7979,"bye":7980,"Ġscrew":7981,"Ġawkward":7982,"Ġclosest":7983,"Ġburden":7984,"Ġmobility":7985,"Ġgraphics":7986,"Ġ2011":7987,"Ġannual":7988,"Ġachievement":7989,"Ġstraightforward":7990,"Ġgraduated":7991,"Ġhonestly":7992,"Ġalternatives":7993,"Ġscanner":7994,"Ġaltru":7995,"Ġcorporations":7996,"Ġgallery":7997,"Ġincentive":7998,"anzee":7999,"Ġvegetables":8000,"Ġchimpanzee":8001,"Ġreconstruct":8002,".'\"":8003,"Ġglamour":8004,"Ġbarrier":8005,"Ġmathematicians":8006,"Ġspanish":8007,"Ġngos":8008,"Ġdownt":8009,"Ġphantom":8010,"Ġexcitement":8011,"bow":8012,"good":8013,"long":8014,"law":8015,"made":8016,"uh":8017,"Ġthus":8018,"Ġcows":8019,"Ġmud":8020,"Ġpiz":8021,"oning":8022,"Ġdressed":8023,"eds":8024,"Ġgerm":8025,"Ġitalian":8026,"Ġrethink":8027,"Ġhabits":8028,"ctica":8029,"Ġstability":8030,"Ġasian":8031,"Ġmoore":8032,"Ġjih":8033,"Ġjazz":8034,"Ġshan":8035,"Ġchop":8036,"Ġexcess":8037,"Ġdeck":8038,"Ġvoy":8039,"Ġupload":8040,"Ġplast":8041,"ghai":8042,"Ġmanager":8043,"Ġmanagers":8044,"Ġamate":8045,"Ġclient":8046,"Ġoverl":8047,"Ġroyal":8048,"Ġloan":8049,"Ġloving":8050,"Ġpref":8051,"Ġprecious":8052,"Ġincom":8053,"Ġtrace":8054,"Ġfox":8055,"tending":8056,"Ġendang":8057,"Ġfarms":8058,"Ġsubt":8059,"Ġpassenger":8060,"neys":8061,"Ġfreely":8062,"heart":8063,"Ġspeaks":8064,"Ġdelhi":8065,"Ġgrandparents":8066,"Ġlowest":8067,"Ġeaten":8068,"Ġpenn":8069,"Ġmedicines":8070,"Ġfault":8071,"Ġpropag":8072,"Ġecological":8073,"Ġethnic":8074,"Ġdivor":8075,"Ġearliest":8076,"Ġmagnific":8077,"Ġappearance":8078,"Ġpackage":8079,"Ġphenomena":8080,"Ġcatching":8081,"Ġphysicians":8082,"Ġapplying":8083,"Ġtissues":8084,"Ġphilosopher":8085,"Ġteenage":8086,"Ġpreval":8087,"copic":8088,"Ġstimul":8089,"Ġprostate":8090,"Ġshifting":8091,"burgh":8092,"Ġencouraged":8093,"Ġitems":8094,"Ġarrested":8095,"Ġsacrifice":8096,"Ġluxury":8097,"Ġvietnam":8098,"Ġmonitoring":8099,"Ġstomach":8100,"Ġantarctica":8101,"Ġgenuine":8102,"Ġphosphorus":8103,"fi":8104,"ga":8105,"hist":8106,"mad":8107,"oke":8108,"Ġtatt":8109,"Ġtune":8110,"Ġtanz":8111,"Ġtubes":8112,"eries":8113,"Ġbind":8114,"Ġbatt":8115,"Ġhob":8116,"Ġhiding":8117,"onge":8118,"Ġfits":8119,"Ġfancy":8120,"Ġinex":8121,"Ġlord":8122,"isons":8123,"icial":8124,"Ġredef":8125,"roach":8126,"Ġstor":8127,"Ġstones":8128,"char":8129,"chem":8130,"Ġkar":8131,"Ġjung":8132,"Ġjosh":8133,"Ġrb":8134,"ilty":8135,"umines":8136,"Ġmapping":8137,"Ġknife":8138,"Ġseemingly":8139,"Ġsauce":8140,"Ġsunday":8141,"Ġworkforce":8142,"Ġune":8143,"Ġunconscious":8144,"Ġampl":8145,"Ġpockets":8146,"Ġinterior":8147,"anged":8148,"Ġtraits":8149,"Ġinsul":8150,"Ġinsane":8151,"Ġrecall":8152,"Ġeditor":8153,"Ġ2050":8154,"Ġski":8155,"Ġwarr":8156,"Ġaddiction":8157,"Ġviral":8158,"Ġaudiences":8159,"aneous":8160,"Ġwinds":8161,"Ġholy":8162,"Ġtemporary":8163,"Ġsatur":8164,"Ġprediction":8165,"Ġstraw":8166,"Ġcircuits":8167,"Ġcompete":8168,"Ġaffecting":8169,"Ġpropose":8170,"Ġmagnet":8171,"Ġlandscapes":8172,"Ġ2012":8173,"Ġprisoners":8174,"Ġwheels":8175,"Ġinterviewed":8176,"Ġnuts":8177,"Ġteenager":8178,"Ġshelf":8179,"Ġpursuit":8180,"Ġperceived":8181,"Ġbranches":8182,"Ġencouraging":8183,"Ġsubsid":8184,"Ġnavigate":8185,"Ġasteroid":8186,"Ġcollapsed":8187,"itzer":8188,"Ġguarantee":8189,"Ġtropical":8190,"two":8191,"Ġhelicopter":8192,"Ġcurrency":8193,"esthesia":8194,"Ġheritage":8195,"Ġjihad":8196,"Ġendangered":8197,"Ġtattoo":8198,"away":8199,"auc":8200,"dis":8201,"gent":8202,"mony":8203,"press":8204,"Ġcrop":8205,"Ġfusion":8206,"Ġfbi":8207,"Ġdating":8208,"Ġdiving":8209,"Ġdrew":8210,"Ġlg":8211,"Ġlion":8212,"Ġluc":8213,"edge":8214,"itative":8215,"Ġgained":8216,"icient":8217,"allow":8218,"Ġstatic":8219,"changing":8220,"imag":8221,"Ġkoran":8222,"Ġmoz":8223,"Ġshit":8224,"Ġshirt":8225,"Ġnelson":8226,"Ġrib":8227,"Ġpeers":8228,"Ġseeking":8229,"Ġyourselves":8230,"Ġsafer":8231,"Ġlever":8232,"arest":8233,"Ġmanual":8234,"Ġovernight":8235,"Ġrope":8236,"Ġ29":8237,"Ġreserve":8238,"Ġresolve":8239,"Ġindones":8240,"Ġinterven":8241,"pless":8242,"Ġoffices":8243,"Ġoffering":8244,"Ġtrail":8245,"Ġsmallest":8246,"Ġhardest":8247,"Ġgenerous":8248,"Ġsubm":8249,"Ġcaves":8250,"Ġformula":8251,"Ġpassive":8252,"Ġdistances":8253,"Ġinfl":8254,"Ġamazingly":8255,"Ġnamely":8256,"Ġcollectively":8257,"hea":8258,"Ġradi":8259,"Ġpsychologists":8260,"Ġtransforming":8261,"Ġresponses":8262,"Ġcampus":8263,"Ġreplaced":8264,"Ġestate":8265,"Ġecology":8266,"Ġsynchron":8267,"Ġdiscovering":8268,"Ġvictor":8269,"Ġhydro":8270,"Ġindependence":8271,"Ġflags":8272,"Ġprevention":8273,"Ġdiagnosis":8274,"Ġrecycling":8275,"Ġmaker":8276,"controll":8277,"Ġregardless":8278,"Ġassignment":8279,"Ġmandela":8280,"Ġassistance":8281,"Ġestimates":8282,"Ġhorizon":8283,"Ġfibers":8284,"Ġcoinc":8285,"Ġdecrease":8286,"Ġprocedure":8287,"Ġcabin":8288,"Ġjellyfish":8289,"Ġjohnson":8290,"Ġschizophrenia":8291,"Ġtsunami":8292,"Ġshanghai":8293,"Ġstorage":8294,"10":8295,"200":8296,"aves":8297,"grow":8298,"ker":8299,"pie":8300,"tra":8301,"yan":8302,"Ġtin":8303,"Ġtan":8304,"Ġsanta":8305,"Ġbust":8306,"Ġbamb":8307,"Ġhired":8308,"Ġton":8309,"Ġtoes":8310,"Ġdv":8311,"Ġdy":8312,"Ġdil":8313,"Ġgir":8314,"Ġnar":8315,"Ġnap":8316,"lend":8317,"Ġsty":8318,"Ġheal":8319,"Ġford":8320,"Ġanat":8321,"Ġabra":8322,"Ġjuly":8323,"Ġshine":8324,"Ġworms":8325,"Ġneander":8326,"Ġatomic":8327,"tering":8328,"Ġproceed":8329,"Ġspill":8330,"Ġcoat":8331,"Ġcoke":8332,"Ġcocain":8333,"izers":8334,"Ġunhappy":8335,"abul":8336,"Ġagents":8337,"Ġclue":8338,"Ġresidents":8339,"Ġcarpet":8340,"weight":8341,"Ġbuilds":8342,"Ġbold":8343,"Ġrelation":8344,"Ġgrave":8345,"Ġkeys":8346,"Ġtranscend":8347,"Ġdrum":8348,"Ġslums":8349,"Ġnumer":8350,"Ġ55":8351,"Ġhalfway":8352,"Ġ2002":8353,"ashed":8354,"Ġequations":8355,"Ġlocom":8356,"Ġchef":8357,"Ġretreat":8358,"Ġstepped":8359,"Ġmarvel":8360,"ushed":8361,"Ġsensation":8362,"Ġsupermarket":8363,"Ġshortly":8364,"Ġarguing":8365,"Ġbreakfast":8366,"Ġspecialized":8367,"Ġcycles":8368,"Ġencry":8369,"Ġpredictable":8370,"Ġcivilizations":8371,"Ġmainstream":8372,"ometown":8373,"Ġbedroom":8374,"Ġsafely":8375,"Ġimmig":8376,"Ġclinics":8377,"Ġconcerns":8378,"Ġmiserable":8379,"Ġignored":8380,"Ġsucceeded":8381,"Ġbullet":8382,"coln":8383,"Ġdesperately":8384,"Ġtroops":8385,"Ġacknowledge":8386,"Ġstriking":8387,"Ġportrait":8388,"Ġwedding":8389,"Ġglacier":8390,"Ġpalestin":8391,"Ġelegant":8392,"Ġhenry":8393,"Ġloose":8394,"Ġsyndrome":8395,"Ġubiquitous":8396,"Ġdowntown":8397,"Ġcocaine":8398,"lades":8399,"sized":8400,"Ġtam":8401,"Ġathe":8402,"inter":8403,"inery":8404,"Ġhometown":8405,"onia":8406,"Ġfires":8407,"Ġfathers":8408,"Ġdent":8409,"Ġdrought":8410,"oral":8411,"Ġinch":8412,"Ġgif":8413,"uther":8414,"Ġrect":8415,"Ġrender":8416,"sell":8417,"step":8418,"Ġanten":8419,"outs":8420,"Ġjunk":8421,"Ġshakes":8422,"Ġmelt":8423,"Ġchains":8424,"Ġfriday":8425,"Ġproph":8426,"Ġproven":8427,"Ġmah":8428,"Ġvia":8429,"Ġintended":8430,"Ġsperm":8431,"cip":8432,"ema":8433,"mental":8434,"Ġdonor":8435,"Ġbless":8436,"Ġinterconnected":8437,"Ġobt":8438,"Ġterrain":8439,"Ġreaders":8440,"Ġheadlines":8441,"Ġsett":8442,"Ġconfig":8443,"Ġcolumb":8444,"Ġsidewalk":8445,"Ġreasonable":8446,"lfr":8447,"Ġinfant":8448,"Ġchallenged":8449,"Ġterritory":8450,"Ġabsence":8451,"Ġyorker":8452,"Ġtempor":8453,"Ġrequest":8454,"Ġdestiny":8455,"comput":8456,"Ġdescribes":8457,"Ġempowered":8458,"Ġextraordinarily":8459,"Ġactivist":8460,"Ġelectrons":8461,"Ġbanglades":8462,"Ġhacking":8463,"Ġcooperate":8464,"Ġpartnership":8465,"Ġpuzzles":8466,"Ġnewspapers":8467,"Ġelementary":8468,"Ġbags":8469,"Ġscenes":8470,"Ġlimitations":8471,"Ġfisheries":8472,"Ġintrins":8473,"Ġinevitably":8474,"Ġminimum":8475,"Ġwhistle":8476,"Ġhormone":8477,"Ġconstraints":8478,"Ġstorytelling":8479,"Ġgeometry":8480,"Ġconvenient":8481,"Ġretirement":8482,"Ġaristot":8483,"Ġtrivial":8484,"Ġbrooklyn":8485,"Ġprotocell":8486,"Ġpizza":8487,"Ġplastics":8488,"Ġinsulin":8489,"bod":8490,"city":8491,"creat":8492,"hh":8493,"uctor":8494,"Ġwol":8495,"Ġwrap":8496,"ativity":8497,"Ġpir":8498,"ona":8499,"Ġfate":8500,"Ġfallen":8501,"Ġdun":8502,"Ġlam":8503,"Ġyemen":8504,"Ġnerves":8505,"Ġeb":8506,"Ġech":8507,"Ġstored":8508,"racy":8509,"Ġjon":8510,"Ġproved":8511,"Ġconqu":8512,"Ġsail":8513,"emies":8514,"Ġenzy":8515,"Ġenforce":8516,"Ġenabled":8517,"Ġexposure":8518,"Ġsheets":8519,"Ġimpul":8520,"Ġdiscrim":8521,"eller":8522,"Ġbrian":8523,"icked":8524,"Ġraped":8525,"Ġoffers":8526,"Ġhumanitarian":8527,"Ġobese":8528,"Ġgluc":8529,"Ġgrabb":8530,"Ġtransmit":8531,"Ġtransmission":8532,"Ġfoundations":8533,"Ġbelieving":8534,"Ġstrict":8535,"Ġcellular":8536,"Ġbiol":8537,"...\"":8538,"Ġ42":8539,"Ġcolored":8540,"Ġstopping":8541,"Ġparam":8542,"Ġamazed":8543,"Ġreflection":8544,"Ġlocally":8545,"Ġlocations":8546,"Ġassets":8547,"Ġadvances":8548,"Ġmarketplace":8549,"Ġsteam":8550,"Ġpredator":8551,"Ġlistened":8552,"Ġfailures":8553,"Ġpsychologist":8554,"Ġstays":8555,"Ġapolog":8556,"Ġembry":8557,"Ġcyl":8558,"Ġpersonalized":8559,"Ġbills":8560,"Ġproposition":8561,"Ġattacked":8562,"Ġ1998":8563,"Ġimmun":8564,"Ġconsciously":8565,"Ġinfections":8566,"Ġcalculations":8567,"Ġcontributed":8568,"Ġemails":8569,"Ġworrying":8570,"Ġpreparing":8571,"Ġbench":8572,"Ġdemonstrated":8573,"Ġtension":8574,"Ġsurrounding":8575,"Ġdoubled":8576,"Ġcrowds":8577,"Ġshocking":8578,"Ġhistorically":8579,"Ġclaims":8580,"criptions":8581,"Ġexerc":8582,"Ġconcentrated":8583,"Ġlincoln":8584,"Ġmurder":8585,"Ġcomplain":8586,"Ġcontinuous":8587,"Ġmanipulate":8588,"Ġspinning":8589,"Ġreproduce":8590,"Ġexecut":8591,"Ġelectrodes":8592,"Ġgrasp":8593,"Ġcarolina":8594,"Ġcricket":8595,"Ġleonardo":8596,"Ġglucose":8597,",'":8598,"five":8599,"gal":8600,"gments":8601,"oen":8602,"Ġ.":8603,"Ġsons":8604,"Ġbru":8605,"Ġbother":8606,"Ġhut":8607,"Ġpit":8608,"Ġpills":8609,"Ġtony":8610,"ancing":8611,"arians":8612,"Ġnodes":8613,"Ġsole":8614,"Ġstad":8615,"Ġstair":8616,"cher":8617,"chool":8618,"irts":8619,"Ġbutter":8620,"Ġjh":8621,"Ġcomic":8622,"Ġmeme":8623,"ado":8624,"Ġchile":8625,"Ġrings":8626,"Ġcongest":8627,"Ġvoting":8628,"ifact":8629,"Ġenemies":8630,"aped":8631,"Ġworkplace":8632,"Ġmanner":8633,"Ġexplicit":8634,"Ġfeyn":8635,"Ġambit":8636,"Ġrod":8637,"enses":8638,"Ġundergra":8639,"Ġuseless":8640,"aken":8641,"Ġguid":8642,"Ġguilty":8643,"Ġsched":8644,"Ġboats":8645,"Ġcrimes":8646,"Ġplank":8647,"Ġartifact":8648,"Ġmines":8649,"Ġcorrupt":8650,"Ġsupplies":8651,"Ġfunds":8652,"Ġmemes":8653,"Ġgee":8654,"Ġbeautifully":8655,"Ġterrified":8656,"Ġdeepest":8657,"Ġfollows":8658,"Ġhybr":8659,"Ġconsumed":8660,"Ġsummar":8661,"Ġapproached":8662,"Ġobserved":8663,"Ġpromised":8664,"Ġlogical":8665,"oked":8666,"Ġvariations":8667,"Ġsanitation":8668,"Ġremarkably":8669,"Ġblindness":8670,"Ġhistoric":8671,"Ġambig":8672,"Ġcorrectly":8673,"Ġconcentration":8674,"Ġlaptops":8675,"Ġtelescopes":8676,"Ġinstalled":8677,"Ġinstallation":8678,"forestation":8679,"Ġtoilets":8680,"Ġofficials":8681,"break":8682,"Ġembarrassing":8683,"Ġrenewable":8684,"Ġgesture":8685,"Ġlonely":8686,"Ġlegitimate":8687,"Ġprosperity":8688,"Ġchamber":8689,"Ġexpedition":8690,"Ġorphan":8691,"Ġzealand":8692,"Ġindonesia":8693,"Ġfeynman":8694,"40":8695,"aeda":8696,"ias":8697,"mart":8698,"py":8699,"person":8700,"powered":8701,"rance":8702,"Ġthread":8703,"nders":8704,"Ġcass":8705,"Ġbump":8706,"Ġhans":8707,"Ġhong":8708,"enous":8709,"Ġpants":8710,"Ġdread":8711,"Ġinher":8712,"Ġlanes":8713,"Ġye":8714,"Ġgorge":8715,"Ġnam":8716,"omics":8717,"vember":8718,"Ġstaring":8719,"stop":8720,"Ġkir":8721,"Ġcancers":8722,"Ġshy":8723,"ola":8724,"ilized":8725,"Ġorb":8726,"Ġvice":8727,"Ġspat":8728,"Ġsav":8729,"Ġsale":8730,"Ġleban":8731,"ansas":8732,"Ġclint":8733,"ipher":8734,"elled":8735,"phony":8736,"peare":8737,"Ġtechnically":8738,"Ġremix":8739,"Ġglue":8740,"Ġrelief":8741,"Ġ350":8742,"Ġ1900":8743,"Ġbiosphere":8744,"Ġbehalf":8745,"cycl":8746,"Ġheading":8747,"pring":8748,"Ġpassage":8749,"Ġzoo":8750,"Ġparach":8751,"Ġdetro":8752,"Ġbreeding":8753,"Ġpolitically":8754,"Ġtreas":8755,"Ġcalories":8756,"lihood":8757,"Ġcommunicating":8758,"Ġembod":8759,"Ġorigins":8760,"Ġposted":8761,"Ġsufficient":8762,"Ġverb":8763,"Ġcaptain":8764,"Ġreceiving":8765,"Ġdivision":8766,"Ġbanking":8767,"Ġenjoying":8768,"Ġpacked":8769,"Ġcorrel":8770,"Ġinterviews":8771,"Ġorders":8772,"Ġdemocrat":8773,"Ġbeaten":8774,"Ġfatal":8775,"Ġjugg":8776,"Ġtherapies":8777,"Ġacademy":8778,"Ġharmony":8779,"Ġvaccines":8780,"Ġsurgeons":8781,"Ġselected":8782,"Ġcriminals":8783,"Ġbowl":8784,"Ġillustrate":8785,"Ġmcdon":8786,"Ġestimated":8787,"Ġhawai":8788,"Ġmosquito":8789,"Ġgrocer":8790,"Ġdelicious":8791,"Ġneutral":8792,"Ġdevastating":8793,"Ġpunishment":8794,"Ġathletes":8795,"Ġwilliam":8796,"Ġmagnificent":8797,"Ġgirlfr":8798,"oenix":8799,"Ġambitious":8800,"god":8801,"great":8802,"mill":8803,"mun":8804,"nut":8805,"rating":8806,"uction":8807,"Ġtiles":8808,"Ġig":8809,"Ġire":8810,"Ġward":8811,"Ġbinary":8812,"Ġms":8813,"Ġhills":8814,"enh":8815,"Ġtoss":8816,"Ġdirt":8817,"itable":8818,"Ġhealing":8819,"Ġkat":8820,"Ġseal":8821,"Ġjane":8822,"oline":8823,"erey":8824,"Ġcomics":8825,"Ġchoir":8826,"Ġron":8827,"Ġdeals":8828,"umented":8829,"Ġlikelihood":8830,"Ġoutdo":8831,"Ġintensive":8832,"Ġsake":8833,"Ġcompre":8834,"Ġnovember":8835,"Ġdisabled":8836,"ormal":8837,"asses":8838,"Ġcontam":8839,"Ġreserves":8840,"Ġhumil":8841,"Ġblah":8842,"Ġcommons":8843,"irect":8844,"Ġrap":8845,"Ġsmiling":8846,"Ġinstruction":8847,"ava":8848,"Ġ2030":8849,"Ġcared":8850,"Ġbiologist":8851,"Ġbuses":8852,"Ġgenerating":8853,"Ġcurves":8854,"Ġconnectivity":8855,"Ġtopics":8856,"Ġcalm":8857,"Ġviewer":8858,"Ġdelay":8859,"Ġpsychopath":8860,"Ġpencil":8861,"Ġiceland":8862,"Ġworthy":8863,"Ġcompeting":8864,"Ġbacterial":8865,"Ġtasman":8866,"Ġactivists":8867,"Ġintroduction":8868,"Ġwebsites":8869,"Ġsadly":8870,"Ġexhaust":8871,"Ġrandomly":8872,"Ġbenj":8873,"Ġexpressions":8874,"Ġpige":8875,"Ġmotivated":8876,"Ġtaxes":8877,"Ġjewel":8878,"Ġrevealed":8879,"Ġopinions":8880,"Ġhunter":8881,"Ġmurd":8882,"Ġagreement":8883,"Ġneuroscient":8884,"Ġberlin":8885,"Ġimplant":8886,"Ġrecipe":8887,"Ġmonterey":8888,"Ġtweet":8889,"Ġlegislation":8890,"Ġnitrogen":8891,"Ġadapted":8892,"Ġpublishing":8893,"Ġindigenous":8894,"Ġshakespeare":8895,"Ġbiolumines":8896,"bot":8897,"iro":8898,"jo":8899,"uk":8900,"yon":8901,"zes":8902,"Ġ...\"":8903,"Ġthor":8904,"Ġapr":8905,"Ġwats":8906,"real":8907,"Ġbor":8908,"Ġbite":8909,"Ġmild":8910,"Ġmesh":8911,"Ġpound":8912,"Ġpix":8913,"Ġtox":8914,"Ġdum":8915,"Ġdough":8916,"Ġlists":8917,"isa":8918,"assemb":8919,"owers":8920,"Ġstead":8921,"ima":8922,"three":8923,"Ġkh":8924,"Ġasleep":8925,"Ġatom":8926,"Ġmeals":8927,"ador":8928,"Ġpear":8929,"essions":8930,"Ġalbert":8931,"apore":8932,"Ġcomparing":8933,"Ġcovers":8934,"Ġhappily":8935,"Ġphoenix":8936,"berry":8937,"Ġblink":8938,"plus":8939,"ressing":8940,"Ġcarp":8941,"fulness":8942,"Ġkevin":8943,"Ġ37":8944,"Ġstrings":8945,"Ġ2020":8946,"Ġspacecraft":8947,"Ġsingapore":8948,"Ġswiss":8949,"Ġze":8950,"Ġzip":8951,"Ġzones":8952,"they":8953,"cla":8954,"Ġdiarr":8955,"Ġapproved":8956,"Ġmessy":8957,"Ġengineered":8958,"Ġpredators":8959,"Ġsexy":8960,"Ġsummit":8961,"Ġwinner":8962,"Ġtelecom":8963,"Ġreactor":8964,"Ġdominated":8965,"Ġportug":8966,"Ġpanic":8967,"Ġnarratives":8968,"Ġdrops":8969,"Ġtemperatures":8970,"Ġsecretary":8971,"Ġalgae":8972,"Ġenjoyed":8973,"Ġsimpler":8974,"Ġresponded":8975,"Ġscanning":8976,"Ġresistant":8977,"Ġisraeli":8978,"Ġfrequently":8979,"Ġfifty":8980,"Ġbelongs":8981,"Ġbulb":8982,"Ġprospect":8983,"etti":8984,"ulsion":8985,"Ġceremony":8986,"Ġbarriers":8987,"Ġmimic":8988,"keepers":8989,"Ġassembly":8990,"Ġlobby":8991,"Ġhierarchy":8992,"Ġchronic":8993,"Ġautomobile":8994,"Ġcompromise":8995,"Ġdisagree":8996,"Ġrecession":8997,"Ġincorpor":8998,"Ġtanzania":8999,"Ġbamboo":9000,"Ġbangladesh":9001,"Ġwatson":9002,"\"?":9003,"aware":9004,"eu":9005,"mat":9006,"mom":9007,"nat":9008,"Ġsne":9009,"reen":9010,"Ġdivers":9011,"anas":9012,"orious":9013,"Ġlingu":9014,"utan":9015,"ette":9016,"storm":9017,"Ġlivest":9018,"theless":9019,"ules":9020,"Ġencycl":9021,"Ġexpressed":9022,"Ġoverhead":9023,"Ġroles":9024,"Ġkindness":9025,"Ġgoodbye":9026,"Ġscot":9027,"Ġram":9028,"Ġgenomes":9029,"Ġtrapped":9030,"Ġdecor":9031,"ighth":9032,"Ġgravit":9033,"Ġcriter":9034,"Ġtransit":9035,"Ġnevertheless":9036,"Ġlawn":9037,"Ġartic":9038,"Ġartwork":9039,"Ġ1930":9040,"Ġminer":9041,"Ġminus":9042,"Ġattitudes":9043,"Ġelabor":9044,"Ġcape":9045,"Ġcorners":9046,"Ġcouch":9047,"Ġswitzer":9048,"Ġmomentum":9049,"neg":9050,"Ġeducate":9051,"Ġmachinery":9052,"Ġforecast":9053,"Ġcheat":9054,"Ġlego":9055,"Ġstephen":9056,"Ġcuts":9057,"Ġtemple":9058,"Ġseaf":9059,"Ġpicks":9060,"Ġmeasurements":9061,"Ġshoe":9062,"Ġstrands":9063,"Ġstatistic":9064,"Ġvisualization":9065,"Ġhopeless":9066,"Ġcalculated":9067,"Ġdenial":9068,"Ġturk":9069,"Ġwoods":9070,"Ġwooden":9071,"Ġsimplest":9072,"Ġcoastal":9073,"Ġaltitude":9074,"Ġinjuries":9075,"Ġirony":9076,"Ġepis":9077,"Ġaccompan":9078,"Ġbatteries":9079,"Ġregularly":9080,"Ġaccuracy":9081,"Ġloads":9082,"Ġventure":9083,"Ġpenguin":9084,"driven":9085,"Ġcockroach":9086,"Ġconstitution":9087,"Ġtables":9088,"Ġanticipate":9089,"Ġauthentic":9090,"Ġtextbooks":9091,"Ġenhance":9092,"Ġchimps":9093,"Ġalbum":9094,"Ġbureauc":9095,"Ġbruno":9096,"Ġdilemma":9097,"Ġfluorescent":9098,"Ġbridges":9099,"Ġredesign":9100,"Ġclinton":9101,"Ġireland":9102,"Ġapril":9103,"Ġencyclop":9104,"Ġswitzerland":9105,"cs":9106,"cre":9107,"lif":9108,"liness":9109,"mes":9110,"mind":9111,"net":9112,"rane":9113,"Ġtib":9114,"Ġibm":9115,"restr":9116,"inent":9117,"income":9118,"Ġcage":9119,"Ġmentally":9120,"Ġhated":9121,"inging":9122,"Ġandrew":9123,"Ġpor":9124,"Ġpier":9125,"orient":9126,"Ġinhib":9127,"itate":9128,"Ġnord":9129,"omagn":9130,"lear":9131,"ali":9132,"Ġbelly":9133,"Ġrevel":9134,"seen":9135,"igma":9136,"raine":9137,"Ġdose":9138,"imb":9139,"Ġuk":9140,"ople":9141,"Ġsends":9142,"Ġjf":9143,"Ġjones":9144,"olen":9145,"Ġworm":9146,"Ġrome":9147,"Ġdeception":9148,"Ġvary":9149,"quate":9150,"Ġusage":9151,"Ġspiders":9152,"Ġcompound":9153,"Ġcompounds":9154,"Ġcoverage":9155,"Ġmankind":9156,"Ġtwin":9157,"Ġsheer":9158,"Ġbackyard":9159,"ffect":9160,"Ġcommitt":9161,"pend":9162,"Ġcarl":9163,"Ġappe":9164,"Ġfoster":9165,"Ġglimp":9166,"Ġhelpless":9167,"Ġboots":9168,"Ġ31":9169,"Ġentry":9170,"Ġrecre":9171,"Ġbiof":9172,"Ġformation":9173,"alem":9174,"Ġcurt":9175,"Ġplanetary":9176,"Ġmasses":9177,"Ġmarath":9178,"Ġnorms":9179,"Ġdepos":9180,"Ġprofessors":9181,"Ġpenet":9182,"Ġunfold":9183,"Ġfavorites":9184,"ascular":9185,"Ġ1999":9186,"Ġimmers":9187,"Ġasth":9188,"Ġwishes":9189,"Ġannounce":9190,"Ġhopes":9191,"Ġmama":9192,"Ġmarsh":9193,"Ġcontribution":9194,"Ġelectromagn":9195,"Ġjuice":9196,"Ġbrazilian":9197,"Ġunderest":9198,"Ġpowered":9199,"Ġnano":9200,"Ġcontinuously":9201,"Ġadministr":9202,"Ġdiameter":9203,"Ġoverwhelming":9204,"Ġvocal":9205,"Ġhormones":9206,"Ġolympic":9207,"Ġclusters":9208,"Ġalpha":9209,"Ġcandidate":9210,"Ġtrauma":9211,"Ġmaximum":9212,"Ġabundance":9213,"Ġobservations":9214,"Ġaesthetic":9215,"thirds":9216,"Ġtheoretical":9217,"Ġskeletal":9218,"Ġsuspended":9219,"Ġabraham":9220,"Ġaristotle":9221,"Ġbenjamin":9222,"Ġglimpse":9223,"bian":9224,"cin":9225,"function":9226,"kin":9227,"pack":9228,"ugg":9229,"your":9230,"Ġthirty":9231,"Ġiv":9232,"Ġot":9233,"err":9234,"Ġcattle":9235,"Ġmant":9236,"Ġmast":9237,"Ġmatt":9238,"ester":9239,"Ġly":9240,"Ġgor":9241,"Ġwelf":9242,"omed":9243,"alt":9244,"Ġrevers":9245,"Ġrewards":9246,"Ġhamb":9247,"Ġsovere":9248,"Ġstolen":9249,"urd":9250,"imeters":9251,"Ġkong":9252,"Ġsectors":9253,"Ġmol":9254,"Ġnearest":9255,"Ġdeaf":9256,"Ġintact":9257,"Ġintensity":9258,"Ġpla":9259,"Ġenvelop":9260,"Ġbuck":9261,"Ġdisasters":9262,"please":9263,"Ġblob":9264,"Ġrealities":9265,"Ġrealization":9266,"Ġracing":9267,"Ġflick":9268,"Ġoffs":9269,"people":9270,"Ġfindings":9271,"Ġhelium":9272,"Ġrelatives":9273,"Ġgrades":9274,"Ġdrif":9275,"Ġconsp":9276,"Ġunderstands":9277,"Ġmodest":9278,"Ġcream":9279,"Ġcouples":9280,"Ġcamel":9281,"Ġcultiv":9282,"Ġpublicly":9283,"Ġcrap":9284,"Ġlanding":9285,"Ġillum":9286,"Ġprogrammers":9287,"Ġnoneth":9288,"Ġtransformative":9289,"Ġcooling":9290,"Ġsooner":9291,"Ġtexture":9292,"Ġsuggestion":9293,"Ġfluctu":9294,"Ġdropping":9295,"Ġseparation":9296,"Ġphenomenal":9297,"Ġsweat":9298,"Ġbroader":9299,"Ġreflected":9300,"Ġexpanded":9301,"Ġattracted":9302,"Ġrecycled":9303,"Ġlifted":9304,"Ġwatts":9305,"Ġclubs":9306,"Ġcontempl":9307,"Ġaccomplished":9308,"Ġmemorial":9309,"Ġlabeled":9310,"Ġfrightening":9311,"Ġscreaming":9312,"Ġcontroversial":9313,"Ġabandoned":9314,"Ġcommodity":9315,"Ġresponding":9316,"Ġgandhi":9317,"Ġphilanthropy":9318,"Ġenterprise":9319,"Ġapproximately":9320,"Ġstadium":9321,"Ġgorgeous":9322,"Ġdetroit":9323,"Ġlivestock":9324,"Ġnonetheless":9325,"aired":9326,"bird":9327,"dad":9328,"gue":9329,"hot":9330,"iots":9331,"lan":9332,"oly":9333,"pond":9334,"via":9335,"Ġtk":9336,"Ġties":9337,"Ġtiger":9338,"Ġade":9339,"Ġaunt":9340,"Ġsizes":9341,"inity":9342,"Ġcin":9343,"Ġhars":9344,"oned":9345,"orph":9346,"Ġingen":9347,"itar":9348,"Ġgross":9349,"Ġerect":9350,"Ġstrain":9351,"keley":9352,"adian":9353,"Ġchat":9354,"Ġchew":9355,"Ġfried":9356,"Ġpecul":9357,"Ġalarm":9358,"Ġtrips":9359,"elines":9360,"Ġsupre":9361,"Ġcomposition":9362,"Ġcoch":9363,"Ġtact":9364,"Ġmaneu":9365,"Ġdonors":9366,"udge":9367,"Ġdispar":9368,"cover":9369,"Ġbrush":9370,"Ġrealistic":9371,"Ġintersection":9372,"Ġscaling":9373,"Ġshower":9374,"Ġrac":9375,"Ġflock":9376,"Ġflavor":9377,"Ġgran":9378,"Ġgrant":9379,"Ġearning":9380,"Ġende":9381,"Ġcrude":9382,"Ġtransist":9383,"Ġconsens":9384,"Ġimagining":9385,"Ġlaure":9386,"Ġkidding":9387,"Ġfarther":9388,"psy":9389,"Ġteaches":9390,"Ġseti":9391,"Ġpatr":9392,"Ġpatents":9393,"Ġdistinction":9394,"Ġprotocol":9395,"Ġinfer":9396,"Ġdefault":9397,"Ġanswering":9398,"Ġterrific":9399,"Ġretail":9400,"Ġliteracy":9401,"gener":9402,"Ġsexually":9403,"Ġsymp":9404,"Ġseawater":9405,"Ġreaches":9406,"cribe":9407,"Ġbarrel":9408,"Ġpulls":9409,"Ġhorror":9410,"Ġscreens":9411,"Ġdescribing":9412,"Ġexceptions":9413,"Ġvisualize":9414,"Ġtouching":9415,"Ġparkinson":9416,"Ġplanted":9417,"Ġriding":9418,"Ġlogo":9419,"Ġcrossed":9420,"Ġactivate":9421,"Ġfilling":9422,"Ġheavily":9423,"Ġdiscussions":9424,"Ġchristians":9425,"Ġhurric":9426,"Ġoccurring":9427,"Ġ130":9428,"Ġlaughed":9429,"Ġdetermines":9430,"Ġmultiply":9431,"Ġdestroying":9432,"Ġclimbed":9433,"Ġjews":9434,"Ġboundary":9435,"Ġindicate":9436,"Ġpriority":9437,"Ġexhibit":9438,"Ġprototypes":9439,"Ġgreece":9440,"Ġauthors":9441,"Ġprivileged":9442,"Ġberkeley":9443,"Ġbiomass":9444,"Ġnaive":9445,"Ġabsorb":9446,"Ġasteroids":9447,"Ġdeployed":9448,"Ġiconic":9449,"Ġcluster":9450,"standing":9451,"Ġpulse":9452,"Ġseventh":9453,"Ġmembrane":9454,"Ġhorses":9455,"Ġneocortex":9456,"Ġdiarrhea":9457,"Ġwelfare":9458,"Ġpeculiar":9459,"bag":9460,"lor":9461,"nis":9462,"uana":9463,"vae":9464,"wing":9465,"wom":9466,"Ã¡":9467,"ÃŃ":9468,"Ġcube":9469,"Ġmumb":9470,"Ġmixt":9471,"Ġpitt":9472,"Ġfence":9473,"Ġfda":9474,"Ġdare":9475,"oric":9476,"Ġgains":9477,"Ġnich":9478,"Ġnether":9479,"Ġego":9480,"usalem":9481,"Ġstamp":9482,"Ġsticking":9483,"ching":9484,"ched":9485,"irst":9486,"Ġka":9487,"Ġky":9488,"Ġshops":9489,"ila":9490,"Ġdeforestation":9491,"Ġalas":9492,"ifies":9493,"Ġusa":9494,"Ġwhoever":9495,"osexual":9496,"Ġunw":9497,"Ġsometime":9498,"Ġarbit":9499,"Ġimpr":9500,"Ġdisney":9501,"Ġadvers":9502,"Ġsyria":9503,"Ġblur":9504,"Ġprey":9505,"Ġprepar":9506,"Ġscra":9507,"Ġcarries":9508,"anges":9509,"Ġwrist":9510,"Ġappeal":9511,"Ġshoulders":9512,"iances":9513,"Ġglo":9514,"Ġendless":9515,"Ġcreator":9516,"Ġdrunk":9517,"Ġslower":9518,"Ġ190":9519,"Ġmini":9520,"Ġcomputational":9521,"Ġcareg":9522,"Ġinformal":9523,"Ġhandful":9524,"Ġpresum":9525,"Ġorganizing":9526,"Ġretro":9527,"Ġfreezing":9528,"Ġharry":9529,"Ġalongside":9530,"Ġuniverses":9531,"Ġrisky":9532,"Ġfacilit":9533,"Ġfloat":9534,"Ġproposal":9535,"Ġreporting":9536,"Ġfemin":9537,"Ġimmort":9538,"Ġdemocracies":9539,"Ġridge":9540,"Ġladen":9541,"Ġaccountability":9542,"Ġloses":9543,"Ġsequences":9544,"Ġsequencing":9545,"Ġdocumented":9546,"Ġdiscussing":9547,"Ġcalculus":9548,"faction":9549,"Ġthrilled":9550,"Ġsurgeries":9551,"Ġmutations":9552,"Ġswitched":9553,"Ġcooperative":9554,"Ġanalyzed":9555,"Ġmask":9556,"Ġcorporation":9557,"Ġblew":9558,"Ġhostile":9559,"Ġsculptures":9560,"Ġmigration":9561,"Ġcandy":9562,"Ġemotionally":9563,"ijuana":9564,"burg":9565,"Ġmathematician":9566,"Ġjerusalem":9567,"Ġmentor":9568,"Ġlouis":9569,"Ġexploit":9570,"Ġlifespan":9571,"Ġdistinguish":9572,"digit":9573,"ongevity":9574,"Ġmcdonald":9575,"Ġcriteria":9576,"Ġconsensus":9577,"Ġnetherlands":9578,"did":9579,"dra":9580,"fly":9581,"gas":9582,"iw":9583,"lar":9584,"matic":9585,"normal":9586,"page":9587,"Ġ&":9588,"Ġtide":9589,"Ġwoo":9590,"Ġwins":9591,"Ġsib":9592,"Ġhint":9593,"Ġpic":9594,"Ġpent":9595,"Ġpestic":9596,"Ġnasty":9597,"asive":9598,"alog":9599,"Ġreass":9600,"Ġhaz":9601,"Ġstew":9602,"Ġkin":9603,"Ġseals":9604,"Ġcanvas":9605,"Ġcanyon":9606,"Ġjun":9607,"Ġshed":9608,"Ġshred":9609,"oli":9610,"Ġrm":9611,"Ġdele":9612,"arten":9613,"Ġvot":9614,"Ġvib":9615,"Ġvoted":9616,"iful":9617,"Ġintimate":9618,"Ġspare":9619,"Ġunlock":9620,"abeth":9621,"Ġevolving":9622,"Ġshepher":9623,"Ġbuzz":9624,"Ġlottery":9625,"Ġlethal":9626,"Ġideology":9627,"Ġintervent":9628,"Ġpreced":9629,"Ġscal":9630,"Ġraises":9631,"Ġapps":9632,"Ġsystematically":9633,"Ġboards":9634,"ergy":9635,"Ġ192":9636,"Ġ193":9637,"Ġministry":9638,"ructive":9639,"Ġhanded":9640,"Ġvisually":9641,"Ġ48":9642,"Ġmarks":9643,"Ġpasses":9644,"Ġhopeful":9645,"ocation":9646,"Ġyoungest":9647,"Ġnightm":9648,"Ġinvestments":9649,"Ġ72":9650,"Ġsensit":9651,"Ġfreak":9652,"Ġnonviol":9653,"Ġargent":9654,"Ġargued":9655,"Ġpractically":9656,"Ġmicrophone":9657,"Ġrecognizing":9658,"Ġdestination":9659,"Ġoptical":9660,"Ġtexts":9661,"Ġpathways":9662,"ometer":9663,"Ġlifel":9664,"Ġprincipal":9665,"Ġlogging":9666,"Ġgasoline":9667,"Ġrepresenting":9668,"Ġfantasy":9669,"Ġvacation":9670,"Ġsalmon":9671,"Ġangiogen":9672,"Ġcollaborate":9673,"Ġsignificance":9674,"Ġcardiac":9675,"Ġprisoner":9676,"Ġsweep":9677,"Ġjumping":9678,"iracy":9679,"Ġmatched":9680,"Ġarabia":9681,"month":9682,"Ġjuven":9683,"Ġiranian":9684,"Ġpleasant":9685,"Ġremotely":9686,"Ġnigerian":9687,"Ġconcentrate":9688,"Ġrotate":9689,"Ġegyptian":9690,"Ġaccelerate":9691,"Ġaccelerating":9692,"Ġastronomy":9693,"Ġbonob":9694,"Ġbulbs":9695,"Ġkicked":9696,"Ġshifts":9697,"Ġautonomy":9698,"Ġvirginia":9699,"Ġoverwhelmed":9700,"Ġmosquitos":9701,"Ġcorrespond":9702,"Ġcatholic":9703,"Ġolympics":9704,"Ġacknowled":9705,"Ġpouring":9706,"Ġalphabet":9707,"Ġminority":9708,"Ġwrapped":9709,"Ġarthur":9710,"Ġinhabit":9711,"Ġnarc":9712,"Ġantenna":9713,"Ġcylinder":9714,"Ġcongestion":9715,"Ġundergradu":9716,"Ġgrocery":9717,"Ġgirlfriend":9718,"Ġhambur":9719,"Ġinterventions":9720,"12":9721,"boy":9722,"fing":9723,"ran":9724,"vol":9725,"would":9726,"Ġawe":9727,"inator":9728,"atoes":9729,"Ġcd":9730,"Ġbern":9731,"enance":9732,"Ġpou":9733,"Ġporn":9734,"Ġposed":9735,"Ġinsec":9736,"Ġlt":9737,"Ġlongevity":9738,"Ġyards":9739,"itis":9740,"Ġell":9741,"etal":9742,"Ġsoc":9743,"Ġstressed":9744,"stics":9745,"Ġdood":9746,"Ġkos":9747,"Ġseattle":9748,"Ġjord":9749,"Ġshining":9750,"Ġmeets":9751,"Ġchess":9752,"Ġrum":9753,"Ġrip":9754,"Ġallies":9755,"Ġexotic":9756,"Ġexagger":9757,"Ġprobe":9758,"Ġdepr":9759,"umber":9760,"esty":9761,"Ġalign":9762,"Ġalert":9763,"Ġvivid":9764,"qual":9765,"Ġoutrage":9766,"unks":9767,"Ġenab":9768,"Ġkinderg":9769,"Ġresur":9770,"Ġblown":9771,"Ġinterpre":9772,"Ġscans":9773,"Ġtechnic":9774,"Ġguards":9775,"Ġsurg":9776,"bees":9777,"Ġcrows":9778,"Ġinsert":9779,"Ġslice":9780,"Ġplanned":9781,"Ġkidney":9782,"aza":9783,"Ġeconomically":9784,"Ġcorrid":9785,"Ġvisiting":9786,"Ġregist":9787,"Ġbreed":9788,"Ġgeography":9789,"Ġcraw":9790,"Ġgreenland":9791,"Ġsteven":9792,"Ġdigest":9793,"Ġtrading":9794,"Ġcyrus":9795,"shaped":9796,"Ġcopies":9797,"Ġcritically":9798,"Ġempath":9799,"Ġperiods":9800,"Ġtrusted":9801,"Ġrains":9802,"Ġrepresentative":9803,"Ġdamaged":9804,"Ġannivers":9805,"Ġframes":9806,"grand":9807,"Ġassociate":9808,"Ġtunis":9809,"Ġliberty":9810,"Ġinventor":9811,"Ġfolding":9812,"Ġsmells":9813,"Ġtargeted":9814,"Ġmichel":9815,"Ġmexican":9816,"Ġinjured":9817,"front":9818,"offs":9819,"Ġstreams":9820,"Ġpriorit":9821,"Ġdocumentary":9822,"Ġinvestigation":9823,"Ġpipe":9824,"Ġblowing":9825,"Ġoccupy":9826,"Ġwitnessed":9827,"Ġacquire":9828,"Ġdishes":9829,"Ġdiplomacy":9830,"Ġdesperate":9831,"Ġcocktail":9832,"Ġmushrooms":9833,"Ġirrational":9834,"Ġeliminate":9835,"Ġtriang":9836,"Ġcasual":9837,"Ġcandidates":9838,"Ġutterly":9839,"Ġboost":9840,"Ġadolescent":9841,"Ġbasketball":9842,"Ġselves":9843,"Ġjoseph":9844,"Ġmozart":9845,"Ġlocomotion":9846,"Ġenforcement":9847,"Ġhybrid":9848,"Ġelaborate":9849,"restrial":9850,"Ġoffspring":9851,"Ġsupreme":9852,"Ġmumbai":9853,"Ġpreparation":9854,"cod":9855,"fire":9856,"ki":9857,"pat":9858,"she":9859,"tically":9860,"Ġthyl":9861,"Ġcope":9862,"Ġcables":9863,"Ġmum":9864,"Ġmater":9865,"Ġmating":9866,"Ġharr":9867,"Ġpc":9868,"Ġfid":9869,"Ġfier":9870,"Ġdp":9871,"Ġdick":9872,"anch":9873,"Ġinn":9874,"Ġgad":9875,"Ġnons":9876,"ete":9877,"Ġreper":9878,"idal":9879,"Ġheating":9880,"Ġwasted":9881,"Ġuh":9882,"ithm":9883,"Ġabed":9884,"Ġshaking":9885,"Ġshorter":9886,"Ġmead":9887,"Ġchase":9888,"Ġpeel":9889,"Ġaliens":9890,"istine":9891,"Ġthemes":9892,"Ġplates":9893,"Ġactively":9894,"mentation":9895,"Ġcoca":9896,"izabeth":9897,"ouses":9898,"Ġunst":9899,"Ġevapor":9900,"agra":9901,"Ġfiring":9902,"ountered":9903,"Ġacres":9904,"Ġacute":9905,"Ġacids":9906,"Ġdeserves":9907,"Ġindus":9908,"Ġscaff":9909,"Ġcounts":9910,"Ġbelt":9911,"Ġserver":9912,"Ġserves":9913,"Ġformat":9914,"Ġprescription":9915,"Ġregional":9916,"Ġadds":9917,"Ġswallow":9918,"ierra":9919,"Ġreasoning":9920,"iolet":9921,"Ġadvis":9922,"Ġhugely":9923,"Ġsteep":9924,"Ġbrands":9925,"Ġsensing":9926,"Ġpleased":9927,"Ġdigging":9928,"Ġcycl":9929,"Ġconvicted":9930,"Ġencountered":9931,"Ġpenal":9932,"Ġconceptual":9933,"Ġsmartphone":9934,"Ġethan":9935,"umbled":9936,"umbling":9937,"Ġassumed":9938,"Ġunfortunate":9939,"proof":9940,"Ġmutation":9941,"Ġintegrate":9942,"Ġdelivering":9943,"frontal":9944,"Ġgardens":9945,"Ġmasters":9946,"built":9947,"Ġdispers":9948,"Ġphilosophical":9949,"Ġplatforms":9950,"Ġembracing":9951,"Ġinvestigate":9952,"iatric":9953,"Ġvegetable":9954,"Ġrescued":9955,"Ġatlanta":9956,"Ġaffairs":9957,"Ġacquired":9958,"Ġdictionaries":9959,"Ġingredient":9960,"Ġhorizontal":9961,"Ġrejected":9962,"Ġrenewables":9963,"Ġsemi":9964,"Ġcoordination":9965,"Ġimplemented":9966,"Ġtriangle":9967,"Ġmillennium":9968,"Ġtolerance":9969,"Ġadoption":9970,"Ġbosn":9971,"Ġprosthetic":9972,"Ġacoustic":9973,"Ġparachute":9974,"Ġharsh":9975,"Ġkindergarten":9976,"Ġthylac":9977,"gram":9978,"mass":9979,"onds":9980,"rist":9981,"run":9982,"Ġ:":9983,"Ġthro":9984,"Ġaims":9985,"Ġwre":9986,"Ġwore":9987,"Ġsang":9988,"Ġoz":9989,"Ġbm":9990,"Ġbip":9991,"Ġpiss":9992,"Ġtoky":9993,"Ġfans":9994,"Ġeighth":9995,"Ġbeef":9996,"uts":9997,"oto":9998,"Ġreck":9999,"Ġonstage":10000,"rah":10001,"Ġanecd":10002,"Ġsegment":10003,"Ġassemble":10004,"olera":10005,"Ġcher":10006,"Ġcholera":10007,"ulative":10008,"Ġexquis":10009,"Ġorth":10010,"Ġpean":10011,"osity":10012,"Ġenrich":10013,"Ġtags":10014,"Ġmanaging":10015,"Ġperm":10016,"Ġunint":10017,"Ġdiscl":10018,"Ġloyal":10019,"Ġcontained":10020,"Ġsyl":10021,"Ġpreach":10022,"Ġprecip":10023,"Ġgeneric":10024,"Ġcounted":10025,"Ġcountless":10026,"Ġwright":10027,"percent":10028,"Ġsystematic":10029,"Ġsimulate":10030,"beat":10031,"Ġlongest":10032,"uba":10033,"Ġconsent":10034,"Ġcollision":10035,"Ġmonster":10036,"Ġmoder":10037,"Ġcompute":10038,"Ġbehold":10039,"Ġgenerates":10040,"Ġcaf":10041,"Ġ44":10042,"Ġregulation":10043,"Ġprocessor":10044,"Ġprogression":10045,"Ġheadquarters":10046,"Ġcheating":10047,"Ġnetworking":10048,"Ġcondoms":10049,"Ġcalc":10050,"brush":10051,"Ġpays":10052,"Ġcraig":10053,"Ġarchive":10054,"Ġvariable":10055,"Ġsquid":10056,"Ġsymphony":10057,"Ġpsycho":10058,"Ġchemotherapy":10059,"Ġpracticing":10060,"Ġfeeds":10061,"Ġrichest":10062,"Ġpenis":10063,"Ġobser":10064,"Ġcopenh":10065,"coming":10066,"Ġtexting":10067,"Ġachieving":10068,"Ġemergence":10069,"Ġfeminist":10070,"Ġdefining":10071,"Ġethic":10072,"Ġdaniel":10073,"Ġmarrow":10074,"Ġchecking":10075,"Ġtranslator":10076,"Ġreturns":10077,"Ġcounsel":10078,"Ġdetector":10079,"Ġauthoritarian":10080,"Ġhoped":10081,"Ġinfectious":10082,"Ġemployment":10083,"Ġcelebration":10084,"Ġsurveys":10085,"Ġmammal":10086,"Ġtorn":10087,"Ġtort":10088,"Ġtalented":10089,"Ġpreventing":10090,"Ġfrogs":10091,"Ġhabitats":10092,"Ġambul":10093,"Ġconsidering":10094,"Ġmastery":10095,"Ġphilosophers":10096,"Ġtowers":10097,"Ġpriorities":10098,"Ġroofs":10099,"Ġmelting":10100,"Ġreforms":10101,"Ġnegotiate":10102,"Ġgrains":10103,"Ġfishermen":10104,"Ġrevenues":10105,"Ġconverted":10106,"Ġdisciplines":10107,"Ġweighs":10108,"Ġgestures":10109,"Ġsarah":10110,"Ġhouseholds":10111,"Ġdictators":10112,"Ġchampions":10113,"Ġauthenticity":10114,"Ġsurvivors":10115,"Ġdeficit":10116,"olitan":10117,"Ġcharlie":10118,"Ġrevolutions":10119,"Ġjungle":10120,"Ġsaturday":10121,"Ġspatial":10122,"Ġhawaii":10123,"Ġtibet":10124,"Ġnorden":10125,"ffective":10126,"Ġangiogenesis":10127,"Ġkosov":10128,"Ġanniversary":10129,"Ġtokyo":10130,"Ġcopenhagen":10131,"99":10132,"aver":10133,"bus":10134,"every":10135,"fare":10136,"hah":10137,"lon":10138,"mate":10139,"pos":10140,"pread":10141,"rin":10142,"sur":10143,"tz":10144,"violet":10145,"Ġtues":10146,"Ġtangible":10147,"Ġwides":10148,"rey":10149,"Ġow":10150,"Ġoven":10151,"atories":10152,"Ġcul":10153,"Ġcups":10154,"Ġmun":10155,"Ġmerg":10156,"Ġtod":10157,"Ġtoll":10158,"Ġfog":10159,"Ġdrain":10160,"orters":10161,"Ġyog":10162,"itated":10163,"Ġbeam":10164,"oton":10165,"ctive":10166,"Ġster":10167,"Ġstun":10168,"cha":10169,"Ġliby":10170,"ationally":10171,"Ġjur":10172,"Ġjup":10173,"Ġjaw":10174,"Ġchasing":10175,"ilation":10176,"Ġmapped":10177,"Ġspite":10178,"Ġthinkers":10179,"ements":10180,"Ġenvision":10181,"ourse":10182,"Ġleague":10183,"Ġunle":10184,"Ġunac":10185,"Ġunseen":10186,"aches":10187,"Ġcontag":10188,"Ġresident":10189,"Ġhumility":10190,"Ġflesh":10191,"iverse":10192,"Ġguerr":10193,"Ġsimul":10194,"Ġdecides":10195,"Ġdeciding":10196,"Ġfoie":10197,"Ġinvolving":10198,"teen":10199,"Ġrelativity":10200,"Ġimagin":10201,"Ġproducers":10202,"Ġentit":10203,"Ġentities":10204,"Ġfamine":10205,"uced":10206,"ifications":10207,"Ġcares":10208,"Ġprojection":10209,"Ġsubmit":10210,"Ġvisions":10211,"Ġregulations":10212,"Ġgreet":10213,"Ġcharged":10214,"Ġmodeling":10215,"Ġrefuse":10216,"Ġrefused":10217,"Ġequals":10218,"ographical":10219,"Ġabsurd":10220,"Ġparenting":10221,"Ġsuperno":10222,"Ġtravels":10223,"Ġpredicting":10224,"Ġcopied":10225,"Ġunfair":10226,"Ġdeadly":10227,"Ġfavel":10228,"Ġbacterium":10229,"Ġspeeds":10230,"Ġprimates":10231,"Ġsquares":10232,"Ġscreening":10233,"Ġcataly":10234,"Ġangles":10235,"Ġrolled":10236,"Ġenormously":10237,"Ġtransported":10238,"Ġaddressing":10239,"Ġcontributing":10240,"Ġinnovate":10241,"Ġcelebrity":10242,"Ġjournalism":10243,"Ġodor":10244,"Ġintegration":10245,"Ġhacker":10246,"Ġironic":10247,"Ġepip":10248,"Ġattempts":10249,"Ġprostit":10250,"Ġastronaut":10251,"Ġcosmos":10252,"Ġlectures":10253,"Ġdiamonds":10254,"Ġbeside":10255,"Ġrigid":10256,"Ġembarrassed":10257,"Ġconfronted":10258,"Ġmillennia":10259,"Ġeverest":10260,"Ġlegisl":10261,"Ġparasite":10262,"Ġfulfill":10263,"Ġintegrity":10264,"Ġultraviolet":10265,"Ġtedtalks":10266,"Ġinherently":10267,"Ġstatistical":10268,"Ġdisturbing":10269,"Ġsqueeze":10270,"Ġintimacy":10271,"abulary":10272,"Ġpalestinian":10273,"computer":10274,"Ġlebanon":10275,"Ġcompreh":10276,"Ġpigeon":10277,"Ġencyclopedia":10278,"Ġmarathon":10279,"Ġhurricane":10280,"Ġtuesday":10281,"Ġwidespread":10282,"Ġjupiter":10283,"bc":10284,"ders":10285,"je":10286,"rie":10287,"size":10288,"Ġwi":10289,"Ġwrest":10290,"Ġsierra":10291,"rels":10292,"Ġbh":10293,"Ġbent":10294,"Ġfired":10295,"Ġdens":10296,"Ġlith":10297,"Ġga":10298,"ason":10299,"alia":10300,"Ġeu":10301,"Ġreh":10302,"Ġsoy":10303,"Ġanth":10304,"thood":10305,"Ġkit":10306,"Ġabroad":10307,"Ġcanadian":10308,"adel":10309,"ilitation":10310,"Ġexceed":10311,"umbs":10312,"estone":10313,"Ġknees":10314,"Ġalumin":10315,"Ġvin":10316,"Ġupstream":10317,"ogens":10318,"elf":10319,"Ġtiming":10320,"arded":10321,"Ġmanus":10322,"Ġperipher":10323,"Ġnoisy":10324,"Ġprince":10325,"Ġardu":10326,"Ġdisconnect":10327,"Ġloans":10328,"Ġadh":10329,"Ġblast":10330,"pling":10331,"Ġhumankind":10332,"Ġguitar":10333,"Ġapples":10334,"Ġbasement":10335,"Ġbaseline":10336,"Ġtransact":10337,"Ġconsists":10338,"Ġslope":10339,"Ġ38":10340,"Ġentrance":10341,"Ġmetals":10342,"Ġexplored":10343,"Ġsubsequ":10344,"Ġsingular":10345,"Ġ46":10346,"Ġregul":10347,"Ġcambod":10348,"Ġairline":10349,"Ġinfra":10350,"Ġautistic":10351,"Ġmorph":10352,"Ġequity":10353,"Ġfilters":10354,"Ġcracks":10355,"Ġfrontier":10356,"Ġpaste":10357,"ucks":10358,"held":10359,"Ġmillimeter":10360,"Ġfundra":10361,"Ġdemograph":10362,"Ġescap":10363,"Ġescal":10364,"Ġpotent":10365,"Ġsuperher":10366,"Ġlimbs":10367,"Ġoccas":10368,"Ġapes":10369,"boards":10370,"Ġcopper":10371,"Ġreplacing":10372,"nedy":10373,"Ġpromoting":10374,"Ġfloors":10375,"Ġbeneficial":10376,"ynth":10377,"Ġpuff":10378,"Ġparticipating":10379,"eyed":10380,"Ġimprovements":10381,"Ġtomato":10382,"Ġdisappears":10383,"Ġlaund":10384,"Ġcookie":10385,"Ġtowns":10386,"Ġcalculating":10387,"Ġsadness":10388,"graph":10389,"Ġkennedy":10390,"Ġmutual":10391,"Ġtorture":10392,"Ġlosses":10393,"Ġmagazines":10394,"Ġambition":10395,"Ġghost":10396,"Ġqueens":10397,"Ġmaintenance":10398,"Ġegyptians":10399,"Ġstimulate":10400,"Ġsymmetries":10401,"Ġsymmetrical":10402,"Ġkorean":10403,"Ġprofitable":10404,"Ġdesktop":10405,"Ġshifted":10406,"Ġnurt":10407,"Ġoctop":10408,"Ġsatisfaction":10409,"Ġempowering":10410,"Ġvocabulary":10411,"Ġcathed":10412,"Ġinterfaces":10413,"Ġcolumns":10414,"Ġmetabolism":10415,"Ġintentions":10416,"Ġcatastrophic":10417,"Ġbeetle":10418,"Ġbeetles":10419,"Ġchromosome":10420,"Ġbrutal":10421,"Ġweekend":10422,"Ġrehabilitation":10423,"Ġprecision":10424,"Ġscheme":10425,"Ġsubstantial":10426,"Ġhallucinations":10427,"Ġpedestrian":10428,"Ġfestival":10429,"Ġjoshua":10430,"Ġwarrior":10431,"Ġdvd":10432,"Ġgrabbed":10433,"Ġartifacts":10434,"Ġyeast":10435,"minded":10436,"Ġasthma":10437,"Ġmaneuver":10438,"Ġsylvia":10439,"300":10440,"?'":10441,"bling":10442,"hell":10443,"hors":10444,"jan":10445,"lah":10446,"nik":10447,"pound":10448,"rants":10449,"school":10450,"tent":10451,"wis":10452,"Ġ]":10453,"Ġthail":10454,"Ġape":10455,"Ġaven":10456,"Ġosc":10457,"inished":10458,"Ġbj":10459,"Ġbid":10460,"ength":10461,"Ġfou":10462,"Ġdorm":10463,"any":10464,"eses":10465,"Ġoffe":10466,"Ġlately":10467,"Ġluther":10468,"itating":10469,"lets":10470,"alay":10471,"Ġeternal":10472,"rose":10473,"roots":10474,"Ġstare":10475,"Ġstagger":10476,"stairs":10477,"igan":10478,"Ġheck":10479,"celi":10480,"Ġmonday":10481,"Ġjumps":10482,"Ġshuff":10483,"Ġrank":10484,"Ġrays":10485,"Ġfriction":10486,"Ġmyceli":10487,"Ġalice":10488,"Ġvo":10489,"Ġupward":10490,"Ġupright":10491,"ogether":10492,"Ġtale":10493,"Ġtagged":10494,"Ġlege":10495,"ghetti":10496,"Ġpricing":10497,"Ġark":10498,"solete":10499,"Ġdisk":10500,"Ġdisabilities":10501,"Ġdesires":10502,"Ġblessed":10503,"Ġgoodness":10504,"ictions":10505,"plic":10506,"Ġgreatly":10507,"Ġtraces":10508,"bean":10509,"Ġglow":10510,"Ġhimalay":10511,"Ġslog":10512,"Ġslip":10513,"Ġslave":10514,"Ġfamously":10515,"Ġeditors":10516,"Ġelizabeth":10517,"Ġlarry":10518,"Ġcareers":10519,"Ġwarmer":10520,"Ġcalend":10521,"Ġviscer":10522,"Ġmarker":10523,"Ġjokes":10524,"Ġcharter":10525,"Ġcolom":10526,"Ġmilky":10527,"Ġequator":10528,"iterate":10529,"Ġtreaty":10530,"Ġassault":10531,"Ġfilmed":10532,"Ġviewed":10533,"Ġrises":10534,"Ġbrocc":10535,"Ġillusions":10536,"Ġprogrammed":10537,"iumph":10538,"gency":10539,"Ġeru":10540,"Ġsudan":10541,"apped":10542,"Ġsurviving":10543,"Ġpressing":10544,"Ġpressures":10545,"Ġiceberg":10546,"Ġnicely":10547,"Ġmedications":10548,"Ġslept":10549,"Ġpaths":10550,"Ġhonored":10551,"Ġneglect":10552,"Ġfunctioning":10553,"Ġvirtue":10554,"Ġdancers":10555,"Ġapartments":10556,"Ġlaboratories":10557,"Ġgraphs":10558,"Ġdetected":10559,"Ġcardboard":10560,"Ġcorrelation":10561,"Ġstruggled":10562,"Ġuniquely":10563,"Ġordered":10564,"Ġopposition":10565,"Ġtalents":10566,"Ġfolded":10567,"Ġaltered":10568,"Ġflights":10569,"Ġchickens":10570,"Ġshelves":10571,"Ġindicates":10572,"Ġfrequencies":10573,"Ġchapters":10574,"Ġstimulation":10575,"Ġpipeline":10576,"Ġfrustration":10577,"Ġpraying":10578,"Ġcontainer":10579,"speed":10580,"Ġmontana":10581,"Ġrepublicans":10582,"Ġempowerment":10583,"Ġtaboo":10584,"Ġexponentially":10585,"Ġcensus":10586,"Ġmetabolic":10587,"Ġstrikes":10588,"Ġprocedures":10589,"Ġelevator":10590,"Ġadvocate":10591,"Ġclarity":10592,"Ġastronomers":10593,"Ġemphasize":10594,"Ġspaghetti":10595,"Ġphysiology":10596,"engineering":10597,"Ġcousin":10598,"Ġbrowser":10599,"Ġcorresponds":10600,"Ġsnake":10601,"Ġconfiguration":10602,"Ġcolumbia":10603,"Ġplankton":10604,"Ġcommittee":10605,"Ġmixture":10606,"Ġalaska":10607,"Ġstewart":10608,"Ġsensitivity":10609,"Ġsoccer":10610,"Ġsurgical":10611,"Ġnonsense":10612,"Ġscaffold":10613,"Ġthailand":10614,"Ġmycelium":10615,"Ġbroccoli":10616,"eem":10617,"elect":10618,"flu":10619,"hara":10620,"million":10621,"sm":10622,"sor":10623,"wid":10624,"Ġware":10625,"Ġoy":10626,"Ġowe":10627,"inational":10628,"aters":10629,"Ġcum":10630,"Ġbore":10631,"Ġbert":10632,"ena":10633,"Ġpap":10634,"Ġfame":10635,"Ġfred":10636,"Ġfont":10637,"Ġdome":10638,"Ġdivid":10639,"Ġlane":10640,"Ġnaz":10641,"Ġnode":10642,"alysis":10643,"Ġrena":10644,"sea":10645,"Ġstairs":10646,"idi":10647,"imed":10648,"iments":10649,"Ġlips":10650,"thank":10651,"Ġseam":10652,"amas":10653,"olar":10654,"Ġchord":10655,"Ġthereby":10656,"illas":10657,"ilated":10658,"Ġprosec":10659,"Ġvene":10660,"oding":10661,"Ġcoh":10662,"Ġleopard":10663,"izz":10664,"Ġclues":10665,"Ġclips":10666,"Ġpron":10667,"Ġarc":10668,"Ġpond":10669,"Ġbugs":10670,"Ġcontest":10671,"Ġunderm":10672,"conds":10673,"plan":10674,"Ġgrim":10675,"Ġthankfully":10676,"Ġtrap":10677,"Ġappoint":10678,"acqu":10679,"Ġobsolete":10680,"Ġbonds":10681,"Ġcourts":10682,"Ġplayful":10683,"Ġinsult":10684,"Ġpowerpoint":10685,"Ġfinishing":10686,"issance":10687,"Ġlighter":10688,"Ġlightning":10689,"Ġbiases":10690,"Ġreader":10691,"Ġsinger":10692,"Ġregulate":10693,"Ġheadline":10694,"Ġfungi":10695,"Ġzimb":10696,"ograms":10697,"Ġresemb":10698,"Ġscientifically":10699,"Ġwaited":10700,"asha":10701,"Ġasset":10702,"Ġassure":10703,"Ġmassively":10704,"Ġstealing":10705,"Ġstepping":10706,"Ġmarijuana":10707,"Ġblueprint":10708,"Ġconsuming":10709,"Ġpersonalities":10710,"Ġobsc":10711,"ustainable":10712,"Ġtraditionally":10713,"Ġsustained":10714,"Ġfurth":10715,"Ġsells":10716,"heads":10717,"Ġ1994":10718,"Ġ1995":10719,"Ġchecked":10720,"Ġspiral":10721,"Ġsalary":10722,"Ġreturning":10723,"Ġassuming":10724,"Ġacceptance":10725,"Ġbudgets":10726,"Ġjudgments":10727,"Ġ1984":10728,"Ġmatches":10729,"Ġmotivate":10730,"Ġsymbolic":10731,"Ġreflects":10732,"Ġapplies":10733,"Ġanalyzing":10734,"Ġsexuality":10735,"Ġfolk":10736,"Ġaccommod":10737,"Ġforgive":10738,"Ġancestor":10739,"Ġappreciation":10740,"Ġfossils":10741,"Ġpolitician":10742,"Ġfragments":10743,"Ġreplacement":10744,"Ġmanipulation":10745,"Ġmicroscopic":10746,"Ġwashed":10747,"Ġstorms":10748,"Ġvenus":10749,"Ġtightly":10750,"Ġportraits":10751,"Ġgigantic":10752,"vasive":10753,"Ġwiped":10754,"Ġskeptical":10755,"Ġstatistically":10756,"Ġchromosomes":10757,"Ġsulfide":10758,"Ġdisappointed":10759,"Ġdismiss":10760,"Ġreceptor":10761,"ocratic":10762,"controlled":10763,"piece":10764,"Ġtanks":10765,"Ġsummarize":10766,"Ġembodied":10767,"Ġthorough":10768,"Ġportugal":10769,"natural":10770,"Ġgravitational":10771,"Ġminerals":10772,"Ġseafood":10773,"Ġshepherd":10774,"Ġpenalty":10775,"Ġcalculation":10776,"Ġaluminum":10777,"Ġstaggering":10778,".]":10779,"bia":10780,"cam":10781,"eing":10782,"fight":10783,"have":10784,"low":10785,"rhythm":10786,"su":10787,"wall":10788,"with":10789,"Ġ/":10790,"Ġcort":10791,"Ġcram":10792,"Ġmature":10793,"Ġhan":10794,"Ġlh":10795,"Ġlem":10796,"isan":10797,"Ġyard":10798,"Ġny":10799,"verted":10800,"Ġarena":10801,"Ġgoat":10802,"thals":10803,"Ġkansas":10804,"erent":10805,"Ġrust":10806,"Ġrna":10807,"Ġbeck":10808,"ppers":10809,"Ġalan":10810,"Ġalter":10811,"Ġalike":10812,"Ġviable":10813,"Ġintric":10814,"Ġtriumph":10815,"iva":10816,"Ġmoreover":10817,"Ġsavan":10818,"Ġsuits":10819,"ourcing":10820,"izational":10821,"Ġworldview":10822,"abwe":10823,"Ġprimate":10824,"Ġprisons":10825,"Ġarise":10826,"Ġwells":10827,"redict":10828,"pted":10829,"develop":10830,"elle":10831,"Ġreserv":10832,"Ġbrick":10833,"phia":10834,"ials":10835,"intu":10836,"Ġintersect":10837,"Ġincar":10838,"akers":10839,"Ġcarib":10840,"because":10841,"Ġinvitation":10842,"Ġrelates":10843,"Ġbitter":10844,"Ġkidna":10845,"Ġrecur":10846,"Ġedit":10847,"Ġmetrop":10848,"Ġskilled":10849,"Ġsecondary":10850,"Ġprojected":10851,"Ġ52":10852,"Ġsubmar":10853,"Ġ43":10854,"Ġmarkers":10855,"Ġconfined":10856,"Ġswing":10857,"Ġdeter":10858,"ocracy":10859,"Ġmilo":10860,"Ġreflex":10861,"Ġgeorg":10862,"Ġfriendship":10863,"Ġindividually":10864,"Ġfrontal":10865,"Ġbrad":10866,"Ġcircul":10867,"genesis":10868,"Ġsuperior":10869,"Ġimprob":10870,"Ġimprovis":10871,"Ġbreakdown":10872,"Ġspecialist":10873,"Ġapoll":10874,"Ġmultinational":10875,"Ġdestructive":10876,"Ġobserving":10877,"Ġresponsibilities":10878,"Ġcopying":10879,"Ġshoots":10880,"Ġfacult":10881,"Ġcircular":10882,"Ġpollut":10883,"Ġsnakes":10884,"Ġphiladel":10885,"Ġ1997":10886,"unting":10887,"Ġethics":10888,"Ġadmitted":10889,"Ġcharacteristic":10890,"Ġactivated":10891,"Ġchecks":10892,"Ġdiagnostic":10893,"Ġcollaborators":10894,"Ġperspectives":10895,"Ġ2015":10896,"Ġquantities":10897,"Ġmuseums":10898,"Ġmagician":10899,"Ġrespected":10900,"Ġhonesty":10901,"Ġutility":10902,"Ġdrama":10903,"Ġinventions":10904,"Ġdisplays":10905,"Ġmixing":10906,"Ġambass":10907,"Ġtherapist":10908,"Ġpartnerships":10909,"handed":10910,"Ġmouths":10911,"Ġadaptation":10912,"Ġgrassroots":10913,"Ġkilometer":10914,"Ġangels":10915,"Ġsubstit":10916,"Ġpowder":10917,"Ġmirrors":10918,"Ġshadows":10919,"Ġpipes":10920,"Ġfrustrating":10921,"Ġexplanations":10922,"cola":10923,"Ġgreeks":10924,"Ġpurely":10925,"Ġisolation":10926,"Ġreproduction":10927,"Ġminimal":10928,"Ġdiamond":10929,"Ġhooked":10930,"Ġmacro":10931,"Ġanxious":10932,"Ġcybercrim":10933,"Ġresilient":10934,"Ġqaeda":10935,"Ġfrightened":10936,"Ġcensors":10937,"Ġentrepreneurial":10938,"Ġobstacle":10939,"Ġaccumulate":10940,"Ġpurchase":10941,"Ġpsychiatric":10942,"Ġunpredict":10943,"Ġjefferson":10944,"Ġdisruptive":10945,"Ġconfirm":10946,"Ġbuttons":10947,"Ġorientation":10948,"Ġspontaneously":10949,"Ġpropaganda":10950,"Ġneanderthals":10951,"Ġnumerous":10952,"Ġimpulse":10953,"Ġexercises":10954,"Ġstaircase":10955,"Ġnamib":10956,"Ġsteady":10957,"oriented":10958,"Ġsiblings":10959,"Ġenabling":10960,"Ġambulance":10961,"Ġzimbabwe":10962,"Ġphiladelphia":10963,"47":10964,"bbit":10965,"ni":10966,"oven":10967,"oster":10968,"ux":10969,"wait":10970,"zzy":10971,"Ġtips":10972,"Ġarous":10973,"Ġwives":10974,"Ġsiber":10975,"Ġom":10976,"Ġoak":10977,"Ġmi":10978,"Ġmm":10979,"inger":10980,"Ġpose":10981,"Ġpav":10982,"Ġtoast":10983,"Ġfaint":10984,"Ġdm":10985,"Ġdur":10986,"Ġdates":10987,"Ġlind":10988,"Ġlump":10989,"Ġlama":10990,"Ġgel":10991,"Ġeco":10992,"Ġeats":10993,"robi":10994,"igg":10995,"Ġheh":10996,"Ġanesthesia":10997,"Ġkle":10998,"ilibr":10999,"Ġfruits":11000,"Ġdeple":11001,"Ġdebr":11002,"umen":11003,"umental":11004,"Ġalar":11005,"Ġvon":11006,"Ġvotes":11007,"ortion":11008,"Ġplut":11009,"Ġsucks":11010,"apagos":11011,"aste":11012,"Ġfever":11013,"Ġtwins":11014,"ptic":11015,"Ġhump":11016,"Ġhumble":11017,"Ġbrig":11018,"Ġscroll":11019,"Ġincon":11020,"Ġpersons":11021,"weg":11022,"Ġearned":11023,"Ġinstances":11024,"Ġhelmet":11025,"Ġbooth":11026,"Ġplayground":11027,"Ġkeen":11028,"Ġinspect":11029,"Ġsolo":11030,"Ġmeditation":11031,"Ġrecla":11032,"Ġoklah":11033,"Ġrepet":11034,"conomic":11035,"Ġwarfare":11036,"Ġrespir":11037,"Ġpreserved":11038,"Ġmarked":11039,"Ġprocessed":11040,"Ġjoining":11041,"Ġpatience":11042,"Ġpassions":11043,"Ġeasiest":11044,"Ġinflation":11045,"Ġmidst":11046,"Ġremembering":11047,"Ġnorweg":11048,"Ġauditor":11049,"bral":11050,"Ġ98":11051,"Ġoperates":11052,"generation":11053,"Ġsque":11054,"Ġchemist":11055,"Ġsupports":11056,"Ġsupportive":11057,"Ġdreamed":11058,"Ġrecognizes":11059,"cribed":11060,"Ġobsession":11061,"Ġdraws":11062,"Ġposters":11063,"Ġrevolutionary":11064,"Ġplanting":11065,"Ġadmire":11066,"Ġlinking":11067,"Ġdanny":11068,"Ġvariables":11069,"Ġcatalog":11070,"Ġbananas":11071,"Ġacceptable":11072,"Ġfinancially":11073,"Ġfingert":11074,"Ġ140":11075,"Ġpresidential":11076,"Ġbenign":11077,"Ġmammoth":11078,"Ġreflective":11079,"Ġvoluntary":11080,"Ġefficiently":11081,"Ġaltogether":11082,"Ġvisitors":11083,"Ġinjust":11084,"Ġharmful":11085,"copy":11086,"Ġmigrate":11087,"Ġcandle":11088,"Ġreveals":11089,"Ġlibraries":11090,"Ġdocumenting":11091,"Ġconvincing":11092,"Ġcrashes":11093,"Ġweakness":11094,"Ġbonus":11095,"Ġillnesses":11096,"Ġprayer":11097,"Ġheights":11098,"Ġgalapagos":11099,"Ġdedic":11100,"Ġchaotic":11101,"Ġassistant":11102,"Ġduty":11103,"Ġtenth":11104,"Ġbombsight":11105,"Ġpremise":11106,"Ġbuddha":11107,"Ġbuddhist":11108,"Ġthermal":11109,"Ġcontroversy":11110,"Ġwounded":11111,"Ġratings":11112,"Ġmarginal":11113,"Ġabundant":11114,"Ġincidentally":11115,"Ġbribe":11116,"Ġgrammar":11117,"Ġdysfunction":11118,"Ġforbid":11119,"Ġenlighten":11120,"Ġperceptions":11121,"Ġamateur":11122,"Ġprevalence":11123,"Ġanatomy":11124,"nutr":11125,"Ġelectromagnetic":11126,"Ġcinema":11127,"Ġvoters":11128,"Ġjordan":11129,"Ġkosovo":11130,"Ġlibya":11131,"Ġinfrared":11132,"Ġrenaissance":11133,"ilibrium":11134,"19":11135,"cet":11136,"cific":11137,"pay":11138,"tim":11139,"vance":11140,"Ġwk":11141,"Ġwandering":11142,"Ġsands":11143,"Ġsixt":11144,"Ġov":11145,"inch":11146,"inates":11147,"Ġcav":11148,"Ġcement":11149,"Ġbib":11150,"Ġmes":11151,"Ġhud":11152,"Ġhatch":11153,"Ġheter":11154,"Ġpess":11155,"Ġpiles":11156,"Ġpumps":11157,"Ġdwell":11158,"Ġdala":11159,"Ġlak":11160,"isc":11161,"arium":11162,"Ġnike":11163,"omp":11164,"alore":11165,"Ġbeast":11166,"Ġhay":11167,"sex":11168,"second":11169,"Ġstigma":11170,"Ġforum":11171,"irm":11172,"Ġgoli":11173,"Ġjen":11174,"Ġjay":11175,"Ġjill":11176,"Ġchunk":11177,"Ġrud":11178,"Ġprohib":11179,"Ġdeci":11180,"Ġconj":11181,"cked":11182,"Ġalright":11183,"Ġoutbreak":11184,"Ġsap":11185,"Ġsahara":11186,"Ġlee":11187,"Ġleak":11188,"Ġlexic":11189,"actic":11190,"Ġnoble":11191,"resist":11192,"agan":11193,"Ġneeding":11194,"Ġfirms":11195,"Ġross":11196,"Ġimpressed":11197,"depend":11198,"Ġspends":11199,"ulture":11200,"Ġscand":11201,"Ġscaled":11202,"Ġflaw":11203,"formed":11204,"Ġsmugg":11205,"Ġcarneg":11206,"Ġexamine":11207,"Ġslum":11208,"Ġproducer":11209,"Ġhuh":11210,"Ġstrat":11211,"Ġedward":11212,"Ġextr":11213,"Ġbiologically":11214,"Ġgenerosity":11215,"Ġexplode":11216,"Ġsubmers":11217,"Ġ450":11218,"Ġfuzzy":11219,"Ġgrey":11220,"Ġconnectome":11221,"Ġmidnight":11222,"Ġresearching":11223,"Ġwonderfully":11224,"Ġwavel":11225,"Ġmorally":11226,"Ġequilibrium":11227,"Ġtedx":11228,"Ġdevoted":11229,"Ġcrab":11230,"Ġmustache":11231,"Ġmicr":11232,"Ġviewing":11233,"Ġarchae":11234,"Ġharass":11235,"Ġhollow":11236,"Ġoperated":11237,"Ġprotective":11238,"Ġexistential":11239,"sterdam":11240,"Ġfails":11241,"Ġsymb":11242,"Ġ125":11243,"Ġpracticed":11244,"Ġ180":11245,"Ġpresenting":11246,"Ġviolin":11247,"Ġbloody":11248,"Ġcivilian":11249,"Ġpathway":11250,"Ġpromising":11251,"Ġpromises":11252,"Ġtruths":11253,"Ġtouches":11254,"Ġempir":11255,"Ġlaying":11256,"Ġsubjective":11257,"Ġattacking":11258,"Ġawake":11259,"Ġnucleus":11260,"Ġemerges":11261,"Ġportray":11262,"Ġblocked":11263,"Ġconsideration":11264,"Ġsticky":11265,"Ġintroducing":11266,"Ġbanned":11267,"Ġ160":11268,"Ġmisunder":11269,"Ġlaunching":11270,"Ġjudges":11271,"Ġrolls":11272,"Ġhurts":11273,"Ġtricky":11274,"Ġheroin":11275,"Ġtuned":11276,"Ġcelebrated":11277,"Ġdenmark":11278,"ilson":11279,"Ġdependence":11280,"Ġbangalore":11281,"Ġpetition":11282,"Ġdoubling":11283,"Ġtribal":11284,"know":11285,"Ġstrengths":11286,"Ġaccurately":11287,"Ġangel":11288,"Ġsnowden":11289,"holders":11290,"Ġgalleries":11291,"Ġcomplaining":11292,"Ġadvertis":11293,"Ġslaves":11294,"Ġconsistently":11295,"Ġcuba":11296,"specific":11297,"Ġholiday":11298,"Ġcracked":11299,"Ġscarce":11300,"Ġdepths":11301,"Ġhatred":11302,"Ġrainforests":11303,"Ġcoding":11304,"Ġchampion":11305,"Ġmanufacturers":11306,"Ġpersuade":11307,"Ġashamed":11308,"Ġfertilizer":11309,"Ġrecruit":11310,"Ġbreakthroughs":11311,"Ġrepeatedly":11312,"opardy":11313,"Ġdeliberately":11314,"Ġupdate":11315,"Ġintriguing":11316,"Ġdragonflies":11317,"Ġenthusiasm":11318,"Ġveloc":11319,"Ġcigarette":11320,"Ġsuburban":11321,"Ġvitamin":11322,"Ġdivorce":11323,"Ġintervene":11324,"Ġcoincidence":11325,"Ġdiscrimination":11326,"Ġoutdoor":11327,"Ġtasmanian":11328,"Ġepisode":11329,"Ġendeavor":11330,"Ġarbitrary":11331,"Ġnightmare":11332,"Ġjuvenile":11333,"Ġethanol":11334,"Ġunaccept":11335,"Ġoctopus":11336,"Ġoklahoma":11337,"Ġpessim":11338,"Ġdalai":11339,"Ġgoliath":11340,"Ġcarnegie":11341,"25":11342,"core":11343,"cup":11344,"dest":11345,"dles":11346,"eel":11347,"mile":11348,"meter":11349,"rians":11350,"rays":11351,"zer":11352,"zler":11353,"Ġwished":11354,"Ġsid":11355,"inburgh":11356,"Ġcn":11357,"Ġcad":11358,"Ġcodes":11359,"Ġbaker":11360,"Ġhence":11361,"onal":11362,"ano":11363,"Ġinmates":11364,"Ġlakes":11365,"Ġnie":11366,"asant":11367,"lethal":11368,"Ġease":11369,"cture":11370,"story":11371,"chel":11372,"Ġgosh":11373,"Ġgoss":11374,"Ġku":11375,"Ġsections":11376,"Ġrhyth":11377,"ilizing":11378,"Ġdean":11379,"Ġdefect":11380,"Ġvig":11381,"istically":11382,"una":11383,"cium":11384,"ivals":11385,"Ġtimber":11386,"Ġcomposed":11387,"Ġcompressed":11388,"Ġunre":11389,"Ġunified":11390,"Ġdonated":11391,"Ġexpense":11392,"Ġanytime":11393,"Ġnewborn":11394,"soon":11395,"Ġneedles":11396,"Ġmund":11397,"ibati":11398,"ffiti":11399,"Ġresid":11400,"Ġindirect":11401,"Ġdaylight":11402,"Ġherd":11403,"Ġprefrontal":11404,"acre":11405,"acle":11406,"bee":11407,"Ġinvasion":11408,"Ġbasking":11409,"avors":11410,"Ġrelie":11411,"Ġcrust":11412,"Ġcrushed":11413,"Ġconscience":11414,"Ġproblematic":11415,"Ġentity":11416,"Ġdevelopments":11417,"Ġedinburgh":11418,"Ġquestioning":11419,"Ġskip":11420,"Ġcountryside":11421,"Ġpresents":11422,"version":11423,"Ġconferences":11424,"Ġaddressed":11425,"neum":11426,"Ġeducators":11427,"Ġparap":11428,"mann":11429,"irling":11430,"angelo":11431,"Ġstatements":11432,"Ġnortheast":11433,"Ġretina":11434,"Ġavatar":11435,"Ġlegally":11436,"Ġexpectation":11437,"Ġpotato":11438,"Ġsquared":11439,"Ġbluefin":11440,"Ġcommonly":11441,"Ġeighty":11442,"Ġinclusive":11443,"Ġidentities":11444,"Ġ185":11445,"appro":11446,"Ġdreaming":11447,"Ġtransformations":11448,"Ġslowed":11449,"Ġuran":11450,"Ġurgent":11451,"Ġmultiverse":11452,"Ġfights":11453,"Ġrockets":11454,"Ġwinners":11455,"Ġceos":11456,"Ġprincet":11457,"Ġmeaningless":11458,"Ġcolorful":11459,"Ġaffection":11460,"Ġbeds":11461,"Ġbalanced":11462,"Ġladder":11463,"Ġdivine":11464,"Ġdancer":11465,"Ġcleaning":11466,"Ġbankers":11467,"Ġmathematically":11468,"Ġaccepting":11469,"Ġfleet":11470,"Ġdaddy":11471,"Ġautomatic":11472,"Ġinterviewer":11473,"Ġwillingness":11474,"irable":11475,"Ġgraduates":11476,"Ġindependently":11477,"Ġscanned":11478,"Ġpetro":11479,"Ġdemocrats":11480,"Ġfolds":11481,"Ġaustralian":11482,"Ġrecovered":11483,"Ġjean":11484,"Ġphotosynth":11485,"axis":11486,"Ġtowel":11487,"Ġcrocod":11488,"Ġorgasm":11489,"Ġinfinity":11490,"Ġpilots":11491,"Ġappropri":11492,"Ġswedish":11493,"Ġentrepreneurship":11494,"Ġmiracles":11495,"Ġdisappearing":11496,"Ġholoc":11497,"Ġcerebral":11498,"Ġjulian":11499,"Ġloneliness":11500,"Ġexclusive":11501,"Ġlouder":11502,"Ġstoryteller":11503,"Ġcommodities":11504,"Ġattributes":11505,"Ġwilliams":11506,"Ġcrystal":11507,"Ġadolescence":11508,"Ġwhisper":11509,"Ġtransmitted":11510,"Ġgratitude":11511,"Ġrefrigerator":11512,"Ġroutinely":11513,"friendly":11514,"Ġteszler":11515,"Ġcousins":11516,"Ġeradication":11517,"Ġdegraded":11518,"Ġaggregate":11519,"performing":11520,"Ġannoying":11521,"Ġaltruism":11522,"Ġtemporal":11523,"Ġebay":11524,"Ġapologize":11525,"Ġkiribati":11526,"Ġenvelope":11527,"Ġargentina":11528,"Ġarduino":11529,"Ġdemographics":11530,"width":11531,"Ġdebris":11532,"Ġauditorium":11533,"Ġinjustice":11534,"Ġwavelength":11535,"Ġrhythms":11536,"Ġprinceton":11537,"bone":11538,"di":11539,"dog":11540,"ending":11541,"efficient":11542,"gered":11543,"last":11544,"lical":11545,"mia":11546,"non":11547,"rine":11548,"vascular":11549,"zuel":11550,"Ġtb":11551,"Ġsms":11552,"Ġobe":11553,"Ġoecd":11554,"inas":11555,"inators":11556,"Ġcp":11557,"Ġhood":11558,"Ġhorn":11559,"Ġpneum":11560,"Ġdj":11561,"Ġdug":11562,"aning":11563,"lla":11564,"Ġinqu":11565,"Ġlagos":11566,"arial":11567,"Ġgaining":11568,"Ġgait":11569,"Ġnail":11570,"Ġnsa":11571,"Ġnathan":11572,"ctar":11573,"Ġsting":11574,"Ġstir":11575,"igra":11576,"opian":11577,"opoly":11578,"Ġabnormal":11579,"Ġworship":11580,"Ġnepal":11581,"Ġnectar":11582,"advant":11583,"Ġnotions":11584,"Ġintel":11585,"Ġintend":11586,"Ġplu":11587,"Ġbypass":11588,"eman":11589,"inea":11590,"Ġtheirs":11591,"Ġcompact":11592,"Ġleone":11593,"Ġlewis":11594,"ousy":11595,"Ġmang":11596,"Ġperu":11597,"Ġperse":11598,"aba":11599,"Ġexpose":11600,"Ġfee":11601,"Ġamsterdam":11602,"aching":11603,"Ġnewly":11604,"Ġhappiest":11605,"Ġdiffer":11606,"Ġrover":11607,"Ġimpaired":11608,"Ġdisadvant":11609,"Ġbacks":11610,"Ġcontents":11611,"Ġdesce":11612,"Ġdescend":11613,"berty":11614,"Ġresort":11615,"Ġcommands":11616,"Ġraces":11617,"Ġracial":11618,"Ġemily":11619,"Ġguilt":11620,"Ġguinea":11621,"Ġafterward":11622,"Ġsimon":11623,"Ġbelo":11624,"Ġkeith":11625,"Ġcried":11626,"Ġslam":11627,"Ġ34":11628,"Ġmonet":11629,"Ġstrang":11630,"Ġnatasha":11631,"Ġattraction":11632,"Ġmoma":11633,"Ġbiased":11634,"cycle":11635,"Ġexploded":11636,"Ġcafe":11637,"Ġ47":11638,"Ġconfusion":11639,"Ġsword":11640,"Ġmenu":11641,"Ġsounded":11642,"Ġstandpoint":11643,"Ġenvironmentally":11644,"Ġequipped":11645,"Ġcertainty":11646,"Ġcheet":11647,"Ġtedsters":11648,"Ġcondom":11649,"Ġtrek":11650,"Ġworkshop":11651,"Ġcalcium":11652,"Ġredisco":11653,"Ġbabbage":11654,"Ġsuccesses":11655,"Ġoperator":11656,"Ġsupercond":11657,"Ġerotic":11658,"Ġlimestone":11659,"Ġargu":11660,"Ġtyping":11661,"Ġtempl":11662,"Ġpoorly":11663,"Ġsums":11664,"shine":11665,"Ġslowing":11666,"Ġbarb":11667,"Ġvolumes":11668,"Ġdiego":11669,"Ġfilmmaker":11670,"Ġdevelopmental":11671,"Ġreleases":11672,"Ġreleasing":11673,"Ġbabylon":11674,"Ġphilip":11675,"Ġphilipp":11676,"Ġtracked":11677,"Ġ1991":11678,"Ġrainfall":11679,"lights":11680,"Ġvarieties":11681,"Ġaccountable":11682,"Ġmalnutr":11683,"Ġsequenced":11684,"Ġquantitative":11685,"Ġdiscussed":11686,"Ġstrangely":11687,"Ġvictory":11688,"Ġcelebrating":11689,"Ġliberia":11690,"Ġhalls":11691,"Ġoptimize":11692,"Ġhairs":11693,"Ġcampaigns":11694,"Ġtremendously":11695,"Ġspaceship":11696,"Ġtaxi":11697,"Ġdisplaced":11698,"Ġmichigan":11699,"Ġroman":11700,"Ġdemanding":11701,"flow":11702,"Ġblend":11703,"Ġhorrific":11704,"Ġrequirement":11705,"Ġtourist":11706,"Ġsynthesis":11707,"Ġnovelty":11708,"Ġpursuing":11709,"Ġcategor":11710,"Ġinfinitely":11711,"Ġtickets":11712,"Ġvegetation":11713,"Ġquietly":11714,"Ġmatth":11715,"Ġtaller":11716,"Ġreviews":11717,"engers":11718,"Ġflexibility":11719,"Ġelders":11720,"Ġdeclared":11721,"building":11722,"Ġhammer":11723,"Ġprag":11724,"Ġharvesting":11725,"breaking":11726,"Ġpregnancy":11727,"Ġhawking":11728,"Ġconstitu":11729,"Ġfirmly":11730,"Ġscenarios":11731,"Ġassembled":11732,"Ġimperative":11733,"Ġsacrific":11734,"Ġdisgusting":11735,"Ġguardian":11736,"Ġveterans":11737,"Ġninth":11738,"Ġsatisfied":11739,"Ġevaluate":11740,"Ġcatastrophe":11741,"Ġperpetr":11742,"Ġresponds":11743,"Ġtuber":11744,"Ġmetrics":11745,"Ġtesla":11746,"Ġregenerate":11747,"Ġdistorted":11748,"Ġimprovise":11749,"Ġirrele":11750,"Ġunemployment":11751,"frame":11752,"Ġhobby":11753,"Ġgifts":11754,"Ġobtained":11755,"Ġparameters":11756,"munic":11757,"Ġjewelry":11758,"assembly":11759,"Ġpearl":11760,"Ġimprison":11761,"Ġundergraduate":11762,"Ġmichelangelo":11763,"Ġunstable":11764,"Ġobserver":11765,"Ġlaundry":11766,"Ġcathedral":11767,"Ġvenezuel":11768,"Ġlhc":11769,"Ġunacceptable":11770,"Ġmalnutrition":11771,"15":11772,"600":11773,"aire":11774,"bet":11775,"bro":11776,"bled":11777,"cale":11778,"dled":11779,"eys":11780,"fig":11781,"fur":11782,"found":11783,"gage":11784,"hel":11785,"love":11786,"nas":11787,"pace":11788,"rh":11789,"rations":11790,"tic":11791,"tell":11792,"Ġtink":11793,"Ġtread":11794,"Ġturing":11795,"Ġwilson":11796,"Ġsb":11797,"rer":11798,"rend":11799,"iner":11800,"Ġbun":11801,"Ġinert":11802,"Ġlyn":11803,"educ":11804,"Ġyr":11805,"Ġgag":11806,"Ġngo":11807,"Ġnai":11808,"Ġeager":11809,"Ġren":11810,"verb":11811,"stick":11812,"Ġforty":11813,"Ġdoses":11814,"Ġdoaa":11815,"imony":11816,"these":11817,"Ġkings":11818,"amous":11819,"Ġcanal":11820,"Ġsham":11821,"Ġshipped":11822,"Ġchore":11823,"Ġnoticing":11824,"Ġrs":11825,"Ġrides":11826,"illes":11827,"gebra":11828,"Ġcongr":11829,"ected":11830,"Ġjustify":11831,"Ġspouse":11832,"Ġspike":11833,"Ġwhoa":11834,"Ġsailing":11835,"emi":11836,"Ġcoined":11837,"Ġunin":11838,"ached":11839,"Ġpoop":11840,"Ġimpose":11841,"Ġmuham":11842,"Ġbackpack":11843,"ologies":11844,"Ġacumen":11845,"plete":11846,"Ġideological":11847,"pler":11848,"Ġscope":11849,"Ġfled":11850,"Ġoffsh":11851,"Ġincons":11852,"Ġincub":11853,"obic":11854,"Ġsurplus":11855,"acities":11856,"Ġinviting":11857,"text":11858,"Ġglory":11859,"Ġlasts":11860,"Ġbrainstorm":11861,"Ġgraffiti":11862,"Ġcrank":11863,"Ġdrift":11864,"Ġ360":11865,"Ġfounding":11866,"Ġhug":11867,"Ġmodified":11868,"Ġfinland":11869,"Ġlearns":11870,"Ġdevelopers":11871,"Ġmoms":11872,"geria":11873,"Ġreporter":11874,"Ġskys":11875,"Ġwarren":11876,"Ġregister":11877,"Ġregrets":11878,"ocks":11879,"Ġpassport":11880,"Ġswamp":11881,"Ġsocietal":11882,"Ġreasonably":11883,"Ġglobalized":11884,"Ġlisted":11885,"Ġlabels":11886,"lessness":11887,"Ġgeo":11888,"Ġsecular":11889,"Ġissued":11890,"Ġlandf":11891,"Ġdealt":11892,"Ġthirds":11893,"Ġthirdly":11894,"liers":11895,"Ġsunshine":11896,"Ġvegas":11897,"Ġsteer":11898,"Ġmissions":11899,"Ġ86":11900,"culosis":11901,"Ġpotatoes":11902,"Ġeros":11903,"Ġdirectors":11904,"Ġbarn":11905,"Ġcivilians":11906,"Ġreduces":11907,"Ġexperimenting":11908,"Ġposture":11909,"Ġcirculation":11910,"Ġsearches":11911,"Ġ1993":11912,"Ġnuclei":11913,"Ġblocking":11914,"Ġpuberty":11915,"forced":11916,"Ġaccounting":11917,"Ġfixing":11918,"Ġbanana":11919,"Ġcollaborator":11920,"Ġmisery":11921,"Ġheavens":11922,"ussani":11923,"Ġdistribute":11924,"Ġterminal":11925,"backs":11926,"Ġinnovators":11927,"Ġtitles":11928,"Ġconclusions":11929,"Ġcommerce":11930,"Ġofficers":11931,"Ġvastly":11932,"Ġroutes":11933,"Ġapplause":11934,"Ġromance":11935,"Ġbandwidth":11936,"Ġepile":11937,"Ġadaptive":11938,"Ġtastes":11939,"Ġmaintaining":11940,"Ġfrancis":11941,"Ġdefeat":11942,"Ġacceleration":11943,"Ġgallon":11944,"Ġbattlefield":11945,"Ġpeaks":11946,"Ġmythology":11947,"Ġmosque":11948,"Ġqualified":11949,"Ġruins":11950,"Ġsymptom":11951,"Ġreproductive":11952,"Ġdeclining":11953,"Ġcomparable":11954,"Ġspheres":11955,"Ġphrases":11956,"Ġreferred":11957,"Ġimplanted":11958,"condition":11959,"vania":11960,"Ġrecip":11961,"Ġpools":11962,"Ġrepublican":11963,"Ġdiplomat":11964,"Ġcoordinate":11965,"Ġinitiatives":11966,"Ġnicole":11967,"Ġconservatives":11968,"Ġirrigation":11969,"Ġgamma":11970,"Ġknocked":11971,"Ġdelicate":11972,"Ġimperfect":11973,"Ġlegitim":11974,"Ġninety":11975,"Ġparasites":11976,"Ġglaciers":11977,"Ġrhino":11978,"Ġdelighted":11979,"Ġoblig":11980,"Ġboson":11981,"Ġspawn":11982,"Ġflourish":11983,"Ġassessment":11984,"Ġsurvivor":11985,"Ġweekends":11986,"Ġtemptation":11987,"Ġsummary":11988,"Ġgiussani":11989,"Ġcontradiction":11990,"Ġunemployed":11991,"Ġcigarettes":11992,"Ġredefine":11993,"Ġsubmitted":11994,"Ġsettled":11995,"Ġintrinsic":11996,"ranean":11997,"Ġsovereign":11998,"Ġpitts":11999,"Ġfierce":12000,"Ġreperto":12001,"Ġbosnia":12002,"Ġwreck":12003,"Ġcambodia":12004,"Ġslogan":12005,"Ġcalendar":12006,"intuitive":12007,"Ġincarcer":12008,"Ġcaribbean":12009,"Ġgeorgia":12010,"Ġapollo":12011,"Ġcensorship":12012,"Ġnamibia":12013,"Ġfingertips":12014,"Ġmundane":12015,"Ġtuberculosis":12016,"Ġnairobi":12017,"Ġmuhammad":12018,"800":12019,"brain":12020,"cur":12021,"fu":12022,"fit":12023,"jud":12024,"ko":12025,"lvania":12026,"may":12027,"mail":12028,"phing":12029,"rina":12030,"uate":12031,"Ġtid":12032,"Ġthumbs":12033,"Ġarose":12034,"Ġiq":12035,"Ġtheft":12036,"atts":12037,"Ġbou":12038,"Ġbalk":12039,"Ġbands":12040,"Ġmash":12041,"Ġhij":12042,"Ġpity":12043,"Ġpiv":12044,"onica":12045,"Ġdave":12046,"Ġdash":12047,"Ġduration":12048,"orth":12049,"Ġinade":12050,"Ġlag":12051,"Ġgym":12052,"ican":12053,"icut":12054,"Ġisa":12055,"uset":12056,"otal":12057,"Ġrept":12058,"enter":12059,"Ġforcing":12060,"ths":12061,"Ġkite":12062,"Ġmoist":12063,"Ġsher":12064,"Ġshield":12065,"erers":12066,"Ġchin":12067,"Ġriots":12068,"illions":12069,"ilage":12070,"uled":12071,"Ġsomalia":12072,"Ġorang":12073,"Ġlikewise":12074,"Ġalgebra":12075,"Ġtender":12076,"Ġushah":12077,"Ġspades":12078,"Ġplum":12079,"Ġsabb":12080,"Ġsue":12081,"idepress":12082,"Ġfeared":12083,"Ġaged":12084,"Ġagrees":12085,"achuset":12086,"Ġbucket":12087,"Ġdisconnected":12088,"Ġlobe":12089,"ignant":12090,"ensed":12091,"Ġdesal":12092,"Ġadul":12093,"Ġresolved":12094,"Ġunderp":12095,"Ġundert":12096,"Ġblade":12097,"Ġbrow":12098,"isha":12099,"ictional":12100,"integ":12101,"Ġinterconnect":12102,"Ġgenomics":12103,"Ġhumanities":12104,"Ġgrip":12105,"Ġwrink":12106,"Ġwrites":12107,"Ġsurre":12108,"tends":12109,"Ġglorious":12110,"Ġlasted":12111,"Ġinsur":12112,"Ġmonsoon":12113,"Ġenters":12114,"Ġwaterfall":12115,"Ġplacebo":12116,"Ġedi":12117,"Ġediting":12118,"Ġelbow":12119,"Ġlarvae":12120,"Ġbiote":12121,"Ġbiotechnology":12122,"Ġskies":12123,"Ġprojections":12124,"Ġsingers":12125,"airy":12126,"cripts":12127,"Ġgovernor":12128,"Ġfuneral":12129,"Ġcurator":12130,"Ġconnecticut":12131,"Ġpops":12132,"Ġoppon":12133,"Ġculturally":12134,"ocamp":12135,"Ġshares":12136,"Ġrefined":12137,"Ġtestoster":12138,"Ġpainter":12139,"Ġsoutheast":12140,"Ġconductor":12141,"Ġcaltech":12142,"Ġdragged":12143,"Ġcrawl":12144,"Ġ900":12145,"ucky":12146,"sylvania":12147,"Ġantidepress":12148,"Ġprovince":12149,"Ġidiot":12150,"Ġmillise":12151,"Ġprogrammer":12152,"Ġliteral":12153,"Ġsensible":12154,"Ġshortcut":12155,"Ġbeginnings":12156,"Ġnorthwest":12157,"Ġspecialists":12158,"Ġcooler":12159,"Ġfighters":12160,"Ġphotographers":12161,"Ġrelevance":12162,"Ġsnaps":12163,"Ġreactors":12164,"Ġemergent":12165,"Ġreceiver":12166,"Ġcrispr":12167,"Ġskype":12168,"Ġcartilage":12169,"Ġcleaned":12170,"Ġsanct":12171,"Ġburns":12172,"Ġinfluences":12173,"aurus":12174,"Ġinefficient":12175,"Ġclimbers":12176,"Ġexplorer":12177,"Ġheroic":12178,"Ġemployee":12179,"Ġthrust":12180,"Ġthrive":12181,"Ġtennis":12182,"Ġmatching":12183,"Ġcitizenship":12184,"Ġrandomness":12185,"Ġmultipl":12186,"screen":12187,"Ġshaping":12188,"Ġconditioning":12189,"Ġjohnny":12190,"Ġmammography":12191,"Ġ1975":12192,"Ġblogging":12193,"Ġpreventable":12194,"cellular":12195,"Ġcrowded":12196,"Ġdeserts":12197,"Ġfranklin":12198,"Ġrussians":12199,"Ġtriple":12200,"Ġironically":12201,"Ġmysteries":12202,"Ġbleeding":12203,"Ġprevail":12204,"Ġacadem":12205,"Ġattempted":12206,"Ġdivergence":12207,"Ġnanotechnology":12208,"Ġmerit":12209,"Ġaccelerated":12210,"Ġneurogenesis":12211,"Ġselective":12212,"Ġfalcon":12213,"Ġmyths":12214,"carbon":12215,"ogenic":12216,"Ġnegotiation":12217,"Ġrecycle":12218,"Ġpediatric":12219,"Ġlester":12220,"Ġexecuted":12221,"Ġbicycles":12222,"Ġ1945":12223,"Ġrejection":12224,"Ġhoneybees":12225,"Ġjerry":12226,"Ġguaranteed":12227,"Ġrhet":12228,"Ġhubble":12229,"Ġpalestine":12230,"Ġcrafts":12231,"Ġaspirations":12232,"Ġsulfur":12233,"Ġarrows":12234,"Ġresonance":12235,"Ġcertific":12236,"Ġhippocamp":12237,"Ġdecentral":12238,"Ġshouting":12239,"Ġnegotiations":12240,"Ġspontaneous":12241,"Ġsuspicious":12242,"Ġstereotypes":12243,"Ġreinventing":12244,"product":12245,"Ġvoyage":12246,"Ġincomplete":12247,"Ġpennsylvania":12248,"Ġinexp":12249,"Ġcabinet":12250,"Ġmarvelous":12251,"Ġenzymes":12252,"Ġexplicitly":12253,"Ġgeeks":12254,"Ġinherited":12255,"Ġscotland":12256,"Ġaccompanied":12257,"Ġpesticides":12258,"Ġhamburger":12259,"Ġpoured":12260,"Ġcorridors":12261,"Ġcontagious":12262,"Ġentitled":12263,"Ġbhutan":12264,"Ġavenue":12265,"Ġlegend":12266,"Ġvisceral":12267,"Ġfaculty":12268,"Ġpollutants":12269,"Ġcybercriminals":12270,"Ġunpredictable":12271,"Ġenlightenment":12272,"Ġsapiens":12273,"Ġvelocity":12274,"Ġappropriately":12275,"Ġrepertoire":12276,"achusetts":12277,"Ġtestosterone":12278,"bons":12279,"bility":12280,"din":12281,"fashion":12282,"give":12283,"mble":12284,"master":12285,"nie":12286,"names":12287,"ois":12288,"pres":12289,"sim":12290,"squ":12291,"sens":12292,"tom":12293,"uan":12294,"Ã§":12295,"Ġthunder":12296,"Ġwatt":12297,"Ġsaint":12298,"Ġsessions":12299,"atin":12300,"Ġcer":12301,"Ġcues":12302,"Ġbunk":12303,"Ġbounce":12304,"Ġhoo":12305,"orse":12306,"Ġlol":12307,"Ġlure":12308,"Ġyale":12309,"Ġgaze":12310,"asking":12311,"Ġeg":12312,"Ġbeeth":12313,"otive":12314,"roc":12315,"Ġstap":12316,"Ġstumbled":12317,"idental":12318,"urt":12319,"raz":12320,"oped":12321,"Ġkr":12322,"Ġkam":12323,"Ġseb":12324,"Ġsha":12325,"Ġshir":12326,"Ġshack":12327,"Ġchalk":12328,"Ġallen":12329,"Ġalliance":12330,"ili":12331,"ulu":12332,"Ġexit":12333,"Ġexcer":12334,"Ġexcus":12335,"cko":12336,"inding":12337,"Ġsput":12338,"Ġspine":12339,"Ġcompr":12340,"Ġcompens":12341,"Ġtaiw":12342,"iza":12343,"izona":12344,"arer":12345,"Ġmanages":12346,"Ġunity":12347,"Ġnoises":12348,"Ġfees":12349,"Ġagile":12350,"Ġamph":12351,"Ġclich":12352,"Ġpriest":12353,"Ġprizes":12354,"Ġarter":12355,"Ġarrog":12356,"Ġarizona":12357,"Ġoverse":12358,"Ġroo":12359,"Ġroger":12360,"Ġdisruption":12361,"Ġfirsthand":12362,"ensively":12363,"Ġphd":12364,"centric":12365,"kings":12366,"Ġunderw":12367,"Ġhumming":12368,"Ġblows":12369,"Ġideals":12370,"Ġguate":12371,"Ġsimulated":12372,"wheel":12373,"Ġlastly":12374,"Ġreluct":12375,"Ġkepler":12376,"Ġschooling":12377,"attering":12378,"rospect":12379,"Ġhighways":12380,"Ġmediter":12381,"Ġfinite":12382,"Ġserge":12383,"Ġedited":12384,"Ġcellphone":12385,"Ġevergl":12386,"Ġanimations":12387,"nostics":12388,"Ġorganizational":12389,"Ġwonders":12390,"Ġconfusing":12391,"onto":12392,"Ġcharities":12393,"Ġswar":12394,"Ġswap":12395,"Ġhistories":12396,"Ġdistress":12397,"Ġparalysis":12398,"Ġauto":12399,"Ġwax":12400,"Ġwaking":12401,"apses":12402,"Ġpublication":12403,"Ġsought":12404,"Ġgeological":12405,"Ġfreeze":12406,"ucked":12407,"Ġmassachusetts":12408,"health":12409,"Ġstewards":12410,"Ġdepressing":12411,"Ġradar":12412,"Ġradius":12413,"Ġoperational":12414,"Ġsouthwest":12415,"Ġdigits":12416,"exp":12417,"Ġbarrels":12418,"Ġobsess":12419,"Ġmeasurement":12420,"Ġstrand":12421,"Ġhotter":12422,"Ġdegrad":12423,"Ġstatue":12424,"Ġworthwhile":12425,"govern":12426,"Ġsnap":12427,"Ġultras":12428,"Ġverge":12429,"Ġsamuel":12430,"Ġpancreat":12431,"Ġbalcon":12432,"Ġkilograms":12433,"Ġurbanization":12434,"Ġcontributions":12435,"Ġbroadly":12436,"Ġdrinks":12437,"Ġturbul":12438,"Ġliberals":12439,"Ġstressful":12440,"Ġtoronto":12441,"Ġpetals":12442,"Ġcruise":12443,"Ġappliances":12444,"Ġseasons":12445,"Ġparadise":12446,"Ġjoyful":12447,"Ġdepartments":12448,"Ġprevents":12449,"Ġappreciated":12450,"Ġstreaming":12451,"ounced":12452,"Ġembraced":12453,"Ġdiagnose":12454,"Ġprototyping":12455,"Ġgallons":12456,"Ġhunters":12457,"Ġloaded":12458,"Ġfishery":12459,"Ġpreferred":12460,"Ġnurture":12461,"Ġhypothet":12462,"Ġassigned":12463,"organized":12464,"Ġpraise":12465,"Ġ1940":12466,"Ġmentors":12467,"Ġaquatic":12468,"Ġdistinctive":12469,"balance":12470,"Ġvibrating":12471,"Ġgeometric":12472,"listen":12473,"Ġrailway":12474,"Ġveterin":12475,"Ġsatisfy":12476,"Ġsatisfying":12477,"Ġastronomical":12478,"Ġathletic":12479,"Ġrelaxed":12480,"Ġpuppet":12481,"Ġautomobiles":12482,"Ġneurological":12483,"conflict":12484,"Ġnegotiating":12485,"Ġinsisted":12486,"Ġaddicts":12487,"Ġindoor":12488,"Ġsuburbs":12489,"Ġnerd":12490,"chemical":12491,"Ġstrictly":12492,"Ġexecutive":12493,"Ġbruce":12494,"Ġschedule":12495,"Ġjuggling":12496,"Ġerectus":12497,"Ġkyoto":12498,"Ġnonviolent":12499,"Ġprioritize":12500,"Ġozone":12501,"Ġunintended":12502,"Ġepiphan":12503,"Ġlithium":12504,"Ġfundraising":12505,"Ġnurturing":12506,"Ġmetropolitan":12507,"Ġambassador":12508,"Ġreclaim":12509,"Ġnorwegian":12510,"Ġholocaust":12511,"Ġcongrat":12512,"Ġpittsburgh":12513,"Ġushahidi":12514,"Ġbeethoven":12515,"Ġmediterranean":12516,"Ġpancreatic":12517,"400":12518,"bands":12519,"eur":12520,"first":12521,"hs":12522,"hops":12523,"lord":12524,"lined":12525,"mala":12526,"pot":12527,"pol":12528,"sight":12529,"some":12530,"tles":12531,"was":12532,"wire":12533,"wired":12534,"yo":12535,"Ġtou":12536,"Ġtig":12537,"Ġtect":12538,"Ġtilt":12539,"Ġao":12540,"Ġaur":12541,"Ġicons":12542,"Ġwage":12543,"Ġwages":12544,"Ġwounds":12545,"rection":12546,"Ġove":12547,"eros":12548,"Ġbach":12549,"Ġbac":12550,"Ġbah":12551,"Ġbumps":12552,"Ġbumble":12553,"Ġmoth":12554,"Ġhers":12555,"Ġhitch":12556,"Ġhmm":12557,"energy":12558,"Ġpist":12559,"Ġpup":12560,"Ġfg":12561,"Ġfictional":12562,"Ġdall":12563,"Ġdian":12564,"Ġdyl":12565,"Ġlined":12566,"Ġgur":12567,"Ġgord":12568,"Ġwets":12569,"Ġwhit":12570,"Ġwhip":12571,"leans":12572,"uten":12573,"otent":12574,"etches":12575,"Ġrear":12576,"style":12577,"chs":12578,"Ġwasting":12579,"Ġdod":12580,"Ġumb":12581,"Ġucla":12582,"Ġgoats":12583,"them":12584,"Ġwithdra":12585,"Ġabu":12586,"Ġjc":12587,"olith":12588,"eren":12589,"Ġcomed":12590,"Ġrou":12591,"Ġranging":12592,"Ġorleans":12593,"Ġdeer":12594,"Ġpeps":12595,"ppy":12596,"esteem":12597,"Ġintangible":12598,"Ġspong":12599,"ieval":12600,"Ġplun":12601,"Ġcompat":12602,"Ġcompli":12603,"acks":12604,"Ġpervasive":12605,"Ġunimag":12606,"Ġquo":12607,"Ġquotes":12608,"respect":12609,"Ġfeas":12610,"Ġtwent":12611,"Ġpartial":12612,"Ġloops":12613,"ateral":12614,"Ġadja":12615,"Ġinterrog":12616,"Ġscare":12617,"Ġramp":12618,"Ġoffensive":12619,"obs":12620,"Ġwrit":12621,"Ġappet":12622,"Ġinstability":12623,"Ġinvaded":12624,"white":12625,"Ġlasting":12626,"Ġmeanings":12627,"Ġgrabs":12628,"Ġcrashing":12629,"Ġtransf":12630,"Ġcollider":12631,"Ġimaginary":12632,"Ġkidneys":12633,"weeney":12634,"Ġministers":12635,"Ġextensive":12636,"Ġbikes":12637,"Ġsketches":12638,"Ġ53":12639,"Ġ54":12640,"Ġ57":12641,"Ġcamels":12642,"Ġaddicted":12643,"Ġswam":12644,"Ġprotests":12645,"Ġvalued":12646,"ocated":12647,"Ġdefines":12648,"Ġcontinually":12649,"Ġcosta":12650,"Ġsecre":12651,"Ġlawrence":12652,"Ġapproval":12653,"Ġposes":12654,"Ġfrees":12655,"Ġfreud":12656,"Ġwallet":12657,"Ġidentifying":12658,"Ġ187":12659,"Ġweekly":12660,"Ġsurprises":12661,"should":12662,"Ġpenic":12663,"Ġresponsive":12664,"Ġcopern":12665,"Ġsimilarities":12666,"borne":12667,"Ġcombinations":12668,"Ġhotels":12669,"Ġcurrents":12670,"Ġreplied":12671,"Ġtextile":12672,"Ġsuggestions":12673,"Ġcompetitors":12674,"Ġdoug":12675,"Ġpropulsion":12676,"strong":12677,"Ġ1996":12678,"Ġcloset":12679,"Ġverbal":12680,"Ġportable":12681,"Ġsynapses":12682,"Ġmarri":12683,"Ġcontexts":12684,"Ġchecklist":12685,"Ġmeantime":12686,"Ġthreaten":12687,"Ġwilder":12688,"Ġappearing":12689,"Ġ2013":12690,"Ġcardio":12691,"Ġquantity":12692,"Ġmistaken":12693,"Ġkilos":12694,"Ġhomosexual":12695,"Ġsusan":12696,"Ġscripts":12697,"Ġexplorers":12698,"Ġdeny":12699,"Ġdenied":12700,"Ġexhilar":12701,"Ġdarfur":12702,"Ġexpressing":12703,"Ġaustria":12704,"iotic":12705,"Ġsurroundings":12706,"Ġinventors":12707,"Ġfatty":12708,"ibera":12709,"Ġiraqi":12710,"Ġmetaphors":12711,"Ġbackgrounds":12712,"Ġcontacts":12713,"Ġcognition":12714,"Ġnotebook":12715,"Ġavoiding":12716,"Ġepidemics":12717,"Ġepidemi":12718,"Ġmigraine":12719,"Ġrequirements":12720,"Ġtourism":12721,"Ġindication":12722,"Ġclicks":12723,"Ġattachment":12724,"Ġmelody":12725,"Ġcontracts":12726,"Ġbeaches":12727,"Ġdarwinian":12728,"Ġimplicit":12729,"Ġbulk":12730,"Ġshuttle":12731,"Ġsettings":12732,"Ġillustration":12733,"Ġillustrates":12734,"Ġshallow":12735,"Ġcourageous":12736,"Ġpermanently":12737,"Ġtriggered":12738,"Ġvenice":12739,"Ġexcellence":12740,"Ġdrilling":12741,"Ġwhistling":12742,"Ġunsustainable":12743,"keeping":12744,"Ġinstincts":12745,"Ġremembers":12746,"writing":12747,"Ġmega":12748,"Ġneutr":12749,"Ġscholar":12750,"Ġtropics":12751,"Ġattribute":12752,"Ġmargins":12753,"Ġaesthetics":12754,"Ġvolcano":12755,"Ġvolcanic":12756,"Ġconfirmed":12757,"Ġcomposer":12758,"Ġintrigued":12759,"Ġeradicate":12760,"Ġrabbi":12761,"Ġcorresponding":12762,"Ġannoy":12763,"abytes":12764,"Ġoverlap":12765,"Ġbattles":12766,"growing":12767,"Ġencryption":12768,"Ġrectangle":12769,"Ġrendering":12770,"Ġwolfram":12771,"Ġecho":12772,"Ġexecutives":12773,"Ġambiguity":12774,"Ġtreasure":12775,"Ġkatrina":12776,"Ġtoxins":12777,"Ġbureaucr":12778,"Ġunderestimate":12779,"Ġconspiracy":12780,"women":12781,"Ġpentagon":12782,"Ġlifelong":12783,"Ġregistered":12784,"Ġtunisia":12785,"Ġtriangles":12786,"ithmetic":12787,"massive":12788,"Ġbmw":12789,"Ġexquisite":12790,"Ġcomprehensive":12791,"Ġimprobable":12792,"Ġsiberia":12793,"resistant":12794,"Ġpneumonia":12795,"Ġbeloved":12796,"Ġirrelevant":12797,"Ġvenezuela":12798,"Ġinconsist":12799,"Ġerosion":12800,"Ġhippocampus":12801,"Ġexcuses":12802,"Ġtaiwan":12803,"Ġdylan":12804,"Ġunimagin":12805,"Ġadjacent":12806,"bas":12807,"fund":12808,"giving":12809,"garet":12810,"home":12811,"high":12812,"hmm":12813,"houses":12814,"ju":12815,"kers":12816,"mach":12817,"pit":12818,"sen":12819,"sis":12820,"six":12821,"tion":12822,"vana":12823,"wa":12824,"wandering":12825,"zo":12826,"Ġ+":12827,"Ġaus":12828,"Ġwil":12829,"Ġwander":12830,"Ġwolves":12831,"Ġsi":12832,"Ġsr":12833,"Ġoreg":12834,"atus":12835,"atical":12836,"Ġcc":12837,"Ġcue":12838,"Ġmcc":12839,"Ġmerm":12840,"Ġhg":12841,"Ġhats":12842,"ingo":12843,"Ġpine":12844,"Ġpets":12845,"ller":12846,"arin":12847,"Ġgru":12848,"Ġgira":12849,"Ġnud":12850,"Ġnba":12851,"omon":12852,"aser":12853,"Ġeag":12854,"Ġreagan":12855,"verbal":12856,"alling":12857,"Ġstated":12858,"idity":12859,"Ġheb":12860,"Ġhect":12861,"Ġanch":12862,"Ġdoct":12863,"imic":12864,"then":12865,"Ġkibera":12866,"Ġabused":12867,"Ġworries":12868,"ulates":12869,"Ġmyst":12870,"Ġprol":12871,"Ġpee":12872,"Ġvapor":12873,"Ġspra":12874,"Ġtrump":12875,"Ġsaves":12876,"Ġenvy":12877,"Ġsug":12878,"ourced":12879,"Ġcompuls":12880,"astian":12881,"Ġunne":12882,"Ġdonation":12883,"Ġquiz":12884,"Ġevident":12885,"Ġamput":12886,"Ġamino":12887,"Ġclicking":12888,"Ġarises":12889,"Ġpoets":12890,"Ġneedless":12891,"Ġovert":12892,"Ġoverlook":12893,"Ġbund":12894,"Ġrooted":12895,"Ġbackward":12896,"deg":12897,"Ġsyd":12898,"Ġblad":12899,"Ġlett":12900,"Ġintermedi":12901,"Ġinterdepend":12902,"Ġprejud":12903,"Ġscuba":12904,"Ġflown":12905,"resses":12906,"Ġsmiles":12907,"Ġgrief":12908,"Ġtrait":12909,"Ġtraff":12910,"Ġdecomp":12911,"Ġowns":12912,"Ġboiling":12913,"type":12914,"Ġcreators":12915,"Ġreli":12916,"Ġcollar":12917,"Ġmonopoly":12918,"Ġlazy":12919,"Ġpoland":12920,"Ġnumb":12921,"Ġmedieval":12922,"Ġcentr":12923,"Ġcentimeter":12924,"Ġdeveloper":12925,"Ġlightweight":12926,"Ġelites":12927,"Ġbookst":12928,"Ġcairo":12929,"Ġhandy":12930,"Ġinternationally":12931,"Ġpassengers":12932,"Ġpopped":12933,"Ġeaster":12934,"Ġeducating":12935,"Ġforeground":12936,"otto":12937,"Ġsouls":12938,"Ġgeese":12939,"Ġfiles":12940,"Ġmustard":12941,"Ġ64":12942,"Ġretrie":12943,"Ġ96":12944,"Ġ97":12945,"Ġmessaging":12946,"Ġrisd":12947,"Ġvending":12948,"Ġmargaret":12949,"Ġfocuses":12950,"Ġdelta":12951,"Ġlimitation":12952,"Ġimproves":12953,"Ġ1800":12954,"Ġgrounded":12955,"Ġtransforms":12956,"shot":12957,"shirt":12958,"Ġurine":12959,"Ġrequests":12960,"Ġbarack":12961,"Ġarmor":12962,"ermore":12963,"Ġballoons":12964,"Ġpromotion":12965,"ometers":12966,"Ġperiodic":12967,"Ġvariability":12968,"Ġcrosses":12969,"Ġstarvation":12970,"Ġrepresentatives":12971,"Ġspirits":12972,"Ġthreatening":12973,"Ġbanker":12974,"Ġbanjo":12975,"Ġmagnets":12976,"Ġ110":12977,"Ġdetectors":12978,"Ġpackaging":12979,"Ġgerms":12980,"Ġcooked":12981,"Ġthrows":12982,"Ġfraud":12983,"Ġachievements":12984,"Ġcalculator":12985,"Ġhomin":12986,"Ġ1989":12987,"Ġinterviewing":12988,"Ġemployed":12989,"Ġturb":12990,"Ġliberation":12991,"Ġenjoyable":12992,"Ġhallway":12993,"belief":12994,"Ġindustrialized":12995,"Ġoptimal":12996,"Ġkenyan":12997,"Ġswitches":12998,"Ġreflecting":12999,"Ġjeans":13000,"Ġprevented":13001,"Ġacademics":13002,"Ġadvantages":13003,"Ġancestry":13004,"Ġcounterpart":13005,"Ġcounterintuitive":13006,"Ġlinux":13007,"linear":13008,"Ġaxes":13009,"Ġmerch":13010,"ambia":13011,"Ġinvestigating":13012,"Ġstocks":13013,"Ġpaulo":13014,"Ġantibodies":13015,"Ġslaughter":13016,"Ġcartoonist":13017,"Ġmiracul":13018,"Ġringing":13019,"Ġexecution":13020,"Ġoccupied":13021,"Ġacquis":13022,"Ġ1968":13023,"Ġadventures":13024,"Ġpinpoint":13025,"Ġcriticism":13026,"Ġipad":13027,"Ġjersey":13028,"Ġlenses":13029,"Ġshells":13030,"Ġaquarium":13031,"Ġweighed":13032,"Ġinjection":13033,"Ġeliminated":13034,"Ġcarrot":13035,"Ġtweets":13036,"Ġmanufacturer":13037,"Ġrecruited":13038,"Ġsettlement":13039,"Ġolive":13040,"Ġcrystall":13041,"Ġmanifestation":13042,"Ġtutor":13043,"Ġcertified":13044,"Ġscottish":13045,"Ġsynthesize":13046,"Ġrestricted":13047,"Ġshrinking":13048,"Ġrabbits":13049,"Ġindoors":13050,"Ġscholarship":13051,"Ġarrangement":13052,"Ġdrowning":13053,"Ġgermans":13054,"Ġamateurs":13055,"Ġtrailer":13056,"Ġintrinsically":13057,"Ġpirate":13058,"Ġenzyme":13059,"Ġorphanage":13060,"Ġorbiting":13061,"Ġexhausted":13062,"Ġneuroscientists":13063,"Ġbioluminescence":13064,"Ġcurtain":13065,"Ġcultivate":13066,"Ġingenuity":13067,"Ġpresumably":13068,"Ġcrawling":13069,"Ġmeadow":13070,"Ġswallowed":13071,"Ġthylacine":13072,"Ġthroat":13073,"Ġtortured":13074,"Ġsterile":13075,"Ġimaginative":13076,"jeopardy":13077,"Ġrehears":13078,"Ġvinci":13079,"hello":13080,"Ġhimalayas":13081,"Ġimprovisation":13082,"Ġrespiratory":13083,"appropr":13084,"Ġuranium":13085,"Ġoffshore":13086,"Ġinadequate":13087,"Ġexcerpt":13088,"Ġsputnik":13089,"Ġrooft":13090,"Ġguatemala":13091,"Ġeverglades":13092,"Ġcardiovascular":13093,"Ġoregon":13094,"Ġunnecess":13095,"-'":13096,"aic":13097,"ben":13098,"bucks":13099,"gon":13100,"hill":13101,"mob":13102,"pop":13103,"Ã³":13104,"Ġtad":13105,"Ġtales":13106,"Ġtipping":13107,"Ġaar":13108,"Ġaust":13109,"Ġike":13110,"Ġwiz":13111,"Ġwiring":13112,"Ġsj":13113,"Ġsank":13114,"Ġsony":13115,"Ġsri":13116,"Ġcasc":13117,"Ġbog":13118,"Ġbass":13119,"Ġbak":13120,"Ġmite":13121,"Ġmism":13122,"Ġpope":13123,"Ġtops":13124,"only":13125,"Ġfm":13126,"Ġft":13127,"Ġfuse":13128,"Ġfade":13129,"Ġfission":13130,"Ġgum":13131,"vet":13132,"Ġbeep":13133,"Ġreconnect":13134,"Ġonc":13135,"stal":13136,"igate":13137,"Ġheel":13138,"imated":13139,"Ġuber":13140,"Ġlivel":13141,"opsy":13142,"Ġkim":13143,"Ġkitt":13144,"Ġseiz":13145,"Ġsealed":13146,"Ġcane":13147,"Ġasym":13148,"Ġjury":13149,"Ġjacqu":13150,"ols":13151,"olis":13152,"Ġcoma":13153,"Ġrl":13154,"Ġrus":13155,"illin":13156,"anting":13157,"ilia":13158,"Ġmagg":13159,"Ġalf":13160,"iflu":13161,"industrial":13162,"Ġintest":13163,"Ġspear":13164,"Ġspills":13165,"ods":13166,"Ġtrunk":13167,"Ġups":13168,"Ġupwards":13169,"Ġplacing":13170,"ivable":13171,"Ġcoherent":13172,"Ġtails":13173,"Ġtagging":13174,"Ġleaks":13175,"izable":13176,"Ġunve":13177,"Ġdonations":13178,"Ġquar":13179,"abad":13180,"Ġexpands":13181,"Ġagnes":13182,"Ġclap":13183,"Ġrightly":13184,"Ġpries":13185,"Ġarithmetic":13186,"Ġpoetic":13187,"Ġbuys":13188,"owned":13189,"assy":13190,"Ġphthal":13191,"Ġdescriptions":13192,"Ġresh":13193,"coal":13194,"Ġindul":13195,"phal":13196,"Ġdifferentiate":13197,"Ġrealizes":13198,"arks":13199,"Ġflop":13200,"Ġcarcin":13201,"Ġhumane":13202,"Ġappar":13203,"Ġapprent":13204,"Ġinvade":13205,"Ġinvasive":13206,"fts":13207,"tebr":13208,"aven":13209,"Ġpersonnel":13210,"Ġkelly":13211,"Ġexams":13212,"Ġmonument":13213,"Ġstorycor":13214,"Ġpoles":13215,"Ġcentimeters":13216,"Ġlearner":13217,"Ġdevelops":13218,"Ġmineral":13219,"Ġ58":13220,"Ġ59":13221,"Ġsuburb":13222,"Ġaccidental":13223,"Ġregimes":13224,"prot":13225,"Ġcharcoal":13226,"Ġswear":13227,"Ġmonthly":13228,"Ġpopping":13229,"Ġsigning":13230,"ographing":13231,"Ġresemble":13232,"Ġparagra":13233,"ocate":13234,"ashes":13235,"Ġuntouch":13236,"Ġcostly":13237,"Ġgecko":13238,"Ġdevised":13239,"Ġfriendships":13240,"Ġauditory":13241,"Ġmicrow":13242,"Ġfollowers":13243,"Ġretired":13244,"Ġveil":13245,"Ġstein":13246,"Ġmarx":13247,"Ġmarcus":13248,"Ġ82":13249,"Ġliterary":13250,"Ġvaried":13251,"rett":13252,"Ġpresentations":13253,"Ġrichness":13254,"Ġstrongest":13255,"Ġversa":13256,"ospher":13257,"Ġtelephones":13258,"Ġpolls":13259,"Ġestrogen":13260,"Ġpolicing":13261,"Ġreacting":13262,"Ġecst":13263,"Ġfairy":13264,"Ġdining":13265,"Ġtrusting":13266,"Ġtrustworth":13267,"Ġfunctionality":13268,"Ġastounding":13269,"Ġtablet":13270,"Ġsync":13271,"Ġstarbucks":13272,"Ġprogressive":13273,"Ġtranslates":13274,"Ġrespects":13275,"Ġsecretly":13276,"Ġsuscept":13277,"Ġreminder":13278,"Ġautomated":13279,"Ġautomotive":13280,"Ġtunas":13281,"Ġmethodology":13282,"Ġdarpa":13283,"Ġsimplistic":13284,"Ġ1973":13285,"Ġdesertification":13286,"Ġhistorian":13287,"Ġmoses":13288,"consum":13289,"Ġnovels":13290,"Ġfrequent":13291,"Ġmurray":13292,"Ġstockp":13293,"Ġimplication":13294,"Ġcomplained":13295,"Ġpoorer":13296,"Ġsenate":13297,"Ġjanitor":13298,"Ġjacket":13299,"Ġcubic":13300,"Ġlesbian":13301,"Ġunexpl":13302,"Ġcommandments":13303,"Ġminimize":13304,"Ġathlete":13305,"organizing":13306,"saving":13307,"Ġinputs":13308,"Ġaugmented":13309,"Ġabsorbed":13310,"Ġdatabases":13311,"Ġjulia":13312,"Ġrushed":13313,"Ġignorant":13314,"Ġtransferred":13315,"Ġanticipated":13316,"Ġconstrained":13317,"Ġflooding":13318,"Ġstereo":13319,"Ġbronze":13320,"Ġelevated":13321,"Ġmaximize":13322,"Ġconvenience":13323,"Ġaerial":13324,"Ġfulfilling":13325,"Ġdumped":13326,"Ġextremes":13327,"Ġchristianity":13328,"Ġcliffs":13329,"Ġintegrating":13330,"Ġhierarch":13331,"Ġskeptic":13332,"Ġaspiration":13333,"Ġnickn":13334,"Ġpioneer":13335,"Ġfractal":13336,"Ġstunts":13337,"Ġhindu":13338,"Ġtroubled":13339,"Ġdrowned":13340,"Ġuploaded":13341,"Ġpreferences":13342,"Ġstimulus":13343,"discipl":13344,"Ġtamiflu":13345,"Ġdunes":13346,"Ġguidance":13347,"Ġhumiliation":13348,"Ġbioluminescent":13349,"Ġzipcar":13350,"Ġincorporate":13351,"Ġappealing":13352,"Ġfluctuations":13353,"Ġsympathy":13354,"Ġjunior":13355,"Ġacknowledged":13356,"Ġinsecure":13357,"Ġoutrageous":13358,"positive":13359,"Ġmunicip":13360,"Ġtodd":13361,"Ġfavelas":13362,"Ġsuperhero":13363,"Ġfounder":13364,"Ġfurthermore":13365,"Ġlemon":13366,"Ġhudson":13367,"Ġgossip":13368,"igrade":13369,"munications":13370,"Ġskyscra":13371,"Ġbiotech":13372,"Ġdecentralized":13373,"Ġoverseas":13374,"Ġultrasound":13375,"Ġhypothetical":13376,"Ġdallas":13377,"Ġpenicillin":13378,"Ġmarriages":13379,"imicry":13380,"degree":13381,"Ġsydney":13382,"Ġstorycorps":13383,"Ġparagraph":13384,"18":13385,"bear":13386,"bound":13387,"bell":13388,"fre":13389,"fif":13390,"fting":13391,"gher":13392,"hou":13393,"hire":13394,"ikes":13395,"ihood":13396,"ji":13397,"kill":13398,"pical":13399,"pable":13400,"pons":13401,"rust":13402,"uci":13403,"watch":13404,"western":13405,"Ã£":13406,"Ġtense":13407,"Ġale":13408,"Ġauction":13409,"Ġivan":13410,"atized":13411,"ndor":13412,"Ġcel":13413,"Ġcia":13414,"Ġcern":13415,"Ġbc":13416,"Ġbil":13417,"Ġhunch":13418,"Ġpads":13419,"Ġfount":13420,"Ġdangers":13421,"esters":13422,"Ġinh":13423,"Ġlent":13424,"Ġlava":13425,"arity":13426,"Ġgib":13427,"Ġnik":13428,"Ġnests":13429,"Ġnih":13430,"omin":13431,"alities":13432,"usively":13433,"otr":13434,"etically":13435,"Ġreun":13436,"Ġrebel":13437,"Ġrendered":13438,"vering":13439,"Ġsober":13440,"rove":13441,"rovir":13442,"Ġstakes":13443,"sts":13444,"chet":13445,"Ġheated":13446,"kel":13447,"Ġforaging":13448,"Ġdodo":13449,"imental":13450,"Ġlied":13451,"oping":13452,"Ġabusive":13453,"Ġmola":13454,"Ġjl":13455,"Ġneph":13456,"Ġmell":13457,"Ġchuck":13458,"Ġnotation":13459,"Ġripp":13460,"Ġrift":13461,"Ġripped":13462,"Ġexx":13463,"Ġviv":13464,"Ġvicious":13465,"Ġoutward":13466,"Ġtrillions":13467,"Ġbyproduct":13468,"ogene":13469,"Ġimf":13470,"eling":13471,"elve":13472,"Ġhadron":13473,"Ġtimeline":13474,"Ġencl":13475,"astically":13476,"Ġunple":13477,"Ġunthink":13478,"Ġunaware":13479,"abe":13480,"resolution":13481,"Ġexpend":13482,"Ġtwelve":13483,"Ġclut":13484,"Ġclaws":13485,"Ġclapping":13486,"ifferent":13487,"Ġpristine":13488,"iper":13489,"social":13490,"Ġrode":13491,"Ġimpat":13492,"ologic":13493,"Ġsyring":13494,"Ġunderway":13495,"cock":13496,"Ġideo":13497,"Ġrav":13498,"Ġflame":13499,"Ġincomes":13500,"Ġgenital":13501,"obi":13502,"Ġcarn":13503,"iously":13504,"Ġbasin":13505,"Ġinsign":13506,"Ġslot":13507,"Ġslices":13508,"Ġfounders":13509,"Ġpolite":13510,"Ġcommunist":13511,"Ġquestioned":13512,"Ġbiode":13513,"Ġbehaving":13514,"Ġreads":13515,"Ġreply":13516,"Ġcapacities":13517,"Ġwarn":13518,"Ġgenerator":13519,"Ġcorp":13520,"Ġpreservation":13521,"Ġaccused":13522,"Ġfung":13523,"Ġfuck":13524,"Ġcurved":13525,"Ġvalve":13526,"ocative":13527,"Ġmilit":13528,"Ġpayment":13529,"Ġpayload":13530,"Ġviewers":13531,"Ġretain":13532,"Ġretrospect":13533,"Ġarchives":13534,"Ġproviders":13535,"Ġsteak":13536,"Ġsteering":13537,"Ġmissile":13538,"Ġmaria":13539,"Ġnorman":13540,"Ġbrakes":13541,"Ġpredatory":13542,"Ġdifficulties":13543,"Ġesp":13544,"Ġpotter":13545,"Ġsupercomputer":13546,"Ġextraction":13547,"Ġshortage":13548,"Ġerase":13549,"Ġeuropeans":13550,"Ġgrandma":13551,"Ġperfection":13552,"Ġapoc":13553,"Ġembassy":13554,"Ġcyn":13555,"sharing":13556,"Ġbillboard":13557,"Ġvolat":13558,"Ġcease":13559,"Ġcritics":13560,"Ġredund":13561,"Ġcombining":13562,"Ġcolorado":13563,"Ġmounted":13564,"Ġpostc":13565,"Ġpollinators":13566,"Ġexceptional":13567,"Ġavailability":13568,"Ġconception":13569,"Ġparked":13570,"awa":13571,"Ġfairness":13572,"Ġleds":13573,"Ġsmartest":13574,"Ġveronica":13575,"Ġportland":13576,"Ġprimal":13577,"Ġhitler":13578,"Ġvirtues":13579,"Ġreceives":13580,"Ġbald":13581,"Ġbalancing":13582,"Ġsupposedly":13583,"Ġdrople":13584,"Ġdiagnostics":13585,"Ġmiscon":13586,"Ġcentralized":13587,"Ġ1985":13588,"Ġ1986":13589,"Ġarabs":13590,"Ġemailed":13591,"Ġturtle":13592,"Ġmutually":13593,"Ġodys":13594,"Ġdepended":13595,"Ġofficially":13596,"Ġtensions":13597,"Ġ1976":13598,"Ġswitching":13599,"Ġinventing":13600,"Ġhacked":13601,"Ġbreasts":13602,"Ġcommercials":13603,"Ġepic":13604,"Ġmotorcycle":13605,"Ġdisposal":13606,"Ġrevealing":13607,"versely":13608,"Ġrotating":13609,"Ġcrashed":13610,"Ġmerc":13611,"Ġfingerprint":13612,"Ġfellows":13613,"Ġbelonging":13614,"Ġbono":13615,"Ġrubble":13616,"Ġreconst":13617,"Ġbeekeepers":13618,"Ġcolonial":13619,"Ġpakistani":13620,"Ġnavy":13621,"Ġcharts":13622,"Ġclaimed":13623,"Ġcastle":13624,"Ġruin":13625,"Ġextracted":13626,"Ġlesters":13627,"Ġhypotheses":13628,"Ġaffirm":13629,"Ġestablishment":13630,"safe":13631,"Ġcriticized":13632,
[...]
